<unk>	0
<s>	0
</s>	0
<pad>	0
<user>	0
<assistant>	0
<system>	0
<0x00>	0
<0x01>	0
<0x02>	0
<0x03>	0
<0x04>	0
<0x05>	0
<0x06>	0
<0x07>	0
<0x08>	0
<0x09>	0
<0x0A>	0
<0x0B>	0
<0x0C>	0
<0x0D>	0
<0x0E>	0
<0x0F>	0
<0x10>	0
<0x11>	0
<0x12>	0
<0x13>	0
<0x14>	0
<0x15>	0
<0x16>	0
<0x17>	0
<0x18>	0
<0x19>	0
<0x1A>	0
<0x1B>	0
<0x1C>	0
<0x1D>	0
<0x1E>	0
<0x1F>	0
<0x20>	0
<0x21>	0
<0x22>	0
<0x23>	0
<0x24>	0
<0x25>	0
<0x26>	0
<0x27>	0
<0x28>	0
<0x29>	0
<0x2A>	0
<0x2B>	0
<0x2C>	0
<0x2D>	0
<0x2E>	0
<0x2F>	0
<0x30>	0
<0x31>	0
<0x32>	0
<0x33>	0
<0x34>	0
<0x35>	0
<0x36>	0
<0x37>	0
<0x38>	0
<0x39>	0
<0x3A>	0
<0x3B>	0
<0x3C>	0
<0x3D>	0
<0x3E>	0
<0x3F>	0
<0x40>	0
<0x41>	0
<0x42>	0
<0x43>	0
<0x44>	0
<0x45>	0
<0x46>	0
<0x47>	0
<0x48>	0
<0x49>	0
<0x4A>	0
<0x4B>	0
<0x4C>	0
<0x4D>	0
<0x4E>	0
<0x4F>	0
<0x50>	0
<0x51>	0
<0x52>	0
<0x53>	0
<0x54>	0
<0x55>	0
<0x56>	0
<0x57>	0
<0x58>	0
<0x59>	0
<0x5A>	0
<0x5B>	0
<0x5C>	0
<0x5D>	0
<0x5E>	0
<0x5F>	0
<0x60>	0
<0x61>	0
<0x62>	0
<0x63>	0
<0x64>	0
<0x65>	0
<0x66>	0
<0x67>	0
<0x68>	0
<0x69>	0
<0x6A>	0
<0x6B>	0
<0x6C>	0
<0x6D>	0
<0x6E>	0
<0x6F>	0
<0x70>	0
<0x71>	0
<0x72>	0
<0x73>	0
<0x74>	0
<0x75>	0
<0x76>	0
<0x77>	0
<0x78>	0
<0x79>	0
<0x7A>	0
<0x7B>	0
<0x7C>	0
<0x7D>	0
<0x7E>	0
<0x7F>	0
<0x80>	0
<0x81>	0
<0x82>	0
<0x83>	0
<0x84>	0
<0x85>	0
<0x86>	0
<0x87>	0
<0x88>	0
<0x89>	0
<0x8A>	0
<0x8B>	0
<0x8C>	0
<0x8D>	0
<0x8E>	0
<0x8F>	0
<0x90>	0
<0x91>	0
<0x92>	0
<0x93>	0
<0x94>	0
<0x95>	0
<0x96>	0
<0x97>	0
<0x98>	0
<0x99>	0
<0x9A>	0
<0x9B>	0
<0x9C>	0
<0x9D>	0
<0x9E>	0
<0x9F>	0
<0xA0>	0
<0xA1>	0
<0xA2>	0
<0xA3>	0
<0xA4>	0
<0xA5>	0
<0xA6>	0
<0xA7>	0
<0xA8>	0
<0xA9>	0
<0xAA>	0
<0xAB>	0
<0xAC>	0
<0xAD>	0
<0xAE>	0
<0xAF>	0
<0xB0>	0
<0xB1>	0
<0xB2>	0
<0xB3>	0
<0xB4>	0
<0xB5>	0
<0xB6>	0
<0xB7>	0
<0xB8>	0
<0xB9>	0
<0xBA>	0
<0xBB>	0
<0xBC>	0
<0xBD>	0
<0xBE>	0
<0xBF>	0
<0xC0>	0
<0xC1>	0
<0xC2>	0
<0xC3>	0
<0xC4>	0
<0xC5>	0
<0xC6>	0
<0xC7>	0
<0xC8>	0
<0xC9>	0
<0xCA>	0
<0xCB>	0
<0xCC>	0
<0xCD>	0
<0xCE>	0
<0xCF>	0
<0xD0>	0
<0xD1>	0
<0xD2>	0
<0xD3>	0
<0xD4>	0
<0xD5>	0
<0xD6>	0
<0xD7>	0
<0xD8>	0
<0xD9>	0
<0xDA>	0
<0xDB>	0
<0xDC>	0
<0xDD>	0
<0xDE>	0
<0xDF>	0
<0xE0>	0
<0xE1>	0
<0xE2>	0
<0xE3>	0
<0xE4>	0
<0xE5>	0
<0xE6>	0
<0xE7>	0
<0xE8>	0
<0xE9>	0
<0xEA>	0
<0xEB>	0
<0xEC>	0
<0xED>	0
<0xEE>	0
<0xEF>	0
<0xF0>	0
<0xF1>	0
<0xF2>	0
<0xF3>	0
<0xF4>	0
<0xF5>	0
<0xF6>	0
<0xF7>	0
<0xF8>	0
<0xF9>	0
<0xFA>	0
<0xFB>	0
<0xFC>	0
<0xFD>	0
<0xFE>	0
<0xFF>	0
▁t	-0
he	-1
▁a	-2
in	-3
▁the	-4
er	-5
on	-6
re	-7
▁s	-8
▁o	-9
▁w	-10
at	-11
ed	-12
en	-13
an	-14
▁,	-15
▁c	-16
or	-17
it	-18
is	-19
es	-20
▁f	-21
▁an	-22
▁b	-23
ar	-24
▁of	-25
al	-26
▁p	-27
▁in	-28
ing	-29
▁.	-30
▁and	-31
as	-32
ou	-33
▁to	-34
▁m	-35
ic	-36
▁d	-37
ion	-38
le	-39
▁h	-40
ro	-41
▁T	-42
▁re	-43
il	-44
ent	-45
▁th	-46
▁A	-47
▁l	-48
▁S	-49
st	-50
▁n	-51
el	-52
om	-53
▁e	-54
ct	-55
▁1	-56
▁C	-57
am	-58
ad	-59
et	-60
ol	-61
▁"	-62
▁g	-63
▁M	-64
ly	-65
im	-66
id	-67
▁on	-68
▁I	-69
ur	-70
▁The	-71
iv	-72
ot	-73
▁be	-74
▁for	-75
▁was	-76
▁B	-77
ce	-78
ig	-79
ir	-80
ut	-81
us	-82
ch	-83
▁@	-84
ow	-85
ation	-86
un	-87
▁as	-88
▁st	-89
ay	-90
▁is	-91
ith	-92
▁that	-93
ers	-94
▁H	-95
▁P	-96
her	-97
ra	-98
▁2	-99
▁with	-100
▁'	-101
ter	-102
▁R	-103
ver	-104
ul	-105
▁D	-106
▁wh	-107
-@	-108
▁@-@	-109
▁(	-110
em	-111
▁al	-112
▁con	-113
▁W	-114
▁L	-115
▁F	-116
os	-117
th	-118
▁by	-119
▁it	-120
▁de	-121
▁G	-122
and	-123
▁at	-124
▁he	-125
▁N	-126
▁pro	-127
▁E	-128
av	-129
est	-130
um	-131
oun	-132
od	-133
▁se	-134
ac	-135
ist	-136
▁v	-137
ag	-138
▁y	-139
▁19	-140
00	-141
if	-142
rom	-143
ain	-144
▁J	-145
ri	-146
op	-147
▁com	-148
ill	-149
▁r	-150
▁from	-151
ore	-152
▁or	-153
▁In	-154
ld	-155
▁)	-156
res	-157
▁O	-158
▁su	-159
ab	-160
ies	-161
pp	-162
ew	-163
ate	-164
▁are	-165
igh	-166
ant	-167
▁ex	-168
▁k	-169
ak	-170
ess	-171
our	-172
ort	-173
qu	-174
art	-175
se	-176
ity	-177
▁his	-178
ud	-179
▁ch	-180
oc	-181
ive	-182
ich	-183
ard	-184
ere	-185
▁K	-186
all	-187
ect	-188
▁un	-189
ment	-190
ber	-191
▁sh	-192
gh	-193
▁were	-194
▁pl	-195
ated	-196
ong	-197
pt	-198
end	-199
▁le	-200
ear	-201
▁U	-202
▁not	-203
ial	-204
ge	-205
ure	-206
ast	-207
ip	-208
ave	-209
▁sp	-210
▁:	-211
▁which	-212
ov	-213
ough	-214
ans	-215
ell	-216
ight	-217
ame	-218
ost	-219
out	-220
ical	-221
og	-222
ust	-223
ine	-224
ap	-225
ound	-226
▁St	-227
▁had	-228
ia	-229
▁us	-230
ec	-231
ould	-232
▁ar	-233
ire	-234
ther	-235
ord	-236
ary	-237
ions	-238
cl	-239
ous	-240
ff	-241
▁have	-242
ack	-243
▁int	-244
▁ab	-245
cc	-246
rit	-247
▁comp	-248
▁3	-249
▁whe	-250
ik	-251
iz	-252
▁V	-253
der	-254
▁their	-255
▁cont	-256
ide	-257
▁Ch	-258
ome	-259
are	-260
▁but	-261
so	-262
up	-263
ian	-264
ru	-265
▁20	-266
▁200	-267
ry	-268
ork	-269
ie	-270
▁this	-271
▁ad	-272
act	-273
du	-274
per	-275
ish	-276
▁cl	-277
▁Th	-278
ok	-279
orm	-280
▁en	-281
ater	-282
▁te	-283
ign	-284
age	-285
ass	-286
▁res	-287
ib	-288
▁can	-289
▁also	-290
irst	-291
ult	-292
ence	-293
ub	-294
▁its	-295
▁im	-296
fter	-297
▁j	-298
ue	-299
▁all	-300
▁per	-301
wo	-302
ally	-303
▁we	-304
pl	-305
▁has	-306
▁dis	-307
▁one	-308
mer	-309
ime	-310
▁they	-311
fer	-312
▁first	-313
ance	-314
▁who	-315
ations	-316
ction	-317
▁sc	-318
ely	-319
ond	-320
▁her	-321
own	-322
ice	-323
▁part	-324
ition	-325
ile	-326
▁An	-327
▁It	-328
▁He	-329
▁man	-330
▁app	-331
ach	-332
hed	-333
▁other	-334
ree	-335
▁pre	-336
▁201	-337
▁rec	-338
▁bec	-339
▁out	-340
ens	-341
▁been	-342
▁ne	-343
▁–	-344
▁4	-345
ren	-346
▁ag	-347
man	-348
▁go	-349
ep	-350
▁Al	-351
ress	-352
vel	-353
ang	-354
oll	-355
ite	-356
▁more	-357
ric	-358
ory	-359
▁5	-360
able	-361
▁year	-362
ey	-363
ount	-364
▁ro	-365
erv	-366
ind	-367
▁two	-368
clud	-369
▁;	-370
▁sa	-371
▁Y	-372
▁des	-373
uring	-374
▁up	-375
▁over	-376
ace	-377
ents	-378
▁18	-379
te	-380
ade	-381
▁ev	-382
▁-	-383
ark	-384
ild	-385
ase	-386
▁Un	-387
▁you	-388
▁tr	-389
ors	-390
▁gr	-391
▁into	-392
▁time	-393
ates	-394
ced	-395
▁would	-396
▁includ	-397
▁comm	-398
ose	-399
ces	-400
ck	-401
int	-402
we	-403
▁work	-404
wn	-405
▁att	-406
ake	-407
reat	-408
▁me	-409
port	-410
▁after	-411
aus	-412
ph	-413
ons	-414
land	-415
one	-416
form	-417
rough	-418
les	-419
ings	-420
amp	-421
▁inter	-422
.@	-423
▁@.@	-424
▁when	-425
ood	-426
▁so	-427
▁about	-428
▁play	-429
▁them	-430
▁On	-431
urn	-432
▁fe	-433
▁off	-434
ased	-435
▁bet	-436
ied	-437
ail	-438
▁do	-439
▁new	-440
▁6	-441
▁co	-442
▁than	-443
▁tra	-444
,@	-445
▁@,@	-446
ious	-447
oy	-448
▁rel	-449
old	-450
ited	-451
▁ra	-452
▁qu	-453
▁nan	-454
ward	-455
▁she	-456
▁kn	-457
▁most	-458
▁cons	-459
▁pe	-460
iss	-461
▁him	-462
ick	-463
ob	-464
als	-465
▁fl	-466
rib	-467
ict	-468
▁This	-469
▁sy	-470
gan	-471
ays	-472
ft	-473
▁only	-474
▁under	-475
very	-476
ook	-477
▁act	-478
▁As	-479
▁will	-480
▁rem	-481
▁gen	-482
oth	-483
▁produ	-484
ational	-485
▁7	-486
ubl	-487
ath	-488
▁sec	-489
▁199	-490
▁Mar	-491
▁some	-492
lect	-493
ween	-494
▁there	-495
▁Ar	-496
▁acc	-497
att	-498
rop	-499
▁pr	-500
ve	-501
red	-502
▁inc	-503
▁through	-504
ember	-505
fore	-506
▁ear	-507
aw	-508
tern	-509
▁ind	-510
ever	-511
▁En	-512
▁stud	-513
▁between	-514
ating	-515
orld	-516
ike	-517
▁during	-518
ning	-519
▁po	-520
ular	-521
▁ass	-522
▁such	-523
ilm	-524
ts	-525
▁bl	-526
ollow	-527
▁8	-528
▁Re	-529
▁reg	-530
ific	-531
ks	-532
▁pos	-533
▁am	-534
▁cent	-535
ix	-536
▁De	-537
▁9	-538
ran	-539
▁again	-540
ron	-541
inal	-542
yon	-543
olog	-544
ual	-545
▁num	-546
▁sub	-547
orth	-548
hip	-549
hen	-550
ause	-551
meric	-552
▁where	-553
▁New	-554
ason	-555
▁ret	-556
▁used	-557
▁spec	-558
iew	-559
▁form	-560
▁Se	-561
▁bu	-562
velop	-563
hes	-564
▁Americ	-565
ower	-566
ject	-567
▁ac	-568
▁end	-569
ug	-570
ople	-571
ics	-572
▁ep	-573
▁char	-574
▁dif	-575
ted	-576
▁col	-577
▁your	-578
io	-579
▁Le	-580
▁three	-581
▁sur	-582
▁film	-583
▁mon	-584
000	-585
ins	-586
▁may	-587
▁Wh	-588
▁while	-589
gr	-590
ily	-591
▁years	-592
ities	-593
▁supp	-594
ock	-595
▁rele	-596
orn	-597
▁exp	-598
▁imp	-599
▁Com	-600
ise	-601
ros	-602
▁no	-603
▁inv	-604
outh	-605
▁def	-606
▁made	-607
ident	-608
▁high	-609
ten	-610
ral	-611
ton	-612
ool	-613
az	-614
▁how	-615
▁add	-616
▁follow	-617
way	-618
▁prov	-619
▁lar	-620
oup	-621
erm	-622
ier	-623
▁later	-624
▁these	-625
▁game	-626
▁develop	-627
▁mov	-628
iet	-629
▁pres	-630
▁well	-631
oh	-632
▁many	-633
▁em	-634
iel	-635
▁then	-636
▁before	-637
▁writ	-638
▁any	-639
▁dec	-640
▁“	-641
▁people	-642
▁call	-643
ife	-644
ful	-645
ures	-646
ll	-647
ivers	-648
ision	-649
ished	-650
other	-651
▁ent	-652
▁publ	-653
▁eff	-654
stem	-655
▁being	-656
▁use	-657
▁10	-658
ived	-659
▁Sp	-660
▁rep	-661
ines	-662
ative	-663
▁serv	-664
▁second	-665
▁met	-666
▁loc	-667
its	-668
aj	-669
▁ser	-670
▁found	-671
ert	-672
▁song	-673
▁dep	-674
▁ob	-675
ames	-676
▁mus	-677
▁ph	-678
ale	-679
yen	-680
row	-681
▁set	-682
▁car	-683
son	-684
ered	-685
▁At	-686
▁could	-687
▁four	-688
ather	-689
▁pol	-690
ury	-691
elf	-692
▁lead	-693
▁long	-694
ement	-695
yp	-696
▁record	-697
▁inf	-698
▁sm	-699
▁show	-700
au	-701
▁number	-702
vern	-703
ature	-704
ince	-705
ved	-706
▁Sh	-707
air	-708
ode	-709
▁inst	-710
ane	-711
▁back	-712
▁cre	-713
ys	-714
▁both	-715
ually	-716
▁trans	-717
▁sever	-718
ogra	-719
eral	-720
ism	-721
ract	-722
ting	-723
ments	-724
▁Sc	-725
▁Con	-726
▁said	-727
led	-728
ained	-729
▁min	-730
chool	-731
ible	-732
▁How	-733
▁ext	-734
cept	-735
asyon	-736
▁main	-737
▁198	-738
▁including	-739
▁hel	-740
▁team	-741
▁like	-742
ined	-743
ution	-744
ient	-745
▁against	-746
▁system	-747
▁if	-748
▁season	-749
uch	-750
▁est	-751
▁sign	-752
ble	-753
ern	-754
ann	-755
▁17	-756
erson	-757
aking	-758
..	-759
ists	-760
▁war	-761
ink	-762
▁/	-763
any	-764
▁pop	-765
ility	-766
▁what	-767
▁did	-768
▁rev	-769
▁resp	-770
ange	-771
▁bel	-772
iver	-773
ah	-774
cy	-775
▁000	-776
▁op	-777
▁child	-778
▁charact	-779
▁disc	-780
ired	-781
xt	-782
▁—	-783
bum	-784
▁Cl	-785
▁mod	-786
irect	-787
▁differ	-788
▁Ind	-789
ris	-790
▁dist	-791
ross	-792
ober	-793
ared	-794
▁count	-795
vent	-796
ty	-797
▁12	-798
▁15	-799
▁United	-800
▁sim	-801
ized	-802
▁art	-803
▁0	-804
▁own	-805
▁comple	-806
▁perform	-807
▁Z	-808
ank	-809
imes	-810
▁Eng	-811
▁contin	-812
▁Brit	-813
ants	-814
▁sing	-815
▁because	-816
▁For	-817
ield	-818
▁became	-819
und	-820
▁help	-821
ash	-822
▁After	-823
apt	-824
ird	-825
▁196	-826
▁mat	-827
▁air	-828
ouse	-829
▁fam	-830
▁ed	-831
uc	-832
▁mill	-833
▁Joh	-834
▁known	-835
▁design	-836
▁day	-837
ars	-838
▁album	-839
ially	-840
▁American	-841
get	-842
▁197	-843
▁desc	-844
▁sl	-845
ven	-846
▁med	-847
▁result	-848
alth	-849
▁epis	-850
▁=	-851
ised	-852
▁group	-853
ues	-854
▁She	-855
▁down	-856
▁dr	-857
ek	-858
▁194	-859
▁orig	-860
▁several	-861
ically	-862
▁bro	-863
ives	-864
▁same	-865
gg	-866
though	-867
ruct	-868
▁need	-869
▁called	-870
▁br	-871
▁var	-872
▁John	-873
▁rece	-874
▁ins	-875
▁series	-876
▁16	-877
ural	-878
▁world	-879
▁support	-880
ley	-881
▁each	-882
ger	-883
ided	-884
ull	-885
til	-886
▁fin	-887
▁just	-888
▁They	-889
ax	-890
ness	-891
ccess	-892
ene	-893
ium	-894
▁det	-895
).	-896
▁partic	-897
▁water	-898
emb	-899
▁early	-900
▁point	-901
▁pass	-902
ience	-903
▁Is	-904
▁Bl	-905
▁11	-906
els	-907
▁aut	-908
osed	-909
ove	-910
▁govern	-911
iam	-912
▁hist	-913
▁We	-914
▁incre	-915
▁near	-916
▁land	-917
▁Ad	-918
▁direct	-919
▁str	-920
▁make	-921
▁occ	-922
▁around	-923
▁start	-924
une	-925
▁run	-926
omet	-927
anc	-928
ued	-929
▁Pro	-930
▁small	-931
ets	-932
oot	-933
▁gu	-934
▁until	-935
▁Aust	-936
▁mil	-937
▁ship	-938
my	-939
uss	-940
cess	-941
▁return	-942
▁though	-943
▁class	-944
▁const	-945
▁even	-946
▁US	-947
ajor	-948
▁Be	-949
▁Te	-950
▁open	-951
▁effect	-952
▁consid	-953
▁began	-954
▁ant	-955
arch	-956
enn	-957
▁War	-958
ke	-959
▁Ed	-960
oss	-961
▁much	-962
▁very	-963
▁our	-964
▁along	-965
pr	-966
▁life	-967
iving	-968
▁However	-969
▁report	-970
▁crit	-971
app	-972
ody	-973
ages	-974
▁oper	-975
▁Gr	-976
ner	-977
▁contro	-978
tle	-979
ended	-980
aving	-981
▁requ	-982
▁exper	-983
▁Q	-984
▁those	-985
ilt	-986
▁All	-987
ute	-988
▁million	-989
▁school	-990
▁episode	-991
▁build	-992
erman	-993
esp	-994
▁Col	-995
▁li	-996
▁should	-997
rist	-998
▁May	-999
ina	-1000
▁success	-1001
▁av	-1002
ately	-1003
ont	-1004
▁adv	-1005
▁men	-1006
▁$	-1007
▁person	-1008
▁state	-1009
▁different	-1010
▁way	-1011
▁Car	-1012
▁States	-1013
▁offic	-1014
▁music	-1015
▁13	-1016
▁power	-1017
▁ak	-1018
▁ele	-1019
▁right	-1020
ret	-1021
▁expl	-1022
ains	-1023
ne	-1024
▁public	-1025
▁There	-1026
▁conc	-1027
ize	-1028
▁conf	-1029
ected	-1030
▁area	-1031
▁import	-1032
ional	-1033
▁describ	-1034
ean	-1035
▁hum	-1036
▁Ph	-1037
▁yo	-1038
▁following	-1039
ology	-1040
▁British	-1041
▁lit	-1042
▁ref	-1043
▁allow	-1044
gy	-1045
ians	-1046
▁[	-1047
▁character	-1048
▁And	-1049
▁la	-1050
▁When	-1051
▁typ	-1052
▁bo	-1053
▁prom	-1054
▁head	-1055
chn	-1056
▁prot	-1057
▁released	-1058
ording	-1059
▁14	-1060
ital	-1061
▁195	-1062
gin	-1063
ively	-1064
iversity	-1065
omin	-1066
▁By	-1067
▁Pl	-1068
▁attack	-1069
▁rest	-1070
▁now	-1071
iven	-1072
▁place	-1073
▁major	-1074
▁elect	-1075
inc	-1076
▁Br	-1077
▁pat	-1078
▁order	-1079
▁large	-1080
▁appear	-1081
amed	-1082
arm	-1083
▁poss	-1084
eb	-1085
▁refer	-1086
ission	-1087
▁book	-1088
▁World	-1089
▁appro	-1090
lish	-1091
wa	-1092
▁Aug	-1093
▁every	-1094
▁cur	-1095
▁Can	-1096
▁yon	-1097
ified	-1098
▁sk	-1099
eng	-1100
onom	-1101
▁hand	-1102
aced	-1103
urch	-1104
▁organ	-1105
wards	-1106
▁German	-1107
▁Ju	-1108
▁Sept	-1109
▁last	-1110
▁Comm	-1111
hern	-1112
▁since	-1113
gram	-1114
▁fact	-1115
▁August	-1116
▁bre	-1117
▁century	-1118
▁ann	-1119
▁soc	-1120
▁took	-1121
▁level	-1122
▁another	-1123
▁193	-1124
▁my	-1125
▁191	-1126
▁September	-1127
raft	-1128
over	-1129
▁commun	-1130
▁care	-1131
▁six	-1132
▁vis	-1133
iti	-1134
ats	-1135
▁get	-1136
ases	-1137
ored	-1138
ences	-1139
▁turn	-1140
med	-1141
▁Austral	-1142
▁win	-1143
ves	-1144
itions	-1145
▁dem	-1146
▁batt	-1147
▁km	-1148
▁often	-1149
▁York	-1150
▁Ay	-1151
▁gener	-1152
▁cour	-1153
▁five	-1154
▁government	-1155
▁mar	-1156
iod	-1157
▁city	-1158
▁leg	-1159
▁old	-1160
ulation	-1161
▁great	-1162
ried	-1163
ently	-1164
▁eng	-1165
▁Oct	-1166
ices	-1167
reen	-1168
▁North	-1169
▁still	-1170
▁Nov	-1171
orp	-1172
omen	-1173
ged	-1174
ides	-1175
▁prev	-1176
▁north	-1177
▁month	-1178
▁take	-1179
▁term	-1180
▁home	-1181
▁based	-1182
ata	-1183
),	-1184
▁due	-1185
▁best	-1186
▁know	-1187
read	-1188
▁iss	-1189
▁cap	-1190
▁received	-1191
▁mark	-1192
▁good	-1193
oint	-1194
▁belie	-1195
ior	-1196
▁within	-1197
▁find	-1198
akes	-1199
▁single	-1200
isyen	-1201
oci	-1202
▁Eu	-1203
▁vers	-1204
▁Ge	-1205
aim	-1206
▁par	-1207
▁left	-1208
▁children	-1209
ling	-1210
▁name	-1211
▁opp	-1212
▁family	-1213
▁Pr	-1214
▁30	-1215
▁short	-1216
▁caus	-1217
▁October	-1218
▁spe	-1219
ection	-1220
▁read	-1221
▁less	-1222
▁Jan	-1223
▁real	-1224
▁et	-1225
ales	-1226
▁top	-1227
▁line	-1228
ining	-1229
▁equ	-1230
▁Will	-1231
▁stand	-1232
▁Me	-1233
▁King	-1234
▁process	-1235
ilar	-1236
▁gl	-1237
▁Christ	-1238
▁few	-1239
▁using	-1240
urther	-1241
▁death	-1242
▁June	-1243
arn	-1244
me	-1245
▁fun	-1246
hest	-1247
▁present	-1248
iety	-1249
▁health	-1250
▁arr	-1251
ote	-1252
iron	-1253
▁Or	-1254
▁Gu	-1255
ense	-1256
▁South	-1257
▁rese	-1258
ms	-1259
▁won	-1260
▁infl	-1261
empt	-1262
alf	-1263
▁species	-1264
hor	-1265
▁...	-1266
▁techn	-1267
▁final	-1268
▁event	-1269
▁sol	-1270
▁beh	-1271
▁addition	-1272
oad	-1273
▁July	-1274
▁Har	-1275
yl	-1276
▁inform	-1277
▁25	-1278
▁see	-1279
▁period	-1280
▁ke	-1281
▁Apr	-1282
que	-1283
ured	-1284
ott	-1285
uary	-1286
oman	-1287
▁program	-1288
▁If	-1289
hing	-1290
▁March	-1291
▁important	-1292
▁del	-1293
▁common	-1294
▁Mc	-1295
▁kò	-1296
▁Fl	-1297
ards	-1298
▁April	-1299
by	-1300
▁aff	-1301
▁Europ	-1302
▁port	-1303
▁view	-1304
▁November	-1305
ony	-1306
atic	-1307
idge	-1308
▁story	-1309
▁dam	-1310
▁Pol	-1311
ries	-1312
▁These	-1313
▁without	-1314
▁During	-1315
▁non	-1316
▁&	-1317
▁band	-1318
▁does	-1319
▁Em	-1320
bs	-1321
20	-1322
▁Tr	-1323
ample	-1324
aken	-1325
ox	-1326
mber	-1327
rent	-1328
▁National	-1329
▁val	-1330
▁plan	-1331
apan	-1332
alk	-1333
▁kill	-1334
avy	-1335
▁third	-1336
▁included	-1337
▁next	-1338
▁el	-1339
lev	-1340
▁south	-1341
▁]	-1342
▁camp	-1343
▁law	-1344
▁II	-1345
▁Am	-1346
let	-1347
▁che	-1348
▁test	-1349
▁memb	-1350
▁Japan	-1351
▁chang	-1352
▁look	-1353
sp	-1354
vers	-1355
ery	-1356
▁tem	-1357
▁prof	-1358
rote	-1359
▁among	-1360
▁%	-1361
ister	-1362
ator	-1363
▁want	-1364
▁ec	-1365
hel	-1366
▁polit	-1367
▁become	-1368
▁Man	-1369
ival	-1370
▁University	-1371
▁days	-1372
rodu	-1373
▁previous	-1374
ipp	-1375
▁La	-1376
com	-1377
▁Fran	-1378
cember	-1379
riend	-1380
▁cle	-1381
▁review	-1382
▁post	-1383
ple	-1384
ring	-1385
▁div	-1386
▁led	-1387
▁local	-1388
▁repl	-1389
par	-1390
▁rad	-1391
▁December	-1392
aren	-1393
▁fre	-1394
ances	-1395
▁list	-1396
▁His	-1397
ones	-1398
line	-1399
▁proble	-1400
▁January	-1401
ograf	-1402
urs	-1403
ched	-1404
▁One	-1405
ourn	-1406
▁cond	-1407
▁tit	-1408
▁estab	-1409
self	-1410
sh	-1411
ency	-1412
▁wrote	-1413
▁light	-1414
▁fore	-1415
▁prop	-1416
▁ide	-1417
▁You	-1418
aining	-1419
▁track	-1420
▁somet	-1421
aster	-1422
ague	-1423
▁invol	-1424
▁grow	-1425
▁however	-1426
▁role	-1427
▁body	-1428
augh	-1429
▁vide	-1430
ead	-1431
▁control	-1432
to	-1433
▁played	-1434
▁described	-1435
▁attempt	-1436
▁Bro	-1437
rench	-1438
▁Gen	-1439
▁similar	-1440
▁eas	-1441
ots	-1442
▁project	-1443
▁Par	-1444
▁include	-1445
ached	-1446
▁sit	-1447
▁members	-1448
oon	-1449
▁dest	-1450
▁side	-1451
▁Ex	-1452
▁But	-1453
▁Mus	-1454
▁activ	-1455
▁manag	-1456
ention	-1457
▁2010	-1458
▁bas	-1459
iness	-1460
ograph	-1461
itive	-1462
▁hig	-1463
▁mid	-1464
▁study	-1465
cent	-1466
▁El	-1467
▁100	-1468
▁redu	-1469
▁lang	-1470
ration	-1471
▁low	-1472
▁development	-1473
▁came	-1474
▁interest	-1475
ality	-1476
▁command	-1477
▁built	-1478
▁Cent	-1479
▁named	-1480
▁Ist	-1481
▁kòm	-1482
ole	-1483
ches	-1484
▁wind	-1485
▁particular	-1486
▁With	-1487
▁deb	-1488
ories	-1489
ball	-1490
▁original	-1491
▁X	-1492
▁To	-1493
▁stat	-1494
▁vil	-1495
rew	-1496
▁trad	-1497
▁anim	-1498
eter	-1499
resent	-1500
ggest	-1501
▁suggest	-1502
▁capt	-1503
▁tw	-1504
ruction	-1505
side	-1506
day	-1507
irc	-1508
▁further	-1509
oung	-1510
tal	-1511
▁gun	-1512
ivid	-1513
uted	-1514
▁late	-1515
▁food	-1516
▁cover	-1517
▁country	-1518
ours	-1519
▁having	-1520
▁Kib	-1521
▁21	-1522
ization	-1523
▁bus	-1524
▁French	-1525
▁2011	-1526
▁given	-1527
▁Geor	-1528
yn	-1529
▁history	-1530
▁No	-1531
ords	-1532
osp	-1533
▁Feb	-1534
▁held	-1535
▁students	-1536
itary	-1537
▁although	-1538
▁human	-1539
▁Istwa	-1540
▁sent	-1541
▁2009	-1542
▁lim	-1543
▁treat	-1544
ini	-1545
ably	-1546
na	-1547
ination	-1548
▁production	-1549
▁English	-1550
ges	-1551
▁cr	-1552
▁mag	-1553
▁considered	-1554
▁2008	-1555
ruary	-1556
▁comb	-1557
cer	-1558
ript	-1559
▁say	-1560
rain	-1561
▁let	-1562
ografi	-1563
▁press	-1564
▁influ	-1565
▁sold	-1566
▁February	-1567
▁times	-1568
▁week	-1569
ploy	-1570
▁strong	-1571
▁games	-1572
ument	-1573
ids	-1574
▁impro	-1575
▁cor	-1576
▁claim	-1577
▁24	-1578
▁Ab	-1579
▁West	-1580
stand	-1581
▁ident	-1582
▁William	-1583
▁tri	-1584
ese	-1585
estern	-1586
▁While	-1587
▁Af	-1588
▁house	-1589
ering	-1590
▁example	-1591
▁former	-1592
▁never	-1593
▁pract	-1594
ertain	-1595
▁Acc	-1596
▁making	-1597
fic	-1598
▁190	-1599
eth	-1600
▁half	-1601
ung	-1602
ler	-1603
▁Cal	-1604
▁mater	-1605
viron	-1606
ape	-1607
ops	-1608
▁Jew	-1609
work	-1610
here	-1611
▁signific	-1612
isc	-1613
▁town	-1614
▁Char	-1615
▁video	-1616
▁too	-1617
atter	-1618
iment	-1619
▁cult	-1620
▁2012	-1621
▁must	-1622
ither	-1623
▁sw	-1624
▁Although	-1625
esc	-1626
▁192	-1627
▁pain	-1628
▁women	-1629
br	-1630
ham	-1631
ille	-1632
▁2007	-1633
ison	-1634
elt	-1635
▁author	-1636
▁individ	-1637
▁Dav	-1638
oms	-1639
oute	-1640
ential	-1641
▁information	-1642
▁sound	-1643
ront	-1644
▁ris	-1645
▁Fr	-1646
uck	-1647
cing	-1648
▁surv	-1649
▁position	-1650
▁Ne	-1651
▁storm	-1652
ergy	-1653
ways	-1654
▁areas	-1655
▁sym	-1656
▁Min	-1657
▁Bar	-1658
idence	-1659
▁release	-1660
▁able	-1661
▁cost	-1662
▁continued	-1663
▁match	-1664
raw	-1665
▁obs	-1666
▁Ear	-1667
▁intern	-1668
ression	-1669
sequ	-1670
▁England	-1671
ells	-1672
▁Mich	-1673
ai	-1674
bo	-1675
▁feat	-1676
▁Ang	-1677
mit	-1678
rie	-1679
▁Her	-1680
▁field	-1681
reet	-1682
▁Li	-1683
▁road	-1684
▁Canad	-1685
▁published	-1686
atch	-1687
ae	-1688
ending	-1689
▁fail	-1690
▁research	-1691
▁nat	-1692
▁friend	-1693
min	-1694
hers	-1695
▁Ass	-1696
▁written	-1697
yle	-1698
▁material	-1699
abor	-1700
▁Go	-1701
less	-1702
ope	-1703
ify	-1704
▁vol	-1705
▁company	-1706
▁total	-1707
▁building	-1708
▁put	-1709
▁Park	-1710
▁suff	-1711
▁Count	-1712
▁Co	-1713
▁across	-1714
ropical	-1715
▁lik	-1716
19	-1717
ogn	-1718
▁represent	-1719
uel	-1720
▁fire	-1721
olution	-1722
▁gra	-1723
▁Sy	-1724
▁City	-1725
ivil	-1726
▁quest	-1727
aul	-1728
▁jo	-1729
▁educ	-1730
▁ground	-1731
af	-1732
▁struct	-1733
▁fac	-1734
▁significant	-1735
▁22	-1736
▁23	-1737
▁little	-1738
▁away	-1739
▁appe	-1740
lic	-1741
▁larg	-1742
ological	-1743
▁change	-1744
▁Rep	-1745
▁age	-1746
ee	-1747
vironment	-1748
▁various	-1749
roy	-1750
▁According	-1751
▁origin	-1752
▁River	-1753
▁decl	-1754
ondon	-1755
▁data	-1756
duct	-1757
ford	-1758
ye	-1759
used	-1760
▁dev	-1761
utes	-1762
▁foot	-1763
▁Rober	-1764
▁reported	-1765
▁developed	-1766
most	-1767
▁colle	-1768
▁moved	-1769
▁econom	-1770
aff	-1771
▁relations	-1772
▁feature	-1773
▁proper	-1774
▁50	-1775
▁phys	-1776
▁sour	-1777
▁others	-1778
▁produced	-1779
▁2013	-1780
▁sum	-1781
▁conn	-1782
▁begin	-1783
▁z	-1784
▁London	-1785
ream	-1786
▁avail	-1787
▁2006	-1788
▁version	-1789
▁ren	-1790
▁popular	-1791
▁prim	-1792
ama	-1793
ensive	-1794
▁er	-1795
ps	-1796
▁west	-1797
▁Air	-1798
èk	-1799
craft	-1800
▁compet	-1801
▁Sm	-1802
▁national	-1803
▁introdu	-1804
▁red	-1805
▁full	-1806
▁east	-1807
ief	-1808
reg	-1809
omb	-1810
iting	-1811
▁Ag	-1812
▁ter	-1813
▁social	-1814
ington	-1815
▁went	-1816
hod	-1817
▁Mon	-1818
▁product	-1819
alt	-1820
ills	-1821
▁di	-1822
▁special	-1823
▁Some	-1824
oph	-1825
▁meas	-1826
▁service	-1827
▁Afric	-1828
ney	-1829
▁pot	-1830
▁vict	-1831
▁case	-1832
▁cast	-1833
▁months	-1834
▁might	-1835
▁lost	-1836
▁Med	-1837
▁seen	-1838
▁gave	-1839
▁init	-1840
▁histor	-1841
▁think	-1842
stit	-1843
▁Res	-1844
▁invest	-1845
▁America	-1846
▁Ayiti	-1847
▁enc	-1848
▁created	-1849
▁circ	-1850
▁don	-1851
▁Sec	-1852
▁dise	-1853
▁telev	-1854
▁High	-1855
▁young	-1856
▁exist	-1857
▁Comp	-1858
▁offer	-1859
▁associ	-1860
▁current	-1861
▁What	-1862
rest	-1863
▁ve	-1864
ublic	-1865
icle	-1866
▁God	-1867
ien	-1868
▁possible	-1869
ators	-1870
▁2004	-1871
ficult	-1872
▁better	-1873
▁State	-1874
▁ste	-1875
▁cy	-1876
▁toget	-1877
▁general	-1878
▁together	-1879
ability	-1880
▁announ	-1881
▁Gl	-1882
▁keep	-1883
▁military	-1884
▁political	-1885
▁population	-1886
▁forces	-1887
▁player	-1888
▁Dr	-1889
▁foc	-1890
▁difficult	-1891
▁indust	-1892
▁mult	-1893
ana	-1894
▁cross	-1895
asing	-1896
▁40	-1897
▁black	-1898
▁percent	-1899
elling	-1900
pect	-1901
aged	-1902
▁occur	-1903
▁ask	-1904
rick	-1905
▁fight	-1906
▁Sw	-1907
ask	-1908
rict	-1909
▁free	-1910
▁27	-1911
▁Pres	-1912
▁taken	-1913
ressed	-1914
ald	-1915
▁range	-1916
▁force	-1917
aps	-1918
▁Div	-1919
▁super	-1920
imate	-1921
ened	-1922
▁club	-1923
▁returned	-1924
aper	-1925
▁eight	-1926
▁himself	-1927
aly	-1928
▁28	-1929
▁nort	-1930
.”	-1931
▁performance	-1932
▁ten	-1933
▁father	-1934
gen	-1935
▁meet	-1936
▁available	-1937
▁night	-1938
sc	-1939
▁Kiba	-1940
▁wid	-1941
▁langu	-1942
▁aver	-1943
▁becom	-1944
▁mean	-1945
omm	-1946
outhern	-1947
aign	-1948
lands	-1949
orts	-1950
▁tre	-1951
▁mot	-1952
▁thought	-1953
▁squ	-1954
▁defe	-1955
▁2014	-1956
▁observ	-1957
ampions	-1958
▁Batt	-1959
▁throughout	-1960
▁creat	-1961
imately	-1962
view	-1963
▁26	-1964
aut	-1965
▁coll	-1966
▁tour	-1967
▁once	-1968
oid	-1969
ows	-1970
▁learn	-1971
▁feel	-1972
▁Australia	-1973
▁profess	-1974
▁successful	-1975
▁writing	-1976
▁bar	-1977
▁conv	-1978
▁stated	-1979
▁recorded	-1980
▁hard	-1981
▁2005	-1982
▁fem	-1983
▁fav	-1984
▁Qu	-1985
▁Phil	-1986
▁Sim	-1987
▁least	-1988
sel	-1989
▁pred	-1990
▁fall	-1991
▁Russ	-1992
rey	-1993
▁died	-1994
▁Per	-1995
▁arg	-1996
▁business	-1997
ades	-1998
urb	-1999
epend	-2000
▁working	-2001
▁cut	-2002
▁Act	-2003
ving	-2004
▁General	-2005
▁entire	-2006
▁James	-2007
▁rather	-2008
▁far	-2009
▁white	-2010
oice	-2011
▁rock	-2012
▁Et	-2013
▁Im	-2014
istic	-2015
▁pri	-2016
▁loss	-2017
▁official	-2018
▁Pe	-2019
▁Rec	-2020
ude	-2021
aves	-2022
▁modern	-2023
of	-2024
▁cop	-2025
▁son	-2026
lex	-2027
▁Ste	-2028
den	-2029
dom	-2030
▁object	-2031
ush	-2032
▁destroy	-2033
onst	-2034
▁star	-2035
▁energy	-2036
face	-2037
▁Jack	-2038
▁battle	-2039
▁arch	-2040
ament	-2041
▁site	-2042
▁caused	-2043
dle	-2044
ze	-2045
▁come	-2046
▁career	-2047
▁ships	-2048
▁Ser	-2049
▁bi	-2050
▁works	-2051
oyal	-2052
▁earl	-2053
▁189	-2054
lished	-2055
▁prevent	-2056
▁ill	-2057
go	-2058
▁ay	-2059
ique	-2060
ett	-2061
▁hold	-2062
▁Intern	-2063
▁live	-2064
▁sou	-2065
▁provide	-2066
▁Reg	-2067
lected	-2068
umb	-2069
▁environment	-2070
tt	-2071
aching	-2072
uture	-2073
▁Rel	-2074
▁Bo	-2075
ecess	-2076
oring	-2077
ael	-2078
▁hy	-2079
tè	-2080
▁aircraft	-2081
iol	-2082
▁cal	-2083
▁Part	-2084
▁upon	-2085
▁ki	-2086
nd	-2087
ming	-2088
▁access	-2089
▁action	-2090
chie	-2091
▁epi	-2092
cil	-2093
▁either	-2094
▁ayisyen	-2095
▁Mor	-2096
▁understand	-2097
urg	-2098
ems	-2099
▁2000	-2100
▁relationship	-2101
▁tradition	-2102
▁neg	-2103
▁critic	-2104
▁remained	-2105
▁past	-2106
▁respons	-2107
▁happ	-2108
urric	-2109
▁blood	-2110
▁established	-2111
▁recogn	-2112
▁esp	-2113
upp	-2114
▁followed	-2115
▁bene	-2116
ising	-2117
ex	-2118
aur	-2119
▁Army	-2120
▁clear	-2121
▁mass	-2122
rought	-2123
▁Mad	-2124
▁plant	-2125
▁aud	-2126
▁started	-2127
▁Sch	-2128
ster	-2129
cial	-2130
ateg	-2131
ara	-2132
▁cause	-2133
▁feet	-2134
▁points	-2135
▁title	-2136
▁almost	-2137
▁front	-2138
ification	-2139
▁campaign	-2140
acy	-2141
▁particip	-2142
▁2015	-2143
▁chart	-2144
▁Hen	-2145
▁Japanese	-2146
▁employ	-2147
▁noted	-2148
▁County	-2149
▁mor	-2150
hem	-2151
▁characters	-2152
play	-2153
▁fund	-2154
▁agre	-2155
.,	-2156
be	-2157
▁broad	-2158
10	-2159
rag	-2160
▁indic	-2161
▁songs	-2162
medi	-2163
iers	-2164
▁coun	-2165
bert	-2166
ements	-2167
irl	-2168
▁East	-2169
▁method	-2170
▁certain	-2171
▁tro	-2172
▁Thom	-2173
▁added	-2174
ware	-2175
▁reached	-2176
▁separ	-2177
▁quick	-2178
▁lower	-2179
▁29	-2180
atory	-2181
cle	-2182
▁felt	-2183
▁instead	-2184
▁David	-2185
▁ever	-2186
ino	-2187
▁arm	-2188
▁lack	-2189
▁above	-2190
▁pur	-2191
▁contrib	-2192
iation	-2193
▁School	-2194
▁Indian	-2195
▁performed	-2196
▁features	-2197
▁miles	-2198
iding	-2199
▁That	-2200
uk	-2201
▁Hol	-2202
▁coast	-2203
▁mix	-2204
▁close	-2205
▁inj	-2206
▁pers	-2207
ceed	-2208
iff	-2209
▁type	-2210
eks	-2211
▁region	-2212
ffic	-2213
▁George	-2214
▁My	-2215
▁amount	-2216
▁enough	-2217
men	-2218
▁pa	-2219
▁engine	-2220
cast	-2221
▁Rich	-2222
▁provided	-2223
▁give	-2224
▁usually	-2225
etwork	-2226
▁fr	-2227
▁seven	-2228
ius	-2229
▁accept	-2230
▁determ	-2231
▁ap	-2232
por	-2233
ilities	-2234
50	-2235
erc	-2236
▁served	-2237
ought	-2238
ecially	-2239
▁pra	-2240
reek	-2241
▁damage	-2242
▁Europe	-2243
▁killed	-2244
orpor	-2245
▁style	-2246
▁going	-2247
▁community	-2248
▁station	-2249
▁key	-2250
▁located	-2251
▁means	-2252
▁opt	-2253
▁natural	-2254
▁member	-2255
▁future	-2256
▁subject	-2257
▁account	-2258
▁nov	-2259
▁|	-2260
▁clos	-2261
lin	-2262
▁space	-2263
▁respect	-2264
ump	-2265
▁scient	-2266
amm	-2267
ray	-2268
▁ft	-2269
▁Division	-2270
head	-2271
▁Do	-2272
▁behind	-2273
artment	-2274
▁stri	-2275
▁announced	-2276
▁average	-2277
▁tru	-2278
now	-2279
ume	-2280
aces	-2281
ampionship	-2282
▁rul	-2283
field	-2284
▁conduct	-2285
oe	-2286
▁exam	-2287
▁Tra	-2288
▁hon	-2289
▁consist	-2290
▁risk	-2291
uation	-2292
azini	-2293
▁Black	-2294
xic	-2295
▁Street	-2296
▁formed	-2297
▁Other	-2298
ctor	-2299
erous	-2300
▁Dep	-2301
▁increased	-2302
▁saf	-2303
▁discuss	-2304
iction	-2305
tain	-2306
▁born	-2307
emy	-2308
▁Ak	-2309
▁sex	-2310
▁saw	-2311
▁achie	-2312
▁hom	-2313
▁So	-2314
▁fig	-2315
▁hours	-2316
▁relig	-2317
▁Road	-2318
▁television	-2319
▁hit	-2320
▁Stud	-2321
▁ess	-2322
▁eventually	-2323
sy	-2324
▁according	-2325
ica	-2326
▁base	-2327
▁problems	-2328
▁changes	-2329
▁mother	-2330
▁try	-2331
ready	-2332
▁especially	-2333
amb	-2334
▁League	-2335
▁leading	-2336
▁San	-2337
▁host	-2338
▁stage	-2339
▁players	-2340
▁ball	-2341
▁dou	-2342
▁miss	-2343
▁designed	-2344
▁disease	-2345
hib	-2346
▁mount	-2347
for	-2348
pped	-2349
gress	-2350
ength	-2351
▁Etazini	-2352
▁ce	-2353
▁Wash	-2354
▁break	-2355
▁events	-2356
ights	-2357
▁decided	-2358
▁Paul	-2359
▁likely	-2360
▁reve	-2361
▁generally	-2362
▁prob	-2363
ibility	-2364
▁abs	-2365
▁House	-2366
▁appeared	-2367
▁weeks	-2368
de	-2369
ule	-2370
▁priv	-2371
ounds	-2372
▁Vil	-2373
▁assist	-2374
▁course	-2375
▁create	-2376
▁towards	-2377
èt	-2378
▁language	-2379
▁increase	-2380
rown	-2381
▁Australian	-2382
▁groups	-2383
aval	-2384
▁involved	-2385
▁states	-2386
urricane	-2387
▁temper	-2388
▁training	-2389
▁tropical	-2390
||	-2391
▁regular	-2392
▁vir	-2393
▁France	-2394
▁esc	-2395
▁2003	-2396
▁effects	-2397
asc	-2398
▁race	-2399
ters	-2400
▁imm	-2401
▁From	-2402
▁regard	-2403
▁construction	-2404
▁brought	-2405
ites	-2406
▁always	-2407
▁things	-2408
ortun	-2409
▁188	-2410
val	-2411
▁already	-2412
▁experience	-2413
▁higher	-2414
▁impact	-2415
ores	-2416
selves	-2417
▁consider	-2418
▁Bill	-2419
▁something	-2420
▁’	-2421
ires	-2422
oted	-2423
▁lane	-2424
etic	-2425
ands	-2426
▁required	-2427
▁mm	-2428
osition	-2429
▁threat	-2430
▁evidence	-2431
▁remov	-2432
arc	-2433
anks	-2434
▁pay	-2435
overed	-2436
oor	-2437
▁worked	-2438
▁here	-2439
▁vill	-2440
▁mem	-2441
▁186	-2442
▁phot	-2443
▁heavy	-2444
▁paren	-2445
▁Red	-2446
▁Robert	-2447
▁countries	-2448
▁award	-2449
ned	-2450
▁completed	-2451
▁Vir	-2452
▁Rob	-2453
ma	-2454
clus	-2455
▁particularly	-2456
▁fle	-2457
▁taking	-2458
▁itself	-2459
▁parts	-2460
▁self	-2461
▁surface	-2462
the	-2463
▁Washington	-2464
▁European	-2465
▁insp	-2466
▁travel	-2467
igned	-2468
èn	-2469
▁polic	-2470
▁bill	-2471
▁grad	-2472
▁soon	-2473
▁President	-2474
aring	-2475
▁pou	-2476
▁frequ	-2477
▁laun	-2478
▁route	-2479
▁levels	-2480
▁king	-2481
thing	-2482
▁Port	-2483
▁Val	-2484
itch	-2485
▁allowed	-2486
▁31	-2487
▁stop	-2488
agn	-2489
lying	-2490
▁big	-2491
▁market	-2492
▁!	-2493
▁playing	-2494
▁party	-2495
▁First	-2496
▁move	-2497
off	-2498
▁Mart	-2499
▁Bel	-2500
▁heart	-2501
▁Royal	-2502
itar	-2503
ishing	-2504
orse	-2505
reng	-2506
incip	-2507
itor	-2508
▁estim	-2509
▁Dan	-2510
▁placed	-2511
▁conditions	-2512
wood	-2513
▁says	-2514
▁Soc	-2515
ellow	-2516
▁Jos	-2517
▁goal	-2518
▁exc	-2519
▁brother	-2520
▁2001	-2521
▁mer	-2522
▁ens	-2523
▁Don	-2524
,”	-2525
▁commit	-2526
▁comment	-2527
rison	-2528
NA	-2529
▁wall	-2530
▁Lou	-2531
▁idea	-2532
▁Sup	-2533
uter	-2534
▁‘	-2535
▁Michael	-2536
▁pressure	-2537
yr	-2538
rem	-2539
▁tou	-2540
ental	-2541
▁Dev	-2542
▁whether	-2543
unk	-2544
onse	-2545
iles	-2546
▁fif	-2547
ership	-2548
▁stru	-2549
▁love	-2550
▁reb	-2551
▁eta	-2552
▁doc	-2553
▁length	-2554
▁Cour	-2555
▁size	-2556
▁treatment	-2557
▁positive	-2558
arily	-2559
▁Most	-2560
▁opened	-2561
▁individual	-2562
▁disp	-2563
▁subsequ	-2564
▁Ke	-2565
▁Great	-2566
▁crew	-2567
▁outside	-2568
ients	-2569
▁education	-2570
▁dom	-2571
▁wanted	-2572
▁India	-2573
▁minutes	-2574
▁done	-2575
▁exec	-2576
▁problem	-2577
▁norm	-2578
▁chall	-2579
▁largest	-2580
▁Squ	-2581
▁appoint	-2582
▁Henry	-2583
ournal	-2584
▁Cont	-2585
▁anal	-2586
▁concern	-2587
▁money	-2588
▁rank	-2589
▁Colle	-2590
▁central	-2591
▁contract	-2592
▁viol	-2593
aled	-2594
▁commer	-2595
▁really	-2596
▁focus	-2597
▁Desp	-2598
omp	-2599
rated	-2600
ference	-2601
▁speed	-2602
▁2002	-2603
▁liter	-2604
▁office	-2605
▁independ	-2606
antic	-2607
▁cann	-2608
▁originally	-2609
board	-2610
▁187	-2611
▁Many	-2612
▁immedi	-2613
▁lab	-2614
▁believed	-2615
▁Mary	-2616
▁sil	-2617
▁necess	-2618
▁detail	-2619
ends	-2620
▁Pal	-2621
▁Hist	-2622
▁model	-2623
▁streng	-2624
iforn	-2625
▁peak	-2626
rug	-2627
▁rights	-2628
fact	-2629
▁Mal	-2630
▁Roman	-2631
▁Church	-2632
▁Ac	-2633
ift	-2634
▁poor	-2635
▁emer	-2636
▁makes	-2637
▁shows	-2638
ios	-2639
▁Art	-2640
▁voc	-2641
▁earlier	-2642
▁lay	-2643
uals	-2644
lement	-2645
ky	-2646
▁Ber	-2647
▁inn	-2648
▁personal	-2649
vert	-2650
▁Christian	-2651
▁concept	-2652
▁react	-2653
▁sequ	-2654
yal	-2655
▁court	-2656
bor	-2657
minist	-2658
▁guns	-2659
▁living	-2660
▁Que	-2661
▁related	-2662
▁moun	-2663
▁sat	-2664
▁themselves	-2665
▁?	-2666
▁Californ	-2667
▁Wil	-2668
▁tar	-2669
▁words	-2670
▁Canada	-2671
▁issue	-2672
uff	-2673
ago	-2674
ville	-2675
▁function	-2676
oud	-2677
▁Pat	-2678
irth	-2679
asion	-2680
co	-2681
rap	-2682
onn	-2683
van	-2684
ikasyon	-2685
▁wife	-2686
ams	-2687
▁Two	-2688
ula	-2689
▁protect	-2690
oura	-2691
▁specific	-2692
▁Despite	-2693
▁International	-2694
▁Refer	-2695
▁army	-2696
▁reason	-2697
sw	-2698
The	-2699
▁dig	-2700
▁international	-2701
▁sometimes	-2702
▁fourth	-2703
▁troops	-2704
▁pw	-2705
▁systems	-2706
osing	-2707
▁scene	-2708
ples	-2709
▁rap	-2710
▁multip	-2711
▁island	-2712
▁lyen	-2713
▁kind	-2714
asons	-2715
odes	-2716
▁California	-2717
▁Thomas	-2718
utions	-2719
▁Kèk	-2720
ander	-2721
▁complex	-2722
▁Charles	-2723
▁emb	-2724
▁Follow	-2725
òn	-2726
▁desp	-2727
▁referans	-2728
▁church	-2729
▁500	-2730
▁highest	-2731
▁president	-2732
▁elements	-2733
▁round	-2734
▁saying	-2735
▁question	-2736
▁structure	-2737
▁told	-2738
▁today	-2739
▁rail	-2740
het	-2741
azine	-2742
▁behav	-2743
▁Mac	-2744
▁complete	-2745
▁Nor	-2746
▁network	-2747
eck	-2748
▁increasing	-2749
▁Ayisyen	-2750
▁Associ	-2751
▁beginning	-2752
▁Angel	-2753
oke	-2754
ibr	-2755
aries	-2756
icles	-2757
ening	-2758
▁deal	-2759
ledge	-2760
inn	-2761
ida	-2762
▁response	-2763
ederal	-2764
▁associated	-2765
▁passed	-2766
▁1996	-2767
▁results	-2768
▁nature	-2769
▁longer	-2770
ols	-2771
▁farm	-2772
▁southern	-2773
▁lo	-2774
▁whose	-2775
▁quickly	-2776
▁hous	-2777
▁below	-2778
▁mi	-2779
▁Bra	-2780
▁cases	-2781
oper	-2782
▁Mid	-2783
▁sea	-2784
▁whole	-2785
▁civil	-2786
▁additional	-2787
▁Best	-2788
▁section	-2789
▁Star	-2790
▁Sl	-2791
▁jew	-2792
ij	-2793
▁Earth	-2794
▁deep	-2795
▁scen	-2796
▁joined	-2797
▁runs	-2798
▁word	-2799
ault	-2800
▁Cong	-2801
ctions	-2802
urity	-2803
▁issues	-2804
fall	-2805
imin	-2806
vi	-2807
west	-2808
▁needed	-2809
▁Republic	-2810
▁White	-2811
▁Alex	-2812
aker	-2813
▁wood	-2814
inem	-2815
▁benef	-2816
BC	-2817
▁park	-2818
anned	-2819
▁ly	-2820
▁turned	-2821
▁lines	-2822
▁replaced	-2823
▁services	-2824
amer	-2825
▁rate	-2826
▁Govern	-2827
▁lear	-2828
▁featured	-2829
▁Jewografi	-2830
▁require	-2831
▁60	-2832
▁science	-2833
▁nar	-2834
▁Referans	-2835
round	-2836
▁cred	-2837
▁Hall	-2838
utive	-2839
▁300	-2840
▁relasyon	-2841
▁Atl	-2842
ears	-2843
▁slow	-2844
▁text	-2845
▁oil	-2846
▁bird	-2847
eum	-2848
ulated	-2849
▁anti	-2850
▁mach	-2851
▁cru	-2852
▁movement	-2853
▁forced	-2854
ha	-2855
▁scored	-2856
ysis	-2857
,000	-2858
▁Mil	-2859
▁director	-2860
isl	-2861
▁units	-2862
▁draw	-2863
▁northern	-2864
▁bring	-2865
▁Relasyon	-2866
bers	-2867
▁investig	-2868
▁except	-2869
▁larger	-2870
▁rain	-2871
aters	-2872
▁Union	-2873
rol	-2874
fl	-2875
rian	-2876
aint	-2877
▁Following	-2878
zy	-2879
▁1990	-2880
order	-2881
olic	-2882
▁quality	-2883
▁mind	-2884
▁Sam	-2885
▁opening	-2886
airs	-2887
▁asked	-2888
iter	-2889
atin	-2890
back	-2891
ption	-2892
▁More	-2893
▁Sen	-2894
▁Ek	-2895
▁job	-2896
chan	-2897
▁novel	-2898
▁Richard	-2899
▁purp	-2900
▁terms	-2901
mp	-2902
tee	-2903
ror	-2904
▁critics	-2905
erve	-2906
▁face	-2907
ully	-2908
rel	-2909
aughter	-2910
▁Virgin	-2911
▁sus	-2912
▁includes	-2913
rack	-2914
▁tax	-2915
▁decision	-2916
▁beg	-2917
▁center	-2918
▁learning	-2919
ography	-2920
atively	-2921
ises	-2922
ques	-2923
imum	-2924
unt	-2925
izing	-2926
▁chem	-2927
ension	-2928
itation	-2929
."	-2930
▁princip	-2931
▁Germany	-2932
▁Day	-2933
▁shot	-2934
▁screen	-2935
aches	-2936
▁practice	-2937
▁potential	-2938
▁pen	-2939
▁prior	-2940
sych	-2941
ication	-2942
rast	-2943
▁Scott	-2944
▁gre	-2945
▁Met	-2946
▁complet	-2947
▁gold	-2948
itz	-2949
anced	-2950
▁finished	-2951
▁anc	-2952
▁App	-2953
▁Aktè	-2954
▁ability	-2955
▁deg	-2956
aily	-2957
▁target	-2958
▁transport	-2959
▁transfer	-2960
▁Bay	-2961
▁recomm	-2962
▁victory	-2963
▁cat	-2964
▁bur	-2965
▁Mexic	-2966
▁yet	-2967
eds	-2968
▁limited	-2969
hood	-2970
enced	-2971
▁compan	-2972
▁remain	-2973
▁Ant	-2974
▁Just	-2975
bon	-2976
che	-2977
▁Play	-2978
ston	-2979
rief	-2980
▁source	-2981
▁Island	-2982
▁Smith	-2983
▁Battle	-2984
▁appearance	-2985
ging	-2986
▁Court	-2987
uth	-2988
ux	-2989
▁previously	-2990
▁famil	-2991
▁occup	-2992
▁lot	-2993
▁Vict	-2994
owers	-2995
iled	-2996
adron	-2997
▁thus	-2998
▁resour	-2999
▁der	-3000
▁compared	-3001
▁studies	-3002
ulf	-3003
▁spent	-3004
▁Mark	-3005
30	-3006
▁physical	-3007
▁probably	-3008
▁wide	-3009
▁initially	-3010
▁Tex	-3011
▁cells	-3012
▁produce	-3013
▁Brown	-3014
▁activity	-3015
elled	-3016
use	-3017
▁bomb	-3018
atives	-3019
▁media	-3020
isions	-3021
abit	-3022
▁Mount	-3023
oses	-3024
▁Ben	-3025
▁35	-3026
▁UK	-3027
▁sens	-3028
uit	-3029
ests	-3030
▁adult	-3031
▁applic	-3032
▁ended	-3033
rial	-3034
▁industry	-3035
▁Edikasyon	-3036
▁Sing	-3037
▁shown	-3038
ground	-3039
▁Western	-3040
▁1999	-3041
▁distrib	-3042
inct	-3043
heast	-3044
▁cycl	-3045
▁Sant	-3046
▁summer	-3047
▁step	-3048
anish	-3049
▁friends	-3050
▁influence	-3051
gar	-3052
▁Since	-3053
ils	-3054
▁Up	-3055
▁Polit	-3056
antry	-3057
▁why	-3058
▁McC	-3059
▁2016	-3060
▁nearly	-3061
▁Coun	-3062
▁construct	-3063
▁stay	-3064
iences	-3065
▁mph	-3066
▁Frank	-3067
alled	-3068
▁approx	-3069
ender	-3070
▁Kingdom	-3071
mon	-3072
▁establish	-3073
▁China	-3074
ties	-3075
▁introduced	-3076
▁technology	-3077
▁syn	-3078
▁dark	-3079
▁College	-3080
uments	-3081
berg	-3082
▁plants	-3083
▁surround	-3084
▁Company	-3085
arter	-3086
▁visit	-3087
▁Navy	-3088
▁female	-3089
▁jud	-3090
idents	-3091
▁adapt	-3092
▁capital	-3093
ects	-3094
▁Rock	-3095
▁actually	-3096
▁cell	-3097
▁whom	-3098
▁economic	-3099
▁date	-3100
▁despite	-3101
▁Over	-3102
leg	-3103
▁nomin	-3104
▁Peter	-3105
eal	-3106
▁overall	-3107
▁interview	-3108
▁opportun	-3109
▁standard	-3110
▁90	-3111
▁acqu	-3112
▁animals	-3113
kn	-3114
▁carried	-3115
ucle	-3116
inese	-3117
▁room	-3118
▁Long	-3119
▁contact	-3120
▁financ	-3121
▁value	-3122
ranch	-3123
obal	-3124
▁ordered	-3125
▁paper	-3126
▁river	-3127
▁prec	-3128
▁takes	-3129
▁cho	-3130
ables	-3131
▁consum	-3132
▁subst	-3133
▁den	-3134
▁1980	-3135
mar	-3136
▁commercial	-3137
▁failed	-3138
▁estimated	-3139
edy	-3140
▁growth	-3141
▁°	-3142
mitted	-3143
▁signed	-3144
urt	-3145
▁highway	-3146
▁Dem	-3147
▁Music	-3148
ocr	-3149
▁Tom	-3150
▁approach	-3151
▁1970	-3152
▁dro	-3153
▁nine	-3154
▁remains	-3155
▁ult	-3156
▁trib	-3157
iece	-3158
eding	-3159
ulations	-3160
▁activities	-3161
▁sal	-3162
▁becoming	-3163
▁dead	-3164
▁types	-3165
òl	-3166
▁Gold	-3167
▁i	-3168
rab	-3169
▁du	-3170
▁Center	-3171
▁staff	-3172
▁Not	-3173
hy	-3174
▁attention	-3175
▁fort	-3176
▁collect	-3177
▁Ham	-3178
▁flood	-3179
▁Les	-3180
▁Chinese	-3181
▁Game	-3182
▁80	-3183
▁radio	-3184
▁purch	-3185
lo	-3186
▁1998	-3187
change	-3188
▁Cup	-3189
▁minor	-3190
▁medical	-3191
▁drug	-3192
▁ang	-3193
▁Sal	-3194
anded	-3195
▁ge	-3196
porary	-3197
sec	-3198
ki	-3199
▁woman	-3200
▁altern	-3201
ession	-3202
▁Africa	-3203
like	-3204
▁Britain	-3205
hold	-3206
▁private	-3207
▁numbers	-3208
▁meaning	-3209
▁Jean	-3210
▁Grand	-3211
enth	-3212
▁Louis	-3213
12	-3214
joy	-3215
orial	-3216
ety	-3217
ider	-3218
▁studio	-3219
cean	-3220
▁Times	-3221
▁winds	-3222
oviet	-3223
▁Association	-3224
▁girl	-3225
▁prem	-3226
▁serious	-3227
▁Sun	-3228
AS	-3229
▁schools	-3230
itude	-3231
▁western	-3232
▁seem	-3233
▁Green	-3234
▁avoid	-3235
▁Inter	-3236
▁running	-3237
ado	-3238
II	-3239
▁primary	-3240
▁link	-3241
▁praised	-3242
wh	-3243
▁Pac	-3244
ospital	-3245
ga	-3246
▁Another	-3247
▁hurricane	-3248
tained	-3249
▁birth	-3250
▁Flor	-3251
▁prep	-3252
eph	-3253
ivity	-3254
▁Hill	-3255
▁Je	-3256
ply	-3257
▁student	-3258
▁got	-3259
▁traditional	-3260
pire	-3261
▁colon	-3262
▁Soviet	-3263
▁Lu	-3264
▁Victor	-3265
ena	-3266
▁carry	-3267
▁directed	-3268
▁Mont	-3269
uries	-3270
enty	-3271
▁changed	-3272
irit	-3273
▁tim	-3274
ously	-3275
irm	-3276
▁parents	-3277
▁Spanish	-3278
▁pil	-3279
▁Tour	-3280
▁ways	-3281
▁variety	-3282
▁Texas	-3283
icro	-3284
▁36	-3285
▁adop	-3286
▁territ	-3287
▁Championship	-3288
▁Mill	-3289
▁mom	-3290
▁Mag	-3291
▁teac	-3292
▁critical	-3293
▁path	-3294
▁score	-3295
▁Ev	-3296
▁Miss	-3297
eder	-3298
▁cele	-3299
▁active	-3300
▁Serv	-3301
stitute	-3302
▁confl	-3303
rate	-3304
▁forest	-3305
▁Cons	-3306
▁favor	-3307
emic	-3308
▁bad	-3309
▁Pop	-3310
▁block	-3311
▁hop	-3312
▁diss	-3313
▁brief	-3314
▁Under	-3315
▁claimed	-3316
▁arrived	-3317
▁knowledge	-3318
iy	-3319
▁Mr	-3320
▁Ir	-3321
iant	-3322
▁Fre	-3323
▁books	-3324
omer	-3325
▁location	-3326
▁cannot	-3327
▁films	-3328
▁Bec	-3329
▁contains	-3330
uing	-3331
▁fit	-3332
▁continue	-3333
▁via	-3334
▁society	-3335
aging	-3336
▁Ma	-3337
▁suggested	-3338
▁green	-3339
▁needs	-3340
umn	-3341
iring	-3342
fect	-3343
anm	-3344
▁£	-3345
▁cust	-3346
▁unc	-3347
▁comes	-3348
▁police	-3349
▁article	-3350
▁greater	-3351
▁leave	-3352
ims	-3353
▁forms	-3354
▁forward	-3355
▁veh	-3356
▁hot	-3357
▁Council	-3358
▁Law	-3359
▁brain	-3360
liam	-3361
18	-3362
▁uses	-3363
▁bridge	-3364
▁Du	-3365
▁NY	-3366
▁(19	-3367
▁Del	-3368
▁professional	-3369
▁effective	-3370
▁recent	-3371
▁instr	-3372
amin	-3373
▁administ	-3374
▁1997	-3375
▁Franc	-3376
oul	-3377
▁helped	-3378
▁remaining	-3379
▁proposed	-3380
undred	-3381
igan	-3382
▁intended	-3383
astic	-3384
▁approximately	-3385
▁enjoy	-3386
▁Chic	-3387
▁ple	-3388
▁mechan	-3389
alion	-3390
▁reviews	-3391
ders	-3392
▁football	-3393
oti	-3394
▁condition	-3395
▁ː	-3396
▁latter	-3397
vention	-3398
▁kil	-3399
reme	-3400
▁Trans	-3401
▁gas	-3402
ees	-3403
▁heav	-3404
▁eastern	-3405
can	-3406
liament	-3407
▁majority	-3408
▁nation	-3409
▁sense	-3410
aught	-3411
▁1960	-3412
▁supported	-3413
▁recording	-3414
▁highly	-3415
▁resist	-3416
▁content	-3417
▁Award	-3418
▁Los	-3419
▁prison	-3420
ovens	-3421
▁talk	-3422
▁45	-3423
▁cancer	-3424
▁document	-3425
▁Ter	-3426
▁Virginia	-3427
▁reach	-3428
▁directly	-3429
▁status	-3430
ste	-3431
▁leaving	-3432
▁32	-3433
icted	-3434
▁sch	-3435
icient	-3436
nel	-3437
▁mostly	-3438
▁print	-3439
▁70	-3440
▁184	-3441
▁discovered	-3442
▁immediately	-3443
▁election	-3444
▁weight	-3445
light	-3446
▁operations	-3447
▁Second	-3448
▁Lord	-3449
ptoms	-3450
hester	-3451
▁Cast	-3452
▁pattern	-3453
▁board	-3454
▁matter	-3455
11	-3456
▁African	-3457
▁conclud	-3458
▁bow	-3459
▁trade	-3460
▁true	-3461
▁Congress	-3462
▁domin	-3463
▁Bur	-3464
▁stars	-3465
▁demonst	-3466
▁musical	-3467
▁rapid	-3468
▁smaller	-3469
▁rout	-3470
▁intens	-3471
uge	-3472
▁Hot	-3473
▁sen	-3474
▁buildings	-3475
▁Force	-3476
▁prote	-3477
▁inside	-3478
▁mess	-3479
▁Mo	-3480
▁arrang	-3481
▁boy	-3482
leep	-3483
▁Pri	-3484
ips	-3485
ipl	-3486
▁appears	-3487
ufact	-3488
▁plans	-3489
▁mention	-3490
▁expected	-3491
▁spread	-3492
▁religious	-3493
__	-3494
▁Both	-3495
▁goals	-3496
lled	-3497
eyi	-3498
▁culture	-3499
▁entered	-3500
odies	-3501
ari	-3502
ronic	-3503
lor	-3504
▁Pre	-3505
▁Department	-3506
▁poll	-3507
▁Resear	-3508
▁individuals	-3509
▁lif	-3510
▁Dis	-3511
▁Gra	-3512
onna	-3513
▁destroyed	-3514
▁pwovens	-3515
▁share	-3516
ken	-3517
▁Fin	-3518
▁initial	-3519
ominote	-3520
▁dog	-3521
▁moving	-3522
▁shoot	-3523
▁color	-3524
▁simple	-3525
▁Carol	-3526
▁log	-3527
▁necessary	-3528
▁removed	-3529
▁Old	-3530
4.	-3531
▁policy	-3532
▁dire	-3533
▁Pet	-3534
▁fast	-3535
▁Ol	-3536
lied	-3537
▁Bet	-3538
ww	-3539
▁products	-3540
▁cit	-3541
▁middle	-3542
illed	-3543
▁debut	-3544
▁sources	-3545
▁sett	-3546
▁management	-3547
▁earth	-3548
▁Route	-3549
orps	-3550
AA	-3551
rics	-3552
▁measure	-3553
▁writer	-3554
▁Sa	-3555
▁sust	-3556
▁teams	-3557
▁magazine	-3558
itect	-3559
▁counter	-3560
olk	-3561
▁Kh	-3562
▁webs	-3563
▁promot	-3564
▁flu	-3565
▁har	-3566
▁reduce	-3567
bit	-3568
▁daughter	-3569
▁185	-3570
▁Cam	-3571
▁Kore	-3572
▁appointed	-3573
aded	-3574
▁companies	-3575
▁concent	-3576
mir	-3577
▁conflict	-3578
rect	-3579
▁married	-3580
▁commission	-3581
astern	-3582
▁nucle	-3583
▁Pacific	-3584
▁division	-3585
▁multiple	-3586
▁Sol	-3587
▁soft	-3588
▁provides	-3589
▁emot	-3590
▁script	-3591
▁leader	-3592
vement	-3593
▁constit	-3594
▁doing	-3595
▁univers	-3596
▁numerous	-3597
▁agreed	-3598
▁1995	-3599
▁Ro	-3600
rd	-3601
▁mission	-3602
▁ey	-3603
▁voice	-3604
▁pit	-3605
▁Chicago	-3606
▁max	-3607
▁Cro	-3608
▁lives	-3609
▁electric	-3610
▁box	-3611
▁magn	-3612
▁Rev	-3613
▁Its	-3614
▁(2	-3615
ria	-3616
▁Party	-3617
▁league	-3618
▁Ital	-3619
uz	-3620
▁Mer	-3621
upper	-3622
▁stra	-3623
▁weap	-3624
▁lived	-3625
ested	-3626
▁symb	-3627
sen	-3628
▁peyi	-3629
▁Tur	-3630
▁uns	-3631
▁write	-3632
▁Jackson	-3633
▁defeated	-3634
▁extra	-3635
▁analysis	-3636
▁interact	-3637
ech	-3638
▁cand	-3639
▁theory	-3640
▁sun	-3641
▁efforts	-3642
▁legal	-3643
▁Lake	-3644
▁computer	-3645
▁slight	-3646
iser	-3647
▁unit	-3648
▁connect	-3649
▁qual	-3650
▁meeting	-3651
▁responsible	-3652
▁image	-3653
▁thous	-3654
▁ver	-3655
▁soldiers	-3656
▁hundred	-3657
▁Inf	-3658
rong	-3659
ita	-3660
▁progress	-3661
▁offered	-3662
oes	-3663
teen	-3664
▁giving	-3665
▁pict	-3666
asy	-3667
riage	-3668
▁depression	-3669
imal	-3670
ricult	-3671
▁vac	-3672
▁effort	-3673
▁fell	-3674
▁rare	-3675
osis	-3676
▁names	-3677
▁financial	-3678
▁Because	-3679
lymp	-3680
▁referred	-3681
iest	-3682
▁captured	-3683
well	-3684
▁display	-3685
▁Off	-3686
▁reduced	-3687
▁simply	-3688
▁exerc	-3689
▁ir	-3690
▁ox	-3691
▁answ	-3692
ares	-3693
▁walk	-3694
▁Des	-3695
abet	-3696
andon	-3697
▁attract	-3698
▁Kominote	-3699
▁skin	-3700
▁Edward	-3701
▁Sea	-3702
▁Olymp	-3703
▁Tor	-3704
enge	-3705
▁male	-3706
▁Central	-3707
▁ran	-3708
ny	-3709
▁situation	-3710
▁legisl	-3711
▁extended	-3712
▁becomes	-3713
,"	-3714
ibly	-3715
▁withd	-3716
cel	-3717
▁ut	-3718
▁Cor	-3719
▁respond	-3720
▁hour	-3721
▁Florida	-3722
ancy	-3723
▁Sever	-3724
▁Cr	-3725
▁village	-3726
▁fleet	-3727
▁patients	-3728
bre	-3729
▁neigh	-3730
▁Health	-3731
onomi	-3732
▁psych	-3733
▁symptoms	-3734
▁grant	-3735
▁fru	-3736
▁Johnson	-3737
▁planned	-3738
ellig	-3739
▁raised	-3740
▁upper	-3741
▁attacks	-3742
▁winning	-3743
▁letter	-3744
▁resources	-3745
▁scenes	-3746
▁occurred	-3747
▁believe	-3748
▁Cath	-3749
...	-3750
▁Fle	-3751
▁grand	-3752
ero	-3753
ship	-3754
▁mixed	-3755
▁covered	-3756
bour	-3757
▁manufact	-3758
▁hyd	-3759
▁broadcast	-3760
▁Camp	-3761
▁researc	-3762
▁normal	-3763
▁property	-3764
cher	-3765
▁secret	-3766
rupt	-3767
▁Add	-3768
▁cm	-3769
▁pick	-3770
▁bal	-3771
▁Mat	-3772
▁thr	-3773
▁Their	-3774
win	-3775
▁Politik	-3776
▁Russian	-3777
acter	-3778
overy	-3779
▁Arch	-3780
▁inte	-3781
▁episodes	-3782
▁interp	-3783
▁37	-3784
▁instit	-3785
▁issued	-3786
15	-3787
▁repe	-3788
igade	-3789
▁Ekonomi	-3790
▁Sur	-3791
▁Big	-3792
▁Dist	-3793
▁Kn	-3794
16	-3795
vin	-3796
aling	-3797
uated	-3798
▁climate	-3799
▁Canadian	-3800
▁tow	-3801
▁plat	-3802
load	-3803
▁Penn	-3804
òt	-3805
ervation	-3806
▁sure	-3807
▁Fort	-3808
▁finally	-3809
▁Sk	-3810
▁hol	-3811
▁improve	-3812
▁operation	-3813
▁therefore	-3814
▁hands	-3815
▁showed	-3816
▁mur	-3817
▁replace	-3818
▁Us	-3819
▁thing	-3820
▁contain	-3821
istry	-3822
put	-3823
cript	-3824
mission	-3825
▁pi	-3826
▁Atlantic	-3827
ona	-3828
▁temperature	-3829
▁Scot	-3830
▁growing	-3831
▁search	-3832
▁Wood	-3833
▁separate	-3834
▁awarded	-3835
inema	-3836
▁bit	-3837
istics	-3838
▁eth	-3839
onic	-3840
▁challeng	-3841
▁depart	-3842
▁largely	-3843
▁burn	-3844
▁revealed	-3845
▁suffered	-3846
▁1994	-3847
▁presented	-3848
▁presence	-3849
▁meant	-3850
room	-3851
down	-3852
▁coup	-3853
▁Group	-3854
▁fat	-3855
▁quarter	-3856
▁strength	-3857
icated	-3858
▁Bu	-3859
wide	-3860
▁dang	-3861
▁sem	-3862
▁fifth	-3863
lection	-3864
▁75	-3865
▁Test	-3866
▁Cle	-3867
▁Later	-3868
▁direction	-3869
▁federal	-3870
▁susp	-3871
▁Here	-3872
▁questions	-3873
▁flight	-3874
▁Enter	-3875
aped	-3876
ying	-3877
▁wild	-3878
▁Club	-3879
▁wa	-3880
▁Nort	-3881
ota	-3882
▁news	-3883
bed	-3884
▁Mel	-3885
za	-3886
burg	-3887
▁Mass	-3888
▁Americans	-3889
iber	-3890
gypt	-3891
▁Song	-3892
eed	-3893
▁flag	-3894
▁metal	-3895
arent	-3896
▁double	-3897
▁records	-3898
▁Out	-3899
▁33	-3900
icip	-3901
▁calc	-3902
rier	-3903
▁watch	-3904
▁skills	-3905
▁TV	-3906
▁Jim	-3907
▁pack	-3908
ette	-3909
▁Hel	-3910
▁damaged	-3911
▁trees	-3912
▁assess	-3913
ingu	-3914
▁officers	-3915
▁guitar	-3916
80	-3917
òp	-3918
▁dra	-3919
▁transl	-3920
▁Rad	-3921
▁sn	-3922
▁accomp	-3923
▁Oper	-3924
▁selected	-3925
▁global	-3926
▁collection	-3927
arden	-3928
▁adj	-3929
house	-3930
▁ideas	-3931
▁rule	-3932
▁animal	-3933
▁aspect	-3934
▁Fore	-3935
isation	-3936
▁tons	-3937
▁Jul	-3938
▁strugg	-3939
ulate	-3940
▁Love	-3941
▁Society	-3942
nes	-3943
▁defin	-3944
▁touch	-3945
▁rat	-3946
▁1992	-3947
▁manager	-3948
▁bank	-3949
▁diet	-3950
▁compl	-3951
▁Of	-3952
▁powerful	-3953
▁Film	-3954
▁eye	-3955
▁architect	-3956
èl	-3957
▁corn	-3958
la	-3959
▁completely	-3960
▁Martin	-3961
ropri	-3962
iance	-3963
▁harm	-3964
▁fish	-3965
▁stories	-3966
▁fans	-3967
▁annual	-3968
▁Work	-3969
viw	-3970
▁copies	-3971
▁resulting	-3972
▁Greek	-3973
▁launched	-3974
▁contem	-3975
▁materials	-3976
▁Step	-3977
▁Sir	-3978
▁Acad	-3979
▁ice	-3980
▁Tod	-3981
▁Egypt	-3982
▁relatively	-3983
▁composed	-3984
▁conducted	-3985
ding	-3986
▁laws	-3987
▁cer	-3988
▁Queen	-3989
▁1950	-3990
ibrary	-3991
yò	-3992
haps	-3993
▁scale	-3994
ònman	-3995
▁thick	-3996
▁foreign	-3997
▁minute	-3998
ada	-3999
èm	-4000
▁equip	-4001
▁respectively	-4002
illa	-4003
▁tracks	-4004
▁III	-4005
▁piece	-4006
▁Mexico	-4007
▁Av	-4008
viwònman	-4009
▁college	-4010
▁Mur	-4011
▁Town	-4012
33	-4013
ady	-4014
oo	-4015
▁Ros	-4016
▁listed	-4017
▁genyen	-4018
▁observed	-4019
rael	-4020
▁Book	-4021
▁check	-4022
▁bound	-4023
▁exhib	-4024
▁audience	-4025
▁distance	-4026
▁Mod	-4027
▁closed	-4028
▁winter	-4029
▁capac	-4030
▁notes	-4031
overs	-4032
gn	-4033
▁pan	-4034
▁actions	-4035
▁looking	-4036
▁resulted	-4037
▁1993	-4038
▁34	-4039
▁reading	-4040
▁disapp	-4041
▁1991	-4042
▁Research	-4043
ipped	-4044
▁schol	-4045
▁address	-4046
ocks	-4047
▁online	-4048
▁Devl	-4049
▁advance	-4050
▁subsequently	-4051
▁contrast	-4052
▁Anviwònman	-4053
▁Hum	-4054
▁Ap	-4055
▁Empire	-4056
bury	-4057
▁Ox	-4058
òpman	-4059
▁spl	-4060
▁Kent	-4061
mark	-4062
▁causes	-4063
▁Boy	-4064
2,	-4065
▁Const	-4066
▁older	-4067
▁clean	-4068
▁Er	-4069
▁Devlòpman	-4070
▁weather	-4071
izasyon	-4072
▁nut	-4073
road	-4074
▁tree	-4075
▁developing	-4076
AT	-4077
▁plot	-4078
gl	-4079
▁unable	-4080
▁inspired	-4081
▁Jac	-4082
ype	-4083
▁00	-4084
estival	-4085
▁incorpor	-4086
ogue	-4087
▁Even	-4088
▁vari	-4089
▁Institute	-4090
▁Ann	-4091
agon	-4092
ka	-4093
▁battles	-4094
▁workers	-4095
▁newsp	-4096
▁iron	-4097
▁organization	-4098
ications	-4099
▁decre	-4100
▁Awards	-4101
▁journal	-4102
▁dut	-4103
ifying	-4104
ception	-4105
▁collabor	-4106
▁starting	-4107
▁chemical	-4108
eces	-4109
▁Che	-4110
▁batter	-4111
▁wear	-4112
▁blue	-4113
▁citiz	-4114
▁affected	-4115
▁kept	-4116
▁integr	-4117
▁coming	-4118
▁Your	-4119
▁fa	-4120
▁supply	-4121
▁Commun	-4122
AR	-4123
ether	-4124
▁begins	-4125
ani	-4126
▁factors	-4127
▁figure	-4128
▁Oh	-4129
▁ded	-4130
▁Italian	-4131
inary	-4132
▁celebr	-4133
▁typically	-4134
▁ast	-4135
▁Aut	-4136
▁fighting	-4137
▁chief	-4138
▁Paris	-4139
▁understanding	-4140
▁peace	-4141
▁alone	-4142
▁morning	-4143
inent	-4144
▁deyò	-4145
▁website	-4146
▁fev	-4147
▁sales	-4148
▁180	-4149
▁quite	-4150
acing	-4151
fully	-4152
onents	-4153
▁leaves	-4154
▁Jes	-4155
▁continues	-4156
tered	-4157
aine	-4158
▁identified	-4159
▁Viet	-4160
alite	-4161
▁Sil	-4162
izes	-4163
▁Lyen	-4164
▁bul	-4165
▁Billboard	-4166
resh	-4167
▁equipment	-4168
▁elected	-4169
▁tried	-4170
▁Angeles	-4171
▁flow	-4172
force	-4173
▁assigned	-4174
▁programs	-4175
▁+	-4176
▁Child	-4177
▁inters	-4178
arters	-4179
▁security	-4180
▁rein	-4181
hens	-4182
▁purs	-4183
oration	-4184
▁advant	-4185
gu	-4186
▁train	-4187
▁Joseph	-4188
inson	-4189
▁producer	-4190
bridge	-4191
urban	-4192
▁basis	-4193
▁Science	-4194
utch	-4195
aby	-4196
▁purpose	-4197
▁toward	-4198
▁allowing	-4199
▁severe	-4200
enant	-4201
▁distinct	-4202
▁attempted	-4203
▁negative	-4204
alle	-4205
▁Inst	-4206
▁getting	-4207
▁Latin	-4208
▁System	-4209
band	-4210
▁Year	-4211
▁families	-4212
▁independent	-4213
▁accepted	-4214
▁jewografi	-4215
▁experiment	-4216
fort	-4217
▁Dar	-4218
known	-4219
▁News	-4220
▁declared	-4221
▁Matt	-4222
▁Time	-4223
▁spirit	-4224
▁Fer	-4225
▁depi	-4226
▁Sum	-4227
usion	-4228
arian	-4229
▁labor	-4230
2.	-4231
▁centre	-4232
▁attacked	-4233
▁unique	-4234
▁Each	-4235
▁competition	-4236
▁trying	-4237
▁vot	-4238
▁Lit	-4239
▁Georg	-4240
olf	-4241
▁artist	-4242
ube	-4243
▁encoura	-4244
▁safety	-4245
▁Rail	-4246
ram	-4247
ighter	-4248
▁mel	-4249
▁Det	-4250
▁daily	-4251
▁tend	-4252
▁tur	-4253
▁habit	-4254
▁Pè	-4255
▁nothing	-4256
▁degree	-4257
▁creating	-4258
▁Di	-4259
▁soil	-4260
▁Several	-4261
▁widely	-4262
▁Zeal	-4263
▁settle	-4264
▁Israel	-4265
ilti	-4266
▁BC	-4267
▁candid	-4268
▁Ver	-4269
▁Also	-4270
itable	-4271
▁cities	-4272
▁reject	-4273
▁abandon	-4274
▁Jer	-4275
▁lyrics	-4276
▁amb	-4277
▁categ	-4278
ped	-4279
▁dry	-4280
▁ancient	-4281
1.	-4282
▁researchers	-4283
▁allows	-4284
▁methods	-4285
▁serve	-4286
▁swe	-4287
▁vess	-4288
▁38	-4289
▁Spec	-4290
▁1940	-4291
▁easily	-4292
▁seek	-4293
▁nearby	-4294
▁experien	-4295
▁retire	-4296
▁Haw	-4297
▁constructed	-4298
▁table	-4299
rical	-4300
enc	-4301
▁carbon	-4302
▁Sar	-4303
▁heat	-4304
▁inches	-4305
▁affect	-4306
▁Like	-4307
17	-4308
▁planet	-4309
▁birds	-4310
imb	-4311
▁primarily	-4312
ER	-4313
▁ranked	-4314
▁Ret	-4315
▁1.	-4316
▁imag	-4317
▁kilomet	-4318
▁cas	-4319
umed	-4320
▁defeat	-4321
▁aware	-4322
▁bey	-4323
▁Are	-4324
▁causing	-4325
isp	-4326
▁spot	-4327
mosp	-4328
MS	-4329
olved	-4330
▁officer	-4331
▁Before	-4332
▁behavior	-4333
▁phil	-4334
▁implement	-4335
▁beyond	-4336
▁machine	-4337
▁managed	-4338
▁Vol	-4339
▁twenty	-4340
▁horse	-4341
▁refused	-4342
estic	-4343
iplom	-4344
ented	-4345
▁environmental	-4346
▁Michigan	-4347
▁sides	-4348
▁sleep	-4349
▁Zealand	-4350
iling	-4351
ansion	-4352
pass	-4353
▁places	-4354
▁portray	-4355
rye	-4356
▁draft	-4357
▁square	-4358
▁fully	-4359
--	-4360
▁positions	-4361
▁combat	-4362
▁Museum	-4363
13	-4364
40	-4365
▁Super	-4366
▁Wales	-4367
phas	-4368
▁houses	-4369
▁billion	-4370
▁theme	-4371
▁Dou	-4372
▁basic	-4373
60	-4374
▁yards	-4375
▁Corps	-4376
udd	-4377
irmed	-4378
▁enter	-4379
▁Cap	-4380
▁earned	-4381
▁pet	-4382
▁Sat	-4383
atik	-4384
adium	-4385
▁mainly	-4386
▁Highway	-4387
▁fuel	-4388
▁moment	-4389
▁lin	-4390
cers	-4391
▁portion	-4392
ih	-4393
▁49	-4394
▁pair	-4395
▁receive	-4396
▁waters	-4397
een	-4398
VD	-4399
▁gives	-4400
▁Minister	-4401
▁marriage	-4402
▁load	-4403
set	-4404
▁combined	-4405
▁Commit	-4406
igr	-4407
▁sister	-4408
▁marked	-4409
ura	-4410
▁Arab	-4411
▁beaut	-4412
lam	-4413
ounded	-4414
▁Def	-4415
▁onto	-4416
rik	-4417
▁Jo	-4418
▁traffic	-4419
▁shall	-4420
ishop	-4421
▁Four	-4422
uous	-4423
ili	-4424
▁fair	-4425
▁Tw	-4426
▁initi	-4427
▁leaders	-4428
uses	-4429
▁seg	-4430
▁diagn	-4431
▁scientific	-4432
▁Commission	-4433
lies	-4434
rative	-4435
uate	-4436
▁protection	-4437
▁recently	-4438
▁Now	-4439
▁compos	-4440
sonalite	-4441
▁Pan	-4442
ading	-4443
▁1930	-4444
▁slightly	-4445
clusion	-4446
▁sexual	-4447
yo	-4448
▁page	-4449
▁stress	-4450
▁pal	-4451
▁overs	-4452
ef	-4453
▁compar	-4454
▁Kiben	-4455
▁element	-4456
▁Kenn	-4457
▁Edu	-4458
▁fevrye	-4459
▁wor	-4460
right	-4461
▁capacity	-4462
▁Three	-4463
▁divided	-4464
▁humans	-4465
▁dat	-4466
▁someone	-4467
▁maximum	-4468
▁paid	-4469
▁historical	-4470
▁Wall	-4471
▁eyes	-4472
▁ago	-4473
ds	-4474
▁mis	-4475
▁speech	-4476
▁Squadron	-4477
▁reflect	-4478
▁Bow	-4479
▁Press	-4480
▁platform	-4481
▁controvers	-4482
▁Carl	-4483
unction	-4484
more	-4485
ES	-4486
▁bott	-4487
▁edition	-4488
▁demand	-4489
▁cultural	-4490
▁Wal	-4491
▁doub	-4492
▁graph	-4493
▁easy	-4494
▁hun	-4495
▁reports	-4496
▁dw	-4497
otic	-4498
▁rough	-4499
▁Care	-4500
orter	-4501
▁hospital	-4502
▁Secret	-4503
▁exact	-4504
▁People	-4505
▁speak	-4506
▁Den	-4507
iques	-4508
▁conver	-4509
▁Class	-4510
▁Democr	-4511
▁charge	-4512
▁hor	-4513
▁express	-4514
isted	-4515
▁prepar	-4516
▁Moun	-4517
▁sevent	-4518
▁diplom	-4519
▁injury	-4520
▁Service	-4521
▁ur	-4522
▁native	-4523
▁pun	-4524
▁gar	-4525
antly	-4526
itt	-4527
isms	-4528
▁royal	-4529
och	-4530
itan	-4531
▁Ten	-4532
ules	-4533
▁39	-4534
▁mob	-4535
▁deliver	-4536
cles	-4537
▁Leg	-4538
▁IS	-4539
▁400	-4540
▁commonly	-4541
▁Saint	-4542
▁commander	-4543
claim	-4544
▁dyn	-4545
ersey	-4546
umber	-4547
▁reform	-4548
▁Columb	-4549
▁founded	-4550
▁Post	-4551
▁trial	-4552
▁Capt	-4553
▁murder	-4554
▁survey	-4555
▁Once	-4556
▁attend	-4557
▁Southern	-4558
25	-4559
▁officials	-4560
▁reference	-4561
▁179	-4562
▁greatest	-4563
14	-4564
▁dism	-4565
▁card	-4566
▁Through	-4567
▁commented	-4568
▁Good	-4569
come	-4570
▁correct	-4571
▁IM	-4572
mas	-4573
▁singer	-4574
▁ensure	-4575
▁fran	-4576
▁movie	-4577
▁setting	-4578
ceeded	-4579
ners	-4580
ID	-4581
▁chap	-4582
uls	-4583
annel	-4584
//	-4585
▁seems	-4586
atre	-4587
▁enemy	-4588
▁1989	-4589
water	-4590
▁emphas	-4591
rig	-4592
▁tell	-4593
▁CO	-4594
▁Catholic	-4595
▁Committee	-4596
anda	-4597
▁cold	-4598
▁prefer	-4599
▁impl	-4600
▁perfect	-4601
▁opin	-4602
▁task	-4603
▁Tre	-4604
▁extrem	-4605
▁illust	-4606
▁Op	-4607
▁Sub	-4608
key	-4609
▁Direct	-4610
▁arrest	-4611
▁frequently	-4612
peror	-4613
://	-4614
▁Van	-4615
stein	-4616
▁plays	-4617
omers	-4618
▁sites	-4619
▁eat	-4620
▁choice	-4621
olec	-4622
stitution	-4623
▁Daniel	-4624
▁Bob	-4625
hi	-4626
▁Wind	-4627
edom	-4628
▁spect	-4629
▁cerem	-4630
▁attended	-4631
▁Gar	-4632
▁Histor	-4633
▁anything	-4634
▁Cross	-4635
▁Life	-4636
▁opportunity	-4637
▁Scotland	-4638
▁Max	-4639
▁weak	-4640
▁egg	-4641
▁didn	-4642
▁currently	-4643
▁Oxford	-4644
▁explained	-4645
St	-4646
ela	-4647
▁acad	-4648
▁Bre	-4649
▁ultimately	-4650
▁Bost	-4651
▁acid	-4652
▁god	-4653
▁Jewish	-4654
▁Kar	-4655
inet	-4656
iders	-4657
▁agricult	-4658
▁Ire	-4659
▁scientists	-4660
▁Jones	-4661
▁Jeff	-4662
iny	-4663
▁providing	-4664
▁rang	-4665
▁stone	-4666
▁convers	-4667
isher	-4668
▁DVD	-4669
resp	-4670
inter	-4671
ola	-4672
born	-4673
▁Water	-4674
inking	-4675
nam	-4676
▁Ireland	-4677
▁rob	-4678
▁reasons	-4679
▁atmosp	-4680
▁cool	-4681
atures	-4682
▁projects	-4683
▁183	-4684
apers	-4685
▁famous	-4686
▁Stan	-4687
▁bud	-4688
shire	-4689
eway	-4690
▁residents	-4691
▁fix	-4692
▁ending	-4693
osure	-4694
▁suc	-4695
▁matches	-4696
▁aim	-4697
oma	-4698
▁spring	-4699
▁digital	-4700
▁dropped	-4701
▁attempts	-4702
▁Creek	-4703
▁therap	-4704
▁ones	-4705
imens	-4706
hat	-4707
▁rise	-4708
▁Government	-4709
heless	-4710
▁communities	-4711
▁hyp	-4712
▁pieces	-4713
▁intellig	-4714
èv	-4715
ias	-4716
▁Fox	-4717
▁wing	-4718
▁Ha	-4719
▁Further	-4720
▁Prot	-4721
▁suggests	-4722
▁writers	-4723
▁economy	-4724
▁Chris	-4725
▁expect	-4726
▁Hy	-4727
▁apparent	-4728
▁hus	-4729
▁Luc	-4730
▁Academy	-4731
icine	-4732
▁bodies	-4733
▁Though	-4734
▁mut	-4735
▁concluded	-4736
writ	-4737
▁formation	-4738
izations	-4739
▁Gal	-4740
▁visual	-4741
▁accur	-4742
▁Williams	-4743
▁expressed	-4744
▁Esp	-4745
miral	-4746
▁doll	-4747
▁existing	-4748
▁Lee	-4749
▁tail	-4750
thur	-4751
▁fresh	-4752
▁rules	-4753
▁importance	-4754
▁150	-4755
iced	-4756
▁mouth	-4757
▁homes	-4758
▁Italy	-4759
▁worth	-4760
bl	-4761
ón	-4762
▁safe	-4763
iments	-4764
▁sche	-4765
▁advanced	-4766
▁Tim	-4767
▁dance	-4768
vest	-4769
▁shape	-4770
▁Parliament	-4771
▁joint	-4772
▁mo	-4773
▁hero	-4774
anes	-4775
▁Middle	-4776
▁micro	-4777
▁Land	-4778
onent	-4779
▁philos	-4780
while	-4781
▁veget	-4782
▁era	-4783
▁attrib	-4784
▁Conf	-4785
▁instrument	-4786
▁appropri	-4787
▁authority	-4788
▁Nat	-4789
▁poet	-4790
▁Tem	-4791
án	-4792
illery	-4793
ss	-4794
▁sac	-4795
▁transform	-4796
▁und	-4797
▁47	-4798
ieut	-4799
▁beat	-4800
ez	-4801
osen	-4802
▁feed	-4803
▁heard	-4804
thlet	-4805
▁owned	-4806
▁stating	-4807
▁Little	-4808
perial	-4809
▁Tri	-4810
orses	-4811
▁yard	-4812
ois	-4813
ograp	-4814
▁wit	-4815
In	-4816
ras	-4817
▁failure	-4818
▁goes	-4819
▁cry	-4820
▁doesn	-4821
antasy	-4822
▁healthy	-4823
▁Jesus	-4824
▁determine	-4825
▁border	-4826
▁Team	-4827
▁influenced	-4828
▁Aven	-4829
▁Boston	-4830
▁images	-4831
▁Clark	-4832
▁hair	-4833
▁crow	-4834
▁transferred	-4835
▁floor	-4836
▁sought	-4837
▁master	-4838
EA	-4839
book	-4840
▁concert	-4841
▁metres	-4842
▁Form	-4843
▁Ram	-4844
▁join	-4845
▁Final	-4846
▁surrounding	-4847
▁Stone	-4848
▁#	-4849
▁drop	-4850
▁Civil	-4851
▁Swed	-4852
▁difference	-4853
▁History	-4854
▁models	-4855
▁cert	-4856
▁consequ	-4857
pro	-4858
hips	-4859
▁tells	-4860
▁artists	-4861
▁Northern	-4862
▁couple	-4863
▁quant	-4864
▁drive	-4865
▁48	-4866
▁industrial	-4867
▁seconds	-4868
▁thir	-4869
TV	-4870
awn	-4871
▁tal	-4872
▁Hung	-4873
▁Charl	-4874
▁represented	-4875
▁bra	-4876
ancing	-4877
▁2.	-4878
▁benefits	-4879
▁follows	-4880
▁Int	-4881
rogen	-4882
▁costs	-4883
▁figures	-4884
▁Way	-4885
entially	-4886
iano	-4887
▁1988	-4888
ologist	-4889
▁regions	-4890
iat	-4891
▁Educ	-4892
▁drum	-4893
▁district	-4894
▁Ill	-4895
▁claims	-4896
▁Public	-4897
▁strateg	-4898
▁55	-4899
▁county	-4900
▁belief	-4901
▁everything	-4902
▁Mic	-4903
▁bacter	-4904
▁defined	-4905
▁autom	-4906
▁Jud	-4907
▁acting	-4908
▁confirmed	-4909
rich	-4910
▁Penns	-4911
▁Norm	-4912
▁walls	-4913
under	-4914
ifically	-4915
ogen	-4916
▁Prince	-4917
oles	-4918
abeth	-4919
▁Writ	-4920
▁perhaps	-4921
▁rot	-4922
▁citizens	-4923
time	-4924
rad	-4925
▁gained	-4926
▁weaken	-4927
▁pale	-4928
▁proved	-4929
▁1987	-4930
phy	-4931
ieutenant	-4932
▁Infantry	-4933
▁unf	-4934
rog	-4935
▁Chief	-4936
▁Carolina	-4937
▁Manc	-4938
▁inh	-4939
▁ahead	-4940
▁improved	-4941
▁calling	-4942
▁determined	-4943
▁tun	-4944
▁mentioned	-4945
▁Ott	-4946
▁essential	-4947
▁1942	-4948
▁passing	-4949
▁subsequent	-4950
▁worldwide	-4951
▁remark	-4952
▁inch	-4953
▁Major	-4954
▁shell	-4955
ici	-4956
▁gain	-4957
ayer	-4958
ylvan	-4959
▁coach	-4960
▁Pers	-4961
▁coal	-4962
ibl	-4963
atched	-4964
IS	-4965
▁structures	-4966
▁Ec	-4967
▁camer	-4968
▁nuclear	-4969
▁virt	-4970
▁sand	-4971
▁Fe	-4972
▁perman	-4973
▁performances	-4974
▁capture	-4975
▁significantly	-4976
embly	-4977
adel	-4978
▁1920	-4979
ingly	-4980
▁Valley	-4981
▁reaching	-4982
▁Ray	-4983
▁Fall	-4984
▁Mem	-4985
anna	-4986
ushed	-4987
▁selling	-4988
▁household	-4989
▁65	-4990
▁maintain	-4991
▁Young	-4992
▁limit	-4993
▁chance	-4994
▁applied	-4995
▁creation	-4996
ouv	-4997
▁UN	-4998
iar	-4999
▁Brad	-5000
mond	-5001
▁Far	-5002
▁akt	-5003
▁straight	-5004
gal	-5005
gest	-5006
▁Philipp	-5007
▁designated	-5008
▁1986	-5009
▁background	-5010
vis	-5011
▁label	-5012
org	-5013
▁sout	-5014
▁note	-5015
▁Elect	-5016
▁broke	-5017
hew	-5018
▁Foot	-5019
▁advantage	-5020
▁instruct	-5021
lers	-5022
▁twice	-5023
-2	-5024
▁Arm	-5025
erved	-5026
▁Records	-5027
▁Top	-5028
▁Men	-5029
▁urban	-5030
▁store	-5031
▁Games	-5032
▁mist	-5033
▁resistance	-5034
▁brown	-5035
wise	-5036
▁Hal	-5037
▁occurs	-5038
▁elev	-5039
▁objects	-5040
▁planning	-5041
▁1945	-5042
▁struck	-5043
▁Ell	-5044
tic	-5045
osaur	-5046
▁Eliz	-5047
▁Madonna	-5048
▁save	-5049
izyon	-5050
track	-5051
iana	-5052
▁Inc	-5053
▁Fim	-5054
▁Asia	-5055
▁cyclone	-5056
ella	-5057
▁weapons	-5058
▁Captain	-5059
▁equal	-5060
stone	-5061
▁occasion	-5062
▁Develop	-5063
▁contemporary	-5064
prise	-5065
▁vocal	-5066
▁42	-5067
▁journ	-5068
▁Ocean	-5069
agement	-5070
▁Rod	-5071
▁territory	-5072
illing	-5073
▁university	-5074
▁Light	-5075
▁1944	-5076
▁stre	-5077
▁castle	-5078
▁Rom	-5079
▁heavily	-5080
rec	-5081
respond	-5082
▁Bus	-5083
▁alongside	-5084
igg	-5085
▁Pier	-5086
▁husband	-5087
▁Let	-5088
▁crop	-5089
▁unknown	-5090
range	-5091
▁ring	-5092
coh	-5093
▁prominent	-5094
uting	-5095
▁titled	-5096
▁helps	-5097
▁defense	-5098
▁Stephen	-5099
ym	-5100
rid	-5101
▁championship	-5102
▁hope	-5103
▁fruit	-5104
▁yellow	-5105
▁price	-5106
▁chosen	-5107
iful	-5108
ala	-5109
▁propos	-5110
".	-5111
▁delay	-5112
▁Bridge	-5113
▁Rog	-5114
▁Prof	-5115
ishes	-5116
ournament	-5117
▁adopted	-5118
▁Bat	-5119
▁defend	-5120
▁proced	-5121
▁Our	-5122
▁pilot	-5123
▁remember	-5124
▁diam	-5125
aven	-5126
▁arms	-5127
▁accident	-5128
▁memory	-5129
▁viewers	-5130
▁Journal	-5131
▁experienced	-5132
▁kat	-5133
▁column	-5134
▁1941	-5135
▁Dutch	-5136
▁analy	-5137
▁auth	-5138
AC	-5139
▁select	-5140
▁Bern	-5141
cious	-5142
pris	-5143
oking	-5144
▁techniques	-5145
▁adults	-5146
▁maintained	-5147
▁contained	-5148
▁BBC	-5149
▁belong	-5150
▁Dam	-5151
▁grew	-5152
ographic	-5153
▁featuring	-5154
▁lic	-5155
▁elimin	-5156
▁bed	-5157
tar	-5158
▁Dec	-5159
▁Mu	-5160
quarters	-5161
orped	-5162
▁narrow	-5163
▁Bas	-5164
▁connected	-5165
▁laid	-5166
▁invasion	-5167
▁doctor	-5168
▁rating	-5169
▁termin	-5170
▁44	-5171
▁sequence	-5172
aming	-5173
▁alternative	-5174
▁height	-5175
▁Victoria	-5176
▁molec	-5177
inder	-5178
▁mental	-5179
ylvania	-5180
▁possibly	-5181
▁aid	-5182
▁Mean	-5183
▁captain	-5184
▁Fam	-5185
ucky	-5186
▁controlled	-5187
roll	-5188
▁volume	-5189
▁Tay	-5190
AF	-5191
▁Addition	-5192
▁Admiral	-5193
▁agreement	-5194
iday	-5195
▁peaked	-5196
▁prepared	-5197
▁64	-5198
ounger	-5199
bur	-5200
▁learned	-5201
ato	-5202
ev	-5203
sect	-5204
▁literature	-5205
▁Common	-5206
aved	-5207
▁Plan	-5208
▁resc	-5209
▁ign	-5210
▁tank	-5211
▁scoring	-5212
isco	-5213
▁teaching	-5214
▁describes	-5215
▁senior	-5216
ba	-5217
▁MD	-5218
▁Line	-5219
chest	-5220
▁achieved	-5221
▁x	-5222
▁offers	-5223
ora	-5224
ocked	-5225
▁argued	-5226
▁District	-5227
▁code	-5228
vious	-5229
▁Series	-5230
▁rates	-5231
aga	-5232
▁values	-5233
▁ends	-5234
▁budget	-5235
▁teeth	-5236
▁Battalion	-5237
▁43	-5238
▁Christmas	-5239
▁rich	-5240
▁Early	-5241
▁IMD	-5242
▁Ohio	-5243
▁Harrison	-5244
▁sports	-5245
▁Spain	-5246
▁glass	-5247
▁leadership	-5248
▁etc	-5249
▁vote	-5250
▁naval	-5251
▁Cla	-5252
attle	-5253
▁Su	-5254
ban	-5255
▁nor	-5256
▁1943	-5257
ordin	-5258
issions	-5259
ipe	-5260
▁repeated	-5261
da	-5262
▁promoted	-5263
▁Corn	-5264
▁actor	-5265
▁Manchester	-5266
▁core	-5267
▁isol	-5268
▁Russia	-5269
▁versions	-5270
▁Techn	-5271
▁sort	-5272
stream	-5273
▁visited	-5274
78	-5275
▁fear	-5276
▁items	-5277
):	-5278
▁CD	-5279
▁Eastern	-5280
ager	-5281
▁sets	-5282
▁extensive	-5283
▁Ra	-5284
▁consec	-5285
ta	-5286
▁Today	-5287
▁Sand	-5288
▁emerg	-5289
▁About	-5290
▁46	-5291
▁centuries	-5292
▁extremely	-5293
▁Ko	-5294
▁tiss	-5295
▁faced	-5296
▁containing	-5297
▁Croat	-5298
▁details	-5299
▁hall	-5300
▁differences	-5301
iken	-5302
▁correspond	-5303
▁Exp	-5304
▁Then	-5305
▁protein	-5306
mes	-5307
▁Dun	-5308
▁encoun	-5309
▁northeast	-5310
itors	-5311
omew	-5312
▁Lar	-5313
▁focused	-5314
othes	-5315
inger	-5316
▁depend	-5317
▁roll	-5318
▁properties	-5319
▁executive	-5320
▁*	-5321
▁Chap	-5322
▁motion	-5323
▁reaction	-5324
▁motor	-5325
eller	-5326
▁shortly	-5327
▁lands	-5328
osa	-5329
▁Irish	-5330
ighth	-5331
▁opposed	-5332
essions	-5333
▁horses	-5334
▁exped	-5335
▁escape	-5336
▁trust	-5337
▁launch	-5338
▁violence	-5339
▁dial	-5340
▁trav	-5341
▁vehicles	-5342
town	-5343
▁lov	-5344
▁htt	-5345
▁firm	-5346
▁prompt	-5347
▁successfully	-5348
▁seasons	-5349
▁stations	-5350
▁split	-5351
ya	-5352
▁administration	-5353
pson	-5354
amber	-5355
▁torped	-5356
▁negoti	-5357
▁sixth	-5358
▁combination	-5359
▁sam	-5360
▁statement	-5361
▁Avenue	-5362
▁Os	-5363
▁52	-5364
▁Brigade	-5365
rat	-5366
era	-5367
▁serving	-5368
▁1985	-5369
▁officially	-5370
▁Orig	-5371
▁evolution	-5372
▁newly	-5373
▁regarding	-5374
▁stream	-5375
▁wave	-5376
standing	-5377
reyòl	-5378
▁Among	-5379
▁broken	-5380
▁displ	-5381
ji	-5382
isters	-5383
▁kg	-5384
▁symbol	-5385
▁measures	-5386
▁editor	-5387
▁vocals	-5388
▁existence	-5389
▁Show	-5390
arts	-5391
lines	-5392
▁Albert	-5393
▁Home	-5394
▁Field	-5395
▁AD	-5396
▁Hard	-5397
▁tests	-5398
ricket	-5399
▁Elizabeth	-5400
▁honor	-5401
▁Cat	-5402
▁entirely	-5403
▁testing	-5404
▁accompan	-5405
▁thin	-5406
▁useful	-5407
yan	-5408
▁paralle	-5409
uration	-5410
▁decades	-5411
▁Ob	-5412
▁shared	-5413
umes	-5414
▁liber	-5415
▁solar	-5416
ima	-5417
.)	-5418
▁facilities	-5419
▁organized	-5420
▁everyone	-5421
▁returning	-5422
▁Marsh	-5423
▁patient	-5424
▁protected	-5425
▁authorities	-5426
▁Nic	-5427
▁rainfall	-5428
▁enh	-5429
oured	-5430
▁thousands	-5431
▁rapidly	-5432
▁wealth	-5433
ads	-5434
▁Cub	-5435
▁faith	-5436
▁Musl	-5437
▁closely	-5438
elve	-5439
erse	-5440
▁Regiment	-5441
▁Alexander	-5442
▁Lew	-5443
▁actual	-5444
70	-5445
▁Card	-5446
rence	-5447
▁Bey	-5448
▁Pen	-5449
▁northwest	-5450
▁finding	-5451
▁turns	-5452
▁standards	-5453
▁dram	-5454
▁deploy	-5455
erate	-5456
pping	-5457
▁pul	-5458
▁Gre	-5459
▁consists	-5460
66	-5461
TC	-5462
▁Revolution	-5463
▁behavi	-5464
▁install	-5465
▁NH	-5466
▁mort	-5467
▁Rem	-5468
▁Jon	-5469
▁Cur	-5470
▁descript	-5471
▁Week	-5472
▁expansion	-5473
▁clin	-5474
kin	-5475
▁innings	-5476
▁orders	-5477
▁sched	-5478
▁wick	-5479
▁Andrew	-5480
▁exercise	-5481
▁recognized	-5482
▁lat	-5483
▁thinking	-5484
▁guard	-5485
▁Gall	-5486
▁franse	-5487
zil	-5488
omy	-5489
va	-5490
▁standing	-5491
ii	-5492
3.	-5493
▁artillery	-5494
▁pregn	-5495
▁Ep	-5496
arp	-5497
▁Hu	-5498
▁row	-5499
▁silver	-5500
▁consisted	-5501
orship	-5502
▁1984	-5503
▁182	-5504
▁Every	-5505
▁Office	-5506
▁Board	-5507
▁reign	-5508
▁Prov	-5509
▁Short	-5510
▁examples	-5511
▁Entertain	-5512
▁roles	-5513
▁IMDb	-5514
ati	-5515
▁recommended	-5516
met	-5517
▁distribution	-5518
▁teacher	-5519
▁eval	-5520
▁neut	-5521
▁Upon	-5522
▁income	-5523
▁600	-5524
ext	-5525
rons	-5526
▁chose	-5527
▁Ul	-5528
▁nominated	-5529
▁Only	-5530
eration	-5531
▁bottom	-5532
▁letters	-5533
▁Wilson	-5534
istan	-5535
▁substant	-5536
▁Blue	-5537
oz	-5538
icate	-5539
▁collected	-5540
▁Thus	-5541
▁Colon	-5542
ava	-5543
▁device	-5544
▁fired	-5545
ca	-5546
▁message	-5547
▁Roll	-5548
inity	-5549
▁losing	-5550
unte	-5551
▁solution	-5552
▁benefit	-5553
▁aspects	-5554
▁opposition	-5555
▁vary	-5556
rows	-5557
▁din	-5558
ksyon	-5559
vant	-5560
▁challenge	-5561
orders	-5562
kins	-5563
rance	-5564
▁Coast	-5565
▁regarded	-5566
▁dedicated	-5567
▁answer	-5568
▁application	-5569
▁Sund	-5570
▁roof	-5571
▁selection	-5572
▁1968	-5573
ocated	-5574
rete	-5575
▁Lab	-5576
uled	-5577
▁Due	-5578
add	-5579
▁calls	-5580
▁herself	-5581
▁generation	-5582
▁Liber	-5583
▁Bond	-5584
▁warm	-5585
▁phase	-5586
ping	-5587
▁religion	-5588
▁internal	-5589
ouri	-5590
akers	-5591
▁kont	-5592
▁roads	-5593
▁Jersey	-5594
ashion	-5595
▁locations	-5596
-19	-5597
▁Fleet	-5598
▁newspaper	-5599
outs	-5600
based	-5601
▁picture	-5602
illy	-5603
▁passes	-5604
▁Die	-5605
▁operated	-5606
encies	-5607
▁operating	-5608
▁knew	-5609
▁DNA	-5610
▁Guard	-5611
▁flying	-5612
▁Taylor	-5613
▁unus	-5614
▁Entertainment	-5615
▁Pennsylvania	-5616
▁Bul	-5617
▁Scient	-5618
▁younger	-5619
▁historian	-5620
▁Polish	-5621
▁kids	-5622
▁steel	-5623
▁increasingly	-5624
ns	-5625
etts	-5626
▁request	-5627
▁killing	-5628
oir	-5629
▁identify	-5630
▁communication	-5631
▁Zèv	-5632
▁Governor	-5633
▁tren	-5634
▁Women	-5635
▁alcoh	-5636
▁menm	-5637
▁Never	-5638
▁street	-5639
ano	-5640
▁council	-5641
enger	-5642
▁SS	-5643
pton	-5644
▁1979	-5645
oral	-5646
AN	-5647
▁secondary	-5648
▁rom	-5649
▁introduction	-5650
pir	-5651
▁solid	-5652
inth	-5653
ophy	-5654
▁Ven	-5655
azz	-5656
▁Gi	-5657
▁Germ	-5658
▁assault	-5659
▁granted	-5660
▁strike	-5661
▁supporting	-5662
osy	-5663
▁Girl	-5664
▁vo	-5665
▁concerns	-5666
▁powers	-5667
▁Att	-5668
ports	-5669
isa	-5670
▁showing	-5671
pool	-5672
▁casual	-5673
ua	-5674
itis	-5675
equ	-5676
▁Senate	-5677
▁fan	-5678
▁wrong	-5679
▁youth	-5680
▁Found	-5681
▁promote	-5682
▁requires	-5683
▁mountain	-5684
▁absor	-5685
▁1967	-5686
▁Crit	-5687
▁governor	-5688
▁fellow	-5689
▁Islands	-5690
▁reality	-5691
▁depth	-5692
▁edge	-5693
▁abandoned	-5694
▁else	-5695
▁Scottish	-5696
hemat	-5697
▁Duke	-5698
▁connection	-5699
▁chair	-5700
▁scholars	-5701
▁waste	-5702
▁Project	-5703
▁Conn	-5704
▁incident	-5705
▁producers	-5706
▁map	-5707
▁kid	-5708
iot	-5709
iable	-5710
ilasyon	-5711
pective	-5712
▁Education	-5713
▁revolution	-5714
▁Mir	-5715
▁populations	-5716
▁wounded	-5717
▁ven	-5718
▁distingu	-5719
▁1983	-5720
▁boat	-5721
▁paint	-5722
▁interested	-5723
▁rear	-5724
▁teachers	-5725
▁cloud	-5726
▁Instead	-5727
gian	-5728
▁Tro	-5729
▁advert	-5730
▁sufficient	-5731
▁strik	-5732
▁Who	-5733
vey	-5734
▁adding	-5735
▁caught	-5736
90	-5737
▁seat	-5738
▁soundtrack	-5739
▁journey	-5740
▁vacc	-5741
▁fim	-5742
▁achieve	-5743
▁Wild	-5744
▁Review	-5745
▁feeling	-5746
▁mal	-5747
▁Bank	-5748
ternal	-5749
▁2017	-5750
▁classes	-5751
1,	-5752
▁Web	-5753
risis	-5754
▁albums	-5755
antine	-5756
▁Georgia	-5757
▁acquired	-5758
▁Az	-5759
IV	-5760
▁armed	-5761
▁trou	-5762
▁Stand	-5763
▁software	-5764
▁circum	-5765
▁expanded	-5766
▁infection	-5767
▁ready	-5768
utation	-5769
▁islands	-5770
oln	-5771
▁explos	-5772
▁Bart	-5773
▁views	-5774
▁Cop	-5775
▁95	-5776
▁intensity	-5777
▁exchange	-5778
▁myth	-5779
▁Hurricane	-5780
ceived	-5781
BA	-5782
▁Cambridge	-5783
▁criticized	-5784
▁fields	-5785
▁nob	-5786
▁opinion	-5787
▁fiction	-5788
IN	-5789
▁stages	-5790
▁specifically	-5791
ycl	-5792
▁deaths	-5793
▁Est	-5794
▁practices	-5795
▁recommend	-5796
▁fought	-5797
▁tools	-5798
▁cart	-5799
▁Night	-5800
zen	-5801
▁Columbia	-5802
▁Rome	-5803
▁reyal	-5804
▁Ric	-5805
▁participated	-5806
▁Holly	-5807
▁Joe	-5808
▁appearances	-5809
▁Homer	-5810
▁1969	-5811
▁Francisco	-5812
▁appropriate	-5813
▁freedom	-5814
rann	-5815
▁witness	-5816
▁parallel	-5817
▁finds	-5818
▁Key	-5819
heim	-5820
▁buy	-5821
ockey	-5822
▁studied	-5823
▁manner	-5824
▁kick	-5825
▁receiving	-5826
ologies	-5827
ructure	-5828
raction	-5829
▁Brazil	-5830
apes	-5831
▁Mah	-5832
▁1982	-5833
power	-5834
▁Rh	-5835
▁guest	-5836
onc	-5837
▁somew	-5838
▁holding	-5839
▁debuted	-5840
▁Space	-5841
ective	-5842
▁Bru	-5843
▁die	-5844
orough	-5845
▁experiences	-5846
▁ha	-5847
▁diseases	-5848
▁Mov	-5849
▁doct	-5850
▁breat	-5851
intend	-5852
▁drawn	-5853
idel	-5854
▁treated	-5855
▁Meanwhile	-5856
adelph	-5857
▁fine	-5858
▁Well	-5859
pper	-5860
▁Harry	-5861
▁insect	-5862
▁foods	-5863
eless	-5864
▁deck	-5865
▁contributed	-5866
▁End	-5867
▁cars	-5868
▁Treat	-5869
render	-5870
▁Hon	-5871
▁instance	-5872
orage	-5873
▁museum	-5874
▁Nan	-5875
▁actors	-5876
▁1975	-5877
▁evac	-5878
▁120	-5879
rations	-5880
▁Pot	-5881
▁Down	-5882
gent	-5883
▁aired	-5884
▁WW	-5885
▁stret	-5886
ampion	-5887
ilding	-5888
▁divers	-5889
▁vision	-5890
thes	-5891
▁1976	-5892
▁Telev	-5893
▁branch	-5894
▁concer	-5895
▁producing	-5896
gery	-5897
▁interpret	-5898
▁pret	-5899
aste	-5900
▁Beat	-5901
▁Allied	-5902
▁domestic	-5903
uro	-5904
▁genetic	-5905
▁Gil	-5906
▁exposure	-5907
nic	-5908
iform	-5909
▁domèn	-5910
▁3.	-5911
▁engaged	-5912
▁Jews	-5913
▁rival	-5914
▁Festival	-5915
▁atmosphere	-5916
avig	-5917
rim	-5918
ician	-5919
▁resident	-5920
▁Lind	-5921
▁Philadelph	-5922
▁vent	-5923
▁committee	-5924
▁excess	-5925
▁secure	-5926
▁approved	-5927
▁mile	-5928
▁Gree	-5929
▁Football	-5930
▁choose	-5931
▁effectively	-5932
▁Arthur	-5933
▁innov	-5934
▁factor	-5935
▁dismiss	-5936
▁capable	-5937
▁tower	-5938
▁withdraw	-5939
▁offensive	-5940
▁1939	-5941
▁sport	-5942
▁tom	-5943
life	-5944
▁util	-5945
▁Ash	-5946
▁Hit	-5947
▁session	-5948
rome	-5949
ushing	-5950
▁identity	-5951
▁landing	-5952
▁parties	-5953
manuel	-5954
▁battery	-5955
▁Linc	-5956
tor	-5957
▁rejected	-5958
▁signs	-5959
ignment	-5960
▁interesting	-5961
▁Tech	-5962
pe	-5963
▁1964	-5964
aph	-5965
char	-5966
▁wel	-5967
▁1965	-5968
▁Mike	-5969
▁rural	-5970
▁85	-5971
▁railway	-5972
▁Secretary	-5973
mun	-5974
▁foss	-5975
▁illness	-5976
▁Point	-5977
▁Children	-5978
▁Mos	-5979
PA	-5980
▁depict	-5981
rees	-5982
break	-5983
BN	-5984
▁hear	-5985
▁twelve	-5986
▁authors	-5987
▁drugs	-5988
greg	-5989
onia	-5990
▁Castle	-5991
ivite	-5992
▁consecutive	-5993
▁Marc	-5994
▁ek	-5995
▁flat	-5996
uzz	-5997
▁1973	-5998
▁unp	-5999
▁typical	-6000
▁Philadelphia	-6001
ira	-6002
▁54	-6003
▁tournament	-6004
▁tele	-6005
▁1974	-6006
▁painting	-6007
▁poem	-6008
isers	-6009
ivalent	-6010
▁Sus	-6011
▁devices	-6012
▁huge	-6013
▁employed	-6014
elle	-6015
és	-6016
▁publication	-6017
▁temperatures	-6018
▁complic	-6019
▁filled	-6020
▁performing	-6021
▁Naz	-6022
▁Bal	-6023
▁discover	-6024
▁singles	-6025
asty	-6026
igen	-6027
yles	-6028
▁genus	-6029
▁cycle	-6030
▁catch	-6031
orus	-6032
▁1972	-6033
▁virus	-6034
▁Lincoln	-6035
▁academic	-6036
ansas	-6037
▁AC	-6038
▁constitution	-6039
▁Burn	-6040
▁1966	-6041
▁trip	-6042
itled	-6043
imet	-6044
▁Var	-6045
▁Coll	-6046
▁anyone	-6047
▁Sher	-6048
▁Operation	-6049
itage	-6050
▁crossing	-6051
rm	-6052
icit	-6053
▁san	-6054
▁--	-6055
▁Gade	-6056
ygen	-6057
▁Special	-6058
▁purchased	-6059
▁organizations	-6060
▁gets	-6061
▁accompanied	-6062
▁Head	-6063
▁driving	-6064
▁Power	-6065
▁Lang	-6066
▁undert	-6067
▁acts	-6068
bar	-6069
agan	-6070
▁aktivite	-6071
▁briefly	-6072
▁Republican	-6073
▁obtained	-6074
▁crowd	-6075
▁favour	-6076
▁tall	-6077
▁leads	-6078
▁shel	-6079
▁Six	-6080
▁processes	-6081
▁heads	-6082
▁occupied	-6083
umin	-6084
▁viewed	-6085
iate	-6086
▁sustain	-6087
▁conference	-6088
▁53	-6089
uan	-6090
achus	-6091
▁Live	-6092
istered	-6093
jo	-6094
▁Why	-6095
▁balance	-6096
▁finish	-6097
▁kon	-6098
▁unl	-6099
▁truth	-6100
▁composition	-6101
▁1971	-6102
▁Bi	-6103
▁gross	-6104
eper	-6105
▁Turn	-6106
▁Mot	-6107
theless	-6108
iger	-6109
▁Jenn	-6110
▁•	-6111
▁Hun	-6112
rates	-6113
▁apart	-6114
▁context	-6115
▁grass	-6116
▁Islam	-6117
▁Development	-6118
ès	-6119
▁overl	-6120
▁stock	-6121
▁1978	-6122
▁decade	-6123
▁Engine	-6124
▁Indust	-6125
▁Social	-6126
▁strate	-6127
▁roughly	-6128
▁recru	-6129
▁fashion	-6130
formation	-6131
then	-6132
▁starts	-6133
▁strategy	-6134
▁Square	-6135
nce	-6136
▁Ca	-6137
▁turning	-6138
▁concerned	-6139
▁rhy	-6140
▁intelligence	-6141
▁retired	-6142
▁gall	-6143
▁56	-6144
othing	-6145
▁essay	-6146
▁technical	-6147
▁Program	-6148
▁phen	-6149
▁consult	-6150
IC	-6151
▁Lear	-6152
▁Doctor	-6153
▁Studios	-6154
▁responsibility	-6155
awa	-6156
▁Hay	-6157
ifications	-6158
▁1981	-6159
▁relative	-6160
▁missing	-6161
▁surrender	-6162
FA	-6163
▁800	-6164
▁Conference	-6165
▁arrival	-6166
▁ocean	-6167
idden	-6168
▁cab	-6169
▁ri	-6170
▁Sound	-6171
▁vit	-6172
▁snow	-6173
ensus	-6174
▁kilometres	-6175
osite	-6176
▁expand	-6177
▁applications	-6178
▁supplies	-6179
▁patterns	-6180
▁emotional	-6181
ologists	-6182
▁Ast	-6183
▁Fantasy	-6184
▁178	-6185
▁See	-6186
▁predict	-6187
lig	-6188
onym	-6189
▁agent	-6190
▁increases	-6191
▁remove	-6192
▁Jr	-6193
BS	-6194
achusetts	-6195
▁losses	-6196
roc	-6197
▁technique	-6198
▁Brook	-6199
▁infantry	-6200
▁advent	-6201
ulpt	-6202
▁singing	-6203
▁enl	-6204
▁eating	-6205
▁Po	-6206
▁download	-6207
enses	-6208
▁Bell	-6209
▁upgr	-6210
▁Massachusetts	-6211
▁flooding	-6212
▁van	-6213
▁alcohol	-6214
olt	-6215
▁Earl	-6216
▁Lewis	-6217
OR	-6218
ée	-6219
rum	-6220
▁squadron	-6221
iciency	-6222
▁functions	-6223
▁relationships	-6224
▁Ok	-6225
▁ty	-6226
▁liqu	-6227
▁door	-6228
▁satis	-6229
▁pè	-6230
▁Liver	-6231
▁ord	-6232
▁vul	-6233
elly	-6234
▁Michel	-6235
▁Miller	-6236
going	-6237
▁alle	-6238
▁headquarters	-6239
▁Gulf	-6240
▁Prime	-6241
▁soul	-6242
▁themes	-6243
▁vehicle	-6244
urance	-6245
▁1914	-6246
▁carrying	-6247
▁Pu	-6248
ilton	-6249
▁permanent	-6250
▁Wars	-6251
▁Korean	-6252
▁Command	-6253
▁explain	-6254
▁Shak	-6255
▁indicated	-6256
▁Mul	-6257
▁Human	-6258
unicip	-6259
▁infect	-6260
▁commissioned	-6261
▁steps	-6262
▁filmed	-6263
▁41	-6264
agues	-6265
▁Ari	-6266
EC	-6267
▁policies	-6268
▁Between	-6269
abil	-6270
▁Supreme	-6271
▁otherwise	-6272
▁garden	-6273
▁eggs	-6274
▁Forest	-6275
▁filming	-6276
▁bond	-6277
avalry	-6278
▁transition	-6279
▁Anderson	-6280
erg	-6281
atically	-6282
▁Roberto	-6283
▁independence	-6284
▁Bad	-6285
▁Tam	-6286
▁aer	-6287
bal	-6288
▁surpris	-6289
▁steam	-6290
▁sounds	-6291
▁merch	-6292
▁dangerous	-6293
▁ban	-6294
▁1918	-6295
▁seventh	-6296
▁designs	-6297
▁Balt	-6298
▁dens	-6299
icians	-6300
cknow	-6301
▁linked	-6302
▁sections	-6303
▁bass	-6304
▁vessels	-6305
IT	-6306
▁1977	-6307
▁earliest	-6308
▁gradually	-6309
igration	-6310
▁drama	-6311
▁Profess	-6312
▁Id	-6313
75	-6314
▁crime	-6315
▁relief	-6316
▁grade	-6317
▁slowly	-6318
▁Frit	-6319
▁characteristics	-6320
ooth	-6321
▁regional	-6322
▁interests	-6323
▁sole	-6324
▁athlet	-6325
▁Gro	-6326
▁fly	-6327
▁von	-6328
▁scheduled	-6329
▁Back	-6330
ikal	-6331
▁decline	-6332
▁ori	-6333
box	-6334
▁IV	-6335
▁boats	-6336
▁titles	-6337
▁wonder	-6338
▁bright	-6339
▁exposed	-6340
▁interchange	-6341
▁Budd	-6342
▁reprodu	-6343
▁regularly	-6344
ivered	-6345
ía	-6346
▁emergency	-6347
▁teach	-6348
ector	-6349
▁Bon	-6350
▁Tropical	-6351
▁upd	-6352
▁Spring	-6353
▁camera	-6354
icide	-6355
▁Nap	-6356
▁mounted	-6357
▁derived	-6358
▁Organ	-6359
▁entry	-6360
gers	-6361
ipping	-6362
▁ceremony	-6363
lee	-6364
▁changing	-6365
una	-6366
▁Cas	-6367
worth	-6368
mann	-6369
oli	-6370
▁defence	-6371
▁shark	-6372
▁landsc	-6373
uations	-6374
▁renew	-6375
▁expedition	-6376
▁Davis	-6377
▁users	-6378
ossible	-6379
▁Ve	-6380
▁baby	-6381
▁credit	-6382
▁exclus	-6383
▁sed	-6384
▁arc	-6385
▁Grant	-6386
▁personnel	-6387
▁(200	-6388
▁possibility	-6389
idges	-6390
athan	-6391
▁tick	-6392
▁pric	-6393
▁solo	-6394
▁76	-6395
▁torpedo	-6396
▁shaped	-6397
apore	-6398
▁formal	-6399
▁buried	-6400
▁bacteria	-6401
▁corpor	-6402
etball	-6403
ED	-6404
don	-6405
▁Whe	-6406
▁Ty	-6407
▁alt	-6408
▁web	-6409
▁ISBN	-6410
espread	-6411
▁Constitution	-6412
▁zone	-6413
ila	-6414
▁proceed	-6415
▁raise	-6416
▁coastal	-6417
unch	-6418
wall	-6419
▁funds	-6420
▁Germans	-6421
▁criticism	-6422
▁kèk	-6423
▁Univers	-6424
▁sell	-6425
ador	-6426
▁delivered	-6427
▁Ross	-6428
▁converted	-6429
▁lap	-6430
▁Federal	-6431
▁Independ	-6432
▁politics	-6433
▁acres	-6434
▁speaking	-6435
▁1,	-6436
▁Ur	-6437
edia	-6438
▁colour	-6439
▁Walter	-6440
▁Broad	-6441
▁describe	-6442
▁Moon	-6443
▁notable	-6444
▁Age	-6445
▁Ta	-6446
taining	-6447
▁SR	-6448
▁send	-6449
▁oxygen	-6450
lan	-6451
22	-6452
▁possess	-6453
▁defensive	-6454
▁Singapore	-6455
▁acknow	-6456
vements	-6457
▁Order	-6458
▁frag	-6459
▁convent	-6460
▁semi	-6461
▁58	-6462
▁Ken	-6463
▁taught	-6464
▁subs	-6465
champ	-6466
▁astron	-6467
▁250	-6468
▁Steve	-6469
organ	-6470
▁Kentucky	-6471
▁Fair	-6472
▁debate	-6473
▁assistance	-6474
▁gwo	-6475
▁Lady	-6476
▁enjoyed	-6477
▁Pass	-6478
obe	-6479
▁2018	-6480
▁option	-6481
▁movements	-6482
▁occas	-6483
▁purchase	-6484
ante	-6485
▁ò	-6486
▁sculpt	-6487
▁Emperor	-6488
ito	-6489
▁discovery	-6490
upt	-6491
▁attached	-6492
▁Dark	-6493
iveness	-6494
▁franch	-6495
▁comedy	-6496
▁popularity	-6497
mouth	-6498
▁excell	-6499
▁settlement	-6500
▁equivalent	-6501
▁ancest	-6502
▁volunte	-6503
▁pure	-6504
▁Fritz	-6505
▁brothers	-6506
▁1917	-6507
▁installed	-6508
ompl	-6509
emble	-6510
▁visible	-6511
▁cited	-6512
ulating	-6513
▁battalion	-6514
▁Lat	-6515
▁flo	-6516
▁1915	-6517
iro	-6518
▁investigation	-6519
RA	-6520
ibb	-6521
▁helping	-6522
▁males	-6523
▁constant	-6524
aina	-6525
▁massive	-6526
▁Liverpool	-6527
aked	-6528
rets	-6529
▁1916	-6530
▁clearly	-6531
▁highlight	-6532
▁suffering	-6533
▁shut	-6534
opher	-6535
▁Democratic	-6536
▁breeding	-6537
▁jump	-6538
▁writes	-6539
▁opposite	-6540
▁Nations	-6541
▁guide	-6542
▁sud	-6543
▁girls	-6544
▁educational	-6545
▁looked	-6546
▁orchest	-6547
▁Director	-6548
ione	-6549
▁Disc	-6550
▁piano	-6551
▁estate	-6552
▁meters	-6553
▁stopped	-6554
▁compris	-6555
▁degrees	-6556
burgh	-6557
urally	-6558
ènman	-6559
▁Supp	-6560
raph	-6561
eline	-6562
▁Barb	-6563
9.	-6564
▁injured	-6565
▁PC	-6566
▁recognition	-6567
▁Daily	-6568
state	-6569
▁sugar	-6570
▁principal	-6571
▁involving	-6572
▁department	-6573
▁funding	-6574
▁66	-6575
▁Carey	-6576
▁efficient	-6577
▁1963	-6578
▁accompl	-6579
▁Walk	-6580
▁bands	-6581
▁extent	-6582
▁Olympic	-6583
▁disturb	-6584
▁fal	-6585
▁widespread	-6586
▁(20	-6587
▁Fire	-6588
▁Additionally	-6589
aser	-6590
aka	-6591
▁detailed	-6592
▁components	-6593
▁isn	-6594
▁Kir	-6595
▁1948	-6596
▁Vietnam	-6597
ali	-6598
sey	-6599
▁Ren	-6600
▁Emmanuel	-6601
▁injuries	-6602
▁crown	-6603
▁Ba	-6604
▁fè	-6605
▁shooting	-6606
▁od	-6607
▁mode	-6608
▁hearing	-6609
▁tool	-6610
▁greatly	-6611
▁Brian	-6612
▁Vill	-6613
▁engineering	-6614
▁dream	-6615
▁therapy	-6616
▁languages	-6617
friend	-6618
▁accounts	-6619
▁Storm	-6620
▁Anton	-6621
regon	-6622
▁reputation	-6623
▁Str	-6624
▁1946	-6625
▁evening	-6626
▁declined	-6627
▁indicate	-6628
▁ped	-6629
▁submar	-6630
▁hundreds	-6631
▁pig	-6632
▁Summer	-6633
▁females	-6634
▁57	-6635
▁Radio	-6636
▁Main	-6637
iminal	-6638
▁purposes	-6639
▁owner	-6640
rane	-6641
asure	-6642
▁conqu	-6643
roke	-6644
▁shop	-6645
▁towns	-6646
▁trains	-6647
▁committed	-6648
cop	-6649
▁duty	-6650
▁Offic	-6651
▁layer	-6652
hered	-6653
▁supposed	-6654
▁Lieutenant	-6655
▁Ball	-6656
▁volcan	-6657
FL	-6658
▁Han	-6659
tenance	-6660
▁Color	-6661
èz	-6662
▁difficulty	-6663
▁Alf	-6664
issance	-6665
▁storage	-6666
▁considerable	-6667
▁discussed	-6668
▁rated	-6669
▁rive	-6670
bell	-6671
▁clim	-6672
▁casualties	-6673
dy	-6674
ieval	-6675
▁pitch	-6676
▁keeping	-6677
▁tact	-6678
▁160	-6679
lets	-6680
▁corner	-6681
▁Rey	-6682
▁Hart	-6683
▁opportunities	-6684
uct	-6685
▁sik	-6686
▁Oregon	-6687
rehens	-6688
▁requirements	-6689
▁Kim	-6690
▁rebu	-6691
ader	-6692
▁ment	-6693
▁bone	-6694
▁throw	-6695
oster	-6696
▁desire	-6697
▁Gord	-6698
▁Station	-6699
▁fil	-6700
▁advice	-6701
▁extreme	-6702
ieties	-6703
▁cou	-6704
inois	-6705
▁library	-6706
unior	-6707
▁proport	-6708
▁refers	-6709
▁satell	-6710
▁Justice	-6711
ilation	-6712
▁touchdown	-6713
adow	-6714
▁sustained	-6715
▁Last	-6716
▁threatened	-6717
▁hired	-6718
▁Arts	-6719
aska	-6720
▁periods	-6721
ework	-6722
▁sudden	-6723
▁crisis	-6724
▁les	-6725
real	-6726
▁happened	-6727
▁Ly	-6728
▁Ple	-6729
riers	-6730
▁surgery	-6731
▁Confeder	-6732
manse	-6733
▁Mars	-6734
▁Pierre	-6735
▁ògan	-6736
olis	-6737
▁Byz	-6738
▁goods	-6739
▁Poland	-6740
▁candidate	-6741
▁charts	-6742
▁voy	-6743
▁dates	-6744
oto	-6745
ographer	-6746
▁74	-6747
ragon	-6748
▁99	-6749
▁professor	-6750
▁Library	-6751
atters	-6752
▁stands	-6753
▁uncle	-6754
▁chapter	-6755
▁southeast	-6756
▁kou	-6757
▁passage	-6758
▁seeing	-6759
▁gal	-6760
▁Greg	-6761
eman	-6762
▁Syd	-6763
▁Anth	-6764
▁Pict	-6765
▁Nintend	-6766
▁Disney	-6767
▁preced	-6768
aria	-6769
erted	-6770
▁destruction	-6771
▁trail	-6772
yer	-6773
▁Get	-6774
col	-6775
▁1962	-6776
▁engines	-6777
abilities	-6778
▁Robaina	-6779
▁challenges	-6780
ON	-6781
▁Nintendo	-6782
▁strongly	-6783
▁succeeded	-6784
udes	-6785
▁Lo	-6786
▁intersection	-6787
▁2004.	-6788
iration	-6789
▁neighbor	-6790
body	-6791
▁nick	-6792
www	-6793
▁Album	-6794
▁comic	-6795
▁Free	-6796
▁seed	-6797
wing	-6798
uccess	-6799
▁Popilasyon	-6800
lav	-6801
zyèm	-6802
▁Simon	-6803
▁sector	-6804
▁Labor	-6805
▁matem	-6806
▁headed	-6807
▁ju	-6808
▁Hollywood	-6809
▁immediate	-6810
aret	-6811
▁drew	-6812
▁Sunday	-6813
▁bought	-6814
roid	-6815
▁Abb	-6816
▁entrance	-6817
rine	-6818
▁Foundation	-6819
▁reserv	-6820
▁breed	-6821
▁entitled	-6822
▁Serb	-6823
▁appeal	-6824
▁dress	-6825
IA	-6826
▁arranged	-6827
▁tissue	-6828
▁temple	-6829
____	-6830
eler	-6831
emies	-6832
uable	-6833
▁neither	-6834
ommod	-6835
▁watched	-6836
▁spok	-6837
wen	-6838
▁depending	-6839
7.	-6840
ja	-6841
▁nest	-6842
insula	-6843
▁inner	-6844
ache	-6845
▁options	-6846
▁Norway	-6847
èf	-6848
▁hang	-6849
abled	-6850
▁Portug	-6851
▁Holy	-6852
▁Ron	-6853
ranean	-6854
▁51	-6855
▁Leon	-6856
▁Vide	-6857
ouvènman	-6858
▁contest	-6859
▁amounts	-6860
no	-6861
▁stick	-6862
▁charged	-6863
▁southwest	-6864
place	-6865
rieved	-6866
▁awards	-6867
▁responded	-6868
point	-6869
abetes	-6870
▁association	-6871
▁discussion	-6872
▁none	-6873
▁Golden	-6874
▁obvious	-6875
▁alf	-6876
▁chain	-6877
▁survived	-6878
▁user	-6879
▁Maria	-6880
▁minimum	-6881
▁alman	-6882
▁lose	-6883
▁Low	-6884
▁exactly	-6885
▁Maryland	-6886
▁bringing	-6887
▁stim	-6888
▁fèt	-6889
▁argument	-6890
ervative	-6891
▁decisions	-6892
▁craft	-6893
▁wet	-6894
▁Environment	-6895
▁disorder	-6896
▁cricket	-6897
▁Jane	-6898
▁ruled	-6899
ocal	-6900
▁outbreak	-6901
▁synd	-6902
▁oldest	-6903
▁decor	-6904
▁poly	-6905
▁photograph	-6906
▁swim	-6907
▁employees	-6908
▁bask	-6909
▁Chart	-6910
▁beautiful	-6911
▁electricity	-6912
▁mathemat	-6913
▁consumption	-6914
▁grown	-6915
▁59	-6916
▁Dig	-6917
▁sight	-6918
▁Tout	-6919
osh	-6920
▁comfort	-6921
▁Francis	-6922
engers	-6923
▁timoun	-6924
▁Cape	-6925
▁unusual	-6926
▁moral	-6927
▁subjects	-6928
▁Internet	-6929
rep	-6930
▁antib	-6931
▁spin	-6932
▁Similar	-6933
▁62	-6934
▁televizyon	-6935
▁NAS	-6936
▁McG	-6937
▁generated	-6938
ureau	-6939
▁Nick	-6940
▁nations	-6941
▁bear	-6942
orrow	-6943
▁stem	-6944
▁gather	-6945
▁Circ	-6946
▁extension	-6947
▁architecture	-6948
▁partner	-6949
▁serves	-6950
▁shif	-6951
▁Konst	-6952
▁Patrick	-6953
▁exception	-6954
OS	-6955
▁medium	-6956
▁amer	-6957
▁Domin	-6958
▁Adam	-6959
▁reserve	-6960
▁proposal	-6961
▁72	-6962
▁campus	-6963
▁entering	-6964
term	-6965
ashed	-6966
oked	-6967
Station	-6968
▁dezyèm	-6969
▁unsuccess	-6970
▁HMS	-6971
▁wrest	-6972
▁Railway	-6973
▁signal	-6974
amental	-6975
▁grounds	-6976
▁Ka	-6977
▁gone	-6978
▁teen	-6979
▁biggest	-6980
▁reducing	-6981
▁Cra	-6982
▁fer	-6983
▁depos	-6984
▁Pak	-6985
▁seemed	-6986
hus	-6987
▁restaur	-6988
▁tanks	-6989
▁vert	-6990
▁Dat	-6991
▁prisoners	-6992
▁Indiana	-6993
▁Imperial	-6994
▁breast	-6995
▁vulner	-6996
▁childhood	-6997
▁PlayStation	-6998
▁institutions	-6999
▁literary	-7000
▁approached	-7001
▁Hug	-7002
▁aw	-7003
▁chronic	-7004
iversary	-7005
▁1956	-7006
▁Dream	-7007
irt	-7008
▁1938	-7009
▁phr	-7010
▁assistant	-7011
oard	-7012
▁settled	-7013
▁ham	-7014
▁conclusion	-7015
▁Sel	-7016
anger	-7017
▁normally	-7018
▁articles	-7019
iated	-7020
▁mir	-7021
▁Sab	-7022
▁absol	-7023
arant	-7024
▁notice	-7025
ses	-7026
bound	-7027
▁lies	-7028
▁meat	-7029
▁chans	-7030
▁Roger	-7031
▁pull	-7032
bec	-7033
ko	-7034
▁lasted	-7035
▁Such	-7036
▁piti	-7037
▁universe	-7038
▁renamed	-7039
▁63	-7040
pat	-7041
asks	-7042
▁spons	-7043
▁closer	-7044
rell	-7045
▁Run	-7046
▁Network	-7047
▁expression	-7048
ails	-7049
fe	-7050
▁outer	-7051
▁ille	-7052
▁yield	-7053
▁Dougl	-7054
▁Colonel	-7055
▁mic	-7056
▁plate	-7057
▁retained	-7058
▁nonm	-7059
▁measured	-7060
▁neck	-7061
▁anx	-7062
▁strengthen	-7063
leton	-7064
▁1961	-7065
▁folk	-7066
▁USA	-7067
inton	-7068
▁Rhod	-7069
▁Moore	-7070
▁driven	-7071
▁medicine	-7072
▁Unlike	-7073
bi	-7074
▁warning	-7075
▁73	-7076
▁adapted	-7077
▁agricultural	-7078
▁facility	-7079
ogy	-7080
▁Ira	-7081
▁apply	-7082
▁circulation	-7083
▁somewhat	-7084
▁dynam	-7085
▁700	-7086
▁Barn	-7087
▁equipped	-7088
▁happen	-7089
▁Sydney	-7090
▁òganizasyon	-7091
resents	-7092
▁circumst	-7093
▁wearing	-7094
▁accommod	-7095
▁definition	-7096
ais	-7097
▁Dab	-7098
owa	-7099
▁Ext	-7100
▁Tel	-7101
▁tooth	-7102
ardo	-7103
weight	-7104
▁Ottoman	-7105
onot	-7106
▁familiar	-7107
hetic	-7108
▁Anne	-7109
▁1958	-7110
▁holds	-7111
▁moves	-7112
▁weakened	-7113
▁spiritual	-7114
▁Base	-7115
▁squad	-7116
▁trained	-7117
▁consisting	-7118
Ar	-7119
We	-7120
▁principles	-7121
▁68	-7122
▁Jord	-7123
▁veter	-7124
▁assumed	-7125
▁Es	-7126
rett	-7127
▁rose	-7128
▁apprec	-7129
▁Gill	-7130
▁operate	-7131
ester	-7132
▁http	-7133
▁0.	-7134
eri	-7135
▁Within	-7136
▁duties	-7137
▁sample	-7138
▁Lin	-7139
▁Illinois	-7140
▁routes	-7141
▁Rose	-7142
▁Cab	-7143
▁Roy	-7144
aware	-7145
andom	-7146
▁explains	-7147
▁Longchamp	-7148
eenth	-7149
▁Espò	-7150
▁happy	-7151
riksyon	-7152
▁Indones	-7153
▁underst	-7154
▁restrict	-7155
bra	-7156
▁Whit	-7157
▁mamm	-7158
▁archae	-7159
achel	-7160
▁ideal	-7161
▁NHL	-7162
▁dogs	-7163
istans	-7164
▁category	-7165
izin	-7166
▁Prem	-7167
▁otor	-7168
icy	-7169
▁Stew	-7170
▁lake	-7171
▁motiv	-7172
iva	-7173
oys	-7174
▁fert	-7175
▁creative	-7176
▁feelings	-7177
▁output	-7178
do	-7179
atè	-7180
▁Bir	-7181
aid	-7182
▁thousand	-7183
ribed	-7184
con	-7185
after	-7186
▁habitat	-7187
SA	-7188
▁window	-7189
▁Ped	-7190
▁maintenance	-7191
▁sivil	-7192
orous	-7193
▁1962,	-7194
Th	-7195
orney	-7196
▁sisp	-7197
▁pages	-7198
▁credited	-7199
▁legislation	-7200
thm	-7201
▁partn	-7202
▁navig	-7203
▁represents	-7204
▁convin	-7205
▁legs	-7206
▁impossible	-7207
▁radyo	-7208
▁Family	-7209
▁begun	-7210
▁easier	-7211
▁96	-7212
where	-7213
borne	-7214
▁promotion	-7215
▁Ale	-7216
▁Again	-7217
▁130	-7218
▁genre	-7219
▁ax	-7220
active	-7221
arsh	-7222
▁spend	-7223
▁Kat	-7224
▁returns	-7225
▁Kilti	-7226
▁establishment	-7227
▁77	-7228
andy	-7229
▁hits	-7230
▁looks	-7231
▁1936	-7232
▁actress	-7233
▁Nether	-7234
▁instruments	-7235
ić	-7236
▁invited	-7237
▁describing	-7238
wan	-7239
▁kontak	-7240
▁classified	-7241
▁medikal	-7242
▁segment	-7243
▁file	-7244
▁otorite	-7245
▁distributed	-7246
▁Korea	-7247
▁Kreyòl	-7248
▁perspective	-7249
▁Hitler	-7250
▁faster	-7251
▁profession	-7252
▁Sante	-7253
▁78	-7254
elye	-7255
CC	-7256
▁bag	-7257
▁Pur	-7258
▁sispann	-7259
using	-7260
▁businesses	-7261
▁franchise	-7262
▁separated	-7263
▁replacement	-7264
rikilti	-7265
▁Kong	-7266
▁simpl	-7267
▁Minnes	-7268
▁expert	-7269
▁Hamilton	-7270
▁Gib	-7271
iterranean	-7272
▁absence	-7273
BI	-7274
▁Cre	-7275
▁4.	-7276
▁1959	-7277
asters	-7278
ami	-7279
▁surf	-7280
▁1904.	-7281
▁radiation	-7282
▁Laure	-7283
▁sessions	-7284
▁Feder	-7285
▁ing	-7286
▁Gouvènman	-7287
aug	-7288
▁emerged	-7289
▁1957	-7290
▁Missouri	-7291
▁diplomatik	-7292
oncé	-7293
▁adjust	-7294
▁format	-7295
▁emissions	-7296
▁owners	-7297
▁wed	-7298
▁cooper	-7299
▁Sav	-7300
▁intention	-7301
▁Corpor	-7302
▁admitted	-7303
rant	-7304
▁favorite	-7305
▁Alb	-7306
▁conscious	-7307
▁1919	-7308
▁reven	-7309
zon	-7310
▁Mountain	-7311
▁baseball	-7312
acher	-7313
▁1947	-7314
▁estasyon	-7315
▁historic	-7316
▁rub	-7317
▁posted	-7318
orted	-7319
▁phenomen	-7320
oming	-7321
▁crossed	-7322
▁Bush	-7323
▁Kooper	-7324
▁Turk	-7325
▁Staff	-7326
uts	-7327
▁immune	-7328
omic	-7329
▁courts	-7330
▁Mediterranean	-7331
▁Gordon	-7332
▁Indians	-7333
▁expensive	-7334
itter	-7335
iqu	-7336
21	-7337
▁conservation	-7338
▁pp	-7339
▁persu	-7340
▁excellent	-7341
▁gameplay	-7342
chang	-7343
▁Olympics	-7344
ching	-7345
▁agree	-7346
▁Sinema	-7347
▁forming	-7348
▁storyline	-7349
▁);	-7350
▁Agrikilti	-7351
▁1953	-7352
▁asistans	-7353
▁1955	-7354
▁Know	-7355
▁dwèt	-7356
▁Naval	-7357
▁Assembly	-7358
▁Adams	-7359
▁breaking	-7360
▁Howard	-7361
▁Heart	-7362
▁Touris	-7363
▁mand	-7364
▁alfabet	-7365
▁Beyoncé	-7366
▁lb	-7367
▁jobs	-7368
▁Pèsonalite	-7369
▁Airport	-7370
”.	-7371
▁Pit	-7372
▁hal	-7373
▁encouraged	-7374
▁reprann	-7375
ellect	-7376
inction	-7377
▁arrested	-7378
▁worst	-7379
▁deleg	-7380
▁Konstriksyon	-7381
▁69	-7382
▁vast	-7383
▁alfabetizasyon	-7384
OT	-7385
▁trials	-7386
▁koumanse	-7387
▁pèsonalite	-7388
▁OEA	-7389
▁Pèch	-7390
▁300000	-7391
▁stadium	-7392
▁Centre	-7393
▁ethnic	-7394
▁chanselye	-7395
onotik	-7396
▁Five	-7397
ewonotik	-7398
▁Dabòn	-7399
▁survive	-7400
▁Author	-7401
▁Kooperasyon	-7402
▁Therefore	-7403
▁modified	-7404
▁Jay	-7405
uster	-7406
▁Aewonotik	-7407
▁ble	-7408
▁Asian	-7409
iller	-7410
▁spr	-7411
▁177	-7412
▁classic	-7413
▁Shortly	-7414
▁participate	-7415
▁colonial	-7416
▁dating	-7417
▁sail	-7418
▁protest	-7419
▁Sym	-7420
▁ca	-7421
athy	-7422
▁suitable	-7423
▁Dra	-7424
▁1910	-7425
▁drinking	-7426
▁attributed	-7427
western	-7428
▁programme	-7429
incess	-7430
▁prey	-7431
▁victims	-7432
▁involves	-7433
ewhere	-7434
▁whereas	-7435
▁Kennedy	-7436
▁province	-7437
▁Pear	-7438
▁stable	-7439
▁VII	-7440
▁Hawai	-7441
nings	-7442
related	-7443
▁thirty	-7444
▁Minnesota	-7445
▁plane	-7446
▁Band	-7447
▁Temple	-7448
GN	-7449
▁ameriken	-7450
▁Der	-7451
hedral	-7452
▁detect	-7453
zer	-7454
▁shore	-7455
▁comments	-7456
▁yourself	-7457
▁Non	-7458
▁minister	-7459
PS	-7460
▁temporary	-7461
▁phone	-7462
itid	-7463
▁hill	-7464
▁Where	-7465
elson	-7466
▁superior	-7467
▁Memorial	-7468
▁Throughout	-7469
▁resemb	-7470
▁participants	-7471
spec	-7472
▁forests	-7473
▁drawing	-7474
▁Marg	-7475
▁Mexican	-7476
▁synthes	-7477
▁informed	-7478
45	-7479
▁root	-7480
▁organic	-7481
olo	-7482
▁Jacob	-7483
▁stood	-7484
▁retreat	-7485
acent	-7486
▁penal	-7487
▁falling	-7488
▁copy	-7489
▁ru	-7490
▁Hou	-7491
▁Eric	-7492
▁Bos	-7493
ificial	-7494
▁Use	-7495
▁struggle	-7496
▁reduction	-7497
▁”	-7498
▁Alan	-7499
▁voted	-7500
iley	-7501
▁enemies	-7502
▁prepare	-7503
▁Those	-7504
ctic	-7505
▁description	-7506
▁charges	-7507
ré	-7508
▁premier	-7509
▁electronic	-7510
▁Bang	-7511
war	-7512
▁liquid	-7513
▁Nes	-7514
burn	-7515
▁Douglas	-7516
▁67	-7517
otes	-7518
wick	-7519
▁Beach	-7520
▁Ele	-7521
▁Using	-7522
▁documents	-7523
▁concrete	-7524
▁refuge	-7525
▁110	-7526
▁cul	-7527
▁1937	-7528
▁Marine	-7529
ultane	-7530
heastern	-7531
indu	-7532
▁sons	-7533
▁Third	-7534
hire	-7535
▁Jordan	-7536
▁regiment	-7537
chen	-7538
▁Bab	-7539
▁Cart	-7540
emed	-7541
▁Marie	-7542
▁findings	-7543
▁parliament	-7544
▁repair	-7545
▁flowers	-7546
olas	-7547
▁custom	-7548
▁McK	-7549
▁pin	-7550
iac	-7551
▁Master	-7552
▁1954	-7553
▁believes	-7554
▁certified	-7555
▁Hor	-7556
▁milk	-7557
▁manage	-7558
▁Matthew	-7559
▁Phys	-7560
▁Tony	-7561
apping	-7562
iox	-7563
▁incorporated	-7564
apse	-7565
▁Argent	-7566
▁accused	-7567
▁facing	-7568
iege	-7569
▁streets	-7570
coming	-7571
aks	-7572
▁dated	-7573
▁Rhodes	-7574
racy	-7575
▁fict	-7576
▁Santa	-7577
ints	-7578
▁Gab	-7579
▁roots	-7580
▁CE	-7581
esis	-7582
▁Lyn	-7583
▁foundation	-7584
▁98	-7585
inding	-7586
▁Ho	-7587
▁occasionally	-7588
ografik	-7589
▁Hospital	-7590
ture	-7591
vens	-7592
▁frequent	-7593
▁Bh	-7594
▁milit	-7595
▁remainder	-7596
▁landfall	-7597
▁winner	-7598
▁stead	-7599
wich	-7600
▁grav	-7601
▁sacr	-7602
aki	-7603
▁tied	-7604
▁Food	-7605
▁Ford	-7606
bro	-7607
▁spoke	-7608
▁Medical	-7609
▁advoc	-7610
cho	-7611
▁alter	-7612
ete	-7613
▁reinforce	-7614
ivals	-7615
▁Gh	-7616
bourne	-7617
▁Muslim	-7618
▁portrayed	-7619
6.	-7620
▁freeway	-7621
▁channel	-7622
▁Magazine	-7623
▁missions	-7624
▁Iraq	-7625
▁recalled	-7626
▁controversy	-7627
itye	-7628
ailed	-7629
▁Stra	-7630
▁Iowa	-7631
▁municip	-7632
▁electrical	-7633
ulum	-7634
▁Bou	-7635
▁sick	-7636
▁soti	-7637
alities	-7638
▁bom	-7639
▁housing	-7640
erald	-7641
uv	-7642
▁Nob	-7643
▁monit	-7644
▁−	-7645
▁suit	-7646
roph	-7647
▁rooms	-7648
▁union	-7649
▁interior	-7650
▁explan	-7651
▁sale	-7652
▁denied	-7653
▁intense	-7654
▁involvement	-7655
▁intent	-7656
él	-7657
▁Bol	-7658
▁Songs	-7659
▁bon	-7660
▁Dog	-7661
35	-7662
▁Conc	-7663
▁classical	-7664
▁hip	-7665
▁Ut	-7666
▁moderate	-7667
▁88	-7668
▁jewografik	-7669
▁Bry	-7670
▁pounds	-7671
▁sin	-7672
▁175	-7673
otype	-7674
err	-7675
psons	-7676
▁references	-7677
DA	-7678
▁Freder	-7679
phone	-7680
▁explore	-7681
▁ash	-7682
▁external	-7683
exp	-7684
▁colony	-7685
urches	-7686
▁waves	-7687
▁frequency	-7688
acc	-7689
▁Iron	-7690
▁adopt	-7691
▁Open	-7692
▁prol	-7693
▁concentration	-7694
ogether	-7695
▁Simpsons	-7696
cont	-7697
▁Alab	-7698
▁brand	-7699
▁opera	-7700
uther	-7701
▁narrative	-7702
▁historians	-7703
▁Video	-7704
erto	-7705
▁Modern	-7706
▁spending	-7707
▁almanak	-7708
▁Rain	-7709
▁Nich	-7710
▁hotel	-7711
▁memorial	-7712
▁explo	-7713
claimed	-7714
▁Ever	-7715
▁render	-7716
olar	-7717
▁noting	-7718
▁gene	-7719
▁listen	-7720
inations	-7721
▁continuing	-7722
▁prohib	-7723
▁visitors	-7724
▁Gun	-7725
night	-7726
▁Micro	-7727
▁proteins	-7728
▁covers	-7729
▁recovered	-7730
▁multi	-7731
▁knots	-7732
▁Theatre	-7733
▁Mississ	-7734
▁assessment	-7735
▁Lim	-7736
▁agents	-7737
▁uniform	-7738
opes	-7739
▁samples	-7740
▁torn	-7741
▁giant	-7742
▁certainly	-7743
▁Kr	-7744
▁Obs	-7745
▁Somet	-7746
▁Alabama	-7747
▁acknowled	-7748
onto	-7749
▁scheme	-7750
▁coordin	-7751
▁justice	-7752
▁Od	-7753
▁Administ	-7754
▁FA	-7755
▁uncertain	-7756
▁MTV	-7757
▁cryst	-7758
aws	-7759
▁prices	-7760
▁É	-7761
je	-7762
olitan	-7763
icon	-7764
dule	-7765
itzer	-7766
ersed	-7767
tes	-7768
▁substantial	-7769
▁surrounded	-7770
▁wants	-7771
▁salt	-7772
▁Ult	-7773
EN	-7774
▁Bowl	-7775
▁practical	-7776
▁Having	-7777
kes	-7778
▁gender	-7779
▁missed	-7780
▁Vis	-7781
osm	-7782
▁Prior	-7783
▁fixed	-7784
▁completion	-7785
▁1949	-7786
▁kingdom	-7787
MA	-7788
ilit	-7789
▁supporters	-7790
▁mine	-7791
▁muscle	-7792
▁tested	-7793
ère	-7794
▁attracted	-7795
▁leta	-7796
▁cup	-7797
▁ske	-7798
igenous	-7799
▁component	-7800
▁1900	-7801
▁judge	-7802
▁circuit	-7803
▁investment	-7804
▁bot	-7805
▁topic	-7806
▁readers	-7807
▁disappoint	-7808
▁Native	-7809
▁Any	-7810
▁eighth	-7811
eld	-7812
▁94	-7813
▁ere	-7814
▁poison	-7815
▁persons	-7816
▁passengers	-7817
▁Cook	-7818
▁Philip	-7819
▁NC	-7820
▁Mit	-7821
▁diameter	-7822
▁relie	-7823
▁intellect	-7824
▁tub	-7825
▁AI	-7826
▁willing	-7827
▁classification	-7828
▁Bah	-7829
▁crash	-7830
▁rarely	-7831
lye	-7832
po	-7833
▁1935	-7834
uma	-7835
▁alleged	-7836
▁inher	-7837
▁Around	-7838
▁behaviour	-7839
▁rivers	-7840
▁pointed	-7841
▁Professor	-7842
▁89	-7843
▁medieval	-7844
ker	-7845
▁circumstances	-7846
aya	-7847
▁pron	-7848
aza	-7849
▁1952	-7850
▁entertain	-7851
▁Tru	-7852
▁percentage	-7853
▁Init	-7854
zi	-7855
▁isolated	-7856
▁Netherlands	-7857
anth	-7858
usal	-7859
teenth	-7860
8.	-7861
▁pretty	-7862
▁crops	-7863
▁criminal	-7864
reck	-7865
ori	-7866
▁1933	-7867
▁inhabit	-7868
▁obtain	-7869
▁surviv	-7870
▁poetry	-7871
▁79	-7872
▁Raj	-7873
pet	-7874
estyle	-7875
▁vital	-7876
▁representing	-7877
ocol	-7878
apped	-7879
▁Tal	-7880
▁Norwe	-7881
gus	-7882
grad	-7883
cell	-7884
▁controll	-7885
▁restored	-7886
▁Media	-7887
▁Kevin	-7888
▁nerv	-7889
arr	-7890
▁87	-7891
▁dollars	-7892
▁PA	-7893
atever	-7894
▁surviving	-7895
▁Transport	-7896
▁abund	-7897
▁Sweden	-7898
▁hosted	-7899
▁hunting	-7900
▁Sin	-7901
▁sitye	-7902
▁Rights	-7903
▁stayed	-7904
osaurus	-7905
▁plastic	-7906
▁Maur	-7907
ht	-7908
▁Stat	-7909
▁rig	-7910
▁nutri	-7911
ials	-7912
▁Mulder	-7913
▁comparison	-7914
▁difficulties	-7915
▁lect	-7916
▁smooth	-7917
etime	-7918
▁resolution	-7919
emor	-7920
aints	-7921
onomic	-7922
▁inspiration	-7923
▁tot	-7924
agle	-7925
▁governments	-7926
▁Fig	-7927
▁82	-7928
uty	-7929
▁sees	-7930
▁curren	-7931
▁mobile	-7932
iner	-7933
▁diabetes	-7934
▁weapon	-7935
ogle	-7936
▁deter	-7937
han	-7938
▁Dick	-7939
▁seeking	-7940
▁pup	-7941
▁flex	-7942
▁Juan	-7943
▁elections	-7944
▁styles	-7945
▁falls	-7946
▁nurs	-7947
▁preferred	-7948
▁driver	-7949
▁UTC	-7950
▁Allen	-7951
iyografi	-7952
▁boys	-7953
▁Cooper	-7954
▁CR	-7955
▁Merc	-7956
▁composer	-7957
▁videos	-7958
▁farmers	-7959
▁properly	-7960
▁bes	-7961
▁playoff	-7962
▁turb	-7963
▁Hand	-7964
▁Cult	-7965
▁fill	-7966
year	-7967
▁Ryan	-7968
▁unn	-7969
▁shots	-7970
duction	-7971
▁1951	-7972
▁Cost	-7973
▁plus	-7974
endment	-7975
▁fur	-7976
▁Bruce	-7977
▁valid	-7978
▁institution	-7979
▁Colorado	-7980
▁nit	-7981
▁Chèf	-7982
▁Lanc	-7983
CA	-7984
▁Channel	-7985
▁anniversary	-7986
▁Trib	-7987
▁Mississipp	-7988
▁Stadium	-7989
▁Berlin	-7990
▁Retrieved	-7991
olve	-7992
▁lung	-7993
▁Dor	-7994
▁nomination	-7995
▁accurate	-7996
▁watching	-7997
ng	-7998
▁AR	-7999
▁Finally	-8000
▁asc	-8001
senal	-8002
▁painted	-8003
▁parent	-8004
▁apparently	-8005
▁Hell	-8006
▁false	-8007
▁Morgan	-8008
▁simultane	-8009
▁neighborhood	-8010
▁bones	-8011
▁Phill	-8012
▁brigade	-8013
▁Call	-8014
▁technologies	-8015
▁talking	-8016
▁champion	-8017
▁wings	-8018
▁Fred	-8019
▁97	-8020
▁aged	-8021
▁string	-8022
▁Along	-8023
▁concepts	-8024
▁partnership	-8025
▁commanded	-8026
veland	-8027
▁Greece	-8028
▁switch	-8029
▁Robinson	-8030
nold	-8031
▁Guide	-8032
▁restric	-8033
▁gard	-8034
▁asking	-8035
",	-8036
agonist	-8037
▁divisions	-8038
▁Row	-8039
▁demonstrated	-8040
▁<	-8041
▁Toronto	-8042
▁tempor	-8043
ET	-8044
▁Ger	-8045
▁NASA	-8046
▁Students	-8047
▁Nelson	-8048
▁medal	-8049
-20	-8050
▁departure	-8051
elsh	-8052
▁angle	-8053
▁windows	-8054
▁clinical	-8055
▁fishing	-8056
▁reveals	-8057
▁demol	-8058
▁engage	-8059
▁wire	-8060
rastructure	-8061
elli	-8062
▁impress	-8063
▁Stanley	-8064
▁wooden	-8065
▁neutral	-8066
▁wasn	-8067
▁Kansas	-8068
▁Lisa	-8069
▁electron	-8070
chers	-8071
▁adaptation	-8072
phoon	-8073
▁hoped	-8074
▁à	-8075
▁doubt	-8076
▁Gard	-8077
▁Bible	-8078
▁tries	-8079
▁Samuel	-8080
▁personality	-8081
▁haz	-8082
▁toxic	-8083
▁comprehens	-8084
▁Publ	-8085
▁Aff	-8086
▁existed	-8087
▁Military	-8088
▁Imp	-8089
ods	-8090
▁potentially	-8091
▁Cru	-8092
▁aggress	-8093
▁fled	-8094
▁Vinc	-8095
▁orbit	-8096
▁collaboration	-8097
▁bay	-8098
▁IGN	-8099
▁convinced	-8100
▁votes	-8101
▁arts	-8102
▁José	-8103
▁cultiv	-8104
▁Belg	-8105
▁earthqu	-8106
iere	-8107
▁Mach	-8108
▁praise	-8109
▁Bishop	-8110
ST	-8111
òd	-8112
▁patrol	-8113
▁downtown	-8114
▁Cleveland	-8115
▁Hop	-8116
pan	-8117
▁sailed	-8118
▁unless	-8119
▁Norman	-8120
▁lowest	-8121
▁valuable	-8122
▁meets	-8123
▁armor	-8124
cription	-8125
olph	-8126
riven	-8127
▁approaches	-8128
ér	-8129
▁delayed	-8130
▁Norwegian	-8131
▁recover	-8132
▁obst	-8133
▁subt	-8134
▁DE	-8135
▁Born	-8136
▁controversial	-8137
rix	-8138
uters	-8139
▁Mort	-8140
▁particles	-8141
sole	-8142
▁Andy	-8143
▁awareness	-8144
▁coff	-8145
▁permission	-8146
▁Brist	-8147
-3	-8148
▁preparation	-8149
▁Rick	-8150
▁gap	-8151
▁kit	-8152
▁Biyografi	-8153
▁orb	-8154
▁TH	-8155
▁input	-8156
▁monarch	-8157
▁railroad	-8158
It	-8159
▁requested	-8160
▁strategies	-8161
▁Mississippi	-8162
▁gat	-8163
▁Contin	-8164
én	-8165
▁disaster	-8166
▁agency	-8167
▁situations	-8168
▁Blood	-8169
ishment	-8170
▁evil	-8171
▁tone	-8172
rition	-8173
▁alien	-8174
▁2020	-8175
▁Yank	-8176
▁wheel	-8177
ifies	-8178
▁Front	-8179
▁Jam	-8180
▁rescue	-8181
▁rising	-8182
atherine	-8183
amps	-8184
▁Chron	-8185
▁Furthermore	-8186
▁toler	-8187
▁philosophy	-8188
▁Nevertheless	-8189
iens	-8190
▁drink	-8191
▁sharp	-8192
▁dominated	-8193
▁solutions	-8194
xual	-8195
osystem	-8196
▁assemb	-8197
igrants	-8198
▁fewer	-8199
▁offering	-8200
▁fictional	-8201
▁84	-8202
▁Brun	-8203
▁Real	-8204
▁oblig	-8205
▁abuse	-8206
omes	-8207
▁rid	-8208
▁climb	-8209
rans	-8210
▁dissip	-8211
▁experts	-8212
▁accum	-8213
▁animated	-8214
▁attempting	-8215
▁pictures	-8216
▁Natural	-8217
▁clubs	-8218
▁decide	-8219
▁HIV	-8220
▁tight	-8221
▁enthus	-8222
▁vessel	-8223
▁landscape	-8224
▁bran	-8225
▁indicates	-8226
▁principle	-8227
▁dub	-8228
alo	-8229
achment	-8230
▁controls	-8231
▁banks	-8232
uman	-8233
yard	-8234
▁survival	-8235
▁Morris	-8236
▁ben	-8237
▁Bor	-8238
▁frame	-8239
▁flower	-8240
AAF	-8241
▁err	-8242
▁Tar	-8243
▁Weekly	-8244
▁Ts	-8245
▁theatre	-8246
▁processing	-8247
azing	-8248
▁covering	-8249
▁offices	-8250
▁influences	-8251
▁discip	-8252
▁targets	-8253
▁loyal	-8254
▁understood	-8255
▁colleagues	-8256
▁Bird	-8257
▁Energy	-8258
▁Welsh	-8259
▁Tun	-8260
▁satellite	-8261
▁Lenn	-8262
▁encourage	-8263
▁contribute	-8264
▁1913	-8265
fire	-8266
▁Sarah	-8267
▁moon	-8268
▁representative	-8269
▁Ah	-8270
▁schedule	-8271
▁Lane	-8272
-0	-8273
rating	-8274
▁Guy	-8275
▁influential	-8276
▁usual	-8277
9,	-8278
itudes	-8279
▁id	-8280
wealth	-8281
▁finishing	-8282
▁93	-8283
emet	-8284
▁seeds	-8285
▁festival	-8286
ls	-8287
▁Exper	-8288
▁predecess	-8289
▁prog	-8290
▁precip	-8291
▁walking	-8292
▁(1	-8293
▁Studies	-8294
▁cutting	-8295
▁aboard	-8296
hist	-8297
▁eleven	-8298
▁86	-8299
ronze	-8300
▁anticip	-8301
▁penalty	-8302
ibilities	-8303
▁tum	-8304
▁jur	-8305
▁deemed	-8306
▁Origin	-8307
▁residential	-8308
▁conventional	-8309
▁×	-8310
▁net	-8311
▁erect	-8312
▁claiming	-8313
▁Fa	-8314
orph	-8315
▁arrangement	-8316
▁Sn	-8317
gi	-8318
▁musicians	-8319
aux	-8320
▁Palest	-8321
▁Tok	-8322
▁Much	-8323
▁Less	-8324
▁marks	-8325
▁blocks	-8326
oyd	-8327
▁Scully	-8328
omot	-8329
▁Bristol	-8330
▁biological	-8331
▁Aud	-8332
agu	-8333
fish	-8334
stic	-8335
▁mac	-8336
▁throne	-8337
unc	-8338
▁recovery	-8339
nest	-8340
▁NBA	-8341
▁consistent	-8342
▁documentary	-8343
avery	-8344
▁els	-8345
▁feeding	-8346
▁experiments	-8347
ennis	-8348
▁truck	-8349
▁rit	-8350
▁DC	-8351
▁marine	-8352
▁Pope	-8353
▁reception	-8354
▁flank	-8355
▁papers	-8356
▁remn	-8357
▁horiz	-8358
atinum	-8359
▁cavalry	-8360
▁remix	-8361
lyn	-8362
▁executed	-8363
▁depicted	-8364
▁pushed	-8365
▁Rolling	-8366
▁terminus	-8367
▁Dal	-8368
▁elsewhere	-8369
▁Winter	-8370
zing	-8371
▁longest	-8372
▁characterized	-8373
▁prevented	-8374
ocracy	-8375
▁abilities	-8376
▁satisf	-8377
▁valley	-8378
▁Story	-8379
▁fitted	-8380
▁fossil	-8381
▁limits	-8382
icks	-8383
▁shift	-8384
▁landed	-8385
emetery	-8386
▁insects	-8387
▁observations	-8388
otton	-8389
▁Da	-8390
▁Mas	-8391
▁hem	-8392
▁Lam	-8393
▁friendly	-8394
▁Armen	-8395
▁delivery	-8396
▁Thompson	-8397
▁Corporation	-8398
▁sequel	-8399
▁links	-8400
noon	-8401
▁sky	-8402
▁prosp	-8403
uscript	-8404
▁afterwards	-8405
▁Ot	-8406
▁mit	-8407
▁hyper	-8408
▁ride	-8409
▁objective	-8410
▁Technology	-8411
▁Brother	-8412
▁races	-8413
ancer	-8414
ographical	-8415
▁Bernard	-8416
▁reconst	-8417
▁Wright	-8418
▁agriculture	-8419
▁density	-8420
▁matters	-8421
▁liver	-8422
5.	-8423
ilst	-8424
oly	-8425
pòt	-8426
▁beach	-8427
▁Carter	-8428
▁Russell	-8429
▁Jacques	-8430
▁telling	-8431
▁Finn	-8432
otyp	-8433
▁WWE	-8434
▁procedure	-8435
▁invent	-8436
▁Nesans	-8437
24	-8438
▁Kal	-8439
gas	-8440
▁audio	-8441
▁Nature	-8442
▁Saf	-8443
▁cod	-8444
▁Spe	-8445
ruption	-8446
▁Cry	-8447
▁flash	-8448
anta	-8449
▁danger	-8450
▁hydrogen	-8451
▁belt	-8452
▁ratings	-8453
▁recip	-8454
▁Ark	-8455
▁tex	-8456
▁prove	-8457
▁appearing	-8458
▁rum	-8459
éd	-8460
▁strict	-8461
ixon	-8462
▁diverse	-8463
▁bat	-8464
▁partly	-8465
li	-8466
▁ST	-8467
care	-8468
▁1934	-8469
▁adm	-8470
oga	-8471
▁Anthony	-8472
▁graphics	-8473
fare	-8474
▁Wat	-8475
▁deployed	-8476
▁presidential	-8477
▁indeed	-8478
▁assass	-8479
ui	-8480
ika	-8481
▁Sax	-8482
▁wish	-8483
▁monument	-8484
▁Nar	-8485
▁alg	-8486
▁disag	-8487
ivan	-8488
▁compounds	-8489
▁basketball	-8490
▁Dean	-8491
▁decrease	-8492
▁outl	-8493
ti	-8494
▁Puerto	-8495
▁pound	-8496
tre	-8497
▁colors	-8498
▁terror	-8499
▁happens	-8500
▁Police	-8501
▁Alexand	-8502
▁mountains	-8503
▁passenger	-8504
▁random	-8505
▁scenar	-8506
▁Ministry	-8507
▁Win	-8508
▁sup	-8509
▁ages	-8510
▁supplement	-8511
▁tasks	-8512
▁guarant	-8513
▁surprise	-8514
▁moist	-8515
▁advis	-8516
▁Mes	-8517
▁Death	-8518
▁infrastructure	-8519
rot	-8520
Ch	-8521
▁Las	-8522
▁aimed	-8523
▁coins	-8524
adi	-8525
▁paintings	-8526
▁Harris	-8527
▁verse	-8528
▁crosses	-8529
▁secured	-8530
▁airport	-8531
▁unlike	-8532
▁Read	-8533
▁enters	-8534
▁Roberts	-8535
▁fundamental	-8536
26	-8537
▁hypothes	-8538
jan	-8539
▁Control	-8540
▁convention	-8541
▁sweet	-8542
▁Hans	-8543
▁fasc	-8544
▁recur	-8545
▁61	-8546
▁1912	-8547
eas	-8548
▁chest	-8549
▁churches	-8550
▁violent	-8551
▁manufacturing	-8552
▁risks	-8553
▁Houston	-8554
▁AS	-8555
▁chorus	-8556
umps	-8557
▁carrier	-8558
▁Look	-8559
▁overw	-8560
▁suffer	-8561
▁Commonwealth	-8562
▁accompany	-8563
▁mart	-8564
▁Beatles	-8565
oslav	-8566
▁relevant	-8567
▁manufactur	-8568
▁Kelly	-8569
▁markets	-8570
▁resource	-8571
see	-8572
▁empt	-8573
▁displayed	-8574
lah	-8575
ortunately	-8576
▁Rab	-8577
▁partially	-8578
▁bats	-8579
▁trouble	-8580
▁dismissed	-8581
▁romantic	-8582
▁USS	-8583
▁exists	-8584
▁dialogue	-8585
▁elder	-8586
▁vic	-8587
▁Make	-8588
▁Hend	-8589
▁engineer	-8590
▁founder	-8591
▁Diego	-8592
▁villages	-8593
▁demands	-8594
▁140	-8595
▁putting	-8596
▁Fact	-8597
▁Building	-8598
▁recre	-8599
▁Quest	-8600
▁minimal	-8601
▁sav	-8602
lie	-8603
▁Horn	-8604
▁attacking	-8605
▁skill	-8606
asp	-8607
mad	-8608
rin	-8609
▁territories	-8610
▁coin	-8611
▁Byzantine	-8612
▁consequences	-8613
▁Small	-8614
ded	-8615
▁wickets	-8616
▁artificial	-8617
▁Arsenal	-8618
espe	-8619
▁Son	-8620
iks	-8621
▁Trust	-8622
▁extract	-8623
rus	-8624
vy	-8625
roit	-8626
▁Trad	-8627
▁liv	-8628
▁pip	-8629
▁Benj	-8630
23	-8631
▁crucial	-8632
owder	-8633
▁efficiency	-8634
▁Late	-8635
enh	-8636
▁ray	-8637
▁Design	-8638
▁coverage	-8639
▁Hindu	-8640
▁slaves	-8641
▁ongoing	-8642
▁1927	-8643
▁printed	-8644
itals	-8645
onies	-8646
▁vice	-8647
earing	-8648
▁stores	-8649
▁Set	-8650
▁reyalize	-8651
tery	-8652
▁improvement	-8653
▁5.	-8654
▁Parker	-8655
▁Garden	-8656
FC	-8657
▁suicide	-8658
▁tel	-8659
ounced	-8660
▁clothing	-8661
oen	-8662
▁sentence	-8663
▁preserved	-8664
▁genes	-8665
▁dramatic	-8666
▁picked	-8667
▁profit	-8668
▁formerly	-8669
▁Dur	-8670
▁lists	-8671
ocking	-8672
▁dies	-8673
eor	-8674
attered	-8675
▁mining	-8676
▁Murray	-8677
);	-8678
▁evolved	-8679
inces	-8680
▁commemor	-8681
ource	-8682
name	-8683
▁1932	-8684
imore	-8685
▁Palace	-8686
▁anxiety	-8687
fit	-8688
rav	-8689
▁dominant	-8690
▁MS	-8691
▁syndrome	-8692
▁gay	-8693
▁interpre	-8694
▁afternoon	-8695
▁disorders	-8696
obile	-8697
▁forg	-8698
ourage	-8699
▁neighb	-8700
arth	-8701
bb	-8702
▁1911	-8703
▁Premier	-8704
▁aqu	-8705
▁Mess	-8706
▁therm	-8707
aired	-8708
▁boil	-8709
▁panel	-8710
▁Marshall	-8711
▁1926	-8712
▁considering	-8713
▁Cuba	-8714
▁pace	-8715
▁Anna	-8716
▁bombard	-8717
▁approval	-8718
▁summ	-8719
▁encounter	-8720
▁encountered	-8721
▁Singles	-8722
onsin	-8723
▁Swedish	-8724
▁strip	-8725
▁Wy	-8726
▁tribes	-8727
▁releases	-8728
▁Advent	-8729
▁tag	-8730
oven	-8731
▁Psych	-8732
▁collapse	-8733
▁Area	-8734
▁diagnosis	-8735
▁intervention	-8736
òm	-8737
rator	-8738
▁cogn	-8739
▁battleships	-8740
▁adjacent	-8741
▁Data	-8742
▁quiet	-8743
▁announce	-8744
▁notably	-8745
acle	-8746
▁colonies	-8747
▁Take	-8748
▁Turkish	-8749
▁forth	-8750
44	-8751
▁pap	-8752
ibbean	-8753
▁Business	-8754
▁Ban	-8755
agen	-8756
▁Pin	-8757
▁continu	-8758
▁Jess	-8759
▁Silver	-8760
▁merely	-8761
sters	-8762
▁vertical	-8763
isconsin	-8764
▁Lon	-8765
otten	-8766
▁dimens	-8767
▁interaction	-8768
eu	-8769
▁courses	-8770
▁Oliv	-8771
yd	-8772
▁os	-8773
▁Mario	-8774
isd	-8775
▁firing	-8776
bòl	-8777
-8	-8778
▁Austria	-8779
▁Wrest	-8780
▁traveled	-8781
▁appointment	-8782
▁Fame	-8783
▁pollution	-8784
▁Fem	-8785
fficient	-8786
ropolitan	-8787
▁span	-8788
▁removal	-8789
acon	-8790
▁surge	-8791
▁employment	-8792
verty	-8793
▁Wisconsin	-8794
▁ninth	-8795
▁legend	-8796
▁hat	-8797
▁vel	-8798
▁Iran	-8799
▁Tenness	-8800
irèl	-8801
▁ratio	-8802
▁Clinton	-8803
arked	-8804
▁Egyptian	-8805
▁inflamm	-8806
▁circle	-8807
▁tekn	-8808
▁diversity	-8809
▁facts	-8810
▁Caribbean	-8811
▁Hud	-8812
▁submarine	-8813
▁transportation	-8814
▁rhythm	-8815
▁Hungarian	-8816
▁underground	-8817
ét	-8818
▁Ariz	-8819
▁classroom	-8820
▁specimens	-8821
▁manuscript	-8822
▁compens	-8823
▁debt	-8824
away	-8825
▁saved	-8826
▁fighter	-8827
▁ou	-8828
▁retirement	-8829
▁Buck	-8830
▁Lawrence	-8831
espeare	-8832
▁Connect	-8833
anny	-8834
utor	-8835
▁loan	-8836
▁scholar	-8837
▁successor	-8838
▁infections	-8839
nt	-8840
▁extend	-8841
▁poverty	-8842
OC	-8843
▁afford	-8844
▁vulnerable	-8845
eign	-8846
▁Croatian	-8847
▁AN	-8848
▁facilit	-8849
▁Apple	-8850
▁programming	-8851
▁fab	-8852
▁push	-8853
▁songwrit	-8854
▁Expl	-8855
▁Nazi	-8856
▁ranging	-8857
orious	-8858
▁dust	-8859
▁ecosystem	-8860
▁reflected	-8861
▁170	-8862
▁Management	-8863
▁estimates	-8864
▁confidence	-8865
▁Oak	-8866
▁pump	-8867
▁restoration	-8868
▁1921	-8869
▁au	-8870
▁convection	-8871
▁Christopher	-8872
▁blog	-8873
▁formally	-8874
▁canal	-8875
▁Tennessee	-8876
iami	-8877
▁mainstream	-8878
▁Sports	-8879
▁Bed	-8880
aration	-8881
▁journalist	-8882
haust	-8883
▁spaces	-8884
▁waiting	-8885
▁novels	-8886
forced	-8887
▁wider	-8888
▁rebell	-8889
idelines	-8890
▁Community	-8891
▁ownership	-8892
▁registered	-8893
▁bridges	-8894
▁alive	-8895
▁mechanical	-8896
names	-8897
▁Cold	-8898
hol	-8899
▁latest	-8900
▁avèk	-8901
▁enzy	-8902
▁Stock	-8903
▁Harv	-8904
▁Fern	-8905
▁oral	-8906
hess	-8907
▁marketing	-8908
▁contributions	-8909
▁wait	-8910
▁Categ	-8911
▁Report	-8912
▁deliber	-8913
imeter	-8914
▁Franklin	-8915
▁premiere	-8916
▁Commander	-8917
▁Baltimore	-8918
▁vs	-8919
▁Event	-8920
zz	-8921
▁MP	-8922
▁leaf	-8923
▁wins	-8924
rupted	-8925
amework	-8926
▁1931	-8927
▁superv	-8928
▁Express	-8929
▁imprison	-8930
▁continuous	-8931
▁connections	-8932
▁assum	-8933
▁Alfred	-8934
▁Queens	-8935
ando	-8936
▁ridge	-8937
▁studying	-8938
▁Lock	-8939
▁chairman	-8940
▁Magn	-8941
▁collaps	-8942
▁Type	-8943
▁radical	-8944
▁prosec	-8945
aft	-8946
erb	-8947
▁1929	-8948
▁maintaining	-8949
▁Niel	-8950
▁error	-8951
▁Writing	-8952
▁asks	-8953
▁diff	-8954
▁Yet	-8955
▁handed	-8956
▁Benjamin	-8957
▁moments	-8958
▁900	-8959
▁fluid	-8960
▁Oklah	-8961
▁horm	-8962
▁Digital	-8963
▁exclud	-8964
atty	-8965
▁elabor	-8966
▁recept	-8967
▁occupation	-8968
▁lob	-8969
▁cruiser	-8970
velt	-8971
▁unsuccessful	-8972
▁concur	-8973
▁forecast	-8974
▁candidates	-8975
▁2019	-8976
owed	-8977
▁pool	-8978
▁divor	-8979
idd	-8980
▁Jason	-8981
▁Rio	-8982
▁Bureau	-8983
encing	-8984
▁immun	-8985
▁planets	-8986
▁submitted	-8987
▁tack	-8988
▁1890	-8989
▁Arizona	-8990
▁Ye	-8991
weet	-8992
idal	-8993
▁storms	-8994
▁illegal	-8995
▁reactions	-8996
▁Near	-8997
▁Ga	-8998
▁Eff	-8999
ficial	-9000
▁stronger	-9001
▁metab	-9002
▁truly	-9003
▁households	-9004
▁sitting	-9005
quir	-9006
▁treaty	-9007
67	-9008
▁manif	-9009
▁Miami	-9010
▁Eth	-9011
▁Next	-9012
TS	-9013
▁prime	-9014
LA	-9015
▁interpretation	-9016
▁Canal	-9017
▁organisms	-9018
▁es	-9019
itely	-9020
▁Person	-9021
▁theat	-9022
onymous	-9023
rip	-9024
▁texts	-9025
▁fault	-9026
▁ton	-9027
▁Treaty	-9028
▁furn	-9029
▁enpòt	-9030
obi	-9031
▁Hem	-9032
▁Oklahoma	-9033
▁Television	-9034
▁batting	-9035
▁Stewart	-9036
▁negotiations	-9037
▁Vice	-9038
▁march	-9039
▁engagement	-9040
asm	-9041
▁Plant	-9042
▁propag	-9043
▁seats	-9044
▁loved	-9045
owing	-9046
▁portra	-9047
▁toll	-9048
▁Chamber	-9049
▁produces	-9050
▁compete	-9051
▁animation	-9052
▁Shakespeare	-9053
osph	-9054
▁Spirit	-9055
▁defended	-9056
rooms	-9057
▁handle	-9058
▁overwhel	-9059
▁mechanism	-9060
▁starred	-9061
▁Anglo	-9062
▁Satur	-9063
▁Detroit	-9064
▁param	-9065
▁Windows	-9066
▁83	-9067
28	-9068
oca	-9069
rac	-9070
▁naturally	-9071
▁opponents	-9072
▁Rub	-9073
▁Napole	-9074
▁frust	-9075
▁stored	-9076
icop	-9077
▁thoughts	-9078
▁Face	-9079
▁Princess	-9080
▁List	-9081
▁suggesting	-9082
▁hidden	-9083
▁Frederick	-9084
▁possession	-9085
arf	-9086
isyon	-9087
▁Hamp	-9088
▁excav	-9089
▁Sky	-9090
osevelt	-9091
erals	-9092
▁Cy	-9093
▁sensitive	-9094
▁reviewer	-9095
ogan	-9096
▁Kl	-9097
▁Benn	-9098
nal	-9099
▁slavery	-9100
▁kinds	-9101
iah	-9102
unes	-9103
▁forcing	-9104
▁Services	-9105
▁reaches	-9106
▁Malays	-9107
▁Melbourne	-9108
▁flew	-9109
▁centers	-9110
▁amongst	-9111
sk	-9112
rage	-9113
▁drivers	-9114
▁sinema	-9115
▁topics	-9116
▁fulf	-9117
▁Soon	-9118
vironments	-9119
▁feels	-9120
▁siege	-9121
▁improving	-9122
LC	-9123
▁perceived	-9124
▁laboratory	-9125
▁Evans	-9126
▁Knight	-9127
▁nom	-9128
▁Country	-9129
▁Beck	-9130
▁powered	-9131
▁Fund	-9132
▁descend	-9133
▁1922	-9134
▁Pakistan	-9135
▁bath	-9136
▁spir	-9137
▁enpòtan	-9138
▁natirèl	-9139
asts	-9140
pha	-9141
race	-9142
▁Tower	-9143
▁Bulgar	-9144
▁newspapers	-9145
▁tube	-9146
▁Seattle	-9147
▁McD	-9148
▁1928	-9149
▁networks	-9150
uda	-9151
▁adequ	-9152
▁gent	-9153
▁designer	-9154
27	-9155
▁Prop	-9156
sts	-9157
▁FI	-9158
▁sequences	-9159
▁agencies	-9160
▁inhib	-9161
▁Yug	-9162
▁Holl	-9163
▁crack	-9164
ensions	-9165
izer	-9166
asant	-9167
▁Medicine	-9168
▁weekend	-9169
oret	-9170
▁Croatia	-9171
▁Roosevelt	-9172
▁worship	-9173
▁worse	-9174
▁thereafter	-9175
attan	-9176
▁blind	-9177
▁rocks	-9178
▁Pa	-9179
▁predomin	-9180
▁Gon	-9181
▁branches	-9182
▁restricted	-9183
izatè	-9184
▁survivors	-9185
ifer	-9186
▁Pap	-9187
▁millions	-9188
▁tie	-9189
▁Syn	-9190
▁Comb	-9191
▁joining	-9192
▁affairs	-9193
orms	-9194
▁copper	-9195
▁femin	-9196
▁garrison	-9197
▁Administration	-9198
▁Initially	-9199
▁predicted	-9200
▁Gram	-9201
▁sad	-9202
▁eliminated	-9203
▁Represent	-9204
▁Meth	-9205
▁bases	-9206
▁premiered	-9207
▁Charlie	-9208
▁desert	-9209
angle	-9210
▁Hind	-9211
▁poorly	-9212
▁presentation	-9213
▁inhabitants	-9214
▁1925	-9215
▁reportedly	-9216
▁participation	-9217
aro	-9218
▁polar	-9219
▁seriously	-9220
▁2,	-9221
▁Sign	-9222
▁imperial	-9223
▁mature	-9224
▁Mond	-9225
▁impressed	-9226
▁NFL	-9227
▁Camer	-9228
▁emperor	-9229
▁Inn	-9230
cient	-9231
▁conven	-9232
▁Information	-9233
▁Raw	-9234
▁radar	-9235
seri	-9236
▁operational	-9237
▁Hong	-9238
▁Gilbert	-9239
▁relation	-9240
▁pregnancy	-9241
▁transmission	-9242
▁indu	-9243
otal	-9244
▁muscles	-9245
▁burning	-9246
▁exhaust	-9247
▁Dak	-9248
▁chrom	-9249
▁experimental	-9250
▁fairly	-9251
▁Anim	-9252
▁celeb	-9253
▁smart	-9254
▁skull	-9255
▁emphasis	-9256
▁abol	-9257
▁Mother	-9258
ubb	-9259
▁Mrs	-9260
▁alleg	-9261
▁Simpson	-9262
▁resigned	-9263
▁Tan	-9264
▁Liter	-9265
▁knows	-9266
▁situated	-9267
▁occasions	-9268
lain	-9269
ullivan	-9270
▁Mun	-9271
▁lessons	-9272
▁improvements	-9273
▁argues	-9274
▁NBC	-9275
▁boost	-9276
▁publicly	-9277
▁taste	-9278
ico	-9279
▁reveal	-9280
▁hole	-9281
▁(199	-9282
▁anth	-9283
▁Category	-9284
▁customers	-9285
▁revenue	-9286
▁recognize	-9287
▁pros	-9288
▁Crown	-9289
▁smoke	-9290
▁regulations	-9291
▁Philippines	-9292
▁cyl	-9293
▁Friend	-9294
▁Ll	-9295
▁Warner	-9296
▁environments	-9297
▁succeed	-9298
mates	-9299
father	-9300
▁Australians	-9301
▁1924	-9302
zed	-9303
▁instruction	-9304
▁judg	-9305
istent	-9306
▁pione	-9307
▁raising	-9308
▁molecules	-9309
anne	-9310
rolled	-9311
▁Somers	-9312
▁Yugoslav	-9313
▁Belgium	-9314
▁behalf	-9315
▁maps	-9316
▁exceed	-9317
▁dischar	-9318
▁dynasty	-9319
▁resign	-9320
▁Security	-9321
▁retail	-9322
▁footage	-9323
▁slave	-9324
▁enhance	-9325
▁locomot	-9326
▁procedures	-9327
▁exhibition	-9328
▁Rap	-9329
▁phrase	-9330
▁categories	-9331
▁uncom	-9332
▁Father	-9333
▁Moh	-9334
▁mood	-9335
▁Fried	-9336
▁Fal	-9337
▁Wolf	-9338
▁plain	-9339
gans	-9340
imen	-9341
chell	-9342
▁reward	-9343
▁konte	-9344
▁Batman	-9345
▁theories	-9346
▁doctors	-9347
▁realized	-9348
▁proportion	-9349
▁Sem	-9350
▁pregnant	-9351
▁lad	-9352
▁comprom	-9353
yright	-9354
▁AM	-9355
▁Ess	-9356
▁administrative	-9357
olid	-9358
▁boundary	-9359
ilty	-9360
▁physics	-9361
▁attitude	-9362
acks	-9363
avor	-9364
rez	-9365
▁inject	-9366
▁Farm	-9367
▁Franç	-9368
car	-9369
▁acted	-9370
▁overt	-9371
▁supports	-9372
▁loop	-9373
▁scr	-9374
▁celebrated	-9375
odox	-9376
aver	-9377
▁optim	-9378
▁prompted	-9379
▁fra	-9380
▁profile	-9381
▁Horse	-9382
ocation	-9383
hr	-9384
▁simultaneously	-9385
▁Forces	-9386
▁meetings	-9387
▁poems	-9388
otte	-9389
onds	-9390
▁marry	-9391
▁depends	-9392
▁substance	-9393
▁vegetables	-9394
▁forty	-9395
▁contribution	-9396
▁beauty	-9397
▁please	-9398
▁subsid	-9399
incial	-9400
▁trend	-9401
▁Dead	-9402
▁anch	-9403
▁underw	-9404
SP	-9405
▁Ice	-9406
▁monitoring	-9407
itarian	-9408
▁Stevens	-9409
borough	-9410
▁labour	-9411
▁dispute	-9412
▁athletes	-9413
▁tunnel	-9414
occ	-9415
▁curric	-9416
aron	-9417
avel	-9418
▁bypass	-9419
ocy	-9420
▁Si	-9421
▁machines	-9422
▁artistic	-9423
▁shorter	-9424
▁bid	-9425
eness	-9426
▁Lith	-9427
▁infected	-9428
”,	-9429
▁Buff	-9430
▁enforce	-9431
▁1923	-9432
▁RAAF	-9433
▁fallen	-9434
▁Peninsula	-9435
▁Manh	-9436
▁arrive	-9437
rox	-9438
▁lie	-9439
▁grey	-9440
▁Heavy	-9441
▁Start	-9442
▁conversion	-9443
bird	-9444
▁Agency	-9445
ova	-9446
▁legit	-9447
▁visiting	-9448
▁chemicals	-9449
▁shear	-9450
▁translation	-9451
▁AP	-9452
▁Bull	-9453
▁manip	-9454
▁Khan	-9455
▁RAF	-9456
▁junior	-9457
▁flows	-9458
▁bare	-9459
▁stuff	-9460
▁sharing	-9461
▁departed	-9462
▁Ku	-9463
▁implemented	-9464
▁Without	-9465
▁residence	-9466
▁essentially	-9467
rary	-9468
ghan	-9469
▁shield	-9470
▁feud	-9471
▁impacts	-9472
▁distinguished	-9473
soft	-9474
▁1908	-9475
heric	-9476
▁decay	-9477
▁significance	-9478
▁treatments	-9479
▁hybr	-9480
▁(3	-9481
gs	-9482
▁creator	-9483
▁gro	-9484
▁tip	-9485
èzbòl	-9486
▁bèzbòl	-9487
▁resid	-9488
▁insurance	-9489
izòd	-9490
▁vitamin	-9491
▁Friday	-9492
uits	-9493
▁Alice	-9494
anium	-9495
▁pulled	-9496
▁wedding	-9497
utt	-9498
▁Hills	-9499
▁fifty	-9500
▁Chem	-9501
illo	-9502
▁beliefs	-9503
▁Vincent	-9504
pled	-9505
▁Louisiana	-9506
essed	-9507
▁Dave	-9508
▁layers	-9509
omed	-9510
▁closing	-9511
▁travelled	-9512
▁Ru	-9513
sequently	-9514
▁lanm	-9515
▁lights	-9516
ashes	-9517
ulty	-9518
▁bulk	-9519
Sp	-9520
low	-9521
alysis	-9522
▁parish	-9523
▁cards	-9524
▁af	-9525
ourag	-9526
▁variable	-9527
▁Kings	-9528
▁origins	-9529
imm	-9530
▁Nielsen	-9531
▁1880	-9532
▁mines	-9533
▁twin	-9534
▁Industry	-9535
▁duration	-9536
▁severely	-9537
▁replacing	-9538
▁Claude	-9539
▁racial	-9540
▁distinctive	-9541
LL	-9542
▁VI	-9543
▁shells	-9544
▁gathered	-9545
iph	-9546
▁withdrew	-9547
estone	-9548
▁tu	-9549
▁proof	-9550
▁lòt	-9551
▁aggreg	-9552
plete	-9553
norm	-9554
▁Cole	-9555
▁Shel	-9556
▁assisted	-9557
▁intercept	-9558
acles	-9559
▁Walker	-9560
▁instrumental	-9561
OM	-9562
sex	-9563
▁rac	-9564
▁minim	-9565
▁mos	-9566
▁restaurant	-9567
▁Saturday	-9568
▁reun	-9569
▁Christians	-9570
▁retain	-9571
▁vaccine	-9572
rost	-9573
die	-9574
▁08	-9575
▁investigate	-9576
namese	-9577
▁accessible	-9578
dale	-9579
▁arriving	-9580
▁dealing	-9581
▁Environmental	-9582
▁Margaret	-9583
▁generate	-9584
▁equally	-9585
▁structural	-9586
eur	-9587
▁Isa	-9588
▁clar	-9589
ín	-9590
▁inaug	-9591
▁email	-9592
▁pilots	-9593
▁convoy	-9594
▁Historic	-9595
This	-9596
▁kings	-9597
▁magnetic	-9598
▁whatever	-9599
▁Christianity	-9600
▁hull	-9601
▁creates	-9602
▁plis	-9603
▁tort	-9604
▁provision	-9605
▁recall	-9606
▁examination	-9607
▁establishing	-9608
▁tenth	-9609
▁ranking	-9610
▁176	-9611
▁Somerset	-9612
▁Construction	-9613
▁Vietnamese	-9614
▁Harvard	-9615
▁assembly	-9616
▁strategic	-9617
▁1909	-9618
atisyen	-9619
onder	-9620
▁stom	-9621
▁(18	-9622
▁Dest	-9623
▁exit	-9624
▁drain	-9625
▁wine	-9626
▁condem	-9627
inea	-9628
▁71	-9629
▁upgraded	-9630
eria	-9631
▁helicop	-9632
▁factory	-9633
▁datab	-9634
▁annually	-9635
▁characteristic	-9636
▁clock	-9637
▁margin	-9638
ricts	-9639
▁raid	-9640
bes	-9641
▁Nik	-9642
iary	-9643
rose	-9644
▁admin	-9645
200	-9646
▁Have	-9647
▁Senator	-9648
▁raw	-9649
▁Similarly	-9650
▁Wing	-9651
▁completing	-9652
▁recognised	-9653
▁honour	-9654
inian	-9655
▁battleship	-9656
▁fighters	-9657
▁partial	-9658
▁Peace	-9659
▁Snow	-9660
▁glac	-9661
▁Obama	-9662
▁Princip	-9663
▁Ou	-9664
▁Campbell	-9665
▁suspended	-9666
▁gate	-9667
▁1870	-9668
▁tribute	-9669
▁une	-9670
▁aren	-9671
▁aggressive	-9672
usic	-9673
eland	-9674
▁victim	-9675
▁sket	-9676
▁complicated	-9677
idae	-9678
▁reverse	-9679
▁traditions	-9680
ensed	-9681
▁penet	-9682
▁compound	-9683
▁constantly	-9684
▁designation	-9685
▁Did	-9686
▁Gene	-9687
▁neu	-9688
▁encl	-9689
mn	-9690
▁conservative	-9691
4,	-9692
▁Gaga	-9693
▁Zh	-9694
▁Global	-9695
▁industries	-9696
▁cub	-9697
▁devast	-9698
DS	-9699
▁chamber	-9700
▁reviewers	-9701
▁challenging	-9702
▁fifteen	-9703
▁Guardian	-9704
▁06	-9705
▁Equ	-9706
berry	-9707
istèm	-9708
▁cargo	-9709
▁Persian	-9710
▁fract	-9711
▁convey	-9712
▁abst	-9713
cribed	-9714
▁emotions	-9715
▁internet	-9716
oons	-9717
▁representation	-9718
odore	-9719
▁Prim	-9720
▁Xbox	-9721
38	-9722
eli	-9723
▁signals	-9724
▁temporarily	-9725
▁regime	-9726
gro	-9727
▁Works	-9728
▁dollar	-9729
▁explosion	-9730
▁Hero	-9731
▁Still	-9732
▁usage	-9733
▁recordings	-9734
oa	-9735
▁Dom	-9736
▁Chen	-9737
▁rice	-9738
▁weigh	-9739
▁communications	-9740
▁Sciences	-9741
▁variation	-9742
▁instructions	-9743
▁Section	-9744
eing	-9745
angers	-9746
▁cous	-9747
▁coinc	-9748
▁pursue	-9749
mate	-9750
▁sustainable	-9751
▁1905	-9752
▁diver	-9753
ulous	-9754
▁statue	-9755
▁Hungary	-9756
▁cruisers	-9757
▁photographs	-9758
icut	-9759
oples	-9760
▁alignment	-9761
▁paras	-9762
▁repeatedly	-9763
▁rej	-9764
▁Ward	-9765
▁universal	-9766
sea	-9767
▁pitched	-9768
part	-9769
irty	-9770
▁Catherine	-9771
▁Manhattan	-9772
48	-9773
▁Convention	-9774
▁entertainment	-9775
ige	-9776
▁dim	-9777
ikely	-9778
▁digest	-9779
▁dependent	-9780
eping	-9781
▁reader	-9782
▁taxes	-9783
▁observation	-9784
▁comprehensive	-9785
sa	-9786
▁zero	-9787
▁cultures	-9788
▁Lennon	-9789
▁settlers	-9790
▁computers	-9791
orer	-9792
odge	-9793
▁click	-9794
▁photos	-9795
▁thorough	-9796
▁Bert	-9797
▁81	-9798
▁export	-9799
▁indicating	-9800
uating	-9801
▁Steven	-9802
▁Spears	-9803
▁Perform	-9804
di	-9805
▁stones	-9806
▁Depression	-9807
▁choices	-9808
▁Ian	-9809
▁altered	-9810
lè	-9811
▁flights	-9812
▁rounds	-9813
okes	-9814
▁tor	-9815
▁conversation	-9816
▁hab	-9817
icious	-9818
▁lesson	-9819
▁involve	-9820
▁stere	-9821
▁brings	-9822
ateur	-9823
onnaissance	-9824
▁Switzer	-9825
▁myst	-9826
▁affects	-9827
▁Lad	-9828
ylan	-9829
▁platinum	-9830
▁explanation	-9831
eton	-9832
zech	-9833
alions	-9834
▁Cov	-9835
▁memor	-9836
▁Banks	-9837
▁nose	-9838
▁Township	-9839
▁audiences	-9840
▁feather	-9841
▁Fel	-9842
▁shipping	-9843
tha	-9844
anted	-9845
inated	-9846
▁Beh	-9847
▁spoken	-9848
▁1907	-9849
▁whilst	-9850
▁clothes	-9851
▁Pil	-9852
▁mild	-9853
▁faces	-9854
ources	-9855
▁galax	-9856
▁09	-9857
▁Recording	-9858
▁cattle	-9859
icing	-9860
▁ingred	-9861
▁criticised	-9862
▁concerts	-9863
▁Ref	-9864
▁favorable	-9865
▁framework	-9866
▁105	-9867
▁sod	-9868
▁ranges	-9869
▁Cob	-9870
▁fold	-9871
▁lighting	-9872
ulates	-9873
ocratic	-9874
▁ruling	-9875
munition	-9876
agh	-9877
▁Hotel	-9878
▁liked	-9879
pent	-9880
▁Hab	-9881
▁identical	-9882
-5	-9883
▁visits	-9884
▁Tit	-9885
▁Mack	-9886
▁Dance	-9887
itively	-9888
▁noise	-9889
▁gang	-9890
▁Lucas	-9891
▁Prom	-9892
▁125	-9893
▁Islamic	-9894
▁Learning	-9895
tario	-9896
▁sistèm	-9897
▁explicit	-9898
▁fruits	-9899
▁bearing	-9900
▁lifestyle	-9901
inals	-9902
▁decreased	-9903
▁carefully	-9904
▁91	-9905
▁addressed	-9906
mund	-9907
▁signing	-9908
▁Switzerland	-9909
▁kidney	-9910
▁Josh	-9911
▁Nag	-9912
▁counties	-9913
▁remote	-9914
olves	-9915
▁Record	-9916
▁protagonist	-9917
▁Emer	-9918
▁concerning	-9919
36	-9920
rently	-9921
▁Heb	-9922
▁filed	-9923
▁Return	-9924
▁enable	-9925
▁sending	-9926
▁striking	-9927
bow	-9928
▁psychological	-9929
▁Jonathan	-9930
▁exercises	-9931
▁organisation	-9932
iffer	-9933
▁escaped	-9934
▁destroyers	-9935
▁cir	-9936
▁unw	-9937
▁Portland	-9938
aping	-9939
▁turrets	-9940
ulus	-9941
▁Carlos	-9942
▁statements	-9943
▁dict	-9944
▁tab	-9945
▁horn	-9946
29	-9947
▁10.	-9948
▁repairs	-9949
▁heritage	-9950
TA	-9951
▁trick	-9952
▁soph	-9953
▁Warren	-9954
▁Ontario	-9955
▁reluct	-9956
▁Confederate	-9957
din	-9958
igger	-9959
▁Dylan	-9960
▁Darwin	-9961
▁caps	-9962
▁coat	-9963
isk	-9964
▁focuses	-9965
▁Czech	-9966
▁trading	-9967
▁matematik	-9968
olly	-9969
usalem	-9970
andal	-9971
▁weekly	-9972
▁μ	-9973
▁tips	-9974
-1	-9975
▁ninet	-9976
asive	-9977
▁conj	-9978
mo	-9979
▁Kurt	-9980
▁credits	-9981
▁attendance	-9982
▁Fab	-9983
▁deterior	-9984
▁sheet	-9985
▁Albums	-9986
▁varied	-9987
▁Montreal	-9988
▁passion	-9989
▁Gabri	-9990
▁shares	-9991
▁Nash	-9992
▁junction	-9993
ienn	-9994
yself	-9995
▁originated	-9996
amine	-9997
▁Antonio	-9998
▁evident	-9999
▁placing	-10000
PR	-10001
▁necessarily	-10002
cycl	-10003
▁routine	-10004
dess	-10005
illes	-10006
▁beam	-10007
▁graduate	-10008
ugby	-10009
▁portions	-10010
▁bombers	-10011
ieth	-10012
▁Trek	-10013
▁developers	-10014
▁Chand	-10015
▁Jup	-10016
comes	-10017
▁ranks	-10018
▁earthquake	-10019
▁Phoen	-10020
▁citing	-10021
▁formula	-10022
▁estimate	-10023
▁Ins	-10024
▁USD	-10025
▁Giants	-10026
▁deeply	-10027
▁promised	-10028
▁ammunition	-10029
ele	-10030
▁pand	-10031
▁Afghan	-10032
iatric	-10033
▁artwork	-10034
▁fib	-10035
▁connecting	-10036
▁restore	-10037
▁Seven	-10038
▁personally	-10039
▁similarly	-10040
▁empire	-10041
▁victories	-10042
orge	-10043
▁cash	-10044
▁rect	-10045
▁Cher	-10046
heimer	-10047
EM	-10048
▁scores	-10049
▁qualified	-10050
rams	-10051
▁Cyr	-10052
▁Fat	-10053
▁finals	-10054
▁Support	-10055
▁wore	-10056
▁butter	-10057
▁Mult	-10058
▁Heritage	-10059
▁outcome	-10060
▁accord	-10061
▁cra	-10062
▁canc	-10063
▁cook	-10064
▁Based	-10065
▁360	-10066
▁intellectual	-10067
▁Gran	-10068
▁infer	-10069
▁serial	-10070
▁emotion	-10071
▁resumed	-10072
ums	-10073
▁indigenous	-10074
cha	-10075
▁hockey	-10076
▁finale	-10077
▁thanks	-10078
▁badly	-10079
akh	-10080
▁inland	-10081
▁1906	-10082
▁hook	-10083
▁execution	-10084
▁Tag	-10085
▁Prize	-10086
▁hence	-10087
▁Flight	-10088
An	-10089
▁ML	-10090
▁minority	-10091
uez	-10092
▁puzz	-10093
▁Mountains	-10094
▁AT	-10095
▁tubes	-10096
▁Mitchell	-10097
ania	-10098
▁Kap	-10099
▁jurisd	-10100
▁Andre	-10101
▁sunk	-10102
▁Luis	-10103
▁fastest	-10104
▁Alaska	-10105
▁Graham	-10106
appy	-10107
sky	-10108
▁opponent	-10109
▁solve	-10110
▁unlikely	-10111
erk	-10112
▁Sud	-10113
onnen	-10114
▁competitive	-10115
▁Connecticut	-10116
▁concentrated	-10117
aire	-10118
▁palace	-10119
▁McL	-10120
aughters	-10121
▁Bes	-10122
angel	-10123
▁Jerusalem	-10124
▁magnitude	-10125
▁liberal	-10126
▁Na	-10127
▁merchant	-10128
▁Sullivan	-10129
▁representatives	-10130
▁Territ	-10131
uese	-10132
▁intensified	-10133
bu	-10134
▁Labour	-10135
▁thereby	-10136
▁Neb	-10137
▁Angle	-10138
ensively	-10139
▁Byografi	-10140
ski	-10141
▁Agricult	-10142
▁Code	-10143
▁Fif	-10144
▁allies	-10145
▁wealthy	-10146
▁integrated	-10147
▁alliance	-10148
▁partners	-10149
▁permitted	-10150
▁stomach	-10151
ifice	-10152
▁civilian	-10153
▁Independent	-10154
▁occurring	-10155
▁Math	-10156
▁batteries	-10157
ican	-10158
▁Books	-10159
▁camps	-10160
ouses	-10161
atus	-10162
▁monitor	-10163
▁electro	-10164
▁preventing	-10165
iology	-10166
▁avo	-10167
▁messages	-10168
onnes	-10169
▁pairs	-10170
▁threats	-10171
▁stroke	-10172
▁gray	-10173
▁Denmark	-10174
▁presents	-10175
▁districts	-10176
▁Ald	-10177
▁decides	-10178
▁volumes	-10179
▁grows	-10180
▁sisters	-10181
▁veloc	-10182
▁shoulder	-10183
▁empty	-10184
▁funeral	-10185
▁Bros	-10186
▁Kit	-10187
▁lying	-10188
▁urg	-10189
▁config	-10190
▁drove	-10191
▁meter	-10192
ucks	-10193
▁Cass	-10194
▁guilty	-10195
acre	-10196
RI	-10197
▁diagnosed	-10198
▁Adv	-10199
▁mixture	-10200
vereign	-10201
▁Protest	-10202
▁Dise	-10203
▁publications	-10204
▁Griff	-10205
▁mini	-10206
▁bronze	-10207
▁burned	-10208
▁Dw	-10209
▁Article	-10210
▁Microsoft	-10211
▁lifetime	-10212
▁ABC	-10213
▁bull	-10214
aman	-10215
▁generations	-10216
▁tornado	-10217
▁elevation	-10218
▁stability	-10219
▁6.	-10220
▁outd	-10221
▁Ni	-10222
▁translated	-10223
▁initiated	-10224
kh	-10225
▁Roc	-10226
▁chick	-10227
▁Originally	-10228
▁epid	-10229
▁platforms	-10230
▁é	-10231
▁Ton	-10232
▁Jupiter	-10233
▁spotted	-10234
▁preparing	-10235
▁engineers	-10236
▁Eventually	-10237
▁Vik	-10238
agger	-10239
▁Baby	-10240
▁math	-10241
▁wreck	-10242
▁photo	-10243
▁Rest	-10244
▁boundaries	-10245
▁Ara	-10246
terior	-10247
▁brill	-10248
▁reviewed	-10249
▁sovereign	-10250
▁escort	-10251
ello	-10252
▁Cow	-10253
▁swimming	-10254
▁assists	-10255
▁confirm	-10256
how	-10257
▁patron	-10258
▁molecular	-10259
▁Patt	-10260
▁enorm	-10261
▁tiny	-10262
▁underlying	-10263
aze	-10264
▁Portuguese	-10265
▁earning	-10266
▁nutrients	-10267
▁brick	-10268
10.	-10269
oom	-10270
ulin	-10271
▁92	-10272
roscop	-10273
mented	-10274
▁Rachel	-10275
▁Living	-10276
▁soldier	-10277
▁EU	-10278
▁epizòd	-10279
▁beneath	-10280
▁rebuilt	-10281
▁Dyn	-10282
▁sank	-10283
fr	-10284
▁Ridge	-10285
▁closest	-10286
▁NO	-10287
▁Gonz	-10288
....	-10289
▁coffee	-10290
▁lem	-10291
▁Isab	-10292
▁advertising	-10293
▁wal	-10294
▁05	-10295
▁Lib	-10296
▁jazz	-10297
▁interactions	-10298
▁Wilhel	-10299
mi	-10300
▁Rand	-10301
▁holes	-10302
▁ow	-10303
hard	-10304
▁Mand	-10305
▁tension	-10306
gate	-10307
▁Len	-10308
▁cats	-10309
▁Billy	-10310
AM	-10311
iture	-10312
▁edited	-10313
▁competed	-10314
▁Opp	-10315
▁Constant	-10316
▁carriers	-10317
▁rib	-10318
▁Maj	-10319
3,	-10320
orith	-10321
▁confident	-10322
▁precipitation	-10323
▁examined	-10324
opp	-10325
▁Jefferson	-10326
▁promise	-10327
▁erupt	-10328
anche	-10329
ometric	-10330
▁supplied	-10331
▁curriculum	-10332
iki	-10333
▁demanded	-10334
▁merc	-10335
▁demonstrate	-10336
tra	-10337
igs	-10338
imp	-10339
ridge	-10340
▁defeating	-10341
▁functional	-10342
emen	-10343
▁Amy	-10344
▁earn	-10345
▁shock	-10346
▁Karl	-10347
▁index	-10348
▁distant	-10349
CS	-10350
▁Mong	-10351
▁Lithuan	-10352
▁suspect	-10353
▁campaigns	-10354
▁directors	-10355
▁Lov	-10356
▁Sid	-10357
shore	-10358
▁Dragon	-10359
▁ordinary	-10360
oned	-10361
▁alternate	-10362
sor	-10363
▁lacked	-10364
▁Esc	-10365
▁Pedro	-10366
▁nervous	-10367
▁worn	-10368
▁maneu	-10369
ista	-10370
▁files	-10371
▁responses	-10372
▁detected	-10373
▁fever	-10374
▁Kan	-10375
▁Federation	-10376
rh	-10377
▁tea	-10378
ocket	-10379
▁tomb	-10380
▁que	-10381
▁conce	-10382
▁dimin	-10383
▁affair	-10384
bishop	-10385
▁Brig	-10386
lights	-10387
▁flour	-10388
▁Player	-10389
▁gods	-10390
▁Blues	-10391
▁founding	-10392
▁suddenly	-10393
▁Google	-10394
▁racing	-10395
▁holiday	-10396
▁rif	-10397
expected	-10398
anner	-10399
▁adventure	-10400
▁Liz	-10401
▁Il	-10402
onomy	-10403
▁pill	-10404
▁magic	-10405
aris	-10406
▁horror	-10407
▁mush	-10408
▁konnen	-10409
▁Mend	-10410
▁erected	-10411
▁Lt	-10412
▁Tokyo	-10413
▁remnants	-10414
▁Local	-10415
▁Overall	-10416
▁Championships	-10417
▁publishing	-10418
▁preserve	-10419
ontal	-10420
▁relax	-10421
▁Barry	-10422
▁exclusively	-10423
▁compilation	-10424
▁Cit	-10425
etary	-10426
▁Years	-10427
▁coron	-10428
▁Harvey	-10429
ène	-10430
▁gift	-10431
▁Villa	-10432
▁chron	-10433
▁Eug	-10434
▁Nixon	-10435
▁chemistry	-10436
opl	-10437
ugg	-10438
ospel	-10439
▁Mission	-10440
▁challenged	-10441
▁Edge	-10442
▁orange	-10443
.;	-10444
chi	-10445
▁Hom	-10446
▁funded	-10447
▁heading	-10448
▁elig	-10449
lete	-10450
▁incred	-10451
95	-10452
▁Grey	-10453
▁crews	-10454
sm	-10455
▁voiced	-10456
erts	-10457
▁Creat	-10458
▁Pas	-10459
▁Atlanta	-10460
▁preval	-10461
▁virtually	-10462
▁breaks	-10463
▁promoting	-10464
▁165	-10465
atist	-10466
▁Æ	-10467
▁wound	-10468
▁Begin	-10469
▁desired	-10470
▁phenomenon	-10471
▁carries	-10472
▁measuring	-10473
▁Austrian	-10474
▁Sometimes	-10475
▁knee	-10476
▁filter	-10477
▁lieutenant	-10478
▁talks	-10479
▁watershed	-10480
▁1904	-10481
▁Delaware	-10482
▁encourag	-10483
▁traveling	-10484
▁diox	-10485
▁fisher	-10486
adesh	-10487
▁Ring	-10488
▁Grammy	-10489
▁ye	-10490
▁acknowledged	-10491
▁ports	-10492
▁Hudson	-10493
▁weakness	-10494
▁grid	-10495
species	-10496
▁Tamil	-10497
▁acids	-10498
▁Interstate	-10499
case	-10500
▁Mind	-10501
▁threw	-10502
▁tap	-10503
▁membership	-10504
AD	-10505
apy	-10506
▁Moreover	-10507
▁overseas	-10508
▁neighbour	-10509
CO	-10510
▁1000	-10511
▁Hamm	-10512
▁harvest	-10513
▁militia	-10514
run	-10515
▁armies	-10516
▁Priv	-10517
▁Hockey	-10518
tage	-10519
▁sang	-10520
▁Rez	-10521
▁drums	-10522
▁withdrawal	-10523
▁dent	-10524
▁Reserve	-10525
▁smoking	-10526
▁dancing	-10527
▁Training	-10528
▁settings	-10529
phony	-10530
▁115	-10531
▁thro	-10532
path	-10533
▁troub	-10534
▁universities	-10535
▁Py	-10536
▁mes	-10537
▁attained	-10538
▁pel	-10539
▁Laboratory	-10540
▁oxid	-10541
ptic	-10542
▁approaching	-10543
▁basin	-10544
▁borrow	-10545
▁Universal	-10546
irus	-10547
▁Sac	-10548
▁boss	-10549
▁Perry	-10550
▁variations	-10551
▁Place	-10552
▁Nation	-10553
▁Hampshire	-10554
▁referring	-10555
▁consideration	-10556
urd	-10557
▁cognitive	-10558
▁Ral	-10559
▁cock	-10560
▁myster	-10561
vo	-10562
▁morph	-10563
▁nerve	-10564
▁believing	-10565
lock	-10566
▁mainland	-10567
▁Foreign	-10568
▁travels	-10569
▁handling	-10570
▁fertil	-10571
▁Critics	-10572
▁constitutional	-10573
class	-10574
▁Ali	-10575
▁Invest	-10576
▁Donald	-10577
▁Abd	-10578
▁Beng	-10579
▁imagery	-10580
▁remind	-10581
embers	-10582
▁wildlife	-10583
▁displays	-10584
▁requiring	-10585
uage	-10586
▁discont	-10587
▁IP	-10588
▁Napoleon	-10589
MI	-10590
isons	-10591
▁obsc	-10592
▁triple	-10593
▁sung	-10594
▁Box	-10595
▁Medal	-10596
▁adds	-10597
iden	-10598
▁legislature	-10599
rapped	-10600
▁secretary	-10601
▁forget	-10602
▁bears	-10603
▁Amb	-10604
▁stops	-10605
azines	-10606
sis	-10607
▁Turkey	-10608
▁reporting	-10609
▁frig	-10610
▁Mik	-10611
eling	-10612
idance	-10613
99	-10614
▁atomic	-10615
ishers	-10616
▁voting	-10617
▁unclear	-10618
▁feedback	-10619
▁attending	-10620
▁bio	-10621
▁Indies	-10622
ouch	-10623
▁lots	-10624
▁Baker	-10625
▁backed	-10626
▁vig	-10627
▁verte	-10628
▁confusion	-10629
istical	-10630
▁hosp	-10631
ipher	-10632
▁armored	-10633
▁Yellow	-10634
▁strongest	-10635
itative	-10636
▁IN	-10637
verse	-10638
▁humanity	-10639
▁commitment	-10640
▁volunteers	-10641
▁chant	-10642
▁dense	-10643
oria	-10644
▁cuts	-10645
▁theater	-10646
▁Organization	-10647
▁CS	-10648
▁prox	-10649
▁hosts	-10650
▁documented	-10651
▁struggled	-10652
▁07	-10653
▁parks	-10654
▁strengthened	-10655
apolis	-10656
▁Pitts	-10657
▁exhibit	-10658
▁Poll	-10659
yram	-10660
asa	-10661
▁Product	-10662
emia	-10663
▁dental	-10664
▁removing	-10665
▁Mi	-10666
▁EP	-10667
▁Joy	-10668
itated	-10669
▁scientist	-10670
agers	-10671
▁lasting	-10672
▁cosm	-10673
zo	-10674
ancell	-10675
▁scattered	-10676
▁Say	-10677
▁creatures	-10678
▁millimet	-10679
▁Murphy	-10680
▁Century	-10681
▁objectives	-10682
▁implementation	-10683
DF	-10684
iffs	-10685
▁fires	-10686
▁Athlet	-10687
▁Rico	-10688
cut	-10689
▁Fu	-10690
▁Kra	-10691
▁linear	-10692
▁backing	-10693
▁Utah	-10694
▁architectural	-10695
▁guidelines	-10696
ni	-10697
▁tribe	-10698
▁conspir	-10699
▁acceler	-10700
▁Ze	-10701
▁arguments	-10702
▁env	-10703
▁Mans	-10704
▁surfaces	-10705
▁movies	-10706
▁listening	-10707
▁Conservation	-10708
eyer	-10709
▁Hann	-10710
outing	-10711
47	-10712
▁kW	-10713
▁respective	-10714
adal	-10715
▁grain	-10716
▁answers	-10717
▁insisted	-10718
▁Wed	-10719
▁warship	-10720
AP	-10721
rov	-10722
thodox	-10723
▁argue	-10724
▁Johnny	-10725
▁Dub	-10726
▁farming	-10727
rimination	-10728
▁intermedi	-10729
▁printing	-10730
▁Sig	-10731
▁Lion	-10732
▁honey	-10733
▁quad	-10734
▁cotton	-10735
▁organs	-10736
▁Mosc	-10737
▁advised	-10738
▁cancelled	-10739
▁disagre	-10740
▁priest	-10741
▁McM	-10742
▁Apoll	-10743
▁golden	-10744
▁Full	-10745
▁1901	-10746
▁confron	-10747
oub	-10748
▁1860	-10749
▁Jun	-10750
▁Tob	-10751
▁sect	-10752
▁wors	-10753
▁Arnold	-10754
ammar	-10755
▁peoples	-10756
▁communicate	-10757
▁arrangements	-10758
▁>	-10759
▁disl	-10760
▁Railroad	-10761
▁cow	-10762
▁Kirk	-10763
▁Muham	-10764
rise	-10765
▁bombs	-10766
▁knowing	-10767
▁monaster	-10768
▁Wol	-10769
▁rely	-10770
▁focusing	-10771
▁banned	-10772
▁confront	-10773
▁birthday	-10774
▁exclusive	-10775
▁ov	-10776
OL	-10777
▁Haz	-10778
▁Grade	-10779
▁corporate	-10780
▁vegetation	-10781
▁apartment	-10782
▁Sony	-10783
employ	-10784
enov	-10785
▁Wag	-10786
▁Syria	-10787
▁interpreted	-10788
enda	-10789
▁Exec	-10790
icular	-10791
irs	-10792
eared	-10793
▁Jimmy	-10794
▁fabric	-10795
▁Philippe	-10796
▁pole	-10797
▁unexpected	-10798
▁terrain	-10799
enberg	-10800
▁helpful	-10801
ouver	-10802
▁initiative	-10803
irts	-10804
anton	-10805
▁attorney	-10806
▁relatives	-10807
▁talent	-10808
▁impression	-10809
▁sq	-10810
▁lanmè	-10811
▁Diam	-10812
▁stretch	-10813
▁queen	-10814
▁crimes	-10815
▁aerial	-10816
▁excessive	-10817
▁gust	-10818
▁affili	-10819
▁DS	-10820
▁da	-10821
▁Desc	-10822
▁conflicts	-10823
▁Fish	-10824
▁autobi	-10825
▁predecessor	-10826
▁fed	-10827
▁mad	-10828
▁Chang	-10829
▁Indonesia	-10830
▁surprised	-10831
olving	-10832
▁calculated	-10833
▁Ey	-10834
▁Deep	-10835
roe	-10836
▁northward	-10837
▁professionals	-10838
oded	-10839
▁isot	-10840
▁algorith	-10841
▁noticed	-10842
▁riders	-10843
▁transp	-10844
▁westward	-10845
2)	-10846
onian	-10847
▁warming	-10848
▁beneficial	-10849
▁restrictions	-10850
▁authen	-10851
▁mechanisms	-10852
▁shallow	-10853
▁mathematics	-10854
▁orn	-10855
▁lanes	-10856
ribe	-10857
▁Muslims	-10858
▁touring	-10859
▁Race	-10860
▁Hawaii	-10861
▁Leslie	-10862
usc	-10863
othy	-10864
▁doors	-10865
ennium	-10866
▁chlor	-10867
▁Lost	-10868
▁Edwards	-10869
46	-10870
▁Halo	-10871
▁recycl	-10872
▁reliable	-10873
▁Note	-10874
▁Monte	-10875
▁Reading	-10876
▁absolute	-10877
etheless	-10878
▁dying	-10879
▁license	-10880
▁Stu	-10881
▁deeper	-10882
▁organised	-10883
▁considers	-10884
▁realize	-10885
RC	-10886
with	-10887
▁recon	-10888
ght	-10889
▁renov	-10890
▁fate	-10891
▁assign	-10892
▁dioxide	-10893
▁ekriven	-10894
▁overcome	-10895
▁myself	-10896
▁surpass	-10897
▁battalions	-10898
▁consciousness	-10899
▁remarked	-10900
▁specimen	-10901
▁gardens	-10902
rous	-10903
▁Beaut	-10904
IDS	-10905
anz	-10906
▁ion	-10907
▁Pic	-10908
▁Gary	-10909
▁emerging	-10910
acco	-10911
angered	-10912
37	-10913
gov	-10914
▁bread	-10915
▁acou	-10916
▁Survey	-10917
▁Ted	-10918
▁1903	-10919
▁tract	-10920
▁Pearl	-10921
idity	-10922
AL	-10923
▁pink	-10924
▁Phoenix	-10925
▁subspecies	-10926
▁corresponding	-10927
▁Sit	-10928
▁Chel	-10929
▁Lem	-10930
▁assembled	-10931
▁rebellion	-10932
▁loud	-10933
▁couldn	-10934
ictionary	-10935
irms	-10936
▁assert	-10937
▁hopes	-10938
▁devoted	-10939
▁enlisted	-10940
▁flagship	-10941
mingham	-10942
▁magazines	-10943
▁medications	-10944
▁transported	-10945
▁inclusion	-10946
cially	-10947
88	-10948
▁bombing	-10949
▁Broadway	-10950
▁separation	-10951
ascular	-10952
▁Flore	-10953
▁abnorm	-10954
▁introduce	-10955
▁Israeli	-10956
▁gif	-10957
▁donated	-10958
uki	-10959
▁155	-10960
▁Past	-10961
▁dressed	-10962
▁competing	-10963
nik	-10964
rible	-10965
▁pent	-10966
▁catal	-10967
▁youngest	-10968
WC	-10969
▁paj	-10970
▁Victorian	-10971
▁Ran	-10972
bel	-10973
▁ruler	-10974
▁physically	-10975
RE	-10976
▁Watch	-10977
▁enthusi	-10978
▁Antar	-10979
▁casting	-10980
▁fo	-10981
▁updated	-10982
▁graduated	-10983
ür	-10984
▁measurements	-10985
olen	-10986
strong	-10987
▁cens	-10988
▁Girls	-10989
▁Som	-10990
▁enact	-10991
▁ane	-10992
▁Others	-10993
hand	-10994
uded	-10995
▁shaft	-10996
lesh	-10997
▁Turner	-10998
▁voices	-10999
▁targeted	-11000
▁Bath	-11001
▁bell	-11002
▁armour	-11003
▁Engineering	-11004
▁Nicholas	-11005
▁managing	-11006
▁Keith	-11007
ortion	-11008
▁phosph	-11009
▁circular	-11010
▁armament	-11011
▁Muhammad	-11012
aders	-11013
▁Henri	-11014
▁prize	-11015
isy	-11016
▁1902	-11017
artney	-11018
▁Until	-11019
▁Argentina	-11020
▁predators	-11021
▁Goth	-11022
▁Sche	-11023
▁marg	-11024
utely	-11025
▁Trade	-11026
▁Peters	-11027
▁sulf	-11028
▁dynamic	-11029
▁mammals	-11030
▁reconnaissance	-11031
▁breathing	-11032
▁interviews	-11033
▁Ent	-11034
▁Sout	-11035
▁chapel	-11036
▁dy	-11037
cies	-11038
▁Soul	-11039
▁Hur	-11040
▁Maine	-11041
▁Todd	-11042
icial	-11043
▁Hold	-11044
▁Solar	-11045
▁Lex	-11046
▁velocity	-11047
▁Amendment	-11048
osion	-11049
▁failing	-11050
▁spacecraft	-11051
▁overlook	-11052
bing	-11053
aments	-11054
▁Collins	-11055
▁350	-11056
ascar	-11057
▁anlè	-11058
▁posts	-11059
▁screening	-11060
▁Fil	-11061
▁Nine	-11062
▁columns	-11063
▁Together	-11064
▁lawyer	-11065
uras	-11066
▁Market	-11067
▁Luke	-11068
▁finger	-11069
▁defending	-11070
nia	-11071
▁bab	-11072
▁Wor	-11073
▁celebrate	-11074
▁comfortable	-11075
▁Kam	-11076
▁spots	-11077
▁cam	-11078
▁collapsed	-11079
▁Abbey	-11080
▁Study	-11081
▁Upper	-11082
▁assume	-11083
▁paying	-11084
▁Oliver	-11085
▁autumn	-11086
oric	-11087
folk	-11088
isition	-11089
▁assets	-11090
▁cad	-11091
▁Hugh	-11092
▁exploration	-11093
▁iP	-11094
▁Kon	-11095
▁teknik	-11096
▁Inv	-11097
▁accuracy	-11098
ultan	-11099
▁Shaw	-11100
ancouver	-11101
▁educated	-11102
▁counsel	-11103
atoes	-11104
annels	-11105
▁sheep	-11106
yler	-11107
ocent	-11108
▁salv	-11109
▁writings	-11110
▁Birmingham	-11111
▁alarm	-11112
▁mayor	-11113
▁noble	-11114
▁legislative	-11115
49	-11116
▁1850	-11117
▁proven	-11118
▁honest	-11119
▁François	-11120
▁Unf	-11121
▁bowling	-11122
▁daughters	-11123
▁announcement	-11124
▁clay	-11125
▁corps	-11126
▁absent	-11127
▁receives	-11128
math	-11129
▁Resp	-11130
▁Maya	-11131
atra	-11132
▁Sug	-11133
▁swit	-11134
▁cancel	-11135
▁prosper	-11136
ourse	-11137
▁nice	-11138
itic	-11139
▁Lev	-11140
▁virtual	-11141
▁Tu	-11142
▁Action	-11143
▁fee	-11144
▁kiss	-11145
▁provinces	-11146
▁Rud	-11147
▁Communist	-11148
regular	-11149
▁mineral	-11150
feld	-11151
▁extending	-11152
▁mèt	-11153
▁Dakota	-11154
▁charter	-11155
▁demolished	-11156
▁traditionally	-11157
▁directions	-11158
isman	-11159
▁warri	-11160
85	-11161
▁lock	-11162
▁scar	-11163
▁Wayne	-11164
seud	-11165
▁enabled	-11166
▁provincial	-11167
▁revised	-11168
▁highways	-11169
thel	-11170
▁Gray	-11171
rection	-11172
▁Vancouver	-11173
▁cere	-11174
▁funny	-11175
▁Jar	-11176
▁plates	-11177
▁Ori	-11178
▁Electric	-11179
▁Ches	-11180
▁friendship	-11181
▁tonnes	-11182
inks	-11183
pler	-11184
▁commentary	-11185
▁requirement	-11186
▁Files	-11187
▁aside	-11188
ilyen	-11189
▁steep	-11190
▁Aqu	-11191
▁expectations	-11192
venth	-11193
▁Typ	-11194
▁Pars	-11195
65	-11196
▁Bapt	-11197
▁Edin	-11198
▁Madag	-11199
▁define	-11200
▁wicket	-11201
▁handled	-11202
▁Bak	-11203
▁opens	-11204
▁endors	-11205
▁rational	-11206
eff	-11207
▁Dall	-11208
▁jury	-11209
tegr	-11210
▁Bach	-11211
▁Drive	-11212
Al	-11213
▁dual	-11214
cru	-11215
▁Village	-11216
▁Enterprise	-11217
▁curve	-11218
▁outcomes	-11219
▁destroying	-11220
▁hybrid	-11221
▁immigrants	-11222
oting	-11223
▁typhoon	-11224
fly	-11225
inery	-11226
inted	-11227
▁Fight	-11228
▁actively	-11229
ulatory	-11230
▁seized	-11231
onald	-11232
▁grave	-11233
aneous	-11234
▁varying	-11235
▁Abra	-11236
▁bishop	-11237
▁consumers	-11238
▁prel	-11239
cience	-11240
▁identification	-11241
lu	-11242
erver	-11243
▁protecting	-11244
▁regardless	-11245
▁item	-11246
▁congreg	-11247
▁locally	-11248
▁achievement	-11249
▁musician	-11250
▁1800	-11251
cyclop	-11252
▁Chile	-11253
▁prevention	-11254
▁Moscow	-11255
▁Had	-11256
▁mask	-11257
▁collections	-11258
ewise	-11259
▁Allies	-11260
▁Pam	-11261
▁wake	-11262
▁brilliant	-11263
▁explaining	-11264
▁developments	-11265
▁panels	-11266
▁recommendations	-11267
▁Online	-11268
▁debris	-11269
▁gran	-11270
▁errors	-11271
▁telesc	-11272
▁hypothesis	-11273
▁pray	-11274
▁metals	-11275
▁register	-11276
oker	-11277
▁Pad	-11278
▁orchestra	-11279
zes	-11280
▁Uk	-11281
▁Swiss	-11282
▁compliment	-11283
osaurs	-11284
▁followers	-11285
▁analys	-11286
▁console	-11287
▁eliminate	-11288
.5	-11289
kt	-11290
▁Craig	-11291
▁upset	-11292
▁Din	-11293
▁Ekip	-11294
▁peaking	-11295
▁blocked	-11296
▁Canter	-11297
▁versus	-11298
▁adequate	-11299
owski	-11300
▁Original	-11301
DP	-11302
reens	-11303
▁Pruss	-11304
▁beings	-11305
▁statistics	-11306
elfare	-11307
▁978	-11308
▁Cycl	-11309
▁varies	-11310
▁Ralph	-11311
▁Democrats	-11312
▁accompanying	-11313
▁Honor	-11314
atis	-11315
▁charity	-11316
▁Tai	-11317
ctive	-11318
isode	-11319
▁Boys	-11320
▁enormous	-11321
▁View	-11322
▁mail	-11323
▁permit	-11324
▁guidance	-11325
▁impressive	-11326
▁rede	-11327
▁priority	-11328
igation	-11329
▁saving	-11330
▁aktè	-11331
har	-11332
abul	-11333
gon	-11334
▁fest	-11335
▁py	-11336
▁dys	-11337
▁engaging	-11338
▁farms	-11339
▁rejyon	-11340
▁Fisher	-11341
▁riding	-11342
▁quarterback	-11343
▁effectiveness	-11344
▁database	-11345
▁Trail	-11346
▁hills	-11347
▁replied	-11348
▁varieties	-11349
▁amph	-11350
▁tale	-11351
iper	-11352
▁Hob	-11353
▁Spart	-11354
▁Figure	-11355
▁Manuel	-11356
net	-11357
▁boot	-11358
hin	-11359
izers	-11360
▁stationed	-11361
▁Ancient	-11362
▁hitting	-11363
▁Walt	-11364
ayan	-11365
rust	-11366
tains	-11367
ussion	-11368
▁Commons	-11369
▁Osc	-11370
▁Rih	-11371
orig	-11372
annon	-11373
▁dubbed	-11374
osexual	-11375
▁pibl	-11376
▁calcium	-11377
▁Edinburgh	-11378
▁domain	-11379
▁lift	-11380
▁wars	-11381
▁Twitter	-11382
▁Ry	-11383
▁Nev	-11384
▁gaining	-11385
▁kreyòl	-11386
▁associate	-11387
▁substitute	-11388
▁Bald	-11389
▁Tree	-11390
▁Aer	-11391
▁trigg	-11392
▁suspected	-11393
▁questioned	-11394
rawn	-11395
▁indirect	-11396
▁tactics	-11397
▁Defence	-11398
▁harmful	-11399
▁Celt	-11400
▁Tracy	-11401
▁Morrison	-11402
▁bonus	-11403
▁theoret	-11404
▁mud	-11405
▁Chapter	-11406
▁inflammation	-11407
▁provisions	-11408
▁Table	-11409
▁cleared	-11410
▁jet	-11411
▁tape	-11412
▁https	-11413
▁Om	-11414
▁ta	-11415
▁raids	-11416
▁ceased	-11417
▁consumer	-11418
aja	-11419
▁Pract	-11420
▁Campaign	-11421
▁Soph	-11422
▁faculty	-11423
▁warfare	-11424
▁Tank	-11425
▁Rihanna	-11426
▁evacuated	-11427
▁blow	-11428
▁cinem	-11429
assador	-11430
▁Woman	-11431
▁examine	-11432
▁channels	-11433
▁succession	-11434
▁fantasy	-11435
▁Wa	-11436
▁Vel	-11437
▁cable	-11438
ationally	-11439
▁Baseball	-11440
autical	-11441
▁consolid	-11442
▁displaced	-11443
▁absorbed	-11444
▁Ax	-11445
▁Gate	-11446
▁Term	-11447
▁Finland	-11448
▁everyday	-11449
▁politicians	-11450
▁consequence	-11451
irates	-11452
▁conceived	-11453
▁discovers	-11454
▁Charlotte	-11455
▁NS	-11456
arest	-11457
▁anywhere	-11458
▁criteria	-11459
▁Hebrew	-11460
▁migration	-11461
▁segments	-11462
▁Dod	-11463
▁Bomb	-11464
▁Right	-11465
▁Canterbury	-11466
eto	-11467
leans	-11468
▁Defense	-11469
▁Madagascar	-11470
▁Marx	-11471
▁Has	-11472
▁cousin	-11473
▁Gang	-11474
uto	-11475
▁highlighted	-11476
▁considerably	-11477
▁HD	-11478
▁publisher	-11479
▁navy	-11480
▁ticket	-11481
▁thunder	-11482
▁petition	-11483
▁Newton	-11484
▁distinction	-11485
▁Mint	-11486
▁Á	-11487
▁Queensland	-11488
acked	-11489
▁lakes	-11490
▁reforms	-11491
onium	-11492
▁celebration	-11493
▁trem	-11494
▁extensively	-11495
▁forb	-11496
▁Computer	-11497
▁elevated	-11498
▁habitats	-11499
43	-11500
▁avoided	-11501
▁Curt	-11502
▁Bobby	-11503
▁Hope	-11504
ambers	-11505
▁accommodate	-11506
▁ol	-11507
▁medication	-11508
▁ho	-11509
▁Serge	-11510
makers	-11511
▁Altern	-11512
▁physician	-11513
rup	-11514
umph	-11515
▁Garc	-11516
▁constitu	-11517
▁flooded	-11518
aton	-11519
iche	-11520
▁genu	-11521
parts	-11522
▁venue	-11523
▁privile	-11524
▁Authority	-11525
▁worker	-11526
uis	-11527
▁Potter	-11528
▁thirteen	-11529
▁expanding	-11530
▁1898	-11531
▁Mason	-11532
▁dinner	-11533
▁operates	-11534
▁protests	-11535
▁Jama	-11536
▁ma	-11537
▁starring	-11538
rene	-11539
▁convert	-11540
▁illustrated	-11541
▁Please	-11542
▁photography	-11543
▁warnings	-11544
▁Pay	-11545
▁1896	-11546
king	-11547
▁cannon	-11548
igious	-11549
▁signature	-11550
HA	-11551
gie	-11552
▁Eight	-11553
▁defences	-11554
▁manifest	-11555
▁dread	-11556
▁contamin	-11557
arks	-11558
▁ski	-11559
▁payment	-11560
cott	-11561
▁acute	-11562
▁Standard	-11563
▁chances	-11564
▁proposals	-11565
auc	-11566
▁Tig	-11567
▁opinions	-11568
arma	-11569
▁Susan	-11570
▁genet	-11571
▁substances	-11572
enovela	-11573
unning	-11574
▁fortress	-11575
▁CP	-11576
quiry	-11577
▁beats	-11578
▁Occ	-11579
▁Harbor	-11580
▁Wallace	-11581
▁Wrestling	-11582
▁Map	-11583
▁worksh	-11584
▁underwent	-11585
▁dissipated	-11586
1)	-11587
endar	-11588
▁Lower	-11589
oux	-11590
▁amazing	-11591
▁dwarf	-11592
▁thrown	-11593
▁Protection	-11594
▁jilyen	-11595
▁Richmond	-11596
boy	-11597
▁orient	-11598
▁playoffs	-11599
▁Brothers	-11600
▁decorated	-11601
▁Kid	-11602
▁tough	-11603
raine	-11604
▁contributing	-11605
▁jack	-11606
▁meth	-11607
gom	-11608
▁tong	-11609
▁offs	-11610
▁Arctic	-11611
▁shifted	-11612
▁mortality	-11613
▁Kate	-11614
▁fant	-11615
▁voye	-11616
▁shelter	-11617
▁literally	-11618
Tube	-11619
▁bapt	-11620
▁towers	-11621
▁turret	-11622
▁rings	-11623
▁regulation	-11624
▁ampl	-11625
▁extinct	-11626
rising	-11627
▁audition	-11628
▁Lloyd	-11629
▁abroad	-11630
▁Put	-11631
ubble	-11632
▁clouds	-11633
ricks	-11634
▁Cer	-11635
▁Falls	-11636
▁guitarist	-11637
▁IC	-11638
▁Blu	-11639
▁gentle	-11640
▁Orleans	-11641
▁nitrogen	-11642
▁Vers	-11643
▁quar	-11644
▁Players	-11645
▁Independence	-11646
▁offense	-11647
▁realistic	-11648
▁Spr	-11649
▁census	-11650
▁acclaim	-11651
4)	-11652
adier	-11653
▁symbols	-11654
▁Cad	-11655
▁Must	-11656
▁heating	-11657
▁reinforced	-11658
▁topped	-11659
ilder	-11660
▁Grace	-11661
▁Scientology	-11662
▁independently	-11663
▁spectrum	-11664
▁Sweet	-11665
oves	-11666
atural	-11667
▁medic	-11668
▁distinguish	-11669
▁UC	-11670
▁THE	-11671
▁Hughes	-11672
▁habits	-11673
▁Exam	-11674
▁carb	-11675
eters	-11676
▁enhanced	-11677
▁punk	-11678
▁Edition	-11679
▁revolutionary	-11680
▁Camb	-11681
▁inherited	-11682
udi	-11683
▁altitude	-11684
▁remarkable	-11685
▁theatrical	-11686
isive	-11687
alia	-11688
isdom	-11689
omon	-11690
▁encom	-11691
▁irregular	-11692
▁Jerry	-11693
▁humor	-11694
▁gh	-11695
▁Pink	-11696
▁traded	-11697
▁coc	-11698
restrial	-11699
ME	-11700
nan	-11701
▁YouTube	-11702
▁affecting	-11703
via	-11704
▁shapes	-11705
▁innovative	-11706
eries	-11707
▁Link	-11708
idency	-11709
▁array	-11710
legraph	-11711
▁intake	-11712
▁consistently	-11713
▁Barbara	-11714
ema	-11715
▁Keep	-11716
▁gest	-11717
▁Track	-11718
▁Maurice	-11719
▁109	-11720
▁allerg	-11721
▁gravity	-11722
▁ties	-11723
angular	-11724
▁buff	-11725
▁progressive	-11726
ologically	-11727
39	-11728
▁evaluation	-11729
ellar	-11730
▁pier	-11731
▁Eve	-11732
▁RNA	-11733
▁availability	-11734
word	-11735
▁Executive	-11736
lon	-11737
▁PM	-11738
▁brig	-11739
▁arrives	-11740
▁observe	-11741
▁lip	-11742
▁ignored	-11743
▁healthcare	-11744
pling	-11745
▁speeds	-11746
▁SP	-11747
icking	-11748
▁Yam	-11749
▁lun	-11750
US	-11751
▁ultimate	-11752
gged	-11753
▁Ernest	-11754
▁confused	-11755
piece	-11756
▁Austin	-11757
▁disrupt	-11758
▁deposits	-11759
mm	-11760
onica	-11761
▁patri	-11762
▁McCartney	-11763
▁sculpture	-11764
▁comed	-11765
▁descent	-11766
▁scenario	-11767
ulture	-11768
isting	-11769
▁Yankees	-11770
▁rever	-11771
▁aest	-11772
▁trough	-11773
▁rehe	-11774
▁Dwight	-11775
itory	-11776
aha	-11777
rien	-11778
▁Liberal	-11779
▁pm	-11780
alin	-11781
▁aims	-11782
▁protective	-11783
child	-11784
▁exciting	-11785
▁moisture	-11786
layer	-11787
▁kills	-11788
yè	-11789
▁keeps	-11790
▁solely	-11791
▁shr	-11792
▁syans	-11793
▁sel	-11794
▁Indeed	-11795
▁Lé	-11796
archy	-11797
▁Quebec	-11798
▁tenure	-11799
▁cooperation	-11800
free	-11801
ennial	-11802
▁contrad	-11803
▁discussions	-11804
▁·	-11805
▁Orange	-11806
▁learns	-11807
▁Abraham	-11808
▁eleph	-11809
▁capabilities	-11810
▁Salt	-11811
imony	-11812
▁hier	-11813
▁seas	-11814
▁Being	-11815
▁Province	-11816
▁qualities	-11817
rod	-11818
▁promin	-11819
aque	-11820
▁Abu	-11821
▁angry	-11822
▁arguing	-11823
▁Mick	-11824
▁hurt	-11825
▁bigger	-11826
action	-11827
▁sword	-11828
urse	-11829
▁timber	-11830
▁civilians	-11831
▁acoustic	-11832
▁minerals	-11833
▁salary	-11834
▁currency	-11835
▁Ferr	-11836
▁Verm	-11837
▁mig	-11838
▁judges	-11839
▁trigger	-11840
▁Armstrong	-11841
▁strain	-11842
▁consumed	-11843
▁kilometers	-11844
idan	-11845
rolog	-11846
▁neuro	-11847
▁proceeded	-11848
?”	-11849
▁loose	-11850
▁Pi	-11851
▁Clay	-11852
entieth	-11853
▁Apollo	-11854
▁amateur	-11855
urricanes	-11856
apters	-11857
▁hardware	-11858
100	-11859
uce	-11860
▁zones	-11861
▁similarities	-11862
▁communist	-11863
▁settlements	-11864
elta	-11865
86	-11866
ulsion	-11867
▁Transportation	-11868
ikes	-11869
ancers	-11870
▁discipline	-11871
▁Sep	-11872
press	-11873
▁migr	-11874
▁Televizyon	-11875
▁Oil	-11876
ión	-11877
▁Yorkshire	-11878
▁Outstanding	-11879
ashi	-11880
▁supern	-11881
▁colours	-11882
▁Guinea	-11883
▁fu	-11884
▁Pul	-11885
▁harsh	-11886
▁Talk	-11887
42	-11888
▁Clin	-11889
▁fourteen	-11890
avia	-11891
▁Marcel	-11892
iko	-11893
▁neur	-11894
▁imposed	-11895
ratropical	-11896
▁sponsored	-11897
89	-11898
▁1893	-11899
▁advances	-11900
▁volcanic	-11901
▁Eis	-11902
oloji	-11903
▁Deb	-11904
usters	-11905
▁colored	-11906
▁hide	-11907
through	-11908
▁remembered	-11909
▁strange	-11910
▁Pittsburgh	-11911
▁Affairs	-11912
▁continent	-11913
▁Cut	-11914
▁Try	-11915
▁complement	-11916
▁Malaysia	-11917
▁conducting	-11918
▁rebels	-11919
▁viruses	-11920
▁sixteen	-11921
▁pour	-11922
▁elaborate	-11923
▁joy	-11924
▁democracy	-11925
▁3,	-11926
▁Stef	-11927
▁surrendered	-11928
▁width	-11929
▁JT	-11930
iratory	-11931
▁quantity	-11932
▁shed	-11933
▁poster	-11934
▁je	-11935
▁Wel	-11936
▁pharm	-11937
].	-11938
▁Johann	-11939
▁burial	-11940
▁precise	-11941
▁jurisdiction	-11942
▁transformed	-11943
▁PS	-11944
▁spur	-11945
▁contracts	-11946
ipper	-11947
▁dozen	-11948
▁aftermath	-11949
hma	-11950
▁Month	-11951
▁Triple	-11952
ao	-11953
▁Steel	-11954
▁quantities	-11955
0.	-11956
nut	-11957
▁positively	-11958
var	-11959
▁nutrition	-11960
▁grandfather	-11961
rels	-11962
minster	-11963
▁resolved	-11964
ido	-11965
▁Alt	-11966
▁culmin	-11967
▁societies	-11968
▁Historical	-11969
onge	-11970
▁uranium	-11971
▁Syl	-11972
▁Half	-11973
▁Fleming	-11974
▁Officer	-11975
onde	-11976
▁aft	-11977
▁reass	-11978
▁Ages	-11979
▁1899	-11980
▁Davies	-11981
▁7.	-11982
▁notion	-11983
▁Beginning	-11984
iksyon	-11985
▁warned	-11986
▁reduces	-11987
▁Mayor	-11988
▁doi	-11989
▁readily	-11990
▁Danish	-11991
▁definitely	-11992
▁Pow	-11993
▁extratropical	-11994
lem	-11995
▁Yes	-11996
▁Geoff	-11997
▁Vl	-11998
▁Belgian	-11999
▁discrimination	-12000
▁melody	-12001
hum	-12002
▁fier	-12003
celand	-12004
▁Hardy	-12005
▁stabil	-12006
▁detection	-12007
▁participating	-12008
▁Check	-12009
▁Bennett	-12010
▁Thunder	-12011
▁trapped	-12012
▁PR	-12013
▁summit	-12014
▁exchang	-12015
▁telephone	-12016
▁Cho	-12017
▁Days	-12018
▁Given	-12019
▁lacking	-12020
▁AL	-12021
▁automatically	-12022
roduction	-12023
ogram	-12024
isations	-12025
▁productions	-12026
▁pref	-12027
▁WH	-12028
▁Bren	-12029
▁Tang	-12030
▁cartoon	-12031
▁punishment	-12032
▁Nord	-12033
▁ease	-12034
▁Impact	-12035
▁induct	-12036
▁mate	-12037
▁Safety	-12038
▁healing	-12039
▁advertis	-12040
iya	-12041
▁NAT	-12042
▁lib	-12043
▁breath	-12044
▁Chronicle	-12045
▁perception	-12046
▁Wilhelm	-12047
▁Facebook	-12048
▁mathematical	-12049
▁anger	-12050
▁cooking	-12051
▁abundant	-12052
mers	-12053
▁Guitar	-12054
▁Cred	-12055
itivity	-12056
▁stake	-12057
▁Portugal	-12058
7,	-12059
▁epic	-12060
▁feathers	-12061
▁divine	-12062
▁anime	-12063
▁prisoner	-12064
III	-12065
alg	-12066
▁hospitals	-12067
▁Norfolk	-12068
▁puts	-12069
▁sacred	-12070
▁Luther	-12071
▁undertaken	-12072
otypes	-12073
▁Malt	-12074
▁careful	-12075
▁tissues	-12076
▁rotation	-12077
▁controlling	-12078
▁champions	-12079
▁Neil	-12080
▁parad	-12081
▁repet	-12082
▁Unfortunately	-12083
▁Vern	-12084
▁pupils	-12085
lez	-12086
▁por	-12087
▁Flying	-12088
▁Gallery	-12089
▁cabinet	-12090
▁streams	-12091
▁authorized	-12092
▁Larry	-12093
▁Glen	-12094
▁accomplished	-12095
▁voters	-12096
umble	-12097
▁portrayal	-12098
atches	-12099
▁Titan	-12100
▁Harold	-12101
▁constra	-12102
▁refugees	-12103
▁biology	-12104
▁finance	-12105
▁Collection	-12106
▁gear	-12107
▁inhab	-12108
▁redes	-12109
▁Cameron	-12110
▁zye	-12111
▁Howe	-12112
▁Wik	-12113
▁irrit	-12114
▁parody	-12115
▁voyage	-12116
▁Greater	-12117
▁scope	-12118
▁commercially	-12119
▁Meg	-12120
▁Ib	-12121
▁Daw	-12122
alling	-12123
hu	-12124
olin	-12125
▁pursuit	-12126
▁searching	-12127
azon	-12128
▁lighter	-12129
▁revolt	-12130
▁reinforcements	-12131
rium	-12132
▁Bour	-12133
▁Fourth	-12134
▁divorce	-12135
▁wished	-12136
▁Minor	-12137
▁Champion	-12138
▁Lonj	-12139
istant	-12140
▁calm	-12141
▁Freedom	-12142
▁imper	-12143
▁promotional	-12144
▁Detay	-12145
▁feared	-12146
▁commanders	-12147
▁Afghanistan	-12148
eta	-12149
▁Swift	-12150
▁commenced	-12151
quest	-12152
▁ritual	-12153
▁Latitid	-12154
▁Got	-12155
▁cord	-12156
▁Method	-12157
▁Lonjitid	-12158
▁Owen	-12159
▁acceptance	-12160
▁ramp	-12161
herent	-12162
▁radi	-12163
▁fiber	-12164
▁safely	-12165
▁reh	-12166
actic	-12167
▁withdrawn	-12168
▁occasional	-12169
▁tout	-12170
▁Protestant	-12171
▁TNA	-12172
▁advancing	-12173
▁NCAA	-12174
▁hoping	-12175
▁assignment	-12176
▁blues	-12177
▁Burton	-12178
anas	-12179
flow	-12180
▁spawn	-12181
found	-12182
▁reorgan	-12183
▁quarters	-12184
ION	-12185
▁meal	-12186
hyd	-12187
ocene	-12188
▁Rena	-12189
▁borders	-12190
▁Bud	-12191
▁Regional	-12192
▁CH	-12193
▁duo	-12194
grade	-12195
▁acre	-12196
▁outdoor	-12197
▁horizontal	-12198
▁Tak	-12199
▁encompass	-12200
utton	-12201
▁Commer	-12202
▁trunk	-12203
▁Brazilian	-12204
asha	-12205
▁Intellig	-12206
▁Lore	-12207
▁miz	-12208
▁hostile	-12209
▁Wells	-12210
cons	-12211
▁Page	-12212
▁ourselves	-12213
ilia	-12214
backs	-12215
list	-12216
▁doctrine	-12217
uri	-12218
▁Language	-12219
▁Cathedral	-12220
rang	-12221
arded	-12222
▁Cand	-12223
ING	-12224
▁Stuart	-12225
▁1895	-12226
▁sid	-12227
cht	-12228
▁historically	-12229
ho	-12230
▁summar	-12231
▁infant	-12232
▁package	-12233
▁ib	-12234
▁Legisl	-12235
▁RP	-12236
▁disturbance	-12237
▁Terry	-12238
▁Register	-12239
▁battlecru	-12240
▁perpet	-12241
▁Iceland	-12242
▁terminal	-12243
▁hung	-12244
▁Bradman	-12245
▁Republicans	-12246
neum	-12247
▁herb	-12248
▁barrier	-12249
▁worry	-12250
▁Production	-12251
GB	-12252
beat	-12253
▁Vit	-12254
▁choosing	-12255
▁interven	-12256
▁numbered	-12257
▁installation	-12258
▁03	-12259
▁powder	-12260
▁philosoph	-12261
▁Salv	-12262
▁maybe	-12263
EL	-12264
lings	-12265
▁Joint	-12266
iminary	-12267
▁fro	-12268
▁consent	-12269
▁goddess	-12270
▁viewing	-12271
▁enlar	-12272
hn	-12273
▁invented	-12274
▁Constantin	-12275
▁Crow	-12276
▁legacy	-12277
▁wouldn	-12278
▁Gay	-12279
utors	-12280
▁Ré	-12281
▁Beth	-12282
▁mas	-12283
ublin	-12284
▁Ruth	-12285
▁traits	-12286
▁Picture	-12287
▁Skin	-12288
ailing	-12289
▁Number	-12290
▁drown	-12291
▁Dallas	-12292
▁unemploy	-12293
▁collecting	-12294
held	-12295
▁marking	-12296
bast	-12297
▁boilers	-12298
iga	-12299
▁totally	-12300
▁ballad	-12301
▁perm	-12302
estock	-12303
▁Click	-12304
▁matematisyen	-12305
amation	-12306
▁wrestling	-12307
EP	-12308
olia	-12309
▁cha	-12310
clusive	-12311
▁rendered	-12312
iors	-12313
▁juven	-12314
▁citizen	-12315
▁opposing	-12316
▁innovation	-12317
rays	-12318
▁strikes	-12319
▁pwod	-12320
▁Rangers	-12321
NC	-12322
▁ka	-12323
▁cream	-12324
▁Disease	-12325
▁ingredients	-12326
pine	-12327
UC	-12328
cope	-12329
▁insu	-12330
▁crest	-12331
ieu	-12332
▁seal	-12333
▁commanding	-12334
▁threatening	-12335
▁Cancer	-12336
▁bin	-12337
▁reserved	-12338
itime	-12339
IP	-12340
▁1897	-12341
▁Future	-12342
oline	-12343
▁fing	-12344
otherapy	-12345
▁ic	-12346
▁bowl	-12347
erated	-12348
▁prototype	-12349
▁concentrations	-12350
▁EC	-12351
▁specialized	-12352
▁1:	-12353
holders	-12354
which	-12355
▁sized	-12356
▁compare	-12357
▁perfectly	-12358
ensis	-12359
▁airfield	-12360
▁relating	-12361
oirs	-12362
making	-12363
▁Find	-12364
▁archaeological	-12365
6,	-12366
izz	-12367
▁»	-12368
amas	-12369
▁Hispan	-12370
▁Saturn	-12371
▁beating	-12372
▁mysterious	-12373
▁Mater	-12374
▁reson	-12375
abulary	-12376
atistik	-12377
▁recurring	-12378
▁Saxon	-12379
▁tables	-12380
▁subsc	-12381
▁thermal	-12382
▁upcoming	-12383
▁portrait	-12384
▁laugh	-12385
▁hazard	-12386
anim	-12387
▁fungus	-12388
▁Stars	-12389
77	-12390
isan	-12391
▁cav	-12392
▁Montana	-12393
▁:2	-12394
▁client	-12395
itted	-12396
▁reef	-12397
ön	-12398
▁Hav	-12399
being	-12400
▁metabol	-12401
▁Marvel	-12402
▁fame	-12403
▁prayer	-12404
esity	-12405
▁Isaac	-12406
▁Johnston	-12407
▁diplomatic	-12408
▁Observ	-12409
▁housed	-12410
▁atmospheric	-12411
▁Sak	-12412
▁desper	-12413
▁Craw	-12414
▁cant	-12415
▁Chair	-12416
▁overwhelming	-12417
eston	-12418
▁atoms	-12419
▁behaviors	-12420
▁Oslo	-12421
▁dece	-12422
▁fron	-12423
▁Pictures	-12424
▁favourite	-12425
▁happening	-12426
▁Access	-12427
▁limitations	-12428
▁FBI	-12429
▁Rezime	-12430
▁congress	-12431
▁southeastern	-12432
▁tours	-12433
▁Æthel	-12434
▁advantages	-12435
▁Reich	-12436
▁oriented	-12437
▁Alban	-12438
▁Bryan	-12439
▁depicts	-12440
▁compiled	-12441
nels	-12442
▁tob	-12443
▁Nancy	-12444
▁comparing	-12445
HS	-12446
▁Lis	-12447
▁Sad	-12448
▁jaw	-12449
▁unt	-12450
▁Mall	-12451
▁Herald	-12452
▁Against	-12453
▁creature	-12454
▁Athens	-12455
▁elite	-12456
▁accomplish	-12457
ults	-12458
▁Lead	-12459
▁fossils	-12460
▁mythology	-12461
▁relocated	-12462
▁pupp	-12463
▁Patri	-12464
▁estatistik	-12465
▁travelling	-12466
Ne	-12467
▁Cort	-12468
▁prest	-12469
▁Hyd	-12470
▁Georges	-12471
enders	-12472
▁superst	-12473
dam	-12474
mat	-12475
▁cave	-12476
▁mystery	-12477
▁Champions	-12478
▁intelligent	-12479
▁discussing	-12480
gomery	-12481
▁Agu	-12482
▁Unit	-12483
▁edges	-12484
oba	-12485
Grain	-12486
▁proud	-12487
eda	-12488
inis	-12489
▁Level	-12490
▁Youth	-12491
istence	-12492
ounters	-12493
▁Crus	-12494
▁rejo	-12495
▁explored	-12496
ordinary	-12497
▁speaker	-12498
▁Hunter	-12499
▁Vo	-12500
▁Pra	-12501
▁sailing	-12502
▁damaging	-12503
VID	-12504
itting	-12505
▁nominations	-12506
▁correctly	-12507
▁thickness	-12508
▁dil	-12509
▁scrap	-12510
elihood	-12511
▁sacrifice	-12512
▁Lud	-12513
▁Costa	-12514
onso	-12515
▁Zone	-12516
acular	-12517
▁confer	-12518
▁treating	-12519
▁consensus	-12520
assium	-12521
▁nautical	-12522
▁disappeared	-12523
▁CBS	-12524
▁Friends	-12525
unct	-12526
▁memories	-12527
▁identifying	-12528
▁sharks	-12529
rand	-12530
▁Nav	-12531
thening	-12532
▁Word	-12533
▁Montgomery	-12534
wer	-12535
hill	-12536
▁busy	-12537
igo	-12538
▁202	-12539
▁fatal	-12540
▁anticipated	-12541
▁bonds	-12542
▁Clarke	-12543
▁Prix	-12544
▁tracking	-12545
▁airline	-12546
▁outstanding	-12547
▁Ivan	-12548
---	-12549
InGrain	-12550
▁intersects	-12551
▁FallInGrain	-12552
▁metric	-12553
▁belonging	-12554
▁wonderful	-12555
▁Body	-12556
▁harder	-12557
▁Brooks	-12558
▁beaten	-12559
master	-12560
▁Cricket	-12561
▁elderly	-12562
▁renewed	-12563
▁UE	-12564
▁Mig	-12565
ingham	-12566
▁distract	-12567
▁Performance	-12568
rub	-12569
▁collective	-12570
▁Fitz	-12571
▁Robin	-12572
▁breeds	-12573
▁attractive	-12574
▁creek	-12575
▁Trophy	-12576
▁rays	-12577
▁extends	-12578
▁reserves	-12579
oda	-12580
▁Nebr	-12581
▁urged	-12582
▁guests	-12583
▁abstract	-12584
-200	-12585
▁Economic	-12586
▁Pent	-12587
▁rivalry	-12588
▁corruption	-12589
▁incl	-12590
reated	-12591
▁Marge	-12592
enson	-12593
Arthur	-12594
’.	-12595
▁rod	-12596
▁cleaning	-12597
▁erosion	-12598
▁Insp	-12599
▁capturing	-12600
▁Stein	-12601
arents	-12602
▁praising	-12603
▁Rou	-12604
▁spar	-12605
▁mistake	-12606
▁destroyer	-12607
▁Metropolitan	-12608
▁Wii	-12609
utter	-12610
▁undergo	-12611
▁Churchill	-12612
▁stolen	-12613
▁voltage	-12614
▁territorial	-12615
orrect	-12616
▁Attorney	-12617
▁cheap	-12618
▁toured	-12619
▁discontin	-12620
▁Shah	-12621
▁plenty	-12622
.|	-12623
cester	-12624
blem	-12625
igue	-12626
▁pine	-12627
iotics	-12628
▁lesser	-12629
▁incorporate	-12630
▁Laura	-12631
▁acquire	-12632
▁mice	-12633
▁essays	-12634
hea	-12635
▁administered	-12636
enz	-12637
▁disk	-12638
▁fears	-12639
▁gluc	-12640
▁arose	-12641
▁kitchen	-12642
▁Pel	-12643
▁tent	-12644
▁unh	-12645
apor	-12646
▁rains	-12647
raid	-12648
▁Alliance	-12649
▁Resources	-12650
▁reasonable	-12651
pes	-12652
▁flesh	-12653
▁eventual	-12654
▁Constantine	-12655
agram	-12656
▁reyalizatè	-12657
▁Nebraska	-12658
▁guy	-12659
▁vin	-12660
▁Raymond	-12661
fast	-12662
▁recruited	-12663
▁sophistic	-12664
▁240	-12665
▁Rat	-12666
▁Urban	-12667
▁biography	-12668
▁evolutionary	-12669
rators	-12670
▁merged	-12671
▁Classic	-12672
▁1861	-12673
▁Coal	-12674
instein	-12675
▁copyright	-12676
not	-12677
urst	-12678
▁Change	-12679
▁«	-12680
engu	-12681
▁Sic	-12682
▁ancestors	-12683
▁absolutely	-12684
enza	-12685
▁thy	-12686
onial	-12687
▁verses	-12688
▁throwing	-12689
▁perf	-12690
▁experiencing	-12691
▁dose	-12692
▁complications	-12693
▁quoted	-12694
▁04	-12695
▁Aren	-12696
▁Branch	-12697
▁Valent	-12698
▁Wonder	-12699
▁circles	-12700
▁incidents	-12701
aco	-12702
▁OF	-12703
icity	-12704
▁Kane	-12705
osal	-12706
▁cinema	-12707
▁Testament	-12708
▁specialist	-12709
▁Burns	-12710
arians	-12711
▁gathering	-12712
▁Krist	-12713
▁Thanks	-12714
▁Kaiser	-12715
▁scales	-12716
▁Sheff	-12717
▁Dublin	-12718
quer	-12719
▁Pant	-12720
▁cure	-12721
abling	-12722
auge	-12723
▁ears	-12724
plant	-12725
keeper	-12726
▁Rather	-12727
lington	-12728
omical	-12729
▁develops	-12730
▁Flag	-12731
hell	-12732
landers	-12733
▁Nad	-12734
▁Perhaps	-12735
▁staying	-12736
▁tobacco	-12737
▁intermediate	-12738
▁Mix	-12739
▁nineteenth	-12740
mont	-12741
▁predominantly	-12742
▁nam	-12743
▁Archae	-12744
▁aux	-12745
▁Monday	-12746
▁achieving	-12747
▁Romans	-12748
ña	-12749
▁bore	-12750
▁eligible	-12751
▁whales	-12752
pike	-12753
▁Sex	-12754
▁sor	-12755
▁Oscar	-12756
▁Buffalo	-12757
orf	-12758
▁reflects	-12759
▁screens	-12760
ahl	-12761
▁María	-12762
▁pursued	-12763
▁Scar	-12764
ifferent	-12765
▁complained	-12766
▁Sri	-12767
leted	-12768
▁libr	-12769
▁rocket	-12770
▁rehears	-12771
▁blast	-12772
isely	-12773
▁Tol	-12774
▁Cyrus	-12775
istically	-12776
▁persuaded	-12777
▁sentenced	-12778
▁dimensions	-12779
▁Globe	-12780
▁modest	-12781
▁cyclones	-12782
▁companion	-12783
▁Does	-12784
▁garn	-12785
▁Judge	-12786
▁imagine	-12787
acts	-12788
▁JTWC	-12789
▁thread	-12790
▁specified	-12791
▁tune	-12792
▁Dj	-12793
ucker	-12794
▁planted	-12795
▁Sheffield	-12796
▁centered	-12797
▁releasing	-12798
▁sizes	-12799
▁manufactured	-12800
▁Wes	-12801
thetic	-12802
▁Climate	-12803
▁cathedral	-12804
▁drafted	-12805
▁employee	-12806
enos	-12807
▁UEFA	-12808
▁Madison	-12809
▁Cemetery	-12810
etta	-12811
iop	-12812
▁fluor	-12813
▁releg	-12814
▁odd	-12815
▁deals	-12816
▁authentic	-12817
ierra	-12818
▁digit	-12819
▁spite	-12820
▁chapters	-12821
chy	-12822
▁Justin	-12823
iang	-12824
▁Vic	-12825
adows	-12826
▁Kids	-12827
▁repeat	-12828
asma	-12829
ften	-12830
levard	-12831
▁walked	-12832
▁Chan	-12833
▁assessed	-12834
▁connects	-12835
▁Indonesian	-12836
▁Studio	-12837
▁oct	-12838
boards	-12839
▁masses	-12840
iste	-12841
assy	-12842
▁chore	-12843
▁manufacturers	-12844
▁tends	-12845
otion	-12846
▁Boat	-12847
▁invaded	-12848
▁Baron	-12849
▁manga	-12850
▁sings	-12851
▁nevertheless	-12852
▁1889	-12853
▁Mann	-12854
▁kidn	-12855
▁Side	-12856
▁lyr	-12857
▁misc	-12858
▁tendency	-12859
▁unve	-12860
▁Gabriel	-12861
OW	-12862
▁Sultan	-12863
▁judgment	-12864
▁critically	-12865
▁fragments	-12866
ourt	-12867
▁Princ	-12868
▁corrid	-12869
▁killer	-12870
▁comprised	-12871
▁Representatives	-12872
▁CEO	-12873
dan	-12874
ometry	-12875
▁Tab	-12876
▁loaded	-12877
▁silent	-12878
▁suggestion	-12879
Is	-12880
ogs	-12881
▁epit	-12882
ocaust	-12883
▁Liberty	-12884
▁Industrial	-12885
pin	-12886
ulator	-12887
guard	-12888
eps	-12889
▁eaten	-12890
▁imprisoned	-12891
▁NATO	-12892
▁Maced	-12893
▁biographer	-12894
▁qualifying	-12895
quis	-12896
andro	-12897
▁implications	-12898
▁McKin	-12899
inating	-12900
▁parking	-12901
▁struggling	-12902
rice	-12903
urated	-12904
▁Junior	-12905
▁Leonard	-12906
enburg	-12907
▁gases	-12908
▁diamond	-12909
▁technological	-12910
And	-12911
ović	-12912
urer	-12913
▁landmark	-12914
▁Toy	-12915
ovic	-12916
▁Rogers	-12917
▁pleased	-12918
▁tracked	-12919
▁Chelsea	-12920
▁municipal	-12921
▁complexity	-12922
▁greenhouse	-12923
▁measurement	-12924
▁robot	-12925
▁Reagan	-12926
iolet	-12927
▁Mercury	-12928
▁Caes	-12929
▁Merced	-12930
fim	-12931
▁throat	-12932
▁conquest	-12933
▁interface	-12934
thal	-12935
▁Danny	-12936
▁navigation	-12937
des	-12938
▁membrane	-12939
▁Palestine	-12940
▁1888	-12941
▁Emmy	-12942
▁anne	-12943
▁Scots	-12944
▁nep	-12945
▁grossing	-12946
▁mouse	-12947
▁spell	-12948
▁carved	-12949
▁welfare	-12950
iblical	-12951
▁knocked	-12952
ieg	-12953
▁Ana	-12954
vet	-12955
▁subtle	-12956
▁dancers	-12957
▁OS	-12958
inate	-12959
▁recruit	-12960
RS	-12961
▁gains	-12962
▁button	-12963
▁trends	-12964
▁pitcher	-12965
▁tourist	-12966
▁murdered	-12967
▁frog	-12968
▁promising	-12969
mel	-12970
▁steady	-12971
atts	-12972
ovak	-12973
▁Pick	-12974
▁Claud	-12975
▁radius	-12976
▁rescued	-12977
alties	-12978
▁cooling	-12979
▁compositions	-12980
▁styl	-12981
▁Systems	-12982
▁Tradition	-12983
▁ward	-12984
▁Fun	-12985
▁Parsons	-12986
▁sentiment	-12987
▁accidentally	-12988
htm	-12989
▁customer	-12990
▁volunt	-12991
▁Alberta	-12992
▁veteran	-12993
keley	-12994
▁Nevada	-12995
▁Arabic	-12996
jud	-12997
▁1894	-12998
▁Pain	-12999
▁drives	-13000
▁monthly	-13001
▁ba	-13002
▁AIDS	-13003
▁contents	-13004
▁fet	-13005
▁Total	-13006
▁101	-13007
▁Sean	-13008
▁fraud	-13009
▁icon	-13010
▁embarked	-13011
▁Serbian	-13012
▁permanently	-13013
▁speculation	-13014
▁Nou	-13015
▁regist	-13016
500	-13017
▁Arc	-13018
▁Cardiff	-13019
93	-13020
▁Gregory	-13021
▁Ps	-13022
mother	-13023
▁bills	-13024
▁Bright	-13025
▁trace	-13026
▁satisfact	-13027
▁endangered	-13028
-6	-13029
▁450	-13030
▁cig	-13031
▁Nova	-13032
asury	-13033
lessly	-13034
▁Brand	-13035
▁Sear	-13036
▁drag	-13037
OU	-13038
bage	-13039
▁viral	-13040
▁vicinity	-13041
▁Model	-13042
▁alumin	-13043
▁judicial	-13044
▁competitions	-13045
ampton	-13046
▁enforcement	-13047
▁Room	-13048
▁bars	-13049
▁Additional	-13050
▁pas	-13051
achute	-13052
▁Greatest	-13053
▁inspect	-13054
avi	-13055
▁bitter	-13056
▁mutual	-13057
▁shopping	-13058
▁girlfriend	-13059
haw	-13060
▁Saw	-13061
▁Burke	-13062
▁Stre	-13063
▁dish	-13064
▁steadily	-13065
▁CN	-13066
ellers	-13067
▁Large	-13068
▁Orthodox	-13069
▁positioned	-13070
▁Hunt	-13071
▁Sherman	-13072
iov	-13073
▁BCE	-13074
▁prospect	-13075
▁homeless	-13076
osity	-13077
▁expense	-13078
▁ensuring	-13079
▁disappear	-13080
▁104	-13081
▁harbour	-13082
▁tickets	-13083
▁evacuation	-13084
mill	-13085
itate	-13086
▁mold	-13087
castle	-13088
colm	-13089
▁Laz	-13090
▁hur	-13091
▁reconstruction	-13092
New	-13093
▁amino	-13094
▁binding	-13095
tye	-13096
▁Chall	-13097
▁tasked	-13098
▁127	-13099
▁wheat	-13100
▁Capital	-13101
▁speakers	-13102
▁weakening	-13103
▁rivals	-13104
▁revival	-13105
rians	-13106
▁Taiwan	-13107
▁Princeton	-13108
▁Machine	-13109
▁1891	-13110
▁gast	-13111
osyete	-13112
▁135	-13113
▁intact	-13114
▁Miles	-13115
▁balls	-13116
▁Baltic	-13117
▁clergy	-13118
▁disabled	-13119
▁CC	-13120
amount	-13121
▁mg	-13122
▁Leaf	-13123
▁progression	-13124
olesc	-13125
▁axis	-13126
ogenic	-13127
▁entert	-13128
▁Tyler	-13129
▁mechanics	-13130
▁respiratory	-13131
mye	-13132
▁tongue	-13133
ilda	-13134
▁echo	-13135
▁drought	-13136
▁squadrons	-13137
▁determining	-13138
▁fol	-13139
▁destination	-13140
▁insufficient	-13141
uns	-13142
▁quantum	-13143
▁Whether	-13144
▁twentieth	-13145
▁Ask	-13146
ipedia	-13147
grounds	-13148
print	-13149
▁encounters	-13150
▁theoretical	-13151
▁Jose	-13152
▁drummer	-13153
▁graphic	-13154
▁ecological	-13155
▁Cond	-13156
▁Ship	-13157
▁adoption	-13158
▁tourists	-13159
inite	-13160
▁Sans	-13161
▁crust	-13162
▁exile	-13163
▁mentions	-13164
▁offshore	-13165
▁witnessed	-13166
▁Fac	-13167
▁1865	-13168
▁attraction	-13169
▁achievements	-13170
▁Actor	-13171
▁ghost	-13172
▁distances	-13173
▁seiz	-13174
▁Spect	-13175
▁Policy	-13176
▁submit	-13177
▁Soft	-13178
▁Things	-13179
▁Genesis	-13180
itol	-13181
inz	-13182
▁gly	-13183
▁Weather	-13184
▁dissolved	-13185
▁vibr	-13186
▁scholarship	-13187
▁mim	-13188
▁brut	-13189
▁rounded	-13190
advant	-13191
▁consume	-13192
▁sentences	-13193
▁compromise	-13194
adequ	-13195
▁delight	-13196
▁gut	-13197
oding	-13198
▁demo	-13199
▁Researchers	-13200
▁220	-13201
▁Eld	-13202
ancellor	-13203
▁instances	-13204
▁machinery	-13205
ulu	-13206
▁Voy	-13207
ostic	-13208
▁Inside	-13209
▁Rodrig	-13210
▁ank	-13211
▁Sega	-13212
leys	-13213
▁Omar	-13214
▁temples	-13215
▁airing	-13216
▁variables	-13217
encer	-13218
▁Zero	-13219
isphere	-13220
▁Yon	-13221
▁1885	-13222
▁Shiva	-13223
▁walks	-13224
▁Nam	-13225
▁Gener	-13226
▁blank	-13227
olester	-13228
▁commenting	-13229
▁Bark	-13230
▁Progress	-13231
▁integration	-13232
32	-13233
▁transmit	-13234
▁flav	-13235
▁Strong	-13236
▁ashore	-13237
▁encouraging	-13238
▁hunt	-13239
▁Helen	-13240
elia	-13241
▁beer	-13242
▁Arist	-13243
▁chromos	-13244
▁crashed	-13245
ordination	-13246
gart	-13247
▁grace	-13248
▁Boeing	-13249
▁1892	-13250
▁suited	-13251
▁Mang	-13252
lett	-13253
▁streak	-13254
▁insight	-13255
afe	-13256
airy	-13257
▁lingu	-13258
ailable	-13259
▁pleasure	-13260
▁extinction	-13261
▁songwriter	-13262
’,	-13263
▁uncon	-13264
▁preceding	-13265
▁multiplayer	-13266
▁investigated	-13267
▁Chad	-13268
EF	-13269
▁1840	-13270
▁demographic	-13271
▁parliamentary	-13272
▁differently	-13273
GM	-13274
▁Besides	-13275
▁prolong	-13276
▁transformation	-13277
▁Nobel	-13278
▁Warri	-13279
▁Remember	-13280
▁Nas	-13281
▁trap	-13282
front	-13283
▁alert	-13284
uates	-13285
▁grants	-13286
▁mothers	-13287
▁www	-13288
▁livestock	-13289
▁Aber	-13290
▁Region	-13291
▁convince	-13292
▁Malcolm	-13293
▁republic	-13294
▁Hus	-13295
imity	-13296
▁inev	-13297
▁Rivers	-13298
▁decomp	-13299
▁sediment	-13300
▁intr	-13301
cluding	-13302
▁Barnes	-13303
▁agg	-13304
▁Eddie	-13305
▁Constantinople	-13306
▁Prest	-13307
olith	-13308
▁fanm	-13309
▁Delta	-13310
▁buying	-13311
▁convicted	-13312
▁XX	-13313
▁slower	-13314
▁glob	-13315
iously	-13316
▁4,	-13317
just	-13318
▁Micha	-13319
▁suscept	-13320
▁Arkansas	-13321
▁reconstruct	-13322
GS	-13323
anka	-13324
▁Mak	-13325
owned	-13326
▁Diet	-13327
▁Parks	-13328
▁Chapel	-13329
▁Edmund	-13330
▁laser	-13331
▁trips	-13332
opard	-13333
▁Beau	-13334
▁drainage	-13335
oning	-13336
▁pseud	-13337
lements	-13338
▁Regard	-13339
▁Cavalry	-13340
▁editions	-13341
▁depicting	-13342
amic	-13343
works	-13344
▁unst	-13345
▁suspension	-13346
▁mirror	-13347
▁courage	-13348
▁excited	-13349
▁witnesses	-13350
hl	-13351
▁admit	-13352
▁licensed	-13353
TM	-13354
▁Than	-13355
▁comparable	-13356
▁CM	-13357
▁warships	-13358
empl	-13359
▁Leo	-13360
▁Brooklyn	-13361
▁mere	-13362
ictions	-13363
▁masc	-13364
▁penn	-13365
▁charted	-13366
▁contrary	-13367
▁managers	-13368
▁isolation	-13369
▁canon	-13370
▁spray	-13371
▁Source	-13372
▁Bask	-13373
▁Schum	-13374
▁swing	-13375
▁profound	-13376
▁Marines	-13377
▁Him	-13378
▁progressed	-13379
-4	-13380
▁imported	-13381
▁compat	-13382
▁Orchest	-13383
▁Incre	-13384
▁exterior	-13385
▁~	-13386
▁Tib	-13387
▁triumph	-13388
wright	-13389
▁preservation	-13390
▁ber	-13391
▁Core	-13392
▁mant	-13393
▁Nathan	-13394
▁resolve	-13395
▁continental	-13396
iago	-13397
▁Buddhist	-13398
div	-13399
▁Joan	-13400
▁deriv	-13401
▁Ground	-13402
▁dropping	-13403
▁heavier	-13404
▁plug	-13405
▁Florence	-13406
▁Sey	-13407
▁soap	-13408
idia	-13409
▁Kyle	-13410
▁Northwest	-13411
▁Bot	-13412
▁propaganda	-13413
ocolate	-13414
▁rab	-13415
▁Cryst	-13416
▁chase	-13417
▁Movement	-13418
▁literacy	-13419
▁defenders	-13420
▁monastery	-13421
▁Kenneth	-13422
▁Symphony	-13423
▁(5	-13424
▁8.	-13425
▁Shep	-13426
▁Learn	-13427
▁editing	-13428
▁Gates	-13429
▁interf	-13430
▁LP	-13431
ifier	-13432
riages	-13433
▁André	-13434
▁peninsula	-13435
▁Tow	-13436
▁sear	-13437
▁Vienn	-13438
▁Publishing	-13439
▁amphib	-13440
▁naming	-13441
▁avoiding	-13442
▁Territory	-13443
▁seemingly	-13444
▁democratic	-13445
osphere	-13446
▁₹	-13447
▁Sor	-13448
▁VIII	-13449
▁Herbert	-13450
atial	-13451
WA	-13452
-18	-13453
▁Thames	-13454
▁cameras	-13455
gow	-13456
▁tourism	-13457
31	-13458
▁COVID	-13459
▁minds	-13460
▁particle	-13461
ril	-13462
▁whale	-13463
▁metall	-13464
▁projected	-13465
avier	-13466
▁symmet	-13467
istle	-13468
▁Philos	-13469
▁Self	-13470
▁drunk	-13471
enez	-13472
▁MacArthur	-13473
oths	-13474
▁intest	-13475
▁dramatically	-13476
▁shadow	-13477
but	-13478
▁venture	-13479
▁condemned	-13480
▁persec	-13481
plex	-13482
-7	-13483
▁145	-13484
▁Duc	-13485
▁Phot	-13486
▁Continental	-13487
▁descendants	-13488
▁Cloud	-13489
▁Glas	-13490
▁anthrop	-13491
▁sleeping	-13492
▁electrons	-13493
▁helicopter	-13494
▁Planet	-13495
▁transmitted	-13496
▁′	-13497
▁wart	-13498
▁civilization	-13499
rock	-13500
▁Wildlife	-13501
graduate	-13502
▁conjunction	-13503
▁Hi	-13504
veill	-13505
▁cement	-13506
▁trauma	-13507
▁deliberately	-13508
▁holy	-13509
ishops	-13510
▁Sport	-13511
▁wishes	-13512
▁namely	-13513
▁accurately	-13514
dest	-13515
▁bol	-13516
▁stern	-13517
▁Working	-13518
▁Claire	-13519
▁Season	-13520
▁Emma	-13521
▁pneum	-13522
▁Dale	-13523
▁deputy	-13524
▁transit	-13525
▁Doc	-13526
▁bees	-13527
▁closure	-13528
▁swept	-13529
cliff	-13530
▁darker	-13531
▁Hood	-13532
▁variant	-13533
▁floating	-13534
▁damages	-13535
agles	-13536
▁welcome	-13537
▁nickname	-13538
▁Pok	-13539
▁Impro	-13540
▁underwater	-13541
▁Renaissance	-13542
yramid	-13543
▁wisdom	-13544
▁meteor	-13545
▁SC	-13546
▁correl	-13547
▁extraordinary	-13548
gary	-13549
pring	-13550
▁Niger	-13551
▁Round	-13552
▁cemetery	-13553
▁Various	-13554
▁Cornwall	-13555
▁balanced	-13556
▁legitimate	-13557
▁psychology	-13558
▁Chester	-13559
▁Jen	-13560
▁Clara	-13561
▁Magic	-13562
umberland	-13563
▁interference	-13564
▁Kaz	-13565
▁Log	-13566
▁Lòt	-13567
ischer	-13568
mentation	-13569
▁highlights	-13570
▁acquisition	-13571
olars	-13572
▁arth	-13573
olesterol	-13574
▁Iss	-13575
ringe	-13576
▁Voice	-13577
▁sinking	-13578
▁acceptable	-13579
▁asserted	-13580
▁invention	-13581
▁01	-13582
▁Julian	-13583
▁1830	-13584
▁Vick	-13585
87	-13586
racks	-13587
▁antye	-13588
▁pushing	-13589
▁Schools	-13590
ushes	-13591
▁practition	-13592
▁arbit	-13593
▁favored	-13594
▁mixing	-13595
▁marched	-13596
▁rushing	-13597
▁Airlines	-13598
▁revealing	-13599
▁synthesis	-13600
▁contacted	-13601
8,	-13602
▁accidents	-13603
▁accounting	-13604
▁Pack	-13605
If	-13606
ritis	-13607
▁Cinc	-13608
▁anat	-13609
▁chim	-13610
▁tempo	-13611
▁wages	-13612
▁Legend	-13613
izard	-13614
▁costume	-13615
▁darkness	-13616
97	-13617
▁ferry	-13618
▁compass	-13619
▁Movie	-13620
▁Wagner	-13621
▁lengths	-13622
▁discharge	-13623
▁atop	-13624
world	-13625
uption	-13626
▁freely	-13627
▁automatic	-13628
avan	-13629
▁evaluate	-13630
▁possessed	-13631
▁embry	-13632
▁Spider	-13633
▁interc	-13634
▁Frances	-13635
▁Miz	-13636
▁flexible	-13637
▁politician	-13638
alis	-13639
▁Venus	-13640
▁bench	-13641
▁agrees	-13642
▁sunlight	-13643
▁Aj	-13644
▁Slav	-13645
oni	-13646
ventions	-13647
▁reporter	-13648
zh	-13649
▁depr	-13650
▁Greeks	-13651
▁ceremonies	-13652
▁pronounced	-13653
▁separately	-13654
▁Kel	-13655
▁nephew	-13656
▁conspiracy	-13657
▁internationally	-13658
▁admir	-13659
▁secular	-13660
▁compensation	-13661
erving	-13662
▁curved	-13663
▁Formation	-13664
eded	-13665
forest	-13666
▁heaven	-13667
▁relieved	-13668
pathy	-13669
▁villain	-13670
▁Lie	-13671
▁Midd	-13672
▁rulers	-13673
▁belonged	-13674
▁eruption	-13675
▁demonstration	-13676
vae	-13677
▁DJ	-13678
▁imagination	-13679
quet	-13680
▁Gibral	-13681
▁butt	-13682
▁Lords	-13683
▁Sonic	-13684
ijing	-13685
▁dealt	-13686
▁drops	-13687
▁submer	-13688
amo	-13689
▁Friedrich	-13690
▁Consequently	-13691
▁genres	-13692
▁applying	-13693
pit	-13694
▁MC	-13695
▁abb	-13696
▁Gust	-13697
▁Ronald	-13698
▁Holocaust	-13699
-12	-13700
▁cubic	-13701
▁empower	-13702
▁airborne	-13703
cyclopedia	-13704
ashing	-13705
▁immigration	-13706
▁Evil	-13707
▁monkey	-13708
Re	-13709
▁ants	-13710
▁Miguel	-13711
▁disability	-13712
▁ERA	-13713
41	-13714
▁Paper	-13715
acht	-13716
▁Reed	-13717
▁arena	-13718
▁motif	-13719
▁incorrect	-13720
▁comprising	-13721
▁confined	-13722
▁garnered	-13723
▁lawsuit	-13724
▁publish	-13725
▁Pete	-13726
▁Athen	-13727
▁irrig	-13728
▁reads	-13729
▁compact	-13730
▁wounds	-13731
▁Num	-13732
▁Meyer	-13733
▁Tribune	-13734
▁seasonal	-13735
▁proximity	-13736
▁analog	-13737
▁economics	-13738
▁Tests	-13739
▁blamed	-13740
▁pestic	-13741
▁Revolutionary	-13742
▁Adri	-13743
▁Burg	-13744
▁bombardment	-13745
abe	-13746
▁Cu	-13747
▁Dennis	-13748
▁finest	-13749
▁demanding	-13750
▁eagle	-13751
▁apolog	-13752
▁Nut	-13753
▁GameSp	-13754
iability	-13755
▁Ky	-13756
▁chains	-13757
▁lean	-13758
formed	-13759
▁centimet	-13760
▁accordance	-13761
▁facilitate	-13762
▁functioning	-13763
cul	-13764
ettes	-13765
▁caution	-13766
▁Armenian	-13767
▁introducing	-13768
▁battlefield	-13769
atern	-13770
▁refere	-13771
▁inadequ	-13772
▁Anat	-13773
▁profits	-13774
▁laps	-13775
▁keyboard	-13776
▁Gibraltar	-13777
▁inver	-13778
yers	-13779
▁attributes	-13780
hart	-13781
▁Waters	-13782
eo	-13783
ikh	-13784
ighed	-13785
▁Cant	-13786
▁Produ	-13787
▁resur	-13788
▁preliminary	-13789
issa	-13790
▁turbines	-13791
▁disappointed	-13792
▁journalists	-13793
▁aspir	-13794
▁worried	-13795
eches	-13796
▁equality	-13797
hm	-13798
ahn	-13799
▁metre	-13800
▁Watson	-13801
▁strings	-13802
▁111	-13803
▁Chamberlain	-13804
avian	-13805
▁Bradley	-13806
▁heir	-13807
▁relied	-13808
▁sciences	-13809
neath	-13810
▁Draft	-13811
▁resemble	-13812
▁renewable	-13813
ochem	-13814
▁Laf	-13815
▁lux	-13816
este	-13817
▁cort	-13818
odied	-13819
▁Canyon	-13820
▁Hearts	-13821
▁Fighter	-13822
▁Ltd	-13823
▁meals	-13824
▁calendar	-13825
▁Boulevard	-13826
▁processed	-13827
▁embed	-13828
ourable	-13829
▁displace	-13830
▁thunderst	-13831
gé	-13832
▁Herm	-13833
▁medals	-13834
oland	-13835
▁Fanm	-13836
▁Olivia	-13837
▁Actress	-13838
▁websites	-13839
▁Tas	-13840
▁annex	-13841
mph	-13842
▁SH	-13843
▁Case	-13844
▁insulin	-13845
▁routing	-13846
▁proclaimed	-13847
▁Led	-13848
▁1862	-13849
itects	-13850
▁brows	-13851
▁thinks	-13852
▁attitudes	-13853
iked	-13854
long	-13855
oids	-13856
post	-13857
▁escorted	-13858
ente	-13859
▁Rus	-13860
▁1864	-13861
▁dive	-13862
▁freed	-13863
▁obesity	-13864
▁Grow	-13865
▁Pand	-13866
▁prince	-13867
▁trailer	-13868
▁scandal	-13869
▁commands	-13870
▁spreading	-13871
▁orientation	-13872
▁illustrations	-13873
aba	-13874
▁Berkeley	-13875
ël	-13876
▁Made	-13877
▁Rush	-13878
ructive	-13879
▁Celtic	-13880
▁Imm	-13881
▁Almost	-13882
▁Towns	-13883
▁washed	-13884
inely	-13885
▁schem	-13886
▁Santiago	-13887
▁continuously	-13888
▁RI	-13889
▁Want	-13890
▁Conserv	-13891
▁Agriculture	-13892
▁hind	-13893
▁Franco	-13894
▁Serbia	-13895
▁babies	-13896
▁combine	-13897
▁declaration	-13898
mod	-13899
▁FIFA	-13900
▁revel	-13901
▁Beijing	-13902
▁decisive	-13903
htt	-13904
▁Was	-13905
▁peers	-13906
clusions	-13907
▁operator	-13908
fold	-13909
▁pod	-13910
veillance	-13911
elin	-13912
▁complaints	-13913
berto	-13914
▁Sox	-13915
rimin	-13916
▁gates	-13917
original	-13918
▁tv	-13919
▁clients	-13920
▁Archbishop	-13921
▁02	-13922
olics	-13923
▁Duch	-13924
▁manual	-13925
flu	-13926
mans	-13927
▁optical	-13928
▁colleges	-13929
▁oz	-13930
▁thank	-13931
▁Fifth	-13932
▁lover	-13933
▁abd	-13934
▁logic	-13935
▁fi	-13936
▁Aub	-13937
sezon	-13938
▁Guild	-13939
▁⁄	-13940
▁rugby	-13941
▁106	-13942
▁ministers	-13943
▁Westminster	-13944
▁Buddh	-13945
▁incom	-13946
anyòl	-13947
▁Newcastle	-13948
▁planes	-13949
▁configuration	-13950
▁organisations	-13951
ci	-13952
▁chicken	-13953
▁inning	-13954
▁tribal	-13955
▁eastward	-13956
fight	-13957
▁Allah	-13958
maker	-13959
▁Money	-13960
atorial	-13961
lication	-13962
▁Cincinn	-13963
▁enrolled	-13964
▁prohibited	-13965
▁oswa	-13966
▁politically	-13967
HD	-13968
▁exploring	-13969
▁Metro	-13970
▁artif	-13971
▁mobil	-13972
▁sufficiently	-13973
▁Sleep	-13974
▁ambit	-13975
▁Morning	-13976
▁collaborated	-13977
▁execut	-13978
uka	-13979
▁Wang	-13980
▁Stanford	-13981
▁Theodore	-13982
ritic	-13983
▁nurse	-13984
▁Members	-13985
▁Cec	-13986
▁Butler	-13987
▁Comedy	-13988
▁grades	-13989
▁phases	-13990
gio	-13991
fits	-13992
▁Analysis	-13993
▁reflection	-13994
▁guards	-13995
▁volunteer	-13996
▁alk	-13997
34	-13998
Cl	-13999
▁Site	-14000
▁warrant	-14001
▁Caroline	-14002
▁utilized	-14003
ounce	-14004
aceous	-14005
▁aster	-14006
MC	-14007
▁unre	-14008
▁burden	-14009
▁determination	-14010
▁termed	-14011
▁Tint	-14012
▁peer	-14013
▁Volume	-14014
▁shipped	-14015
▁elementary	-14016
stan	-14017
▁Pine	-14018
▁sacrific	-14019
▁homosexual	-14020
odia	-14021
Americ	-14022
▁Individ	-14023
▁Mobile	-14024
▁auto	-14025
▁Apart	-14026
▁onset	-14027
▁suggestions	-14028
achers	-14029
▁Leban	-14030
▁Gothic	-14031
▁teammate	-14032
▁disadvant	-14033
▁ster	-14034
▁Mercedes	-14035
▁exhibited	-14036
stage	-14037
▁Venice	-14038
▁Scientists	-14039
▁Conservative	-14040
arium	-14041
▁Vegas	-14042
▁barely	-14043
▁thesis	-14044
▁Kill	-14045
▁Anti	-14046
▁comics	-14047
▁veterans	-14048
▁Kil	-14049
▁gauge	-14050
▁bomber	-14051
▁pled	-14052
▁cluster	-14053
▁Matem	-14054
▁suppl	-14055
▁Panzer	-14056
▁plum	-14057
▁Alpha	-14058
▁draws	-14059
▁loyalty	-14060
▁Culture	-14061
▁Carr	-14062
▁sailors	-14063
bery	-14064
▁autism	-14065
▁broader	-14066
▁restaurants	-14067
▁102	-14068
▁Scientific	-14069
▁Intelligence	-14070
▁MV	-14071
▁crystal	-14072
bach	-14073
▁atis	-14074
▁Range	-14075
▁Denver	-14076
▁Desert	-14077
▁bacterial	-14078
immer	-14079
▁substantially	-14080
DI	-14081
fulness	-14082
▁pedest	-14083
▁Marshal	-14084
▁castles	-14085
▁martial	-14086
Hg	-14087
boat	-14088
▁Heat	-14089
▁keen	-14090
▁Holland	-14091
.1	-14092
▁Alej	-14093
agraph	-14094
ounted	-14095
▁oak	-14096
▁....	-14097
▁sodium	-14098
▁scan	-14099
▁Hence	-14100
▁Romney	-14101
abad	-14102
▁quit	-14103
▁locate	-14104
LE	-14105
esium	-14106
▁Lamb	-14107
▁symbolic	-14108
▁screenplay	-14109
▁addiction	-14110
▁manufacturer	-14111
ede	-14112
▁unnecess	-14113
▁hect	-14114
▁pist	-14115
▁Treatment	-14116
▁abundance	-14117
▁boyfriend	-14118
asia	-14119
▁Circle	-14120
▁interfer	-14121
ppe	-14122
iane	-14123
ylum	-14124
▁till	-14125
▁Louise	-14126
▁unders	-14127
offic	-14128
iological	-14129
▁LS	-14130
urop	-14131
thlete	-14132
▁haven	-14133
▁Cincinnati	-14134
▁irre	-14135
▁investors	-14136
▁sophisticated	-14137
▁Ker	-14138
▁flown	-14139
▁Kaw	-14140
▁gamb	-14141
ppers	-14142
achelor	-14143
gence	-14144
▁amid	-14145
▁guarantee	-14146
▁Gren	-14147
▁urine	-14148
▁designers	-14149
96	-14150
▁lan	-14151
▁Barcel	-14152
▁poisoning	-14153
yll	-14154
edar	-14155
▁hormone	-14156
OP	-14157
▁Trinity	-14158
▁Mol	-14159
thood	-14160
▁surveys	-14161
▁Jur	-14162
▁Activ	-14163
▁sensitivity	-14164
imer	-14165
▁Task	-14166
▁Ghost	-14167
▁delegates	-14168
▁Tir	-14169
commun	-14170
▁Guadal	-14171
▁researcher	-14172
▁Foster	-14173
What	-14174
▁Aur	-14175
▁Nass	-14176
▁united	-14177
▁Springfield	-14178
▁regen	-14179
▁maintains	-14180
iodiversity	-14181
▁Um	-14182
▁Raf	-14183
▁Pasc	-14184
▁Ottawa	-14185
▁nutrit	-14186
arthy	-14187
▁woods	-14188
▁equation	-14189
▁Riv	-14190
▁swall	-14191
▁Java	-14192
▁spont	-14193
▁Heaven	-14194
ju	-14195
▁aging	-14196
▁mounts	-14197
▁Andal	-14198
▁tired	-14199
▁beds	-14200
▁fart	-14201
books	-14202
▁marsh	-14203
▁Springs	-14204
▁wartime	-14205
▁resistant	-14206
named	-14207
▁unity	-14208
▁galaxy	-14209
▁Which	-14210
▁departments	-14211
▁ceiling	-14212
▁aggregate	-14213
▁batted	-14214
▁guided	-14215
tees	-14216
▁Fly	-14217
▁clip	-14218
▁----	-14219
▁Mull	-14220
▁chord	-14221
▁infants	-14222
▁Bonn	-14223
▁monster	-14224
▁Orchestra	-14225
▁preparations	-14226
plate	-14227
▁Tell	-14228
▁lion	-14229
________	-14230
▁enables	-14231
▁switched	-14232
▁dawn	-14233
▁Columbus	-14234
▁strengthening	-14235
▁Bangl	-14236
▁assassination	-14237
▁disin	-14238
▁Amazon	-14239
▁adverse	-14240
▁ambitious	-14241
▁ethical	-14242
▁revenge	-14243
▁Political	-14244
▁publicity	-14245
▁enzyme	-14246
▁incent	-14247
▁revers	-14248
▁117	-14249
▁Break	-14250
▁soils	-14251
▁whenever	-14252
foot	-14253
▁hatch	-14254
▁cylinder	-14255
▁tox	-14256
▁boxes	-14257
▁AA	-14258
▁pipe	-14259
▁retrie	-14260
▁lengthy	-14261
▁intersect	-14262
▁Come	-14263
▁submarines	-14264
acking	-14265
▁arist	-14266
▁centres	-14267
▁fox	-14268
▁disb	-14269
▁stall	-14270
▁cruise	-14271
▁directing	-14272
▁shops	-14273
▁inaugural	-14274
arted	-14275
oro	-14276
▁1863	-14277
▁Isle	-14278
▁nearest	-14279
▁Bears	-14280
▁presum	-14281
▁230	-14282
▁allied	-14283
bul	-14284
▁basically	-14285
.’	-14286
umi	-14287
▁Mut	-14288
▁facial	-14289
▁timing	-14290
▁interactive	-14291
▁floods	-14292
imination	-14293
▁aviation	-14294
hall	-14295
▁bottle	-14296
▁organize	-14297
▁Name	-14298
▁Berg	-14299
▁Surv	-14300
▁northeastern	-14301
OD	-14302
▁Price	-14303
▁Ferdin	-14304
▁Vienna	-14305
▁capability	-14306
agi	-14307
▁formations	-14308
yt	-14309
▁Bass	-14310
▁deer	-14311
▁painful	-14312
▁advocate	-14313
iktè	-14314
▁productive	-14315
▁GM	-14316
▁True	-14317
▁Tommy	-14318
▁collision	-14319
▁potassium	-14320
▁Mom	-14321
core	-14322
▁verb	-14323
actions	-14324
▁Martha	-14325
▁fitness	-14326
▁descriptions	-14327
▁cro	-14328
▁modes	-14329
▁Solomon	-14330
▁retreated	-14331
inqu	-14332
▁aug	-14333
▁Decl	-14334
▁accus	-14335
▁lunch	-14336
▁Drug	-14337
▁dign	-14338
Un	-14339
onesans	-14340
▁filt	-14341
▁aided	-14342
asting	-14343
▁sanct	-14344
bus	-14345
▁Easter	-14346
▁Critical	-14347
▁peripher	-14348
▁Ms	-14349
▁heter	-14350
▁lungs	-14351
▁rises	-14352
▁manages	-14353
▁Yugoslavia	-14354
amma	-14355
▁gifts	-14356
▁ruins	-14357
▁Beyond	-14358
▁conced	-14359
ielder	-14360
▁populated	-14361
Le	-14362
kout	-14363
▁embra	-14364
▁Jake	-14365
▁zinc	-14366
▁discl	-14367
▁robust	-14368
▁Glass	-14369
▁unanim	-14370
▁Broadcast	-14371
▁emphasized	-14372
essa	-14373
houses	-14374
▁Patric	-14375
▁lifted	-14376
▁relate	-14377
▁roadway	-14378
▁Hey	-14379
▁Nak	-14380
▁Cool	-14381
▁incons	-14382
▁winners	-14383
▁Richardson	-14384
98	-14385
atar	-14386
agnetic	-14387
▁genuine	-14388
▁suppress	-14389
.2	-14390
▁reproductive	-14391
▁Berm	-14392
heads	-14393
ungle	-14394
▁Sierra	-14395
▁silence	-14396
▁bleeding	-14397
▁Cox	-14398
▁Dud	-14399
▁sphere	-14400
▁nursing	-14401
orne	-14402
▁fails	-14403
▁stuck	-14404
▁coupled	-14405
▁Ig	-14406
▁Qual	-14407
▁smallest	-14408
▁probability	-14409
▁liner	-14410
▁server	-14411
▁postp	-14412
▁manufacture	-14413
kind	-14414
▁Malta	-14415
inus	-14416
▁Leeds	-14417
▁motivated	-14418
▁Belle	-14419
▁Lakes	-14420
▁explosive	-14421
▁keys	-14422
▁fusion	-14423
▁imaging	-14424
VA	-14425
pre	-14426
▁Too	-14427
▁Athletic	-14428
sl	-14429
▁cholesterol	-14430
▁nas	-14431
▁owing	-14432
▁worlds	-14433
▁possibilities	-14434
▁Tax	-14435
▁Milan	-14436
▁nucleus	-14437
▁Moz	-14438
▁Winn	-14439
▁kons	-14440
▁2:	-14441
▁spo	-14442
▁Speed	-14443
▁Lett	-14444
▁Motor	-14445
▁onwards	-14446
amination	-14447
▁barriers	-14448
ateral	-14449
▁summary	-14450
▁productivity	-14451
▁tut	-14452
ptical	-14453
▁southwestern	-14454
He	-14455
birds	-14456
▁magnet	-14457
onal	-14458
▁tribut	-14459
▁Glasgow	-14460
▁Normandy	-14461
level	-14462
▁presenting	-14463
▁Hern	-14464
▁resort	-14465
▁successive	-14466
▁segreg	-14467
▁tradem	-14468
▁median	-14469
▁gallery	-14470
▁romance	-14471
omal	-14472
▁Mail	-14473
▁globe	-14474
▁rebel	-14475
▁Herman	-14476
▁coaches	-14477
▁drawings	-14478
▁reluctant	-14479
▁Belie	-14480
▁rehabil	-14481
▁Jennifer	-14482
▁(10	-14483
trans	-14484
▁1887	-14485
▁Adela	-14486
▁troop	-14487
atories	-14488
3)	-14489
▁fees	-14490
▁dispar	-14491
▁Delhi	-14492
▁physic	-14493
arus	-14494
Brien	-14495
▁numer	-14496
▁boards	-14497
ustain	-14498
▁Catal	-14499
▁indoor	-14500
▁requests	-14501
▁investigations	-14502
▁surg	-14503
▁refuses	-14504
▁prompting	-14505
▁customs	-14506
▁Wit	-14507
▁Need	-14508
▁underm	-14509
▁relieve	-14510
▁deployment	-14511
▁1886	-14512
uum	-14513
▁relay	-14514
▁Duncan	-14515
▁larvae	-14516
▁missile	-14517
▁Operations	-14518
odic	-14519
▁attachment	-14520
▁moder	-14521
▁Animal	-14522
▁canceled	-14523
▁Devil	-14524
▁talked	-14525
vol	-14526
▁Anto	-14527
▁Hull	-14528
▁sexually	-14529
▁Dry	-14530
▁Truth	-14531
▁prone	-14532
▁pointing	-14533
▁vocabulary	-14534
Down	-14535
ceans	-14536
▁degen	-14537
▁afraid	-14538
▁forever	-14539
▁advocated	-14540
▁reminis	-14541
▁armoured	-14542
▁surprising	-14543
▁fortifications	-14544
▁bankrupt	-14545
▁Millennium	-14546
▁Dh	-14547
▁Student	-14548
ffe	-14549
▁carn	-14550
▁Albany	-14551
▁unaware	-14552
▁certific	-14553
▁eighteen	-14554
cor	-14555
▁hiding	-14556
▁skilled	-14557
ierre	-14558
▁cease	-14559
▁Shield	-14560
▁provider	-14561
▁Thurs	-14562
▁analyzed	-14563
mitt	-14564
▁Plat	-14565
▁Collect	-14566
▁touchdowns	-14567
èb	-14568
▁Colin	-14569
unciation	-14570
▁ecosystems	-14571
▁MA	-14572
bone	-14573
ilis	-14574
▁fatigue	-14575
▁Imag	-14576
▁blame	-14577
▁Powell	-14578
▁Vlad	-14579
▁lens	-14580
▁logo	-14581
▁noun	-14582
▁instructed	-14583
ijyon	-14584
▁CT	-14585
asures	-14586
▁Opera	-14587
▁enzymes	-14588
▁SA	-14589
▁Drake	-14590
▁Examples	-14591
▁depiction	-14592
▁750	-14593
▁Henderson	-14594
▁Convers	-14595
▁Kle	-14596
▁athletic	-14597
▁subordin	-14598
▁Southeast	-14599
▁breakdown	-14600
▁CA	-14601
▁Rear	-14602
▁enabling	-14603
ocese	-14604
▁Stories	-14605
▁Barcelona	-14606
▁Ja	-14607
▁Gaz	-14608
▁Woods	-14609
▁glucose	-14610
▁uncertainty	-14611
istance	-14612
▁placement	-14613
olan	-14614
▁Eagle	-14615
▁explicitly	-14616
ivic	-14617
▁maxim	-14618
▁aktris	-14619
▁firms	-14620
▁Angelou	-14621
▁developer	-14622
▁1875	-14623
▁Nothing	-14624
▁bold	-14625
▁Torres	-14626
▁ID	-14627
ás	-14628
▁Hig	-14629
▁ecl	-14630
▁Bear	-14631
▁dans	-14632
▁Former	-14633
▁planting	-14634
▁Electronic	-14635
▁ép	-14636
alid	-14637
unge	-14638
▁166	-14639
arity	-14640
▁tensions	-14641
▁konesans	-14642
▁struggles	-14643
▁jam	-14644
▁cran	-14645
▁Julie	-14646
▁curves	-14647
▁activated	-14648
Sh	-14649
▁Wald	-14650
▁Stalin	-14651
▁Kin	-14652
▁Au	-14653
▁Ow	-14654
▁Ellen	-14655
▁emerge	-14656
▁volcano	-14657
▁mistakes	-14658
oved	-14659
▁lymph	-14660
▁shoes	-14661
▁Colomb	-14662
▁floors	-14663
▁expenses	-14664
▁Alman	-14665
▁Bod	-14666
▁Cell	-14667
▁testimony	-14668
▁Poe	-14669
▁genera	-14670
▁laying	-14671
▁harbor	-14672
▁categor	-14673
▁Chi	-14674
▁Cena	-14675
▁dreadn	-14676
▁telescope	-14677
▁167	-14678
▁coalition	-14679
▁Gat	-14680
▁1876	-14681
▁pose	-14682
▁contempor	-14683
▁Gor	-14684
▁Mills	-14685
▁greet	-14686
▁Astron	-14687
▁jan	-14688
▁lacks	-14689
▁nests	-14690
aku	-14691
rolling	-14692
▁careers	-14693
▁fingers	-14694
lia	-14695
heres	-14696
▁Bris	-14697
amins	-14698
▁Marl	-14699
▁golf	-14700
▁allocated	-14701
▁Monroe	-14702
▁harass	-14703
▁Hopkins	-14704
ptom	-14705
▁tended	-14706
▁Sebast	-14707
▁jumping	-14708
▁Brid	-14709
▁dock	-14710
▁bite	-14711
▁drinks	-14712
▁loading	-14713
▁coastline	-14714
hend	-14715
▁Aaron	-14716
▁beet	-14717
rained	-14718
▁utility	-14719
▁Dictionary	-14720
▁Kol	-14721
▁cel	-14722
▁Store	-14723
▁codes	-14724
▁listing	-14725
ruit	-14726
▁submerged	-14727
▁Female	-14728
▁Holmes	-14729
▁disputed	-14730
▁pH	-14731
thon	-14732
scale	-14733
▁Chin	-14734
▁rider	-14735
▁consequently	-14736
itus	-14737
▁gover	-14738
▁fraction	-14739
enne	-14740
▁Twenty	-14741
▁priests	-14742
Fig	-14743
vor	-14744
▁Often	-14745
▁cabin	-14746
umbered	-14747
▁unrest	-14748
▁respected	-14749
ão	-14750
▁revol	-14751
▁spores	-14752
▁integrity	-14753
▁presidency	-14754
▁rolling	-14755
▁intim	-14756
▁inherit	-14757
▁disputes	-14758
▁inflation	-14759
▁statistical	-14760
▁Lav	-14761
flies	-14762
▁Moses	-14763
▁regiments	-14764
▁championships	-14765
uru	-14766
imir	-14767
▁prescribed	-14768
▁Sha	-14769
▁cataly	-14770
▁Theater	-14771
▁Bene	-14772
▁neighboring	-14773
▁delays	-14774
RT	-14775
matic	-14776
▁Kepler	-14777
▁governing	-14778
▁parameters	-14779
▁philosophical	-14780
▁cylind	-14781
▁distress	-14782
▁Hubb	-14783
▁calories	-14784
ohyd	-14785
oton	-14786
▁Jamaica	-14787
▁pandemic	-14788
▁acclaimed	-14789
▁comprises	-14790
▁incomplete	-14791
▁Help	-14792
▁interviewed	-14793
▁hanging	-14794
▁resignation	-14795
ör	-14796
▁rows	-14797
▁Grove	-14798
▁substit	-14799
ogg	-14800
▁Universe	-14801
▁deciding	-14802
▁Heavyweight	-14803
irable	-14804
▁nights	-14805
▁weighed	-14806
▁Phillips	-14807
▁Prevention	-14808
▁clan	-14809
▁Path	-14810
▁Tintin	-14811
▁Diamond	-14812
▁Đ	-14813
▁arise	-14814
▁runner	-14815
▁Typhoon	-14816
▁amendment	-14817
ampa	-14818
▁Ident	-14819
▁openly	-14820
▁commerce	-14821
▁disabilities	-14822
atem	-14823
▁Neg	-14824
▁sle	-14825
▁Isles	-14826
▁Stage	-14827
▁guess	-14828
▁torpedoes	-14829
▁XI	-14830
iotic	-14831
▁flies	-14832
▁venues	-14833
[...]
