{
  "version": "1.0",
  "truncation": null,
  "padding": null,
  "added_tokens": [
    {
      "id": 0,
      "content": "<unk>",
      "single_word": false,
      "lstrip": false,
      "rstrip": false,
      "normalized": false,
      "special": true
    },
    {
      "id": 1,
      "content": "<s>",
      "single_word": false,
      "lstrip": false,
      "rstrip": false,
      "normalized": false,
      "special": true
    },
    {
      "id": 2,
      "content": "</s>",
      "single_word": false,
      "lstrip": false,
      "rstrip": false,
      "normalized": false,
      "special": true
    },
    {
      "id": 3,
      "content": "<pad>",
      "single_word": false,
      "lstrip": false,
      "rstrip": false,
      "normalized": false,
      "special": true
    },
    {
      "id": 4,
      "content": "<user>",
      "single_word": false,
      "lstrip": false,
      "rstrip": false,
      "normalized": false,
      "special": true
    },
    {
      "id": 5,
      "content": "<assistant>",
      "single_word": false,
      "lstrip": false,
      "rstrip": false,
      "normalized": false,
      "special": true
    },
    {
      "id": 6,
      "content": "<system>",
      "single_word": false,
      "lstrip": false,
      "rstrip": false,
      "normalized": false,
      "special": true
    }
  ],
  "normalizer": {
    "type": "Sequence",
    "normalizers": [
      {
        "type": "Replace",
        "pattern": {
          "String": " "
        },
        "content": "▁"
      }
    ]
  },
  "pre_tokenizer": null,
  "post_processor": {
    "type": "TemplateProcessing",
    "single": [
      {
        "SpecialToken": {
          "id": "<s>",
          "type_id": 0
        }
      },
      {
        "Sequence": {
          "id": "A",
          "type_id": 0
        }
      }
    ],
    "pair": [
      {
        "SpecialToken": {
          "id": "<s>",
          "type_id": 0
        }
      },
      {
        "Sequence": {
          "id": "A",
          "type_id": 0
        }
      },
      {
        "SpecialToken": {
          "id": "<s>",
          "type_id": 1
        }
      },
      {
        "Sequence": {
          "id": "B",
          "type_id": 1
        }
      }
    ],
    "special_tokens": {
      "<s>": {
        "id": "<s>",
        "ids": [
          1
        ],
        "tokens": [
          "<s>"
        ]
      }
    }
  },
  "decoder": {
    "type": "Sequence",
    "decoders": [
      {
        "type": "Replace",
        "pattern": {
          "String": "▁"
        },
        "content": " "
      },
      {
        "type": "ByteFallback"
      },
      {
        "type": "Fuse"
      }
    ]
  },
  "model": {
    "type": "BPE",
    "dropout": null,
    "unk_token": "<unk>",
    "continuing_subword_prefix": null,
    "end_of_word_suffix": null,
    "fuse_unk": true,
    "byte_fallback": true,
    "ignore_merges": false,
    "vocab": {
      "<unk>": 0,
      "<s>": 1,
      "</s>": 2,
      "<pad>": 3,
      "<user>": 4,
      "<assistant>": 5,
      "<system>": 6,
      "<0x00>": 7,
      "<0x01>": 8,
      "<0x02>": 9,
      "<0x03>": 10,
      "<0x04>": 11,
      "<0x05>": 12,
      "<0x06>": 13,
      "<0x07>": 14,
      "<0x08>": 15,
      "<0x09>": 16,
      "<0x0A>": 17,
      "<0x0B>": 18,
      "<0x0C>": 19,
      "<0x0D>": 20,
      "<0x0E>": 21,
      "<0x0F>": 22,
      "<0x10>": 23,
      "<0x11>": 24,
      "<0x12>": 25,
      "<0x13>": 26,
      "<0x14>": 27,
      "<0x15>": 28,
      "<0x16>": 29,
      "<0x17>": 30,
      "<0x18>": 31,
      "<0x19>": 32,
      "<0x1A>": 33,
      "<0x1B>": 34,
      "<0x1C>": 35,
      "<0x1D>": 36,
      "<0x1E>": 37,
      "<0x1F>": 38,
      "<0x20>": 39,
      "<0x21>": 40,
      "<0x22>": 41,
      "<0x23>": 42,
      "<0x24>": 43,
      "<0x25>": 44,
      "<0x26>": 45,
      "<0x27>": 46,
      "<0x28>": 47,
      "<0x29>": 48,
      "<0x2A>": 49,
      "<0x2B>": 50,
      "<0x2C>": 51,
      "<0x2D>": 52,
      "<0x2E>": 53,
      "<0x2F>": 54,
      "<0x30>": 55,
      "<0x31>": 56,
      "<0x32>": 57,
      "<0x33>": 58,
      "<0x34>": 59,
      "<0x35>": 60,
      "<0x36>": 61,
      "<0x37>": 62,
      "<0x38>": 63,
      "<0x39>": 64,
      "<0x3A>": 65,
      "<0x3B>": 66,
      "<0x3C>": 67,
      "<0x3D>": 68,
      "<0x3E>": 69,
      "<0x3F>": 70,
      "<0x40>": 71,
      "<0x41>": 72,
      "<0x42>": 73,
      "<0x43>": 74,
      "<0x44>": 75,
      "<0x45>": 76,
      "<0x46>": 77,
      "<0x47>": 78,
      "<0x48>": 79,
      "<0x49>": 80,
      "<0x4A>": 81,
      "<0x4B>": 82,
      "<0x4C>": 83,
      "<0x4D>": 84,
      "<0x4E>": 85,
      "<0x4F>": 86,
      "<0x50>": 87,
      "<0x51>": 88,
      "<0x52>": 89,
      "<0x53>": 90,
      "<0x54>": 91,
      "<0x55>": 92,
      "<0x56>": 93,
      "<0x57>": 94,
      "<0x58>": 95,
      "<0x59>": 96,
      "<0x5A>": 97,
      "<0x5B>": 98,
      "<0x5C>": 99,
      "<0x5D>": 100,
      "<0x5E>": 101,
      "<0x5F>": 102,
      "<0x60>": 103,
      "<0x61>": 104,
      "<0x62>": 105,
      "<0x63>": 106,
      "<0x64>": 107,
      "<0x65>": 108,
      "<0x66>": 109,
      "<0x67>": 110,
      "<0x68>": 111,
      "<0x69>": 112,
      "<0x6A>": 113,
      "<0x6B>": 114,
      "<0x6C>": 115,
      "<0x6D>": 116,
      "<0x6E>": 117,
      "<0x6F>": 118,
      "<0x70>": 119,
      "<0x71>": 120,
      "<0x72>": 121,
      "<0x73>": 122,
      "<0x74>": 123,
      "<0x75>": 124,
      "<0x76>": 125,
      "<0x77>": 126,
      "<0x78>": 127,
      "<0x79>": 128,
      "<0x7A>": 129,
      "<0x7B>": 130,
      "<0x7C>": 131,
      "<0x7D>": 132,
      "<0x7E>": 133,
      "<0x7F>": 134,
      "<0x80>": 135,
      "<0x81>": 136,
      "<0x82>": 137,
      "<0x83>": 138,
      "<0x84>": 139,
      "<0x85>": 140,
      "<0x86>": 141,
      "<0x87>": 142,
      "<0x88>": 143,
      "<0x89>": 144,
      "<0x8A>": 145,
      "<0x8B>": 146,
      "<0x8C>": 147,
      "<0x8D>": 148,
      "<0x8E>": 149,
      "<0x8F>": 150,
      "<0x90>": 151,
      "<0x91>": 152,
      "<0x92>": 153,
      "<0x93>": 154,
      "<0x94>": 155,
      "<0x95>": 156,
      "<0x96>": 157,
      "<0x97>": 158,
      "<0x98>": 159,
      "<0x99>": 160,
      "<0x9A>": 161,
      "<0x9B>": 162,
      "<0x9C>": 163,
      "<0x9D>": 164,
      "<0x9E>": 165,
      "<0x9F>": 166,
      "<0xA0>": 167,
      "<0xA1>": 168,
      "<0xA2>": 169,
      "<0xA3>": 170,
      "<0xA4>": 171,
      "<0xA5>": 172,
      "<0xA6>": 173,
      "<0xA7>": 174,
      "<0xA8>": 175,
      "<0xA9>": 176,
      "<0xAA>": 177,
      "<0xAB>": 178,
      "<0xAC>": 179,
      "<0xAD>": 180,
      "<0xAE>": 181,
      "<0xAF>": 182,
      "<0xB0>": 183,
      "<0xB1>": 184,
      "<0xB2>": 185,
      "<0xB3>": 186,
      "<0xB4>": 187,
      "<0xB5>": 188,
      "<0xB6>": 189,
      "<0xB7>": 190,
      "<0xB8>": 191,
      "<0xB9>": 192,
      "<0xBA>": 193,
      "<0xBB>": 194,
      "<0xBC>": 195,
      "<0xBD>": 196,
      "<0xBE>": 197,
      "<0xBF>": 198,
      "<0xC0>": 199,
      "<0xC1>": 200,
      "<0xC2>": 201,
      "<0xC3>": 202,
      "<0xC4>": 203,
      "<0xC5>": 204,
      "<0xC6>": 205,
      "<0xC7>": 206,
      "<0xC8>": 207,
      "<0xC9>": 208,
      "<0xCA>": 209,
      "<0xCB>": 210,
      "<0xCC>": 211,
      "<0xCD>": 212,
      "<0xCE>": 213,
      "<0xCF>": 214,
      "<0xD0>": 215,
      "<0xD1>": 216,
      "<0xD2>": 217,
      "<0xD3>": 218,
      "<0xD4>": 219,
      "<0xD5>": 220,
      "<0xD6>": 221,
      "<0xD7>": 222,
      "<0xD8>": 223,
      "<0xD9>": 224,
      "<0xDA>": 225,
      "<0xDB>": 226,
      "<0xDC>": 227,
      "<0xDD>": 228,
      "<0xDE>": 229,
      "<0xDF>": 230,
      "<0xE0>": 231,
      "<0xE1>": 232,
      "<0xE2>": 233,
      "<0xE3>": 234,
      "<0xE4>": 235,
      "<0xE5>": 236,
      "<0xE6>": 237,
      "<0xE7>": 238,
      "<0xE8>": 239,
      "<0xE9>": 240,
      "<0xEA>": 241,
      "<0xEB>": 242,
      "<0xEC>": 243,
      "<0xED>": 244,
      "<0xEE>": 245,
      "<0xEF>": 246,
      "<0xF0>": 247,
      "<0xF1>": 248,
      "<0xF2>": 249,
      "<0xF3>": 250,
      "<0xF4>": 251,
      "<0xF5>": 252,
      "<0xF6>": 253,
      "<0xF7>": 254,
      "<0xF8>": 255,
      "<0xF9>": 256,
      "<0xFA>": 257,
      "<0xFB>": 258,
      "<0xFC>": 259,
      "<0xFD>": 260,
      "<0xFE>": 261,
      "<0xFF>": 262,
      "▁t": 263,
      "he": 264,
      "▁a": 265,
      "in": 266,
      "▁the": 267,
      "er": 268,
      "on": 269,
      "re": 270,
      "▁s": 271,
      "▁o": 272,
      "▁w": 273,
      "at": 274,
      "ed": 275,
      "en": 276,
      "an": 277,
      "▁,": 278,
      "▁c": 279,
      "or": 280,
      "it": 281,
      "is": 282,
      "es": 283,
      "▁f": 284,
      "▁an": 285,
      "▁b": 286,
      "ar": 287,
      "▁of": 288,
      "al": 289,
      "▁p": 290,
      "▁in": 291,
      "ing": 292,
      "▁.": 293,
      "▁and": 294,
      "as": 295,
      "ou": 296,
      "▁to": 297,
      "▁m": 298,
      "ic": 299,
      "▁d": 300,
      "ion": 301,
      "le": 302,
      "▁h": 303,
      "ro": 304,
      "▁T": 305,
      "▁re": 306,
      "il": 307,
      "ent": 308,
      "▁th": 309,
      "▁A": 310,
      "▁l": 311,
      "▁S": 312,
      "st": 313,
      "▁n": 314,
      "el": 315,
      "om": 316,
      "▁e": 317,
      "ct": 318,
      "▁1": 319,
      "▁C": 320,
      "am": 321,
      "ad": 322,
      "et": 323,
      "ol": 324,
      "▁\"": 325,
      "▁g": 326,
      "▁M": 327,
      "ly": 328,
      "im": 329,
      "id": 330,
      "▁on": 331,
      "▁I": 332,
      "ur": 333,
      "▁The": 334,
      "iv": 335,
      "ot": 336,
      "▁be": 337,
      "▁for": 338,
      "▁was": 339,
      "▁B": 340,
      "ce": 341,
      "ig": 342,
      "ir": 343,
      "ut": 344,
      "us": 345,
      "ch": 346,
      "▁@": 347,
      "ow": 348,
      "ation": 349,
      "un": 350,
      "▁as": 351,
      "▁st": 352,
      "ay": 353,
      "▁is": 354,
      "ith": 355,
      "▁that": 356,
      "ers": 357,
      "▁H": 358,
      "▁P": 359,
      "her": 360,
      "ra": 361,
      "▁2": 362,
      "▁with": 363,
      "▁'": 364,
      "ter": 365,
      "▁R": 366,
      "ver": 367,
      "ul": 368,
      "▁D": 369,
      "▁wh": 370,
      "-@": 371,
      "▁@-@": 372,
      "▁(": 373,
      "em": 374,
      "▁al": 375,
      "▁con": 376,
      "▁W": 377,
      "▁L": 378,
      "▁F": 379,
      "os": 380,
      "th": 381,
      "▁by": 382,
      "▁it": 383,
      "▁de": 384,
      "▁G": 385,
      "and": 386,
      "▁at": 387,
      "▁he": 388,
      "▁N": 389,
      "▁pro": 390,
      "▁E": 391,
      "av": 392,
      "est": 393,
      "um": 394,
      "oun": 395,
      "od": 396,
      "▁se": 397,
      "ac": 398,
      "ist": 399,
      "▁v": 400,
      "ag": 401,
      "▁y": 402,
      "▁19": 403,
      "00": 404,
      "if": 405,
      "rom": 406,
      "ain": 407,
      "▁J": 408,
      "ri": 409,
      "op": 410,
      "▁com": 411,
      "ill": 412,
      "▁r": 413,
      "▁from": 414,
      "ore": 415,
      "▁or": 416,
      "▁In": 417,
      "ld": 418,
      "▁)": 419,
      "res": 420,
      "▁O": 421,
      "▁su": 422,
      "ab": 423,
      "ies": 424,
      "pp": 425,
      "ew": 426,
      "ate": 427,
      "▁are": 428,
      "igh": 429,
      "ant": 430,
      "▁ex": 431,
      "▁k": 432,
      "ak": 433,
      "ess": 434,
      "our": 435,
      "ort": 436,
      "qu": 437,
      "art": 438,
      "se": 439,
      "ity": 440,
      "▁his": 441,
      "ud": 442,
      "▁ch": 443,
      "oc": 444,
      "ive": 445,
      "ich": 446,
      "ard": 447,
      "ere": 448,
      "▁K": 449,
      "all": 450,
      "ect": 451,
      "▁un": 452,
      "ment": 453,
      "ber": 454,
      "▁sh": 455,
      "gh": 456,
      "▁were": 457,
      "▁pl": 458,
      "ated": 459,
      "ong": 460,
      "pt": 461,
      "end": 462,
      "▁le": 463,
      "ear": 464,
      "▁U": 465,
      "▁not": 466,
      "ial": 467,
      "ge": 468,
      "ure": 469,
      "ast": 470,
      "ip": 471,
      "ave": 472,
      "▁sp": 473,
      "▁:": 474,
      "▁which": 475,
      "ov": 476,
      "ough": 477,
      "ans": 478,
      "ell": 479,
      "ight": 480,
      "ame": 481,
      "ost": 482,
      "out": 483,
      "ical": 484,
      "og": 485,
      "ust": 486,
      "ine": 487,
      "ap": 488,
      "ound": 489,
      "▁St": 490,
      "▁had": 491,
      "ia": 492,
      "▁us": 493,
      "ec": 494,
      "ould": 495,
      "▁ar": 496,
      "ire": 497,
      "ther": 498,
      "ord": 499,
      "ary": 500,
      "ions": 501,
      "cl": 502,
      "ous": 503,
      "ff": 504,
      "▁have": 505,
      "ack": 506,
      "▁int": 507,
      "▁ab": 508,
      "cc": 509,
      "rit": 510,
      "▁comp": 511,
      "▁3": 512,
      "▁whe": 513,
      "ik": 514,
      "iz": 515,
      "▁V": 516,
      "der": 517,
      "▁their": 518,
      "▁cont": 519,
      "ide": 520,
      "▁Ch": 521,
      "ome": 522,
      "are": 523,
      "▁but": 524,
      "so": 525,
      "up": 526,
      "ian": 527,
      "ru": 528,
      "▁20": 529,
      "▁200": 530,
      "ry": 531,
      "ork": 532,
      "ie": 533,
      "▁this": 534,
      "▁ad": 535,
      "act": 536,
      "du": 537,
      "per": 538,
      "ish": 539,
      "▁cl": 540,
      "▁Th": 541,
      "ok": 542,
      "orm": 543,
      "▁en": 544,
      "ater": 545,
      "▁te": 546,
      "ign": 547,
      "age": 548,
      "ass": 549,
      "▁res": 550,
      "ib": 551,
      "▁can": 552,
      "▁also": 553,
      "irst": 554,
      "ult": 555,
      "ence": 556,
      "ub": 557,
      "▁its": 558,
      "▁im": 559,
      "fter": 560,
      "▁j": 561,
      "ue": 562,
      "▁all": 563,
      "▁per": 564,
      "wo": 565,
      "ally": 566,
      "▁we": 567,
      "pl": 568,
      "▁has": 569,
      "▁dis": 570,
      "▁one": 571,
      "mer": 572,
      "ime": 573,
      "▁they": 574,
      "fer": 575,
      "▁first": 576,
      "ance": 577,
      "▁who": 578,
      "ations": 579,
      "ction": 580,
      "▁sc": 581,
      "ely": 582,
      "ond": 583,
      "▁her": 584,
      "own": 585,
      "ice": 586,
      "▁part": 587,
      "ition": 588,
      "ile": 589,
      "▁An": 590,
      "▁It": 591,
      "▁He": 592,
      "▁man": 593,
      "▁app": 594,
      "ach": 595,
      "hed": 596,
      "▁other": 597,
      "ree": 598,
      "▁pre": 599,
      "▁201": 600,
      "▁rec": 601,
      "▁bec": 602,
      "▁out": 603,
      "ens": 604,
      "▁been": 605,
      "▁ne": 606,
      "▁–": 607,
      "▁4": 608,
      "ren": 609,
      "▁ag": 610,
      "man": 611,
      "▁go": 612,
      "ep": 613,
      "▁Al": 614,
      "ress": 615,
      "vel": 616,
      "ang": 617,
      "oll": 618,
      "ite": 619,
      "▁more": 620,
      "ric": 621,
      "ory": 622,
      "▁5": 623,
      "able": 624,
      "▁year": 625,
      "ey": 626,
      "ount": 627,
      "▁ro": 628,
      "erv": 629,
      "ind": 630,
      "▁two": 631,
      "clud": 632,
      "▁;": 633,
      "▁sa": 634,
      "▁Y": 635,
      "▁des": 636,
      "uring": 637,
      "▁up": 638,
      "▁over": 639,
      "ace": 640,
      "ents": 641,
      "▁18": 642,
      "te": 643,
      "ade": 644,
      "▁ev": 645,
      "▁-": 646,
      "ark": 647,
      "ild": 648,
      "ase": 649,
      "▁Un": 650,
      "▁you": 651,
      "▁tr": 652,
      "ors": 653,
      "▁gr": 654,
      "▁into": 655,
      "▁time": 656,
      "ates": 657,
      "ced": 658,
      "▁would": 659,
      "▁includ": 660,
      "▁comm": 661,
      "ose": 662,
      "ces": 663,
      "ck": 664,
      "int": 665,
      "we": 666,
      "▁work": 667,
      "wn": 668,
      "▁att": 669,
      "ake": 670,
      "reat": 671,
      "▁me": 672,
      "port": 673,
      "▁after": 674,
      "aus": 675,
      "ph": 676,
      "ons": 677,
      "land": 678,
      "one": 679,
      "form": 680,
      "rough": 681,
      "les": 682,
      "ings": 683,
      "amp": 684,
      "▁inter": 685,
      ".@": 686,
      "▁@.@": 687,
      "▁when": 688,
      "ood": 689,
      "▁so": 690,
      "▁about": 691,
      "▁play": 692,
      "▁them": 693,
      "▁On": 694,
      "urn": 695,
      "▁fe": 696,
      "▁off": 697,
      "ased": 698,
      "▁bet": 699,
      "ied": 700,
      "ail": 701,
      "▁do": 702,
      "▁new": 703,
      "▁6": 704,
      "▁co": 705,
      "▁than": 706,
      "▁tra": 707,
      ",@": 708,
      "▁@,@": 709,
      "ious": 710,
      "oy": 711,
      "▁rel": 712,
      "old": 713,
      "ited": 714,
      "▁ra": 715,
      "▁qu": 716,
      "▁nan": 717,
      "ward": 718,
      "▁she": 719,
      "▁kn": 720,
      "▁most": 721,
      "▁cons": 722,
      "▁pe": 723,
      "iss": 724,
      "▁him": 725,
      "ick": 726,
      "ob": 727,
      "als": 728,
      "▁fl": 729,
      "rib": 730,
      "ict": 731,
      "▁This": 732,
      "▁sy": 733,
      "gan": 734,
      "ays": 735,
      "ft": 736,
      "▁only": 737,
      "▁under": 738,
      "very": 739,
      "ook": 740,
      "▁act": 741,
      "▁As": 742,
      "▁will": 743,
      "▁rem": 744,
      "▁gen": 745,
      "oth": 746,
      "▁produ": 747,
      "ational": 748,
      "▁7": 749,
      "ubl": 750,
      "ath": 751,
      "▁sec": 752,
      "▁199": 753,
      "▁Mar": 754,
      "▁some": 755,
      "lect": 756,
      "ween": 757,
      "▁there": 758,
      "▁Ar": 759,
      "▁acc": 760,
      "att": 761,
      "rop": 762,
      "▁pr": 763,
      "ve": 764,
      "red": 765,
      "▁inc": 766,
      "▁through": 767,
      "ember": 768,
      "fore": 769,
      "▁ear": 770,
      "aw": 771,
      "tern": 772,
      "▁ind": 773,
      "ever": 774,
      "▁En": 775,
      "▁stud": 776,
      "▁between": 777,
      "ating": 778,
      "orld": 779,
      "ike": 780,
      "▁during": 781,
      "ning": 782,
      "▁po": 783,
      "ular": 784,
      "▁ass": 785,
      "▁such": 786,
      "ilm": 787,
      "ts": 788,
      "▁bl": 789,
      "ollow": 790,
      "▁8": 791,
      "▁Re": 792,
      "▁reg": 793,
      "ific": 794,
      "ks": 795,
      "▁pos": 796,
      "▁am": 797,
      "▁cent": 798,
      "ix": 799,
      "▁De": 800,
      "▁9": 801,
      "ran": 802,
      "▁again": 803,
      "ron": 804,
      "inal": 805,
      "yon": 806,
      "olog": 807,
      "ual": 808,
      "▁num": 809,
      "▁sub": 810,
      "orth": 811,
      "hip": 812,
      "hen": 813,
      "ause": 814,
      "meric": 815,
      "▁where": 816,
      "▁New": 817,
      "ason": 818,
      "▁ret": 819,
      "▁used": 820,
      "▁spec": 821,
      "iew": 822,
      "▁form": 823,
      "▁Se": 824,
      "▁bu": 825,
      "velop": 826,
      "hes": 827,
      "▁Americ": 828,
      "ower": 829,
      "ject": 830,
      "▁ac": 831,
      "▁end": 832,
      "ug": 833,
      "ople": 834,
      "ics": 835,
      "▁ep": 836,
      "▁char": 837,
      "▁dif": 838,
      "ted": 839,
      "▁col": 840,
      "▁your": 841,
      "io": 842,
      "▁Le": 843,
      "▁three": 844,
      "▁sur": 845,
      "▁film": 846,
      "▁mon": 847,
      "000": 848,
      "ins": 849,
      "▁may": 850,
      "▁Wh": 851,
      "▁while": 852,
      "gr": 853,
      "ily": 854,
      "▁years": 855,
      "ities": 856,
      "▁supp": 857,
      "ock": 858,
      "▁rele": 859,
      "orn": 860,
      "▁exp": 861,
      "▁imp": 862,
      "▁Com": 863,
      "ise": 864,
      "ros": 865,
      "▁no": 866,
      "▁inv": 867,
      "outh": 868,
      "▁def": 869,
      "▁made": 870,
      "ident": 871,
      "▁high": 872,
      "ten": 873,
      "ral": 874,
      "ton": 875,
      "ool": 876,
      "az": 877,
      "▁how": 878,
      "▁add": 879,
      "▁follow": 880,
      "way": 881,
      "▁prov": 882,
      "▁lar": 883,
      "oup": 884,
      "erm": 885,
      "ier": 886,
      "▁later": 887,
      "▁these": 888,
      "▁game": 889,
      "▁develop": 890,
      "▁mov": 891,
      "iet": 892,
      "▁pres": 893,
      "▁well": 894,
      "oh": 895,
      "▁many": 896,
      "▁em": 897,
      "iel": 898,
      "▁then": 899,
      "▁before": 900,
      "▁writ": 901,
      "▁any": 902,
      "▁dec": 903,
      "▁“": 904,
      "▁people": 905,
      "▁call": 906,
      "ife": 907,
      "ful": 908,
      "ures": 909,
      "ll": 910,
      "ivers": 911,
      "ision": 912,
      "ished": 913,
      "other": 914,
      "▁ent": 915,
      "▁publ": 916,
      "▁eff": 917,
      "stem": 918,
      "▁being": 919,
      "▁use": 920,
      "▁10": 921,
      "ived": 922,
      "▁Sp": 923,
      "▁rep": 924,
      "ines": 925,
      "ative": 926,
      "▁serv": 927,
      "▁second": 928,
      "▁met": 929,
      "▁loc": 930,
      "its": 931,
      "aj": 932,
      "▁ser": 933,
      "▁found": 934,
      "ert": 935,
      "▁song": 936,
      "▁dep": 937,
      "▁ob": 938,
      "ames": 939,
      "▁mus": 940,
      "▁ph": 941,
      "ale": 942,
      "yen": 943,
      "row": 944,
      "▁set": 945,
      "▁car": 946,
      "son": 947,
      "ered": 948,
      "▁At": 949,
      "▁could": 950,
      "▁four": 951,
      "ather": 952,
      "▁pol": 953,
      "ury": 954,
      "elf": 955,
      "▁lead": 956,
      "▁long": 957,
      "ement": 958,
      "yp": 959,
      "▁record": 960,
      "▁inf": 961,
      "▁sm": 962,
      "▁show": 963,
      "au": 964,
      "▁number": 965,
      "vern": 966,
      "ature": 967,
      "ince": 968,
      "ved": 969,
      "▁Sh": 970,
      "air": 971,
      "ode": 972,
      "▁inst": 973,
      "ane": 974,
      "▁back": 975,
      "▁cre": 976,
      "ys": 977,
      "▁both": 978,
      "ually": 979,
      "▁trans": 980,
      "▁sever": 981,
      "ogra": 982,
      "eral": 983,
      "ism": 984,
      "ract": 985,
      "ting": 986,
      "ments": 987,
      "▁Sc": 988,
      "▁Con": 989,
      "▁said": 990,
      "led": 991,
      "ained": 992,
      "▁min": 993,
      "chool": 994,
      "ible": 995,
      "▁How": 996,
      "▁ext": 997,
      "cept": 998,
      "asyon": 999,
      "▁main": 1000,
      "▁198": 1001,
      "▁including": 1002,
      "▁hel": 1003,
      "▁team": 1004,
      "▁like": 1005,
      "ined": 1006,
      "ution": 1007,
      "ient": 1008,
      "▁against": 1009,
      "▁system": 1010,
      "▁if": 1011,
      "▁season": 1012,
      "uch": 1013,
      "▁est": 1014,
      "▁sign": 1015,
      "ble": 1016,
      "ern": 1017,
      "ann": 1018,
      "▁17": 1019,
      "erson": 1020,
      "aking": 1021,
      "..": 1022,
      "ists": 1023,
      "▁war": 1024,
      "ink": 1025,
      "▁/": 1026,
      "any": 1027,
      "▁pop": 1028,
      "ility": 1029,
      "▁what": 1030,
      "▁did": 1031,
      "▁rev": 1032,
      "▁resp": 1033,
      "ange": 1034,
      "▁bel": 1035,
      "iver": 1036,
      "ah": 1037,
      "cy": 1038,
      "▁000": 1039,
      "▁op": 1040,
      "▁child": 1041,
      "▁charact": 1042,
      "▁disc": 1043,
      "ired": 1044,
      "xt": 1045,
      "▁—": 1046,
      "bum": 1047,
      "▁Cl": 1048,
      "▁mod": 1049,
      "irect": 1050,
      "▁differ": 1051,
      "▁Ind": 1052,
      "ris": 1053,
      "▁dist": 1054,
      "ross": 1055,
      "ober": 1056,
      "ared": 1057,
      "▁count": 1058,
      "vent": 1059,
      "ty": 1060,
      "▁12": 1061,
      "▁15": 1062,
      "▁United": 1063,
      "▁sim": 1064,
      "ized": 1065,
      "▁art": 1066,
      "▁0": 1067,
      "▁own": 1068,
      "▁comple": 1069,
      "▁perform": 1070,
      "▁Z": 1071,
      "ank": 1072,
      "imes": 1073,
      "▁Eng": 1074,
      "▁contin": 1075,
      "▁Brit": 1076,
      "ants": 1077,
      "▁sing": 1078,
      "▁because": 1079,
      "▁For": 1080,
      "ield": 1081,
      "▁became": 1082,
      "und": 1083,
      "▁help": 1084,
      "ash": 1085,
      "▁After": 1086,
      "apt": 1087,
      "ird": 1088,
      "▁196": 1089,
      "▁mat": 1090,
      "▁air": 1091,
      "ouse": 1092,
      "▁fam": 1093,
      "▁ed": 1094,
      "uc": 1095,
      "▁mill": 1096,
      "▁Joh": 1097,
      "▁known": 1098,
      "▁design": 1099,
      "▁day": 1100,
      "ars": 1101,
      "▁album": 1102,
      "ially": 1103,
      "▁American": 1104,
      "get": 1105,
      "▁197": 1106,
      "▁desc": 1107,
      "▁sl": 1108,
      "ven": 1109,
      "▁med": 1110,
      "▁result": 1111,
      "alth": 1112,
      "▁epis": 1113,
      "▁=": 1114,
      "ised": 1115,
      "▁group": 1116,
      "ues": 1117,
      "▁She": 1118,
      "▁down": 1119,
      "▁dr": 1120,
      "ek": 1121,
      "▁194": 1122,
      "▁orig": 1123,
      "▁several": 1124,
      "ically": 1125,
      "▁bro": 1126,
      "ives": 1127,
      "▁same": 1128,
      "gg": 1129,
      "though": 1130,
      "ruct": 1131,
      "▁need": 1132,
      "▁called": 1133,
      "▁br": 1134,
      "▁var": 1135,
      "▁John": 1136,
      "▁rece": 1137,
      "▁ins": 1138,
      "▁series": 1139,
      "▁16": 1140,
      "ural": 1141,
      "▁world": 1142,
      "▁support": 1143,
      "ley": 1144,
      "▁each": 1145,
      "ger": 1146,
      "ided": 1147,
      "ull": 1148,
      "til": 1149,
      "▁fin": 1150,
      "▁just": 1151,
      "▁They": 1152,
      "ax": 1153,
      "ness": 1154,
      "ccess": 1155,
      "ene": 1156,
      "ium": 1157,
      "▁det": 1158,
      ").": 1159,
      "▁partic": 1160,
      "▁water": 1161,
      "emb": 1162,
      "▁early": 1163,
      "▁point": 1164,
      "▁pass": 1165,
      "ience": 1166,
      "▁Is": 1167,
      "▁Bl": 1168,
      "▁11": 1169,
      "els": 1170,
      "▁aut": 1171,
      "osed": 1172,
      "ove": 1173,
      "▁govern": 1174,
      "iam": 1175,
      "▁hist": 1176,
      "▁We": 1177,
      "▁incre": 1178,
      "▁near": 1179,
      "▁land": 1180,
      "▁Ad": 1181,
      "▁direct": 1182,
      "▁str": 1183,
      "▁make": 1184,
      "▁occ": 1185,
      "▁around": 1186,
      "▁start": 1187,
      "une": 1188,
      "▁run": 1189,
      "omet": 1190,
      "anc": 1191,
      "ued": 1192,
      "▁Pro": 1193,
      "▁small": 1194,
      "ets": 1195,
      "oot": 1196,
      "▁gu": 1197,
      "▁until": 1198,
      "▁Aust": 1199,
      "▁mil": 1200,
      "▁ship": 1201,
      "my": 1202,
      "uss": 1203,
      "cess": 1204,
      "▁return": 1205,
      "▁though": 1206,
      "▁class": 1207,
      "▁const": 1208,
      "▁even": 1209,
      "▁US": 1210,
      "ajor": 1211,
      "▁Be": 1212,
      "▁Te": 1213,
      "▁open": 1214,
      "▁effect": 1215,
      "▁consid": 1216,
      "▁began": 1217,
      "▁ant": 1218,
      "arch": 1219,
      "enn": 1220,
      "▁War": 1221,
      "ke": 1222,
      "▁Ed": 1223,
      "oss": 1224,
      "▁much": 1225,
      "▁very": 1226,
      "▁our": 1227,
      "▁along": 1228,
      "pr": 1229,
      "▁life": 1230,
      "iving": 1231,
      "▁However": 1232,
      "▁report": 1233,
      "▁crit": 1234,
      "app": 1235,
      "ody": 1236,
      "ages": 1237,
      "▁oper": 1238,
      "▁Gr": 1239,
      "ner": 1240,
      "▁contro": 1241,
      "tle": 1242,
      "ended": 1243,
      "aving": 1244,
      "▁requ": 1245,
      "▁exper": 1246,
      "▁Q": 1247,
      "▁those": 1248,
      "ilt": 1249,
      "▁All": 1250,
      "ute": 1251,
      "▁million": 1252,
      "▁school": 1253,
      "▁episode": 1254,
      "▁build": 1255,
      "erman": 1256,
      "esp": 1257,
      "▁Col": 1258,
      "▁li": 1259,
      "▁should": 1260,
      "rist": 1261,
      "▁May": 1262,
      "ina": 1263,
      "▁success": 1264,
      "▁av": 1265,
      "ately": 1266,
      "ont": 1267,
      "▁adv": 1268,
      "▁men": 1269,
      "▁$": 1270,
      "▁person": 1271,
      "▁state": 1272,
      "▁different": 1273,
      "▁way": 1274,
      "▁Car": 1275,
      "▁States": 1276,
      "▁offic": 1277,
      "▁music": 1278,
      "▁13": 1279,
      "▁power": 1280,
      "▁ak": 1281,
      "▁ele": 1282,
      "▁right": 1283,
      "ret": 1284,
      "▁expl": 1285,
      "ains": 1286,
      "ne": 1287,
      "▁public": 1288,
      "▁There": 1289,
      "▁conc": 1290,
      "ize": 1291,
      "▁conf": 1292,
      "ected": 1293,
      "▁area": 1294,
      "▁import": 1295,
      "ional": 1296,
      "▁describ": 1297,
      "ean": 1298,
      "▁hum": 1299,
      "▁Ph": 1300,
      "▁yo": 1301,
      "▁following": 1302,
      "ology": 1303,
      "▁British": 1304,
      "▁lit": 1305,
      "▁ref": 1306,
      "▁allow": 1307,
      "gy": 1308,
      "ians": 1309,
      "▁[": 1310,
      "▁character": 1311,
      "▁And": 1312,
      "▁la": 1313,
      "▁When": 1314,
      "▁typ": 1315,
      "▁bo": 1316,
      "▁prom": 1317,
      "▁head": 1318,
      "chn": 1319,
      "▁prot": 1320,
      "▁released": 1321,
      "ording": 1322,
      "▁14": 1323,
      "ital": 1324,
      "▁195": 1325,
      "gin": 1326,
      "ively": 1327,
      "iversity": 1328,
      "omin": 1329,
      "▁By": 1330,
      "▁Pl": 1331,
      "▁attack": 1332,
      "▁rest": 1333,
      "▁now": 1334,
      "iven": 1335,
      "▁place": 1336,
      "▁major": 1337,
      "▁elect": 1338,
      "inc": 1339,
      "▁Br": 1340,
      "▁pat": 1341,
      "▁order": 1342,
      "▁large": 1343,
      "▁appear": 1344,
      "amed": 1345,
      "arm": 1346,
      "▁poss": 1347,
      "eb": 1348,
      "▁refer": 1349,
      "ission": 1350,
      "▁book": 1351,
      "▁World": 1352,
      "▁appro": 1353,
      "lish": 1354,
      "wa": 1355,
      "▁Aug": 1356,
      "▁every": 1357,
      "▁cur": 1358,
      "▁Can": 1359,
      "▁yon": 1360,
      "ified": 1361,
      "▁sk": 1362,
      "eng": 1363,
      "onom": 1364,
      "▁hand": 1365,
      "aced": 1366,
      "urch": 1367,
      "▁organ": 1368,
      "wards": 1369,
      "▁German": 1370,
      "▁Ju": 1371,
      "▁Sept": 1372,
      "▁last": 1373,
      "▁Comm": 1374,
      "hern": 1375,
      "▁since": 1376,
      "gram": 1377,
      "▁fact": 1378,
      "▁August": 1379,
      "▁bre": 1380,
      "▁century": 1381,
      "▁ann": 1382,
      "▁soc": 1383,
      "▁took": 1384,
      "▁level": 1385,
      "▁another": 1386,
      "▁193": 1387,
      "▁my": 1388,
      "▁191": 1389,
      "▁September": 1390,
      "raft": 1391,
      "over": 1392,
      "▁commun": 1393,
      "▁care": 1394,
      "▁six": 1395,
      "▁vis": 1396,
      "iti": 1397,
      "ats": 1398,
      "▁get": 1399,
      "ases": 1400,
      "ored": 1401,
      "ences": 1402,
      "▁turn": 1403,
      "med": 1404,
      "▁Austral": 1405,
      "▁win": 1406,
      "ves": 1407,
      "itions": 1408,
      "▁dem": 1409,
      "▁batt": 1410,
      "▁km": 1411,
      "▁often": 1412,
      "▁York": 1413,
      "▁Ay": 1414,
      "▁gener": 1415,
      "▁cour": 1416,
      "▁five": 1417,
      "▁government": 1418,
      "▁mar": 1419,
      "iod": 1420,
      "▁city": 1421,
      "▁leg": 1422,
      "▁old": 1423,
      "ulation": 1424,
      "▁great": 1425,
      "ried": 1426,
      "ently": 1427,
      "▁eng": 1428,
      "▁Oct": 1429,
      "ices": 1430,
      "reen": 1431,
      "▁North": 1432,
      "▁still": 1433,
      "▁Nov": 1434,
      "orp": 1435,
      "omen": 1436,
      "ged": 1437,
      "ides": 1438,
      "▁prev": 1439,
      "▁north": 1440,
      "▁month": 1441,
      "▁take": 1442,
      "▁term": 1443,
      "▁home": 1444,
      "▁based": 1445,
      "ata": 1446,
      "),": 1447,
      "▁due": 1448,
      "▁best": 1449,
      "▁know": 1450,
      "read": 1451,
      "▁iss": 1452,
      "▁cap": 1453,
      "▁received": 1454,
      "▁mark": 1455,
      "▁good": 1456,
      "oint": 1457,
      "▁belie": 1458,
      "ior": 1459,
      "▁within": 1460,
      "▁find": 1461,
      "akes": 1462,
      "▁single": 1463,
      "isyen": 1464,
      "oci": 1465,
      "▁Eu": 1466,
      "▁vers": 1467,
      "▁Ge": 1468,
      "aim": 1469,
      "▁par": 1470,
      "▁left": 1471,
      "▁children": 1472,
      "ling": 1473,
      "▁name": 1474,
      "▁opp": 1475,
      "▁family": 1476,
      "▁Pr": 1477,
      "▁30": 1478,
      "▁short": 1479,
      "▁caus": 1480,
      "▁October": 1481,
      "▁spe": 1482,
      "ection": 1483,
      "▁read": 1484,
      "▁less": 1485,
      "▁Jan": 1486,
      "▁real": 1487,
      "▁et": 1488,
      "ales": 1489,
      "▁top": 1490,
      "▁line": 1491,
      "ining": 1492,
      "▁equ": 1493,
      "▁Will": 1494,
      "▁stand": 1495,
      "▁Me": 1496,
      "▁King": 1497,
      "▁process": 1498,
      "ilar": 1499,
      "▁gl": 1500,
      "▁Christ": 1501,
      "▁few": 1502,
      "▁using": 1503,
      "urther": 1504,
      "▁death": 1505,
      "▁June": 1506,
      "arn": 1507,
      "me": 1508,
      "▁fun": 1509,
      "hest": 1510,
      "▁present": 1511,
      "iety": 1512,
      "▁health": 1513,
      "▁arr": 1514,
      "ote": 1515,
      "iron": 1516,
      "▁Or": 1517,
      "▁Gu": 1518,
      "ense": 1519,
      "▁South": 1520,
      "▁rese": 1521,
      "ms": 1522,
      "▁won": 1523,
      "▁infl": 1524,
      "empt": 1525,
      "alf": 1526,
      "▁species": 1527,
      "hor": 1528,
      "▁...": 1529,
      "▁techn": 1530,
      "▁final": 1531,
      "▁event": 1532,
      "▁sol": 1533,
      "▁beh": 1534,
      "▁addition": 1535,
      "oad": 1536,
      "▁July": 1537,
      "▁Har": 1538,
      "yl": 1539,
      "▁inform": 1540,
      "▁25": 1541,
      "▁see": 1542,
      "▁period": 1543,
      "▁ke": 1544,
      "▁Apr": 1545,
      "que": 1546,
      "ured": 1547,
      "ott": 1548,
      "uary": 1549,
      "oman": 1550,
      "▁program": 1551,
      "▁If": 1552,
      "hing": 1553,
      "▁March": 1554,
      "▁important": 1555,
      "▁del": 1556,
      "▁common": 1557,
      "▁Mc": 1558,
      "▁kò": 1559,
      "▁Fl": 1560,
      "ards": 1561,
      "▁April": 1562,
      "by": 1563,
      "▁aff": 1564,
      "▁Europ": 1565,
      "▁port": 1566,
      "▁view": 1567,
      "▁November": 1568,
      "ony": 1569,
      "atic": 1570,
      "idge": 1571,
      "▁story": 1572,
      "▁dam": 1573,
      "▁Pol": 1574,
      "ries": 1575,
      "▁These": 1576,
      "▁without": 1577,
      "▁During": 1578,
      "▁non": 1579,
      "▁&": 1580,
      "▁band": 1581,
      "▁does": 1582,
      "▁Em": 1583,
      "bs": 1584,
      "20": 1585,
      "▁Tr": 1586,
      "ample": 1587,
      "aken": 1588,
      "ox": 1589,
      "mber": 1590,
      "rent": 1591,
      "▁National": 1592,
      "▁val": 1593,
      "▁plan": 1594,
      "apan": 1595,
      "alk": 1596,
      "▁kill": 1597,
      "avy": 1598,
      "▁third": 1599,
      "▁included": 1600,
      "▁next": 1601,
      "▁el": 1602,
      "lev": 1603,
      "▁south": 1604,
      "▁]": 1605,
      "▁camp": 1606,
      "▁law": 1607,
      "▁II": 1608,
      "▁Am": 1609,
      "let": 1610,
      "▁che": 1611,
      "▁test": 1612,
      "▁memb": 1613,
      "▁Japan": 1614,
      "▁chang": 1615,
      "▁look": 1616,
      "sp": 1617,
      "vers": 1618,
      "ery": 1619,
      "▁tem": 1620,
      "▁prof": 1621,
      "rote": 1622,
      "▁among": 1623,
      "▁%": 1624,
      "ister": 1625,
      "ator": 1626,
      "▁want": 1627,
      "▁ec": 1628,
      "hel": 1629,
      "▁polit": 1630,
      "▁become": 1631,
      "▁Man": 1632,
      "ival": 1633,
      "▁University": 1634,
      "▁days": 1635,
      "rodu": 1636,
      "▁previous": 1637,
      "ipp": 1638,
      "▁La": 1639,
      "com": 1640,
      "▁Fran": 1641,
      "cember": 1642,
      "riend": 1643,
      "▁cle": 1644,
      "▁review": 1645,
      "▁post": 1646,
      "ple": 1647,
      "ring": 1648,
      "▁div": 1649,
      "▁led": 1650,
      "▁local": 1651,
      "▁repl": 1652,
      "par": 1653,
      "▁rad": 1654,
      "▁December": 1655,
      "aren": 1656,
      "▁fre": 1657,
      "ances": 1658,
      "▁list": 1659,
      "▁His": 1660,
      "ones": 1661,
      "line": 1662,
      "▁proble": 1663,
      "▁January": 1664,
      "ograf": 1665,
      "urs": 1666,
      "ched": 1667,
      "▁One": 1668,
      "ourn": 1669,
      "▁cond": 1670,
      "▁tit": 1671,
      "▁estab": 1672,
      "self": 1673,
      "sh": 1674,
      "ency": 1675,
      "▁wrote": 1676,
      "▁light": 1677,
      "▁fore": 1678,
      "▁prop": 1679,
      "▁ide": 1680,
      "▁You": 1681,
      "aining": 1682,
      "▁track": 1683,
      "▁somet": 1684,
      "aster": 1685,
      "ague": 1686,
      "▁invol": 1687,
      "▁grow": 1688,
      "▁however": 1689,
      "▁role": 1690,
      "▁body": 1691,
      "augh": 1692,
      "▁vide": 1693,
      "ead": 1694,
      "▁control": 1695,
      "to": 1696,
      "▁played": 1697,
      "▁described": 1698,
      "▁attempt": 1699,
      "▁Bro": 1700,
      "rench": 1701,
      "▁Gen": 1702,
      "▁similar": 1703,
      "▁eas": 1704,
      "ots": 1705,
      "▁project": 1706,
      "▁Par": 1707,
      "▁include": 1708,
      "ached": 1709,
      "▁sit": 1710,
      "▁members": 1711,
      "oon": 1712,
      "▁dest": 1713,
      "▁side": 1714,
      "▁Ex": 1715,
      "▁But": 1716,
      "▁Mus": 1717,
      "▁activ": 1718,
      "▁manag": 1719,
      "ention": 1720,
      "▁2010": 1721,
      "▁bas": 1722,
      "iness": 1723,
      "ograph": 1724,
      "itive": 1725,
      "▁hig": 1726,
      "▁mid": 1727,
      "▁study": 1728,
      "cent": 1729,
      "▁El": 1730,
      "▁100": 1731,
      "▁redu": 1732,
      "▁lang": 1733,
      "ration": 1734,
      "▁low": 1735,
      "▁development": 1736,
      "▁came": 1737,
      "▁interest": 1738,
      "ality": 1739,
      "▁command": 1740,
      "▁built": 1741,
      "▁Cent": 1742,
      "▁named": 1743,
      "▁Ist": 1744,
      "▁kòm": 1745,
      "ole": 1746,
      "ches": 1747,
      "▁wind": 1748,
      "▁particular": 1749,
      "▁With": 1750,
      "▁deb": 1751,
      "ories": 1752,
      "ball": 1753,
      "▁original": 1754,
      "▁X": 1755,
      "▁To": 1756,
      "▁stat": 1757,
      "▁vil": 1758,
      "rew": 1759,
      "▁trad": 1760,
      "▁anim": 1761,
      "eter": 1762,
      "resent": 1763,
      "ggest": 1764,
      "▁suggest": 1765,
      "▁capt": 1766,
      "▁tw": 1767,
      "ruction": 1768,
      "side": 1769,
      "day": 1770,
      "irc": 1771,
      "▁further": 1772,
      "oung": 1773,
      "tal": 1774,
      "▁gun": 1775,
      "ivid": 1776,
      "uted": 1777,
      "▁late": 1778,
      "▁food": 1779,
      "▁cover": 1780,
      "▁country": 1781,
      "ours": 1782,
      "▁having": 1783,
      "▁Kib": 1784,
      "▁21": 1785,
      "ization": 1786,
      "▁bus": 1787,
      "▁French": 1788,
      "▁2011": 1789,
      "▁given": 1790,
      "▁Geor": 1791,
      "yn": 1792,
      "▁history": 1793,
      "▁No": 1794,
      "ords": 1795,
      "osp": 1796,
      "▁Feb": 1797,
      "▁held": 1798,
      "▁students": 1799,
      "itary": 1800,
      "▁although": 1801,
      "▁human": 1802,
      "▁Istwa": 1803,
      "▁sent": 1804,
      "▁2009": 1805,
      "▁lim": 1806,
      "▁treat": 1807,
      "ini": 1808,
      "ably": 1809,
      "na": 1810,
      "ination": 1811,
      "▁production": 1812,
      "▁English": 1813,
      "ges": 1814,
      "▁cr": 1815,
      "▁mag": 1816,
      "▁considered": 1817,
      "▁2008": 1818,
      "ruary": 1819,
      "▁comb": 1820,
      "cer": 1821,
      "ript": 1822,
      "▁say": 1823,
      "rain": 1824,
      "▁let": 1825,
      "ografi": 1826,
      "▁press": 1827,
      "▁influ": 1828,
      "▁sold": 1829,
      "▁February": 1830,
      "▁times": 1831,
      "▁week": 1832,
      "ploy": 1833,
      "▁strong": 1834,
      "▁games": 1835,
      "ument": 1836,
      "ids": 1837,
      "▁impro": 1838,
      "▁cor": 1839,
      "▁claim": 1840,
      "▁24": 1841,
      "▁Ab": 1842,
      "▁West": 1843,
      "stand": 1844,
      "▁ident": 1845,
      "▁William": 1846,
      "▁tri": 1847,
      "ese": 1848,
      "estern": 1849,
      "▁While": 1850,
      "▁Af": 1851,
      "▁house": 1852,
      "ering": 1853,
      "▁example": 1854,
      "▁former": 1855,
      "▁never": 1856,
      "▁pract": 1857,
      "ertain": 1858,
      "▁Acc": 1859,
      "▁making": 1860,
      "fic": 1861,
      "▁190": 1862,
      "eth": 1863,
      "▁half": 1864,
      "ung": 1865,
      "ler": 1866,
      "▁Cal": 1867,
      "▁mater": 1868,
      "viron": 1869,
      "ape": 1870,
      "ops": 1871,
      "▁Jew": 1872,
      "work": 1873,
      "here": 1874,
      "▁signific": 1875,
      "isc": 1876,
      "▁town": 1877,
      "▁Char": 1878,
      "▁video": 1879,
      "▁too": 1880,
      "atter": 1881,
      "iment": 1882,
      "▁cult": 1883,
      "▁2012": 1884,
      "▁must": 1885,
      "ither": 1886,
      "▁sw": 1887,
      "▁Although": 1888,
      "esc": 1889,
      "▁192": 1890,
      "▁pain": 1891,
      "▁women": 1892,
      "br": 1893,
      "ham": 1894,
      "ille": 1895,
      "▁2007": 1896,
      "ison": 1897,
      "elt": 1898,
      "▁author": 1899,
      "▁individ": 1900,
      "▁Dav": 1901,
      "oms": 1902,
      "oute": 1903,
      "ential": 1904,
      "▁information": 1905,
      "▁sound": 1906,
      "ront": 1907,
      "▁ris": 1908,
      "▁Fr": 1909,
      "uck": 1910,
      "cing": 1911,
      "▁surv": 1912,
      "▁position": 1913,
      "▁Ne": 1914,
      "▁storm": 1915,
      "ergy": 1916,
      "ways": 1917,
      "▁areas": 1918,
      "▁sym": 1919,
      "▁Min": 1920,
      "▁Bar": 1921,
      "idence": 1922,
      "▁release": 1923,
      "▁able": 1924,
      "▁cost": 1925,
      "▁continued": 1926,
      "▁match": 1927,
      "raw": 1928,
      "▁obs": 1929,
      "▁Ear": 1930,
      "▁intern": 1931,
      "ression": 1932,
      "sequ": 1933,
      "▁England": 1934,
      "ells": 1935,
      "▁Mich": 1936,
      "ai": 1937,
      "bo": 1938,
      "▁feat": 1939,
      "▁Ang": 1940,
      "mit": 1941,
      "rie": 1942,
      "▁Her": 1943,
      "▁field": 1944,
      "reet": 1945,
      "▁Li": 1946,
      "▁road": 1947,
      "▁Canad": 1948,
      "▁published": 1949,
      "atch": 1950,
      "ae": 1951,
      "ending": 1952,
      "▁fail": 1953,
      "▁research": 1954,
      "▁nat": 1955,
      "▁friend": 1956,
      "min": 1957,
      "hers": 1958,
      "▁Ass": 1959,
      "▁written": 1960,
      "yle": 1961,
      "▁material": 1962,
      "abor": 1963,
      "▁Go": 1964,
      "less": 1965,
      "ope": 1966,
      "ify": 1967,
      "▁vol": 1968,
      "▁company": 1969,
      "▁total": 1970,
      "▁building": 1971,
      "▁put": 1972,
      "▁Park": 1973,
      "▁suff": 1974,
      "▁Count": 1975,
      "▁Co": 1976,
      "▁across": 1977,
      "ropical": 1978,
      "▁lik": 1979,
      "19": 1980,
      "ogn": 1981,
      "▁represent": 1982,
      "uel": 1983,
      "▁fire": 1984,
      "olution": 1985,
      "▁gra": 1986,
      "▁Sy": 1987,
      "▁City": 1988,
      "ivil": 1989,
      "▁quest": 1990,
      "aul": 1991,
      "▁jo": 1992,
      "▁educ": 1993,
      "▁ground": 1994,
      "af": 1995,
      "▁struct": 1996,
      "▁fac": 1997,
      "▁significant": 1998,
      "▁22": 1999,
      "▁23": 2000,
      "▁little": 2001,
      "▁away": 2002,
      "▁appe": 2003,
      "lic": 2004,
      "▁larg": 2005,
      "ological": 2006,
      "▁change": 2007,
      "▁Rep": 2008,
      "▁age": 2009,
      "ee": 2010,
      "vironment": 2011,
      "▁various": 2012,
      "roy": 2013,
      "▁According": 2014,
      "▁origin": 2015,
      "▁River": 2016,
      "▁decl": 2017,
      "ondon": 2018,
      "▁data": 2019,
      "duct": 2020,
      "ford": 2021,
      "ye": 2022,
      "used": 2023,
      "▁dev": 2024,
      "utes": 2025,
      "▁foot": 2026,
      "▁Rober": 2027,
      "▁reported": 2028,
      "▁developed": 2029,
      "most": 2030,
      "▁colle": 2031,
      "▁moved": 2032,
      "▁econom": 2033,
      "aff": 2034,
      "▁relations": 2035,
      "▁feature": 2036,
      "▁proper": 2037,
      "▁50": 2038,
      "▁phys": 2039,
      "▁sour": 2040,
      "▁others": 2041,
      "▁produced": 2042,
      "▁2013": 2043,
      "▁sum": 2044,
      "▁conn": 2045,
      "▁begin": 2046,
      "▁z": 2047,
      "▁London": 2048,
      "ream": 2049,
      "▁avail": 2050,
      "▁2006": 2051,
      "▁version": 2052,
      "▁ren": 2053,
      "▁popular": 2054,
      "▁prim": 2055,
      "ama": 2056,
      "ensive": 2057,
      "▁er": 2058,
      "ps": 2059,
      "▁west": 2060,
      "▁Air": 2061,
      "èk": 2062,
      "craft": 2063,
      "▁compet": 2064,
      "▁Sm": 2065,
      "▁national": 2066,
      "▁introdu": 2067,
      "▁red": 2068,
      "▁full": 2069,
      "▁east": 2070,
      "ief": 2071,
      "reg": 2072,
      "omb": 2073,
      "iting": 2074,
      "▁Ag": 2075,
      "▁ter": 2076,
      "▁social": 2077,
      "ington": 2078,
      "▁went": 2079,
      "hod": 2080,
      "▁Mon": 2081,
      "▁product": 2082,
      "alt": 2083,
      "ills": 2084,
      "▁di": 2085,
      "▁special": 2086,
      "▁Some": 2087,
      "oph": 2088,
      "▁meas": 2089,
      "▁service": 2090,
      "▁Afric": 2091,
      "ney": 2092,
      "▁pot": 2093,
      "▁vict": 2094,
      "▁case": 2095,
      "▁cast": 2096,
      "▁months": 2097,
      "▁might": 2098,
      "▁lost": 2099,
      "▁Med": 2100,
      "▁seen": 2101,
      "▁gave": 2102,
      "▁init": 2103,
      "▁histor": 2104,
      "▁think": 2105,
      "stit": 2106,
      "▁Res": 2107,
      "▁invest": 2108,
      "▁America": 2109,
      "▁Ayiti": 2110,
      "▁enc": 2111,
      "▁created": 2112,
      "▁circ": 2113,
      "▁don": 2114,
      "▁Sec": 2115,
      "▁dise": 2116,
      "▁telev": 2117,
      "▁High": 2118,
      "▁young": 2119,
      "▁exist": 2120,
      "▁Comp": 2121,
      "▁offer": 2122,
      "▁associ": 2123,
      "▁current": 2124,
      "▁What": 2125,
      "rest": 2126,
      "▁ve": 2127,
      "ublic": 2128,
      "icle": 2129,
      "▁God": 2130,
      "ien": 2131,
      "▁possible": 2132,
      "ators": 2133,
      "▁2004": 2134,
      "ficult": 2135,
      "▁better": 2136,
      "▁State": 2137,
      "▁ste": 2138,
      "▁cy": 2139,
      "▁toget": 2140,
      "▁general": 2141,
      "▁together": 2142,
      "ability": 2143,
      "▁announ": 2144,
      "▁Gl": 2145,
      "▁keep": 2146,
      "▁military": 2147,
      "▁political": 2148,
      "▁population": 2149,
      "▁forces": 2150,
      "▁player": 2151,
      "▁Dr": 2152,
      "▁foc": 2153,
      "▁difficult": 2154,
      "▁indust": 2155,
      "▁mult": 2156,
      "ana": 2157,
      "▁cross": 2158,
      "asing": 2159,
      "▁40": 2160,
      "▁black": 2161,
      "▁percent": 2162,
      "elling": 2163,
      "pect": 2164,
      "aged": 2165,
      "▁occur": 2166,
      "▁ask": 2167,
      "rick": 2168,
      "▁fight": 2169,
      "▁Sw": 2170,
      "ask": 2171,
      "rict": 2172,
      "▁free": 2173,
      "▁27": 2174,
      "▁Pres": 2175,
      "▁taken": 2176,
      "ressed": 2177,
      "ald": 2178,
      "▁range": 2179,
      "▁force": 2180,
      "aps": 2181,
      "▁Div": 2182,
      "▁super": 2183,
      "imate": 2184,
      "ened": 2185,
      "▁club": 2186,
      "▁returned": 2187,
      "aper": 2188,
      "▁eight": 2189,
      "▁himself": 2190,
      "aly": 2191,
      "▁28": 2192,
      "▁nort": 2193,
      ".”": 2194,
      "▁performance": 2195,
      "▁ten": 2196,
      "▁father": 2197,
      "gen": 2198,
      "▁meet": 2199,
      "▁available": 2200,
      "▁night": 2201,
      "sc": 2202,
      "▁Kiba": 2203,
      "▁wid": 2204,
      "▁langu": 2205,
      "▁aver": 2206,
      "▁becom": 2207,
      "▁mean": 2208,
      "omm": 2209,
      "outhern": 2210,
      "aign": 2211,
      "lands": 2212,
      "orts": 2213,
      "▁tre": 2214,
      "▁mot": 2215,
      "▁thought": 2216,
      "▁squ": 2217,
      "▁defe": 2218,
      "▁2014": 2219,
      "▁observ": 2220,
      "ampions": 2221,
      "▁Batt": 2222,
      "▁throughout": 2223,
      "▁creat": 2224,
      "imately": 2225,
      "view": 2226,
      "▁26": 2227,
      "aut": 2228,
      "▁coll": 2229,
      "▁tour": 2230,
      "▁once": 2231,
      "oid": 2232,
      "ows": 2233,
      "▁learn": 2234,
      "▁feel": 2235,
      "▁Australia": 2236,
      "▁profess": 2237,
      "▁successful": 2238,
      "▁writing": 2239,
      "▁bar": 2240,
      "▁conv": 2241,
      "▁stated": 2242,
      "▁recorded": 2243,
      "▁hard": 2244,
      "▁2005": 2245,
      "▁fem": 2246,
      "▁fav": 2247,
      "▁Qu": 2248,
      "▁Phil": 2249,
      "▁Sim": 2250,
      "▁least": 2251,
      "sel": 2252,
      "▁pred": 2253,
      "▁fall": 2254,
      "▁Russ": 2255,
      "rey": 2256,
      "▁died": 2257,
      "▁Per": 2258,
      "▁arg": 2259,
      "▁business": 2260,
      "ades": 2261,
      "urb": 2262,
      "epend": 2263,
      "▁working": 2264,
      "▁cut": 2265,
      "▁Act": 2266,
      "ving": 2267,
      "▁General": 2268,
      "▁entire": 2269,
      "▁James": 2270,
      "▁rather": 2271,
      "▁far": 2272,
      "▁white": 2273,
      "oice": 2274,
      "▁rock": 2275,
      "▁Et": 2276,
      "▁Im": 2277,
      "istic": 2278,
      "▁pri": 2279,
      "▁loss": 2280,
      "▁official": 2281,
      "▁Pe": 2282,
      "▁Rec": 2283,
      "ude": 2284,
      "aves": 2285,
      "▁modern": 2286,
      "of": 2287,
      "▁cop": 2288,
      "▁son": 2289,
      "lex": 2290,
      "▁Ste": 2291,
      "den": 2292,
      "dom": 2293,
      "▁object": 2294,
      "ush": 2295,
      "▁destroy": 2296,
      "onst": 2297,
      "▁star": 2298,
      "▁energy": 2299,
      "face": 2300,
      "▁Jack": 2301,
      "▁battle": 2302,
      "▁arch": 2303,
      "ament": 2304,
      "▁site": 2305,
      "▁caused": 2306,
      "dle": 2307,
      "ze": 2308,
      "▁come": 2309,
      "▁career": 2310,
      "▁ships": 2311,
      "▁Ser": 2312,
      "▁bi": 2313,
      "▁works": 2314,
      "oyal": 2315,
      "▁earl": 2316,
      "▁189": 2317,
      "lished": 2318,
      "▁prevent": 2319,
      "▁ill": 2320,
      "go": 2321,
      "▁ay": 2322,
      "ique": 2323,
      "ett": 2324,
      "▁hold": 2325,
      "▁Intern": 2326,
      "▁live": 2327,
      "▁sou": 2328,
      "▁provide": 2329,
      "▁Reg": 2330,
      "lected": 2331,
      "umb": 2332,
      "▁environment": 2333,
      "tt": 2334,
      "aching": 2335,
      "uture": 2336,
      "▁Rel": 2337,
      "▁Bo": 2338,
      "ecess": 2339,
      "oring": 2340,
      "ael": 2341,
      "▁hy": 2342,
      "tè": 2343,
      "▁aircraft": 2344,
      "iol": 2345,
      "▁cal": 2346,
      "▁Part": 2347,
      "▁upon": 2348,
      "▁ki": 2349,
      "nd": 2350,
      "ming": 2351,
      "▁access": 2352,
      "▁action": 2353,
      "chie": 2354,
      "▁epi": 2355,
      "cil": 2356,
      "▁either": 2357,
      "▁ayisyen": 2358,
      "▁Mor": 2359,
      "▁understand": 2360,
      "urg": 2361,
      "ems": 2362,
      "▁2000": 2363,
      "▁relationship": 2364,
      "▁tradition": 2365,
      "▁neg": 2366,
      "▁critic": 2367,
      "▁remained": 2368,
      "▁past": 2369,
      "▁respons": 2370,
      "▁happ": 2371,
      "urric": 2372,
      "▁blood": 2373,
      "▁established": 2374,
      "▁recogn": 2375,
      "▁esp": 2376,
      "upp": 2377,
      "▁followed": 2378,
      "▁bene": 2379,
      "ising": 2380,
      "ex": 2381,
      "aur": 2382,
      "▁Army": 2383,
      "▁clear": 2384,
      "▁mass": 2385,
      "rought": 2386,
      "▁Mad": 2387,
      "▁plant": 2388,
      "▁aud": 2389,
      "▁started": 2390,
      "▁Sch": 2391,
      "ster": 2392,
      "cial": 2393,
      "ateg": 2394,
      "ara": 2395,
      "▁cause": 2396,
      "▁feet": 2397,
      "▁points": 2398,
      "▁title": 2399,
      "▁almost": 2400,
      "▁front": 2401,
      "ification": 2402,
      "▁campaign": 2403,
      "acy": 2404,
      "▁particip": 2405,
      "▁2015": 2406,
      "▁chart": 2407,
      "▁Hen": 2408,
      "▁Japanese": 2409,
      "▁employ": 2410,
      "▁noted": 2411,
      "▁County": 2412,
      "▁mor": 2413,
      "hem": 2414,
      "▁characters": 2415,
      "play": 2416,
      "▁fund": 2417,
      "▁agre": 2418,
      ".,": 2419,
      "be": 2420,
      "▁broad": 2421,
      "10": 2422,
      "rag": 2423,
      "▁indic": 2424,
      "▁songs": 2425,
      "medi": 2426,
      "iers": 2427,
      "▁coun": 2428,
      "bert": 2429,
      "ements": 2430,
      "irl": 2431,
      "▁East": 2432,
      "▁method": 2433,
      "▁certain": 2434,
      "▁tro": 2435,
      "▁Thom": 2436,
      "▁added": 2437,
      "ware": 2438,
      "▁reached": 2439,
      "▁separ": 2440,
      "▁quick": 2441,
      "▁lower": 2442,
      "▁29": 2443,
      "atory": 2444,
      "cle": 2445,
      "▁felt": 2446,
      "▁instead": 2447,
      "▁David": 2448,
      "▁ever": 2449,
      "ino": 2450,
      "▁arm": 2451,
      "▁lack": 2452,
      "▁above": 2453,
      "▁pur": 2454,
      "▁contrib": 2455,
      "iation": 2456,
      "▁School": 2457,
      "▁Indian": 2458,
      "▁performed": 2459,
      "▁features": 2460,
      "▁miles": 2461,
      "iding": 2462,
      "▁That": 2463,
      "uk": 2464,
      "▁Hol": 2465,
      "▁coast": 2466,
      "▁mix": 2467,
      "▁close": 2468,
      "▁inj": 2469,
      "▁pers": 2470,
      "ceed": 2471,
      "iff": 2472,
      "▁type": 2473,
      "eks": 2474,
      "▁region": 2475,
      "ffic": 2476,
      "▁George": 2477,
      "▁My": 2478,
      "▁amount": 2479,
      "▁enough": 2480,
      "men": 2481,
      "▁pa": 2482,
      "▁engine": 2483,
      "cast": 2484,
      "▁Rich": 2485,
      "▁provided": 2486,
      "▁give": 2487,
      "▁usually": 2488,
      "etwork": 2489,
      "▁fr": 2490,
      "▁seven": 2491,
      "ius": 2492,
      "▁accept": 2493,
      "▁determ": 2494,
      "▁ap": 2495,
      "por": 2496,
      "ilities": 2497,
      "50": 2498,
      "erc": 2499,
      "▁served": 2500,
      "ought": 2501,
      "ecially": 2502,
      "▁pra": 2503,
      "reek": 2504,
      "▁damage": 2505,
      "▁Europe": 2506,
      "▁killed": 2507,
      "orpor": 2508,
      "▁style": 2509,
      "▁going": 2510,
      "▁community": 2511,
      "▁station": 2512,
      "▁key": 2513,
      "▁located": 2514,
      "▁means": 2515,
      "▁opt": 2516,
      "▁natural": 2517,
      "▁member": 2518,
      "▁future": 2519,
      "▁subject": 2520,
      "▁account": 2521,
      "▁nov": 2522,
      "▁|": 2523,
      "▁clos": 2524,
      "lin": 2525,
      "▁space": 2526,
      "▁respect": 2527,
      "ump": 2528,
      "▁scient": 2529,
      "amm": 2530,
      "ray": 2531,
      "▁ft": 2532,
      "▁Division": 2533,
      "head": 2534,
      "▁Do": 2535,
      "▁behind": 2536,
      "artment": 2537,
      "▁stri": 2538,
      "▁announced": 2539,
      "▁average": 2540,
      "▁tru": 2541,
      "now": 2542,
      "ume": 2543,
      "aces": 2544,
      "ampionship": 2545,
      "▁rul": 2546,
      "field": 2547,
      "▁conduct": 2548,
      "oe": 2549,
      "▁exam": 2550,
      "▁Tra": 2551,
      "▁hon": 2552,
      "▁consist": 2553,
      "▁risk": 2554,
      "uation": 2555,
      "azini": 2556,
      "▁Black": 2557,
      "xic": 2558,
      "▁Street": 2559,
      "▁formed": 2560,
      "▁Other": 2561,
      "ctor": 2562,
      "erous": 2563,
      "▁Dep": 2564,
      "▁increased": 2565,
      "▁saf": 2566,
      "▁discuss": 2567,
      "iction": 2568,
      "tain": 2569,
      "▁born": 2570,
      "emy": 2571,
      "▁Ak": 2572,
      "▁sex": 2573,
      "▁saw": 2574,
      "▁achie": 2575,
      "▁hom": 2576,
      "▁So": 2577,
      "▁fig": 2578,
      "▁hours": 2579,
      "▁relig": 2580,
      "▁Road": 2581,
      "▁television": 2582,
      "▁hit": 2583,
      "▁Stud": 2584,
      "▁ess": 2585,
      "▁eventually": 2586,
      "sy": 2587,
      "▁according": 2588,
      "ica": 2589,
      "▁base": 2590,
      "▁problems": 2591,
      "▁changes": 2592,
      "▁mother": 2593,
      "▁try": 2594,
      "ready": 2595,
      "▁especially": 2596,
      "amb": 2597,
      "▁League": 2598,
      "▁leading": 2599,
      "▁San": 2600,
      "▁host": 2601,
      "▁stage": 2602,
      "▁players": 2603,
      "▁ball": 2604,
      "▁dou": 2605,
      "▁miss": 2606,
      "▁designed": 2607,
      "▁disease": 2608,
      "hib": 2609,
      "▁mount": 2610,
      "for": 2611,
      "pped": 2612,
      "gress": 2613,
      "ength": 2614,
      "▁Etazini": 2615,
      "▁ce": 2616,
      "▁Wash": 2617,
      "▁break": 2618,
      "▁events": 2619,
      "ights": 2620,
      "▁decided": 2621,
      "▁Paul": 2622,
      "▁likely": 2623,
      "▁reve": 2624,
      "▁generally": 2625,
      "▁prob": 2626,
      "ibility": 2627,
      "▁abs": 2628,
      "▁House": 2629,
      "▁appeared": 2630,
      "▁weeks": 2631,
      "de": 2632,
      "ule": 2633,
      "▁priv": 2634,
      "ounds": 2635,
      "▁Vil": 2636,
      "▁assist": 2637,
      "▁course": 2638,
      "▁create": 2639,
      "▁towards": 2640,
      "èt": 2641,
      "▁language": 2642,
      "▁increase": 2643,
      "rown": 2644,
      "▁Australian": 2645,
      "▁groups": 2646,
      "aval": 2647,
      "▁involved": 2648,
      "▁states": 2649,
      "urricane": 2650,
      "▁temper": 2651,
      "▁training": 2652,
      "▁tropical": 2653,
      "||": 2654,
      "▁regular": 2655,
      "▁vir": 2656,
      "▁France": 2657,
      "▁esc": 2658,
      "▁2003": 2659,
      "▁effects": 2660,
      "asc": 2661,
      "▁race": 2662,
      "ters": 2663,
      "▁imm": 2664,
      "▁From": 2665,
      "▁regard": 2666,
      "▁construction": 2667,
      "▁brought": 2668,
      "ites": 2669,
      "▁always": 2670,
      "▁things": 2671,
      "ortun": 2672,
      "▁188": 2673,
      "val": 2674,
      "▁already": 2675,
      "▁experience": 2676,
      "▁higher": 2677,
      "▁impact": 2678,
      "ores": 2679,
      "selves": 2680,
      "▁consider": 2681,
      "▁Bill": 2682,
      "▁something": 2683,
      "▁’": 2684,
      "ires": 2685,
      "oted": 2686,
      "▁lane": 2687,
      "etic": 2688,
      "ands": 2689,
      "▁required": 2690,
      "▁mm": 2691,
      "osition": 2692,
      "▁threat": 2693,
      "▁evidence": 2694,
      "▁remov": 2695,
      "arc": 2696,
      "anks": 2697,
      "▁pay": 2698,
      "overed": 2699,
      "oor": 2700,
      "▁worked": 2701,
      "▁here": 2702,
      "▁vill": 2703,
      "▁mem": 2704,
      "▁186": 2705,
      "▁phot": 2706,
      "▁heavy": 2707,
      "▁paren": 2708,
      "▁Red": 2709,
      "▁Robert": 2710,
      "▁countries": 2711,
      "▁award": 2712,
      "ned": 2713,
      "▁completed": 2714,
      "▁Vir": 2715,
      "▁Rob": 2716,
      "ma": 2717,
      "clus": 2718,
      "▁particularly": 2719,
      "▁fle": 2720,
      "▁taking": 2721,
      "▁itself": 2722,
      "▁parts": 2723,
      "▁self": 2724,
      "▁surface": 2725,
      "the": 2726,
      "▁Washington": 2727,
      "▁European": 2728,
      "▁insp": 2729,
      "▁travel": 2730,
      "igned": 2731,
      "èn": 2732,
      "▁polic": 2733,
      "▁bill": 2734,
      "▁grad": 2735,
      "▁soon": 2736,
      "▁President": 2737,
      "aring": 2738,
      "▁pou": 2739,
      "▁frequ": 2740,
      "▁laun": 2741,
      "▁route": 2742,
      "▁levels": 2743,
      "▁king": 2744,
      "thing": 2745,
      "▁Port": 2746,
      "▁Val": 2747,
      "itch": 2748,
      "▁allowed": 2749,
      "▁31": 2750,
      "▁stop": 2751,
      "agn": 2752,
      "lying": 2753,
      "▁big": 2754,
      "▁market": 2755,
      "▁!": 2756,
      "▁playing": 2757,
      "▁party": 2758,
      "▁First": 2759,
      "▁move": 2760,
      "off": 2761,
      "▁Mart": 2762,
      "▁Bel": 2763,
      "▁heart": 2764,
      "▁Royal": 2765,
      "itar": 2766,
      "ishing": 2767,
      "orse": 2768,
      "reng": 2769,
      "incip": 2770,
      "itor": 2771,
      "▁estim": 2772,
      "▁Dan": 2773,
      "▁placed": 2774,
      "▁conditions": 2775,
      "wood": 2776,
      "▁says": 2777,
      "▁Soc": 2778,
      "ellow": 2779,
      "▁Jos": 2780,
      "▁goal": 2781,
      "▁exc": 2782,
      "▁brother": 2783,
      "▁2001": 2784,
      "▁mer": 2785,
      "▁ens": 2786,
      "▁Don": 2787,
      ",”": 2788,
      "▁commit": 2789,
      "▁comment": 2790,
      "rison": 2791,
      "NA": 2792,
      "▁wall": 2793,
      "▁Lou": 2794,
      "▁idea": 2795,
      "▁Sup": 2796,
      "uter": 2797,
      "▁‘": 2798,
      "▁Michael": 2799,
      "▁pressure": 2800,
      "yr": 2801,
      "rem": 2802,
      "▁tou": 2803,
      "ental": 2804,
      "▁Dev": 2805,
      "▁whether": 2806,
      "unk": 2807,
      "onse": 2808,
      "iles": 2809,
      "▁fif": 2810,
      "ership": 2811,
      "▁stru": 2812,
      "▁love": 2813,
      "▁reb": 2814,
      "▁eta": 2815,
      "▁doc": 2816,
      "▁length": 2817,
      "▁Cour": 2818,
      "▁size": 2819,
      "▁treatment": 2820,
      "▁positive": 2821,
      "arily": 2822,
      "▁Most": 2823,
      "▁opened": 2824,
      "▁individual": 2825,
      "▁disp": 2826,
      "▁subsequ": 2827,
      "▁Ke": 2828,
      "▁Great": 2829,
      "▁crew": 2830,
      "▁outside": 2831,
      "ients": 2832,
      "▁education": 2833,
      "▁dom": 2834,
      "▁wanted": 2835,
      "▁India": 2836,
      "▁minutes": 2837,
      "▁done": 2838,
      "▁exec": 2839,
      "▁problem": 2840,
      "▁norm": 2841,
      "▁chall": 2842,
      "▁largest": 2843,
      "▁Squ": 2844,
      "▁appoint": 2845,
      "▁Henry": 2846,
      "ournal": 2847,
      "▁Cont": 2848,
      "▁anal": 2849,
      "▁concern": 2850,
      "▁money": 2851,
      "▁rank": 2852,
      "▁Colle": 2853,
      "▁central": 2854,
      "▁contract": 2855,
      "▁viol": 2856,
      "aled": 2857,
      "▁commer": 2858,
      "▁really": 2859,
      "▁focus": 2860,
      "▁Desp": 2861,
      "omp": 2862,
      "rated": 2863,
      "ference": 2864,
      "▁speed": 2865,
      "▁2002": 2866,
      "▁liter": 2867,
      "▁office": 2868,
      "▁independ": 2869,
      "antic": 2870,
      "▁cann": 2871,
      "▁originally": 2872,
      "board": 2873,
      "▁187": 2874,
      "▁Many": 2875,
      "▁immedi": 2876,
      "▁lab": 2877,
      "▁believed": 2878,
      "▁Mary": 2879,
      "▁sil": 2880,
      "▁necess": 2881,
      "▁detail": 2882,
      "ends": 2883,
      "▁Pal": 2884,
      "▁Hist": 2885,
      "▁model": 2886,
      "▁streng": 2887,
      "iforn": 2888,
      "▁peak": 2889,
      "rug": 2890,
      "▁rights": 2891,
      "fact": 2892,
      "▁Mal": 2893,
      "▁Roman": 2894,
      "▁Church": 2895,
      "▁Ac": 2896,
      "ift": 2897,
      "▁poor": 2898,
      "▁emer": 2899,
      "▁makes": 2900,
      "▁shows": 2901,
      "ios": 2902,
      "▁Art": 2903,
      "▁voc": 2904,
      "▁earlier": 2905,
      "▁lay": 2906,
      "uals": 2907,
      "lement": 2908,
      "ky": 2909,
      "▁Ber": 2910,
      "▁inn": 2911,
      "▁personal": 2912,
      "vert": 2913,
      "▁Christian": 2914,
      "▁concept": 2915,
      "▁react": 2916,
      "▁sequ": 2917,
      "yal": 2918,
      "▁court": 2919,
      "bor": 2920,
      "minist": 2921,
      "▁guns": 2922,
      "▁living": 2923,
      "▁Que": 2924,
      "▁related": 2925,
      "▁moun": 2926,
      "▁sat": 2927,
      "▁themselves": 2928,
      "▁?": 2929,
      "▁Californ": 2930,
      "▁Wil": 2931,
      "▁tar": 2932,
      "▁words": 2933,
      "▁Canada": 2934,
      "▁issue": 2935,
      "uff": 2936,
      "ago": 2937,
      "ville": 2938,
      "▁function": 2939,
      "oud": 2940,
      "▁Pat": 2941,
      "irth": 2942,
      "asion": 2943,
      "co": 2944,
      "rap": 2945,
      "onn": 2946,
      "van": 2947,
      "ikasyon": 2948,
      "▁wife": 2949,
      "ams": 2950,
      "▁Two": 2951,
      "ula": 2952,
      "▁protect": 2953,
      "oura": 2954,
      "▁specific": 2955,
      "▁Despite": 2956,
      "▁International": 2957,
      "▁Refer": 2958,
      "▁army": 2959,
      "▁reason": 2960,
      "sw": 2961,
      "The": 2962,
      "▁dig": 2963,
      "▁international": 2964,
      "▁sometimes": 2965,
      "▁fourth": 2966,
      "▁troops": 2967,
      "▁pw": 2968,
      "▁systems": 2969,
      "osing": 2970,
      "▁scene": 2971,
      "ples": 2972,
      "▁rap": 2973,
      "▁multip": 2974,
      "▁island": 2975,
      "▁lyen": 2976,
      "▁kind": 2977,
      "asons": 2978,
      "odes": 2979,
      "▁California": 2980,
      "▁Thomas": 2981,
      "utions": 2982,
      "▁Kèk": 2983,
      "ander": 2984,
      "▁complex": 2985,
      "▁Charles": 2986,
      "▁emb": 2987,
      "▁Follow": 2988,
      "òn": 2989,
      "▁desp": 2990,
      "▁referans": 2991,
      "▁church": 2992,
      "▁500": 2993,
      "▁highest": 2994,
      "▁president": 2995,
      "▁elements": 2996,
      "▁round": 2997,
      "▁saying": 2998,
      "▁question": 2999,
      "▁structure": 3000,
      "▁told": 3001,
      "▁today": 3002,
      "▁rail": 3003,
      "het": 3004,
      "azine": 3005,
      "▁behav": 3006,
      "▁Mac": 3007,
      "▁complete": 3008,
      "▁Nor": 3009,
      "▁network": 3010,
      "eck": 3011,
      "▁increasing": 3012,
      "▁Ayisyen": 3013,
      "▁Associ": 3014,
      "▁beginning": 3015,
      "▁Angel": 3016,
      "oke": 3017,
      "ibr": 3018,
      "aries": 3019,
      "icles": 3020,
      "ening": 3021,
      "▁deal": 3022,
      "ledge": 3023,
      "inn": 3024,
      "ida": 3025,
      "▁response": 3026,
      "ederal": 3027,
      "▁associated": 3028,
      "▁passed": 3029,
      "▁1996": 3030,
      "▁results": 3031,
      "▁nature": 3032,
      "▁longer": 3033,
      "ols": 3034,
      "▁farm": 3035,
      "▁southern": 3036,
      "▁lo": 3037,
      "▁whose": 3038,
      "▁quickly": 3039,
      "▁hous": 3040,
      "▁below": 3041,
      "▁mi": 3042,
      "▁Bra": 3043,
      "▁cases": 3044,
      "oper": 3045,
      "▁Mid": 3046,
      "▁sea": 3047,
      "▁whole": 3048,
      "▁civil": 3049,
      "▁additional": 3050,
      "▁Best": 3051,
      "▁section": 3052,
      "▁Star": 3053,
      "▁Sl": 3054,
      "▁jew": 3055,
      "ij": 3056,
      "▁Earth": 3057,
      "▁deep": 3058,
      "▁scen": 3059,
      "▁joined": 3060,
      "▁runs": 3061,
      "▁word": 3062,
      "ault": 3063,
      "▁Cong": 3064,
      "ctions": 3065,
      "urity": 3066,
      "▁issues": 3067,
      "fall": 3068,
      "imin": 3069,
      "vi": 3070,
      "west": 3071,
      "▁needed": 3072,
      "▁Republic": 3073,
      "▁White": 3074,
      "▁Alex": 3075,
      "aker": 3076,
      "▁wood": 3077,
      "inem": 3078,
      "▁benef": 3079,
      "BC": 3080,
      "▁park": 3081,
      "anned": 3082,
      "▁ly": 3083,
      "▁turned": 3084,
      "▁lines": 3085,
      "▁replaced": 3086,
      "▁services": 3087,
      "amer": 3088,
      "▁rate": 3089,
      "▁Govern": 3090,
      "▁lear": 3091,
      "▁featured": 3092,
      "▁Jewografi": 3093,
      "▁require": 3094,
      "▁60": 3095,
      "▁science": 3096,
      "▁nar": 3097,
      "▁Referans": 3098,
      "round": 3099,
      "▁cred": 3100,
      "▁Hall": 3101,
      "utive": 3102,
      "▁300": 3103,
      "▁relasyon": 3104,
      "▁Atl": 3105,
      "ears": 3106,
      "▁slow": 3107,
      "▁text": 3108,
      "▁oil": 3109,
      "▁bird": 3110,
      "eum": 3111,
      "ulated": 3112,
      "▁anti": 3113,
      "▁mach": 3114,
      "▁cru": 3115,
      "▁movement": 3116,
      "▁forced": 3117,
      "ha": 3118,
      "▁scored": 3119,
      "ysis": 3120,
      ",000": 3121,
      "▁Mil": 3122,
      "▁director": 3123,
      "isl": 3124,
      "▁units": 3125,
      "▁draw": 3126,
      "▁northern": 3127,
      "▁bring": 3128,
      "▁Relasyon": 3129,
      "bers": 3130,
      "▁investig": 3131,
      "▁except": 3132,
      "▁larger": 3133,
      "▁rain": 3134,
      "aters": 3135,
      "▁Union": 3136,
      "rol": 3137,
      "fl": 3138,
      "rian": 3139,
      "aint": 3140,
      "▁Following": 3141,
      "zy": 3142,
      "▁1990": 3143,
      "order": 3144,
      "olic": 3145,
      "▁quality": 3146,
      "▁mind": 3147,
      "▁Sam": 3148,
      "▁opening": 3149,
      "airs": 3150,
      "▁asked": 3151,
      "iter": 3152,
      "atin": 3153,
      "back": 3154,
      "ption": 3155,
      "▁More": 3156,
      "▁Sen": 3157,
      "▁Ek": 3158,
      "▁job": 3159,
      "chan": 3160,
      "▁novel": 3161,
      "▁Richard": 3162,
      "▁purp": 3163,
      "▁terms": 3164,
      "mp": 3165,
      "tee": 3166,
      "ror": 3167,
      "▁critics": 3168,
      "erve": 3169,
      "▁face": 3170,
      "ully": 3171,
      "rel": 3172,
      "aughter": 3173,
      "▁Virgin": 3174,
      "▁sus": 3175,
      "▁includes": 3176,
      "rack": 3177,
      "▁tax": 3178,
      "▁decision": 3179,
      "▁beg": 3180,
      "▁center": 3181,
      "▁learning": 3182,
      "ography": 3183,
      "atively": 3184,
      "ises": 3185,
      "ques": 3186,
      "imum": 3187,
      "unt": 3188,
      "izing": 3189,
      "▁chem": 3190,
      "ension": 3191,
      "itation": 3192,
      ".\"": 3193,
      "▁princip": 3194,
      "▁Germany": 3195,
      "▁Day": 3196,
      "▁shot": 3197,
      "▁screen": 3198,
      "aches": 3199,
      "▁practice": 3200,
      "▁potential": 3201,
      "▁pen": 3202,
      "▁prior": 3203,
      "sych": 3204,
      "ication": 3205,
      "rast": 3206,
      "▁Scott": 3207,
      "▁gre": 3208,
      "▁Met": 3209,
      "▁complet": 3210,
      "▁gold": 3211,
      "itz": 3212,
      "anced": 3213,
      "▁finished": 3214,
      "▁anc": 3215,
      "▁App": 3216,
      "▁Aktè": 3217,
      "▁ability": 3218,
      "▁deg": 3219,
      "aily": 3220,
      "▁target": 3221,
      "▁transport": 3222,
      "▁transfer": 3223,
      "▁Bay": 3224,
      "▁recomm": 3225,
      "▁victory": 3226,
      "▁cat": 3227,
      "▁bur": 3228,
      "▁Mexic": 3229,
      "▁yet": 3230,
      "eds": 3231,
      "▁limited": 3232,
      "hood": 3233,
      "enced": 3234,
      "▁compan": 3235,
      "▁remain": 3236,
      "▁Ant": 3237,
      "▁Just": 3238,
      "bon": 3239,
      "che": 3240,
      "▁Play": 3241,
      "ston": 3242,
      "rief": 3243,
      "▁source": 3244,
      "▁Island": 3245,
      "▁Smith": 3246,
      "▁Battle": 3247,
      "▁appearance": 3248,
      "ging": 3249,
      "▁Court": 3250,
      "uth": 3251,
      "ux": 3252,
      "▁previously": 3253,
      "▁famil": 3254,
      "▁occup": 3255,
      "▁lot": 3256,
      "▁Vict": 3257,
      "owers": 3258,
      "iled": 3259,
      "adron": 3260,
      "▁thus": 3261,
      "▁resour": 3262,
      "▁der": 3263,
      "▁compared": 3264,
      "▁studies": 3265,
      "ulf": 3266,
      "▁spent": 3267,
      "▁Mark": 3268,
      "30": 3269,
      "▁physical": 3270,
      "▁probably": 3271,
      "▁wide": 3272,
      "▁initially": 3273,
      "▁Tex": 3274,
      "▁cells": 3275,
      "▁produce": 3276,
      "▁Brown": 3277,
      "▁activity": 3278,
      "elled": 3279,
      "use": 3280,
      "▁bomb": 3281,
      "atives": 3282,
      "▁media": 3283,
      "isions": 3284,
      "abit": 3285,
      "▁Mount": 3286,
      "oses": 3287,
      "▁Ben": 3288,
      "▁35": 3289,
      "▁UK": 3290,
      "▁sens": 3291,
      "uit": 3292,
      "ests": 3293,
      "▁adult": 3294,
      "▁applic": 3295,
      "▁ended": 3296,
      "rial": 3297,
      "▁industry": 3298,
      "▁Edikasyon": 3299,
      "▁Sing": 3300,
      "▁shown": 3301,
      "ground": 3302,
      "▁Western": 3303,
      "▁1999": 3304,
      "▁distrib": 3305,
      "inct": 3306,
      "heast": 3307,
      "▁cycl": 3308,
      "▁Sant": 3309,
      "▁summer": 3310,
      "▁step": 3311,
      "anish": 3312,
      "▁friends": 3313,
      "▁influence": 3314,
      "gar": 3315,
      "▁Since": 3316,
      "ils": 3317,
      "▁Up": 3318,
      "▁Polit": 3319,
      "antry": 3320,
      "▁why": 3321,
      "▁McC": 3322,
      "▁2016": 3323,
      "▁nearly": 3324,
      "▁Coun": 3325,
      "▁construct": 3326,
      "▁stay": 3327,
      "iences": 3328,
      "▁mph": 3329,
      "▁Frank": 3330,
      "alled": 3331,
      "▁approx": 3332,
      "ender": 3333,
      "▁Kingdom": 3334,
      "mon": 3335,
      "▁establish": 3336,
      "▁China": 3337,
      "ties": 3338,
      "▁introduced": 3339,
      "▁technology": 3340,
      "▁syn": 3341,
      "▁dark": 3342,
      "▁College": 3343,
      "uments": 3344,
      "berg": 3345,
      "▁plants": 3346,
      "▁surround": 3347,
      "▁Company": 3348,
      "arter": 3349,
      "▁visit": 3350,
      "▁Navy": 3351,
      "▁female": 3352,
      "▁jud": 3353,
      "idents": 3354,
      "▁adapt": 3355,
      "▁capital": 3356,
      "ects": 3357,
      "▁Rock": 3358,
      "▁actually": 3359,
      "▁cell": 3360,
      "▁whom": 3361,
      "▁economic": 3362,
      "▁date": 3363,
      "▁despite": 3364,
      "▁Over": 3365,
      "leg": 3366,
      "▁nomin": 3367,
      "▁Peter": 3368,
      "eal": 3369,
      "▁overall": 3370,
      "▁interview": 3371,
      "▁opportun": 3372,
      "▁standard": 3373,
      "▁90": 3374,
      "▁acqu": 3375,
      "▁animals": 3376,
      "kn": 3377,
      "▁carried": 3378,
      "ucle": 3379,
      "inese": 3380,
      "▁room": 3381,
      "▁Long": 3382,
      "▁contact": 3383,
      "▁financ": 3384,
      "▁value": 3385,
      "ranch": 3386,
      "obal": 3387,
      "▁ordered": 3388,
      "▁paper": 3389,
      "▁river": 3390,
      "▁prec": 3391,
      "▁takes": 3392,
      "▁cho": 3393,
      "ables": 3394,
      "▁consum": 3395,
      "▁subst": 3396,
      "▁den": 3397,
      "▁1980": 3398,
      "mar": 3399,
      "▁commercial": 3400,
      "▁failed": 3401,
      "▁estimated": 3402,
      "edy": 3403,
      "▁growth": 3404,
      "▁°": 3405,
      "mitted": 3406,
      "▁signed": 3407,
      "urt": 3408,
      "▁highway": 3409,
      "▁Dem": 3410,
      "▁Music": 3411,
      "ocr": 3412,
      "▁Tom": 3413,
      "▁approach": 3414,
      "▁1970": 3415,
      "▁dro": 3416,
      "▁nine": 3417,
      "▁remains": 3418,
      "▁ult": 3419,
      "▁trib": 3420,
      "iece": 3421,
      "eding": 3422,
      "ulations": 3423,
      "▁activities": 3424,
      "▁sal": 3425,
      "▁becoming": 3426,
      "▁dead": 3427,
      "▁types": 3428,
      "òl": 3429,
      "▁Gold": 3430,
      "▁i": 3431,
      "rab": 3432,
      "▁du": 3433,
      "▁Center": 3434,
      "▁staff": 3435,
      "▁Not": 3436,
      "hy": 3437,
      "▁attention": 3438,
      "▁fort": 3439,
      "▁collect": 3440,
      "▁Ham": 3441,
      "▁flood": 3442,
      "▁Les": 3443,
      "▁Chinese": 3444,
      "▁Game": 3445,
      "▁80": 3446,
      "▁radio": 3447,
      "▁purch": 3448,
      "lo": 3449,
      "▁1998": 3450,
      "change": 3451,
      "▁Cup": 3452,
      "▁minor": 3453,
      "▁medical": 3454,
      "▁drug": 3455,
      "▁ang": 3456,
      "▁Sal": 3457,
      "anded": 3458,
      "▁ge": 3459,
      "porary": 3460,
      "sec": 3461,
      "ki": 3462,
      "▁woman": 3463,
      "▁altern": 3464,
      "ession": 3465,
      "▁Africa": 3466,
      "like": 3467,
      "▁Britain": 3468,
      "hold": 3469,
      "▁private": 3470,
      "▁numbers": 3471,
      "▁meaning": 3472,
      "▁Jean": 3473,
      "▁Grand": 3474,
      "enth": 3475,
      "▁Louis": 3476,
      "12": 3477,
      "joy": 3478,
      "orial": 3479,
      "ety": 3480,
      "ider": 3481,
      "▁studio": 3482,
      "cean": 3483,
      "▁Times": 3484,
      "▁winds": 3485,
      "oviet": 3486,
      "▁Association": 3487,
      "▁girl": 3488,
      "▁prem": 3489,
      "▁serious": 3490,
      "▁Sun": 3491,
      "AS": 3492,
      "▁schools": 3493,
      "itude": 3494,
      "▁western": 3495,
      "▁seem": 3496,
      "▁Green": 3497,
      "▁avoid": 3498,
      "▁Inter": 3499,
      "▁running": 3500,
      "ado": 3501,
      "II": 3502,
      "▁primary": 3503,
      "▁link": 3504,
      "▁praised": 3505,
      "wh": 3506,
      "▁Pac": 3507,
      "ospital": 3508,
      "ga": 3509,
      "▁Another": 3510,
      "▁hurricane": 3511,
      "tained": 3512,
      "▁birth": 3513,
      "▁Flor": 3514,
      "▁prep": 3515,
      "eph": 3516,
      "ivity": 3517,
      "▁Hill": 3518,
      "▁Je": 3519,
      "ply": 3520,
      "▁student": 3521,
      "▁got": 3522,
      "▁traditional": 3523,
      "pire": 3524,
      "▁colon": 3525,
      "▁Soviet": 3526,
      "▁Lu": 3527,
      "▁Victor": 3528,
      "ena": 3529,
      "▁carry": 3530,
      "▁directed": 3531,
      "▁Mont": 3532,
      "uries": 3533,
      "enty": 3534,
      "▁changed": 3535,
      "irit": 3536,
      "▁tim": 3537,
      "ously": 3538,
      "irm": 3539,
      "▁parents": 3540,
      "▁Spanish": 3541,
      "▁pil": 3542,
      "▁Tour": 3543,
      "▁ways": 3544,
      "▁variety": 3545,
      "▁Texas": 3546,
      "icro": 3547,
      "▁36": 3548,
      "▁adop": 3549,
      "▁territ": 3550,
      "▁Championship": 3551,
      "▁Mill": 3552,
      "▁mom": 3553,
      "▁Mag": 3554,
      "▁teac": 3555,
      "▁critical": 3556,
      "▁path": 3557,
      "▁score": 3558,
      "▁Ev": 3559,
      "▁Miss": 3560,
      "eder": 3561,
      "▁cele": 3562,
      "▁active": 3563,
      "▁Serv": 3564,
      "stitute": 3565,
      "▁confl": 3566,
      "rate": 3567,
      "▁forest": 3568,
      "▁Cons": 3569,
      "▁favor": 3570,
      "emic": 3571,
      "▁bad": 3572,
      "▁Pop": 3573,
      "▁block": 3574,
      "▁hop": 3575,
      "▁diss": 3576,
      "▁brief": 3577,
      "▁Under": 3578,
      "▁claimed": 3579,
      "▁arrived": 3580,
      "▁knowledge": 3581,
      "iy": 3582,
      "▁Mr": 3583,
      "▁Ir": 3584,
      "iant": 3585,
      "▁Fre": 3586,
      "▁books": 3587,
      "omer": 3588,
      "▁location": 3589,
      "▁cannot": 3590,
      "▁films": 3591,
      "▁Bec": 3592,
      "▁contains": 3593,
      "uing": 3594,
      "▁fit": 3595,
      "▁continue": 3596,
      "▁via": 3597,
      "▁society": 3598,
      "aging": 3599,
      "▁Ma": 3600,
      "▁suggested": 3601,
      "▁green": 3602,
      "▁needs": 3603,
      "umn": 3604,
      "iring": 3605,
      "fect": 3606,
      "anm": 3607,
      "▁£": 3608,
      "▁cust": 3609,
      "▁unc": 3610,
      "▁comes": 3611,
      "▁police": 3612,
      "▁article": 3613,
      "▁greater": 3614,
      "▁leave": 3615,
      "ims": 3616,
      "▁forms": 3617,
      "▁forward": 3618,
      "▁veh": 3619,
      "▁hot": 3620,
      "▁Council": 3621,
      "▁Law": 3622,
      "▁brain": 3623,
      "liam": 3624,
      "18": 3625,
      "▁uses": 3626,
      "▁bridge": 3627,
      "▁Du": 3628,
      "▁NY": 3629,
      "▁(19": 3630,
      "▁Del": 3631,
      "▁professional": 3632,
      "▁effective": 3633,
      "▁recent": 3634,
      "▁instr": 3635,
      "amin": 3636,
      "▁administ": 3637,
      "▁1997": 3638,
      "▁Franc": 3639,
      "oul": 3640,
      "▁helped": 3641,
      "▁remaining": 3642,
      "▁proposed": 3643,
      "undred": 3644,
      "igan": 3645,
      "▁intended": 3646,
      "astic": 3647,
      "▁approximately": 3648,
      "▁enjoy": 3649,
      "▁Chic": 3650,
      "▁ple": 3651,
      "▁mechan": 3652,
      "alion": 3653,
      "▁reviews": 3654,
      "ders": 3655,
      "▁football": 3656,
      "oti": 3657,
      "▁condition": 3658,
      "▁ː": 3659,
      "▁latter": 3660,
      "vention": 3661,
      "▁kil": 3662,
      "reme": 3663,
      "▁Trans": 3664,
      "▁gas": 3665,
      "ees": 3666,
      "▁heav": 3667,
      "▁eastern": 3668,
      "can": 3669,
      "liament": 3670,
      "▁majority": 3671,
      "▁nation": 3672,
      "▁sense": 3673,
      "aught": 3674,
      "▁1960": 3675,
      "▁supported": 3676,
      "▁recording": 3677,
      "▁highly": 3678,
      "▁resist": 3679,
      "▁content": 3680,
      "▁Award": 3681,
      "▁Los": 3682,
      "▁prison": 3683,
      "ovens": 3684,
      "▁talk": 3685,
      "▁45": 3686,
      "▁cancer": 3687,
      "▁document": 3688,
      "▁Ter": 3689,
      "▁Virginia": 3690,
      "▁reach": 3691,
      "▁directly": 3692,
      "▁status": 3693,
      "ste": 3694,
      "▁leaving": 3695,
      "▁32": 3696,
      "icted": 3697,
      "▁sch": 3698,
      "icient": 3699,
      "nel": 3700,
      "▁mostly": 3701,
      "▁print": 3702,
      "▁70": 3703,
      "▁184": 3704,
      "▁discovered": 3705,
      "▁immediately": 3706,
      "▁election": 3707,
      "▁weight": 3708,
      "light": 3709,
      "▁operations": 3710,
      "▁Second": 3711,
      "▁Lord": 3712,
      "ptoms": 3713,
      "hester": 3714,
      "▁Cast": 3715,
      "▁pattern": 3716,
      "▁board": 3717,
      "▁matter": 3718,
      "11": 3719,
      "▁African": 3720,
      "▁conclud": 3721,
      "▁bow": 3722,
      "▁trade": 3723,
      "▁true": 3724,
      "▁Congress": 3725,
      "▁domin": 3726,
      "▁Bur": 3727,
      "▁stars": 3728,
      "▁demonst": 3729,
      "▁musical": 3730,
      "▁rapid": 3731,
      "▁smaller": 3732,
      "▁rout": 3733,
      "▁intens": 3734,
      "uge": 3735,
      "▁Hot": 3736,
      "▁sen": 3737,
      "▁buildings": 3738,
      "▁Force": 3739,
      "▁prote": 3740,
      "▁inside": 3741,
      "▁mess": 3742,
      "▁Mo": 3743,
      "▁arrang": 3744,
      "▁boy": 3745,
      "leep": 3746,
      "▁Pri": 3747,
      "ips": 3748,
      "ipl": 3749,
      "▁appears": 3750,
      "ufact": 3751,
      "▁plans": 3752,
      "▁mention": 3753,
      "▁expected": 3754,
      "▁spread": 3755,
      "▁religious": 3756,
      "__": 3757,
      "▁Both": 3758,
      "▁goals": 3759,
      "lled": 3760,
      "eyi": 3761,
      "▁culture": 3762,
      "▁entered": 3763,
      "odies": 3764,
      "ari": 3765,
      "ronic": 3766,
      "lor": 3767,
      "▁Pre": 3768,
      "▁Department": 3769,
      "▁poll": 3770,
      "▁Resear": 3771,
      "▁individuals": 3772,
      "▁lif": 3773,
      "▁Dis": 3774,
      "▁Gra": 3775,
      "onna": 3776,
      "▁destroyed": 3777,
      "▁pwovens": 3778,
      "▁share": 3779,
      "ken": 3780,
      "▁Fin": 3781,
      "▁initial": 3782,
      "ominote": 3783,
      "▁dog": 3784,
      "▁moving": 3785,
      "▁shoot": 3786,
      "▁color": 3787,
      "▁simple": 3788,
      "▁Carol": 3789,
      "▁log": 3790,
      "▁necessary": 3791,
      "▁removed": 3792,
      "▁Old": 3793,
      "4.": 3794,
      "▁policy": 3795,
      "▁dire": 3796,
      "▁Pet": 3797,
      "▁fast": 3798,
      "▁Ol": 3799,
      "lied": 3800,
      "▁Bet": 3801,
      "ww": 3802,
      "▁products": 3803,
      "▁cit": 3804,
      "▁middle": 3805,
      "illed": 3806,
      "▁debut": 3807,
      "▁sources": 3808,
      "▁sett": 3809,
      "▁management": 3810,
      "▁earth": 3811,
      "▁Route": 3812,
      "orps": 3813,
      "AA": 3814,
      "rics": 3815,
      "▁measure": 3816,
      "▁writer": 3817,
      "▁Sa": 3818,
      "▁sust": 3819,
      "▁teams": 3820,
      "▁magazine": 3821,
      "itect": 3822,
      "▁counter": 3823,
      "olk": 3824,
      "▁Kh": 3825,
      "▁webs": 3826,
      "▁promot": 3827,
      "▁flu": 3828,
      "▁har": 3829,
      "▁reduce": 3830,
      "bit": 3831,
      "▁daughter": 3832,
      "▁185": 3833,
      "▁Cam": 3834,
      "▁Kore": 3835,
      "▁appointed": 3836,
      "aded": 3837,
      "▁companies": 3838,
      "▁concent": 3839,
      "mir": 3840,
      "▁conflict": 3841,
      "rect": 3842,
      "▁married": 3843,
      "▁commission": 3844,
      "astern": 3845,
      "▁nucle": 3846,
      "▁Pacific": 3847,
      "▁division": 3848,
      "▁multiple": 3849,
      "▁Sol": 3850,
      "▁soft": 3851,
      "▁provides": 3852,
      "▁emot": 3853,
      "▁script": 3854,
      "▁leader": 3855,
      "vement": 3856,
      "▁constit": 3857,
      "▁doing": 3858,
      "▁univers": 3859,
      "▁numerous": 3860,
      "▁agreed": 3861,
      "▁1995": 3862,
      "▁Ro": 3863,
      "rd": 3864,
      "▁mission": 3865,
      "▁ey": 3866,
      "▁voice": 3867,
      "▁pit": 3868,
      "▁Chicago": 3869,
      "▁max": 3870,
      "▁Cro": 3871,
      "▁lives": 3872,
      "▁electric": 3873,
      "▁box": 3874,
      "▁magn": 3875,
      "▁Rev": 3876,
      "▁Its": 3877,
      "▁(2": 3878,
      "ria": 3879,
      "▁Party": 3880,
      "▁league": 3881,
      "▁Ital": 3882,
      "uz": 3883,
      "▁Mer": 3884,
      "upper": 3885,
      "▁stra": 3886,
      "▁weap": 3887,
      "▁lived": 3888,
      "ested": 3889,
      "▁symb": 3890,
      "sen": 3891,
      "▁peyi": 3892,
      "▁Tur": 3893,
      "▁uns": 3894,
      "▁write": 3895,
      "▁Jackson": 3896,
      "▁defeated": 3897,
      "▁extra": 3898,
      "▁analysis": 3899,
      "▁interact": 3900,
      "ech": 3901,
      "▁cand": 3902,
      "▁theory": 3903,
      "▁sun": 3904,
      "▁efforts": 3905,
      "▁legal": 3906,
      "▁Lake": 3907,
      "▁computer": 3908,
      "▁slight": 3909,
      "iser": 3910,
      "▁unit": 3911,
      "▁connect": 3912,
      "▁qual": 3913,
      "▁meeting": 3914,
      "▁responsible": 3915,
      "▁image": 3916,
      "▁thous": 3917,
      "▁ver": 3918,
      "▁soldiers": 3919,
      "▁hundred": 3920,
      "▁Inf": 3921,
      "rong": 3922,
      "ita": 3923,
      "▁progress": 3924,
      "▁offered": 3925,
      "oes": 3926,
      "teen": 3927,
      "▁giving": 3928,
      "▁pict": 3929,
      "asy": 3930,
      "riage": 3931,
      "▁depression": 3932,
      "imal": 3933,
      "ricult": 3934,
      "▁vac": 3935,
      "▁effort": 3936,
      "▁fell": 3937,
      "▁rare": 3938,
      "osis": 3939,
      "▁names": 3940,
      "▁financial": 3941,
      "▁Because": 3942,
      "lymp": 3943,
      "▁referred": 3944,
      "iest": 3945,
      "▁captured": 3946,
      "well": 3947,
      "▁display": 3948,
      "▁Off": 3949,
      "▁reduced": 3950,
      "▁simply": 3951,
      "▁exerc": 3952,
      "▁ir": 3953,
      "▁ox": 3954,
      "▁answ": 3955,
      "ares": 3956,
      "▁walk": 3957,
      "▁Des": 3958,
      "abet": 3959,
      "andon": 3960,
      "▁attract": 3961,
      "▁Kominote": 3962,
      "▁skin": 3963,
      "▁Edward": 3964,
      "▁Sea": 3965,
      "▁Olymp": 3966,
      "▁Tor": 3967,
      "enge": 3968,
      "▁male": 3969,
      "▁Central": 3970,
      "▁ran": 3971,
      "ny": 3972,
      "▁situation": 3973,
      "▁legisl": 3974,
      "▁extended": 3975,
      "▁becomes": 3976,
      ",\"": 3977,
      "ibly": 3978,
      "▁withd": 3979,
      "cel": 3980,
      "▁ut": 3981,
      "▁Cor": 3982,
      "▁respond": 3983,
      "▁hour": 3984,
      "▁Florida": 3985,
      "ancy": 3986,
      "▁Sever": 3987,
      "▁Cr": 3988,
      "▁village": 3989,
      "▁fleet": 3990,
      "▁patients": 3991,
      "bre": 3992,
      "▁neigh": 3993,
      "▁Health": 3994,
      "onomi": 3995,
      "▁psych": 3996,
      "▁symptoms": 3997,
      "▁grant": 3998,
      "▁fru": 3999,
      "▁Johnson": 4000,
      "▁planned": 4001,
      "ellig": 4002,
      "▁raised": 4003,
      "▁upper": 4004,
      "▁attacks": 4005,
      "▁winning": 4006,
      "▁letter": 4007,
      "▁resources": 4008,
      "▁scenes": 4009,
      "▁occurred": 4010,
      "▁believe": 4011,
      "▁Cath": 4012,
      "...": 4013,
      "▁Fle": 4014,
      "▁grand": 4015,
      "ero": 4016,
      "ship": 4017,
      "▁mixed": 4018,
      "▁covered": 4019,
      "bour": 4020,
      "▁manufact": 4021,
      "▁hyd": 4022,
      "▁broadcast": 4023,
      "▁Camp": 4024,
      "▁researc": 4025,
      "▁normal": 4026,
      "▁property": 4027,
      "cher": 4028,
      "▁secret": 4029,
      "rupt": 4030,
      "▁Add": 4031,
      "▁cm": 4032,
      "▁pick": 4033,
      "▁bal": 4034,
      "▁Mat": 4035,
      "▁thr": 4036,
      "▁Their": 4037,
      "win": 4038,
      "▁Politik": 4039,
      "▁Russian": 4040,
      "acter": 4041,
      "overy": 4042,
      "▁Arch": 4043,
      "▁inte": 4044,
      "▁episodes": 4045,
      "▁interp": 4046,
      "▁37": 4047,
      "▁instit": 4048,
      "▁issued": 4049,
      "15": 4050,
      "▁repe": 4051,
      "igade": 4052,
      "▁Ekonomi": 4053,
      "▁Sur": 4054,
      "▁Big": 4055,
      "▁Dist": 4056,
      "▁Kn": 4057,
      "16": 4058,
      "vin": 4059,
      "aling": 4060,
      "uated": 4061,
      "▁climate": 4062,
      "▁Canadian": 4063,
      "▁tow": 4064,
      "▁plat": 4065,
      "load": 4066,
      "▁Penn": 4067,
      "òt": 4068,
      "ervation": 4069,
      "▁sure": 4070,
      "▁Fort": 4071,
      "▁finally": 4072,
      "▁Sk": 4073,
      "▁hol": 4074,
      "▁improve": 4075,
      "▁operation": 4076,
      "▁therefore": 4077,
      "▁hands": 4078,
      "▁showed": 4079,
      "▁mur": 4080,
      "▁replace": 4081,
      "▁Us": 4082,
      "▁thing": 4083,
      "▁contain": 4084,
      "istry": 4085,
      "put": 4086,
      "cript": 4087,
      "mission": 4088,
      "▁pi": 4089,
      "▁Atlantic": 4090,
      "ona": 4091,
      "▁temperature": 4092,
      "▁Scot": 4093,
      "▁growing": 4094,
      "▁search": 4095,
      "▁Wood": 4096,
      "▁separate": 4097,
      "▁awarded": 4098,
      "inema": 4099,
      "▁bit": 4100,
      "istics": 4101,
      "▁eth": 4102,
      "onic": 4103,
      "▁challeng": 4104,
      "▁depart": 4105,
      "▁largely": 4106,
      "▁burn": 4107,
      "▁revealed": 4108,
      "▁suffered": 4109,
      "▁1994": 4110,
      "▁presented": 4111,
      "▁presence": 4112,
      "▁meant": 4113,
      "room": 4114,
      "down": 4115,
      "▁coup": 4116,
      "▁Group": 4117,
      "▁fat": 4118,
      "▁quarter": 4119,
      "▁strength": 4120,
      "icated": 4121,
      "▁Bu": 4122,
      "wide": 4123,
      "▁dang": 4124,
      "▁sem": 4125,
      "▁fifth": 4126,
      "lection": 4127,
      "▁75": 4128,
      "▁Test": 4129,
      "▁Cle": 4130,
      "▁Later": 4131,
      "▁direction": 4132,
      "▁federal": 4133,
      "▁susp": 4134,
      "▁Here": 4135,
      "▁questions": 4136,
      "▁flight": 4137,
      "▁Enter": 4138,
      "aped": 4139,
      "ying": 4140,
      "▁wild": 4141,
      "▁Club": 4142,
      "▁wa": 4143,
      "▁Nort": 4144,
      "ota": 4145,
      "▁news": 4146,
      "bed": 4147,
      "▁Mel": 4148,
      "za": 4149,
      "burg": 4150,
      "▁Mass": 4151,
      "▁Americans": 4152,
      "iber": 4153,
      "gypt": 4154,
      "▁Song": 4155,
      "eed": 4156,
      "▁flag": 4157,
      "▁metal": 4158,
      "arent": 4159,
      "▁double": 4160,
      "▁records": 4161,
      "▁Out": 4162,
      "▁33": 4163,
      "icip": 4164,
      "▁calc": 4165,
      "rier": 4166,
      "▁watch": 4167,
      "▁skills": 4168,
      "▁TV": 4169,
      "▁Jim": 4170,
      "▁pack": 4171,
      "ette": 4172,
      "▁Hel": 4173,
      "▁damaged": 4174,
      "▁trees": 4175,
      "▁assess": 4176,
      "ingu": 4177,
      "▁officers": 4178,
      "▁guitar": 4179,
      "80": 4180,
      "òp": 4181,
      "▁dra": 4182,
      "▁transl": 4183,
      "▁Rad": 4184,
      "▁sn": 4185,
      "▁accomp": 4186,
      "▁Oper": 4187,
      "▁selected": 4188,
      "▁global": 4189,
      "▁collection": 4190,
      "arden": 4191,
      "▁adj": 4192,
      "house": 4193,
      "▁ideas": 4194,
      "▁rule": 4195,
      "▁animal": 4196,
      "▁aspect": 4197,
      "▁Fore": 4198,
      "isation": 4199,
      "▁tons": 4200,
      "▁Jul": 4201,
      "▁strugg": 4202,
      "ulate": 4203,
      "▁Love": 4204,
      "▁Society": 4205,
      "nes": 4206,
      "▁defin": 4207,
      "▁touch": 4208,
      "▁rat": 4209,
      "▁1992": 4210,
      "▁manager": 4211,
      "▁bank": 4212,
      "▁diet": 4213,
      "▁compl": 4214,
      "▁Of": 4215,
      "▁powerful": 4216,
      "▁Film": 4217,
      "▁eye": 4218,
      "▁architect": 4219,
      "èl": 4220,
      "▁corn": 4221,
      "la": 4222,
      "▁completely": 4223,
      "▁Martin": 4224,
      "ropri": 4225,
      "iance": 4226,
      "▁harm": 4227,
      "▁fish": 4228,
      "▁stories": 4229,
      "▁fans": 4230,
      "▁annual": 4231,
      "▁Work": 4232,
      "viw": 4233,
      "▁copies": 4234,
      "▁resulting": 4235,
      "▁Greek": 4236,
      "▁launched": 4237,
      "▁contem": 4238,
      "▁materials": 4239,
      "▁Step": 4240,
      "▁Sir": 4241,
      "▁Acad": 4242,
      "▁ice": 4243,
      "▁Tod": 4244,
      "▁Egypt": 4245,
      "▁relatively": 4246,
      "▁composed": 4247,
      "▁conducted": 4248,
      "ding": 4249,
      "▁laws": 4250,
      "▁cer": 4251,
      "▁Queen": 4252,
      "▁1950": 4253,
      "ibrary": 4254,
      "yò": 4255,
      "haps": 4256,
      "▁scale": 4257,
      "ònman": 4258,
      "▁thick": 4259,
      "▁foreign": 4260,
      "▁minute": 4261,
      "ada": 4262,
      "èm": 4263,
      "▁equip": 4264,
      "▁respectively": 4265,
      "illa": 4266,
      "▁tracks": 4267,
      "▁III": 4268,
      "▁piece": 4269,
      "▁Mexico": 4270,
      "▁Av": 4271,
      "viwònman": 4272,
      "▁college": 4273,
      "▁Mur": 4274,
      "▁Town": 4275,
      "33": 4276,
      "ady": 4277,
      "oo": 4278,
      "▁Ros": 4279,
      "▁listed": 4280,
      "▁genyen": 4281,
      "▁observed": 4282,
      "rael": 4283,
      "▁Book": 4284,
      "▁check": 4285,
      "▁bound": 4286,
      "▁exhib": 4287,
      "▁audience": 4288,
      "▁distance": 4289,
      "▁Mod": 4290,
      "▁closed": 4291,
      "▁winter": 4292,
      "▁capac": 4293,
      "▁notes": 4294,
      "overs": 4295,
      "gn": 4296,
      "▁pan": 4297,
      "▁actions": 4298,
      "▁looking": 4299,
      "▁resulted": 4300,
      "▁1993": 4301,
      "▁34": 4302,
      "▁reading": 4303,
      "▁disapp": 4304,
      "▁1991": 4305,
      "▁Research": 4306,
      "ipped": 4307,
      "▁schol": 4308,
      "▁address": 4309,
      "ocks": 4310,
      "▁online": 4311,
      "▁Devl": 4312,
      "▁advance": 4313,
      "▁subsequently": 4314,
      "▁contrast": 4315,
      "▁Anviwònman": 4316,
      "▁Hum": 4317,
      "▁Ap": 4318,
      "▁Empire": 4319,
      "bury": 4320,
      "▁Ox": 4321,
      "òpman": 4322,
      "▁spl": 4323,
      "▁Kent": 4324,
      "mark": 4325,
      "▁causes": 4326,
      "▁Boy": 4327,
      "2,": 4328,
      "▁Const": 4329,
      "▁older": 4330,
      "▁clean": 4331,
      "▁Er": 4332,
      "▁Devlòpman": 4333,
      "▁weather": 4334,
      "izasyon": 4335,
      "▁nut": 4336,
      "road": 4337,
      "▁tree": 4338,
      "▁developing": 4339,
      "AT": 4340,
      "▁plot": 4341,
      "gl": 4342,
      "▁unable": 4343,
      "▁inspired": 4344,
      "▁Jac": 4345,
      "ype": 4346,
      "▁00": 4347,
      "estival": 4348,
      "▁incorpor": 4349,
      "ogue": 4350,
      "▁Even": 4351,
      "▁vari": 4352,
      "▁Institute": 4353,
      "▁Ann": 4354,
      "agon": 4355,
      "ka": 4356,
      "▁battles": 4357,
      "▁workers": 4358,
      "▁newsp": 4359,
      "▁iron": 4360,
      "▁organization": 4361,
      "ications": 4362,
      "▁decre": 4363,
      "▁Awards": 4364,
      "▁journal": 4365,
      "▁dut": 4366,
      "ifying": 4367,
      "ception": 4368,
      "▁collabor": 4369,
      "▁starting": 4370,
      "▁chemical": 4371,
      "eces": 4372,
      "▁Che": 4373,
      "▁batter": 4374,
      "▁wear": 4375,
      "▁blue": 4376,
      "▁citiz": 4377,
      "▁affected": 4378,
      "▁kept": 4379,
      "▁integr": 4380,
      "▁coming": 4381,
      "▁Your": 4382,
      "▁fa": 4383,
      "▁supply": 4384,
      "▁Commun": 4385,
      "AR": 4386,
      "ether": 4387,
      "▁begins": 4388,
      "ani": 4389,
      "▁factors": 4390,
      "▁figure": 4391,
      "▁Oh": 4392,
      "▁ded": 4393,
      "▁Italian": 4394,
      "inary": 4395,
      "▁celebr": 4396,
      "▁typically": 4397,
      "▁ast": 4398,
      "▁Aut": 4399,
      "▁fighting": 4400,
      "▁chief": 4401,
      "▁Paris": 4402,
      "▁understanding": 4403,
      "▁peace": 4404,
      "▁alone": 4405,
      "▁morning": 4406,
      "inent": 4407,
      "▁deyò": 4408,
      "▁website": 4409,
      "▁fev": 4410,
      "▁sales": 4411,
      "▁180": 4412,
      "▁quite": 4413,
      "acing": 4414,
      "fully": 4415,
      "onents": 4416,
      "▁leaves": 4417,
      "▁Jes": 4418,
      "▁continues": 4419,
      "tered": 4420,
      "aine": 4421,
      "▁identified": 4422,
      "▁Viet": 4423,
      "alite": 4424,
      "▁Sil": 4425,
      "izes": 4426,
      "▁Lyen": 4427,
      "▁bul": 4428,
      "▁Billboard": 4429,
      "resh": 4430,
      "▁equipment": 4431,
      "▁elected": 4432,
      "▁tried": 4433,
      "▁Angeles": 4434,
      "▁flow": 4435,
      "force": 4436,
      "▁assigned": 4437,
      "▁programs": 4438,
      "▁+": 4439,
      "▁Child": 4440,
      "▁inters": 4441,
      "arters": 4442,
      "▁security": 4443,
      "▁rein": 4444,
      "hens": 4445,
      "▁purs": 4446,
      "oration": 4447,
      "▁advant": 4448,
      "gu": 4449,
      "▁train": 4450,
      "▁Joseph": 4451,
      "inson": 4452,
      "▁producer": 4453,
      "bridge": 4454,
      "urban": 4455,
      "▁basis": 4456,
      "▁Science": 4457,
      "utch": 4458,
      "aby": 4459,
      "▁purpose": 4460,
      "▁toward": 4461,
      "▁allowing": 4462,
      "▁severe": 4463,
      "enant": 4464,
      "▁distinct": 4465,
      "▁attempted": 4466,
      "▁negative": 4467,
      "alle": 4468,
      "▁Inst": 4469,
      "▁getting": 4470,
      "▁Latin": 4471,
      "▁System": 4472,
      "band": 4473,
      "▁Year": 4474,
      "▁families": 4475,
      "▁independent": 4476,
      "▁accepted": 4477,
      "▁jewografi": 4478,
      "▁experiment": 4479,
      "fort": 4480,
      "▁Dar": 4481,
      "known": 4482,
      "▁News": 4483,
      "▁declared": 4484,
      "▁Matt": 4485,
      "▁Time": 4486,
      "▁spirit": 4487,
      "▁Fer": 4488,
      "▁depi": 4489,
      "▁Sum": 4490,
      "usion": 4491,
      "arian": 4492,
      "▁labor": 4493,
      "2.": 4494,
      "▁centre": 4495,
      "▁attacked": 4496,
      "▁unique": 4497,
      "▁Each": 4498,
      "▁competition": 4499,
      "▁trying": 4500,
      "▁vot": 4501,
      "▁Lit": 4502,
      "▁Georg": 4503,
      "olf": 4504,
      "▁artist": 4505,
      "ube": 4506,
      "▁encoura": 4507,
      "▁safety": 4508,
      "▁Rail": 4509,
      "ram": 4510,
      "ighter": 4511,
      "▁mel": 4512,
      "▁Det": 4513,
      "▁daily": 4514,
      "▁tend": 4515,
      "▁tur": 4516,
      "▁habit": 4517,
      "▁Pè": 4518,
      "▁nothing": 4519,
      "▁degree": 4520,
      "▁creating": 4521,
      "▁Di": 4522,
      "▁soil": 4523,
      "▁Several": 4524,
      "▁widely": 4525,
      "▁Zeal": 4526,
      "▁settle": 4527,
      "▁Israel": 4528,
      "ilti": 4529,
      "▁BC": 4530,
      "▁candid": 4531,
      "▁Ver": 4532,
      "▁Also": 4533,
      "itable": 4534,
      "▁cities": 4535,
      "▁reject": 4536,
      "▁abandon": 4537,
      "▁Jer": 4538,
      "▁lyrics": 4539,
      "▁amb": 4540,
      "▁categ": 4541,
      "ped": 4542,
      "▁dry": 4543,
      "▁ancient": 4544,
      "1.": 4545,
      "▁researchers": 4546,
      "▁allows": 4547,
      "▁methods": 4548,
      "▁serve": 4549,
      "▁swe": 4550,
      "▁vess": 4551,
      "▁38": 4552,
      "▁Spec": 4553,
      "▁1940": 4554,
      "▁easily": 4555,
      "▁seek": 4556,
      "▁nearby": 4557,
      "▁experien": 4558,
      "▁retire": 4559,
      "▁Haw": 4560,
      "▁constructed": 4561,
      "▁table": 4562,
      "rical": 4563,
      "enc": 4564,
      "▁carbon": 4565,
      "▁Sar": 4566,
      "▁heat": 4567,
      "▁inches": 4568,
      "▁affect": 4569,
      "▁Like": 4570,
      "17": 4571,
      "▁planet": 4572,
      "▁birds": 4573,
      "imb": 4574,
      "▁primarily": 4575,
      "ER": 4576,
      "▁ranked": 4577,
      "▁Ret": 4578,
      "▁1.": 4579,
      "▁imag": 4580,
      "▁kilomet": 4581,
      "▁cas": 4582,
      "umed": 4583,
      "▁defeat": 4584,
      "▁aware": 4585,
      "▁bey": 4586,
      "▁Are": 4587,
      "▁causing": 4588,
      "isp": 4589,
      "▁spot": 4590,
      "mosp": 4591,
      "MS": 4592,
      "olved": 4593,
      "▁officer": 4594,
      "▁Before": 4595,
      "▁behavior": 4596,
      "▁phil": 4597,
      "▁implement": 4598,
      "▁beyond": 4599,
      "▁machine": 4600,
      "▁managed": 4601,
      "▁Vol": 4602,
      "▁twenty": 4603,
      "▁horse": 4604,
      "▁refused": 4605,
      "estic": 4606,
      "iplom": 4607,
      "ented": 4608,
      "▁environmental": 4609,
      "▁Michigan": 4610,
      "▁sides": 4611,
      "▁sleep": 4612,
      "▁Zealand": 4613,
      "iling": 4614,
      "ansion": 4615,
      "pass": 4616,
      "▁places": 4617,
      "▁portray": 4618,
      "rye": 4619,
      "▁draft": 4620,
      "▁square": 4621,
      "▁fully": 4622,
      "--": 4623,
      "▁positions": 4624,
      "▁combat": 4625,
      "▁Museum": 4626,
      "13": 4627,
      "40": 4628,
      "▁Super": 4629,
      "▁Wales": 4630,
      "phas": 4631,
      "▁houses": 4632,
      "▁billion": 4633,
      "▁theme": 4634,
      "▁Dou": 4635,
      "▁basic": 4636,
      "60": 4637,
      "▁yards": 4638,
      "▁Corps": 4639,
      "udd": 4640,
      "irmed": 4641,
      "▁enter": 4642,
      "▁Cap": 4643,
      "▁earned": 4644,
      "▁pet": 4645,
      "▁Sat": 4646,
      "atik": 4647,
      "adium": 4648,
      "▁mainly": 4649,
      "▁Highway": 4650,
      "▁fuel": 4651,
      "▁moment": 4652,
      "▁lin": 4653,
      "cers": 4654,
      "▁portion": 4655,
      "ih": 4656,
      "▁49": 4657,
      "▁pair": 4658,
      "▁receive": 4659,
      "▁waters": 4660,
      "een": 4661,
      "VD": 4662,
      "▁gives": 4663,
      "▁Minister": 4664,
      "▁marriage": 4665,
      "▁load": 4666,
      "set": 4667,
      "▁combined": 4668,
      "▁Commit": 4669,
      "igr": 4670,
      "▁sister": 4671,
      "▁marked": 4672,
      "ura": 4673,
      "▁Arab": 4674,
      "▁beaut": 4675,
      "lam": 4676,
      "ounded": 4677,
      "▁Def": 4678,
      "▁onto": 4679,
      "rik": 4680,
      "▁Jo": 4681,
      "▁traffic": 4682,
      "▁shall": 4683,
      "ishop": 4684,
      "▁Four": 4685,
      "uous": 4686,
      "ili": 4687,
      "▁fair": 4688,
      "▁Tw": 4689,
      "▁initi": 4690,
      "▁leaders": 4691,
      "uses": 4692,
      "▁seg": 4693,
      "▁diagn": 4694,
      "▁scientific": 4695,
      "▁Commission": 4696,
      "lies": 4697,
      "rative": 4698,
      "uate": 4699,
      "▁protection": 4700,
      "▁recently": 4701,
      "▁Now": 4702,
      "▁compos": 4703,
      "sonalite": 4704,
      "▁Pan": 4705,
      "ading": 4706,
      "▁1930": 4707,
      "▁slightly": 4708,
      "clusion": 4709,
      "▁sexual": 4710,
      "yo": 4711,
      "▁page": 4712,
      "▁stress": 4713,
      "▁pal": 4714,
      "▁overs": 4715,
      "ef": 4716,
      "▁compar": 4717,
      "▁Kiben": 4718,
      "▁element": 4719,
      "▁Kenn": 4720,
      "▁Edu": 4721,
      "▁fevrye": 4722,
      "▁wor": 4723,
      "right": 4724,
      "▁capacity": 4725,
      "▁Three": 4726,
      "▁divided": 4727,
      "▁humans": 4728,
      "▁dat": 4729,
      "▁someone": 4730,
      "▁maximum": 4731,
      "▁paid": 4732,
      "▁historical": 4733,
      "▁Wall": 4734,
      "▁eyes": 4735,
      "▁ago": 4736,
      "ds": 4737,
      "▁mis": 4738,
      "▁speech": 4739,
      "▁Squadron": 4740,
      "▁reflect": 4741,
      "▁Bow": 4742,
      "▁Press": 4743,
      "▁platform": 4744,
      "▁controvers": 4745,
      "▁Carl": 4746,
      "unction": 4747,
      "more": 4748,
      "ES": 4749,
      "▁bott": 4750,
      "▁edition": 4751,
      "▁demand": 4752,
      "▁cultural": 4753,
      "▁Wal": 4754,
      "▁doub": 4755,
      "▁graph": 4756,
      "▁easy": 4757,
      "▁hun": 4758,
      "▁reports": 4759,
      "▁dw": 4760,
      "otic": 4761,
      "▁rough": 4762,
      "▁Care": 4763,
      "orter": 4764,
      "▁hospital": 4765,
      "▁Secret": 4766,
      "▁exact": 4767,
      "▁People": 4768,
      "▁speak": 4769,
      "▁Den": 4770,
      "iques": 4771,
      "▁conver": 4772,
      "▁Class": 4773,
      "▁Democr": 4774,
      "▁charge": 4775,
      "▁hor": 4776,
      "▁express": 4777,
      "isted": 4778,
      "▁prepar": 4779,
      "▁Moun": 4780,
      "▁sevent": 4781,
      "▁diplom": 4782,
      "▁injury": 4783,
      "▁Service": 4784,
      "▁ur": 4785,
      "▁native": 4786,
      "▁pun": 4787,
      "▁gar": 4788,
      "antly": 4789,
      "itt": 4790,
      "isms": 4791,
      "▁royal": 4792,
      "och": 4793,
      "itan": 4794,
      "▁Ten": 4795,
      "ules": 4796,
      "▁39": 4797,
      "▁mob": 4798,
      "▁deliver": 4799,
      "cles": 4800,
      "▁Leg": 4801,
      "▁IS": 4802,
      "▁400": 4803,
      "▁commonly": 4804,
      "▁Saint": 4805,
      "▁commander": 4806,
      "claim": 4807,
      "▁dyn": 4808,
      "ersey": 4809,
      "umber": 4810,
      "▁reform": 4811,
      "▁Columb": 4812,
      "▁founded": 4813,
      "▁Post": 4814,
      "▁trial": 4815,
      "▁Capt": 4816,
      "▁murder": 4817,
      "▁survey": 4818,
      "▁Once": 4819,
      "▁attend": 4820,
      "▁Southern": 4821,
      "25": 4822,
      "▁officials": 4823,
      "▁reference": 4824,
      "▁179": 4825,
      "▁greatest": 4826,
      "14": 4827,
      "▁dism": 4828,
      "▁card": 4829,
      "▁Through": 4830,
      "▁commented": 4831,
      "▁Good": 4832,
      "come": 4833,
      "▁correct": 4834,
      "▁IM": 4835,
      "mas": 4836,
      "▁singer": 4837,
      "▁ensure": 4838,
      "▁fran": 4839,
      "▁movie": 4840,
      "▁setting": 4841,
      "ceeded": 4842,
      "ners": 4843,
      "ID": 4844,
      "▁chap": 4845,
      "uls": 4846,
      "annel": 4847,
      "//": 4848,
      "▁seems": 4849,
      "atre": 4850,
      "▁enemy": 4851,
      "▁1989": 4852,
      "water": 4853,
      "▁emphas": 4854,
      "rig": 4855,
      "▁tell": 4856,
      "▁CO": 4857,
      "▁Catholic": 4858,
      "▁Committee": 4859,
      "anda": 4860,
      "▁cold": 4861,
      "▁prefer": 4862,
      "▁impl": 4863,
      "▁perfect": 4864,
      "▁opin": 4865,
      "▁task": 4866,
      "▁Tre": 4867,
      "▁extrem": 4868,
      "▁illust": 4869,
      "▁Op": 4870,
      "▁Sub": 4871,
      "key": 4872,
      "▁Direct": 4873,
      "▁arrest": 4874,
      "▁frequently": 4875,
      "peror": 4876,
      "://": 4877,
      "▁Van": 4878,
      "stein": 4879,
      "▁plays": 4880,
      "omers": 4881,
      "▁sites": 4882,
      "▁eat": 4883,
      "▁choice": 4884,
      "olec": 4885,
      "stitution": 4886,
      "▁Daniel": 4887,
      "▁Bob": 4888,
      "hi": 4889,
      "▁Wind": 4890,
      "edom": 4891,
      "▁spect": 4892,
      "▁cerem": 4893,
      "▁attended": 4894,
      "▁Gar": 4895,
      "▁Histor": 4896,
      "▁anything": 4897,
      "▁Cross": 4898,
      "▁Life": 4899,
      "▁opportunity": 4900,
      "▁Scotland": 4901,
      "▁Max": 4902,
      "▁weak": 4903,
      "▁egg": 4904,
      "▁didn": 4905,
      "▁currently": 4906,
      "▁Oxford": 4907,
      "▁explained": 4908,
      "St": 4909,
      "ela": 4910,
      "▁acad": 4911,
      "▁Bre": 4912,
      "▁ultimately": 4913,
      "▁Bost": 4914,
      "▁acid": 4915,
      "▁god": 4916,
      "▁Jewish": 4917,
      "▁Kar": 4918,
      "inet": 4919,
      "iders": 4920,
      "▁agricult": 4921,
      "▁Ire": 4922,
      "▁scientists": 4923,
      "▁Jones": 4924,
      "▁Jeff": 4925,
      "iny": 4926,
      "▁providing": 4927,
      "▁rang": 4928,
      "▁stone": 4929,
      "▁convers": 4930,
      "isher": 4931,
      "▁DVD": 4932,
      "resp": 4933,
      "inter": 4934,
      "ola": 4935,
      "born": 4936,
      "▁Water": 4937,
      "inking": 4938,
      "nam": 4939,
      "▁Ireland": 4940,
      "▁rob": 4941,
      "▁reasons": 4942,
      "▁atmosp": 4943,
      "▁cool": 4944,
      "atures": 4945,
      "▁projects": 4946,
      "▁183": 4947,
      "apers": 4948,
      "▁famous": 4949,
      "▁Stan": 4950,
      "▁bud": 4951,
      "shire": 4952,
      "eway": 4953,
      "▁residents": 4954,
      "▁fix": 4955,
      "▁ending": 4956,
      "osure": 4957,
      "▁suc": 4958,
      "▁matches": 4959,
      "▁aim": 4960,
      "oma": 4961,
      "▁spring": 4962,
      "▁digital": 4963,
      "▁dropped": 4964,
      "▁attempts": 4965,
      "▁Creek": 4966,
      "▁therap": 4967,
      "▁ones": 4968,
      "imens": 4969,
      "hat": 4970,
      "▁rise": 4971,
      "▁Government": 4972,
      "heless": 4973,
      "▁communities": 4974,
      "▁hyp": 4975,
      "▁pieces": 4976,
      "▁intellig": 4977,
      "èv": 4978,
      "ias": 4979,
      "▁Fox": 4980,
      "▁wing": 4981,
      "▁Ha": 4982,
      "▁Further": 4983,
      "▁Prot": 4984,
      "▁suggests": 4985,
      "▁writers": 4986,
      "▁economy": 4987,
      "▁Chris": 4988,
      "▁expect": 4989,
      "▁Hy": 4990,
      "▁apparent": 4991,
      "▁hus": 4992,
      "▁Luc": 4993,
      "▁Academy": 4994,
      "icine": 4995,
      "▁bodies": 4996,
      "▁Though": 4997,
      "▁mut": 4998,
      "▁concluded": 4999,
      "writ": 5000,
      "▁formation": 5001,
      "izations": 5002,
      "▁Gal": 5003,
      "▁visual": 5004,
      "▁accur": 5005,
      "▁Williams": 5006,
      "▁expressed": 5007,
      "▁Esp": 5008,
      "miral": 5009,
      "▁doll": 5010,
      "▁existing": 5011,
      "▁Lee": 5012,
      "▁tail": 5013,
      "thur": 5014,
      "▁fresh": 5015,
      "▁rules": 5016,
      "▁importance": 5017,
      "▁150": 5018,
      "iced": 5019,
      "▁mouth": 5020,
      "▁homes": 5021,
      "▁Italy": 5022,
      "▁worth": 5023,
      "bl": 5024,
      "ón": 5025,
      "▁safe": 5026,
      "iments": 5027,
      "▁sche": 5028,
      "▁advanced": 5029,
      "▁Tim": 5030,
      "▁dance": 5031,
      "vest": 5032,
      "▁shape": 5033,
      "▁Parliament": 5034,
      "▁joint": 5035,
      "▁mo": 5036,
      "▁hero": 5037,
      "anes": 5038,
      "▁Middle": 5039,
      "▁micro": 5040,
      "▁Land": 5041,
      "onent": 5042,
      "▁philos": 5043,
      "while": 5044,
      "▁veget": 5045,
      "▁era": 5046,
      "▁attrib": 5047,
      "▁Conf": 5048,
      "▁instrument": 5049,
      "▁appropri": 5050,
      "▁authority": 5051,
      "▁Nat": 5052,
      "▁poet": 5053,
      "▁Tem": 5054,
      "án": 5055,
      "illery": 5056,
      "ss": 5057,
      "▁sac": 5058,
      "▁transform": 5059,
      "▁und": 5060,
      "▁47": 5061,
      "ieut": 5062,
      "▁beat": 5063,
      "ez": 5064,
      "osen": 5065,
      "▁feed": 5066,
      "▁heard": 5067,
      "thlet": 5068,
      "▁owned": 5069,
      "▁stating": 5070,
      "▁Little": 5071,
      "perial": 5072,
      "▁Tri": 5073,
      "orses": 5074,
      "▁yard": 5075,
      "ois": 5076,
      "ograp": 5077,
      "▁wit": 5078,
      "In": 5079,
      "ras": 5080,
      "▁failure": 5081,
      "▁goes": 5082,
      "▁cry": 5083,
      "▁doesn": 5084,
      "antasy": 5085,
      "▁healthy": 5086,
      "▁Jesus": 5087,
      "▁determine": 5088,
      "▁border": 5089,
      "▁Team": 5090,
      "▁influenced": 5091,
      "▁Aven": 5092,
      "▁Boston": 5093,
      "▁images": 5094,
      "▁Clark": 5095,
      "▁hair": 5096,
      "▁crow": 5097,
      "▁transferred": 5098,
      "▁floor": 5099,
      "▁sought": 5100,
      "▁master": 5101,
      "EA": 5102,
      "book": 5103,
      "▁concert": 5104,
      "▁metres": 5105,
      "▁Form": 5106,
      "▁Ram": 5107,
      "▁join": 5108,
      "▁Final": 5109,
      "▁surrounding": 5110,
      "▁Stone": 5111,
      "▁#": 5112,
      "▁drop": 5113,
      "▁Civil": 5114,
      "▁Swed": 5115,
      "▁difference": 5116,
      "▁History": 5117,
      "▁models": 5118,
      "▁cert": 5119,
      "▁consequ": 5120,
      "pro": 5121,
      "hips": 5122,
      "▁tells": 5123,
      "▁artists": 5124,
      "▁Northern": 5125,
      "▁couple": 5126,
      "▁quant": 5127,
      "▁drive": 5128,
      "▁48": 5129,
      "▁industrial": 5130,
      "▁seconds": 5131,
      "▁thir": 5132,
      "TV": 5133,
      "awn": 5134,
      "▁tal": 5135,
      "▁Hung": 5136,
      "▁Charl": 5137,
      "▁represented": 5138,
      "▁bra": 5139,
      "ancing": 5140,
      "▁2.": 5141,
      "▁benefits": 5142,
      "▁follows": 5143,
      "▁Int": 5144,
      "rogen": 5145,
      "▁costs": 5146,
      "▁figures": 5147,
      "▁Way": 5148,
      "entially": 5149,
      "iano": 5150,
      "▁1988": 5151,
      "ologist": 5152,
      "▁regions": 5153,
      "iat": 5154,
      "▁Educ": 5155,
      "▁drum": 5156,
      "▁district": 5157,
      "▁Ill": 5158,
      "▁claims": 5159,
      "▁Public": 5160,
      "▁strateg": 5161,
      "▁55": 5162,
      "▁county": 5163,
      "▁belief": 5164,
      "▁everything": 5165,
      "▁Mic": 5166,
      "▁bacter": 5167,
      "▁defined": 5168,
      "▁autom": 5169,
      "▁Jud": 5170,
      "▁acting": 5171,
      "▁confirmed": 5172,
      "rich": 5173,
      "▁Penns": 5174,
      "▁Norm": 5175,
      "▁walls": 5176,
      "under": 5177,
      "ifically": 5178,
      "ogen": 5179,
      "▁Prince": 5180,
      "oles": 5181,
      "abeth": 5182,
      "▁Writ": 5183,
      "▁perhaps": 5184,
      "▁rot": 5185,
      "▁citizens": 5186,
      "time": 5187,
      "rad": 5188,
      "▁gained": 5189,
      "▁weaken": 5190,
      "▁pale": 5191,
      "▁proved": 5192,
      "▁1987": 5193,
      "phy": 5194,
      "ieutenant": 5195,
      "▁Infantry": 5196,
      "▁unf": 5197,
      "rog": 5198,
      "▁Chief": 5199,
      "▁Carolina": 5200,
      "▁Manc": 5201,
      "▁inh": 5202,
      "▁ahead": 5203,
      "▁improved": 5204,
      "▁calling": 5205,
      "▁determined": 5206,
      "▁tun": 5207,
      "▁mentioned": 5208,
      "▁Ott": 5209,
      "▁essential": 5210,
      "▁1942": 5211,
      "▁passing": 5212,
      "▁subsequent": 5213,
      "▁worldwide": 5214,
      "▁remark": 5215,
      "▁inch": 5216,
      "▁Major": 5217,
      "▁shell": 5218,
      "ici": 5219,
      "▁gain": 5220,
      "ayer": 5221,
      "ylvan": 5222,
      "▁coach": 5223,
      "▁Pers": 5224,
      "▁coal": 5225,
      "ibl": 5226,
      "atched": 5227,
      "IS": 5228,
      "▁structures": 5229,
      "▁Ec": 5230,
      "▁camer": 5231,
      "▁nuclear": 5232,
      "▁virt": 5233,
      "▁sand": 5234,
      "▁Fe": 5235,
      "▁perman": 5236,
      "▁performances": 5237,
      "▁capture": 5238,
      "▁significantly": 5239,
      "embly": 5240,
      "adel": 5241,
      "▁1920": 5242,
      "ingly": 5243,
      "▁Valley": 5244,
      "▁reaching": 5245,
      "▁Ray": 5246,
      "▁Fall": 5247,
      "▁Mem": 5248,
      "anna": 5249,
      "ushed": 5250,
      "▁selling": 5251,
      "▁household": 5252,
      "▁65": 5253,
      "▁maintain": 5254,
      "▁Young": 5255,
      "▁limit": 5256,
      "▁chance": 5257,
      "▁applied": 5258,
      "▁creation": 5259,
      "ouv": 5260,
      "▁UN": 5261,
      "iar": 5262,
      "▁Brad": 5263,
      "mond": 5264,
      "▁Far": 5265,
      "▁akt": 5266,
      "▁straight": 5267,
      "gal": 5268,
      "gest": 5269,
      "▁Philipp": 5270,
      "▁designated": 5271,
      "▁1986": 5272,
      "▁background": 5273,
      "vis": 5274,
      "▁label": 5275,
      "org": 5276,
      "▁sout": 5277,
      "▁note": 5278,
      "▁Elect": 5279,
      "▁broke": 5280,
      "hew": 5281,
      "▁Foot": 5282,
      "▁advantage": 5283,
      "▁instruct": 5284,
      "lers": 5285,
      "▁twice": 5286,
      "-2": 5287,
      "▁Arm": 5288,
      "erved": 5289,
      "▁Records": 5290,
      "▁Top": 5291,
      "▁Men": 5292,
      "▁urban": 5293,
      "▁store": 5294,
      "▁Games": 5295,
      "▁mist": 5296,
      "▁resistance": 5297,
      "▁brown": 5298,
      "wise": 5299,
      "▁Hal": 5300,
      "▁occurs": 5301,
      "▁elev": 5302,
      "▁objects": 5303,
      "▁planning": 5304,
      "▁1945": 5305,
      "▁struck": 5306,
      "▁Ell": 5307,
      "tic": 5308,
      "osaur": 5309,
      "▁Eliz": 5310,
      "▁Madonna": 5311,
      "▁save": 5312,
      "izyon": 5313,
      "track": 5314,
      "iana": 5315,
      "▁Inc": 5316,
      "▁Fim": 5317,
      "▁Asia": 5318,
      "▁cyclone": 5319,
      "ella": 5320,
      "▁weapons": 5321,
      "▁Captain": 5322,
      "▁equal": 5323,
      "stone": 5324,
      "▁occasion": 5325,
      "▁Develop": 5326,
      "▁contemporary": 5327,
      "prise": 5328,
      "▁vocal": 5329,
      "▁42": 5330,
      "▁journ": 5331,
      "▁Ocean": 5332,
      "agement": 5333,
      "▁Rod": 5334,
      "▁territory": 5335,
      "illing": 5336,
      "▁university": 5337,
      "▁Light": 5338,
      "▁1944": 5339,
      "▁stre": 5340,
      "▁castle": 5341,
      "▁Rom": 5342,
      "▁heavily": 5343,
      "rec": 5344,
      "respond": 5345,
      "▁Bus": 5346,
      "▁alongside": 5347,
      "igg": 5348,
      "▁Pier": 5349,
      "▁husband": 5350,
      "▁Let": 5351,
      "▁crop": 5352,
      "▁unknown": 5353,
      "range": 5354,
      "▁ring": 5355,
      "coh": 5356,
      "▁prominent": 5357,
      "uting": 5358,
      "▁titled": 5359,
      "▁helps": 5360,
      "▁defense": 5361,
      "▁Stephen": 5362,
      "ym": 5363,
      "rid": 5364,
      "▁championship": 5365,
      "▁hope": 5366,
      "▁fruit": 5367,
      "▁yellow": 5368,
      "▁price": 5369,
      "▁chosen": 5370,
      "iful": 5371,
      "ala": 5372,
      "▁propos": 5373,
      "\".": 5374,
      "▁delay": 5375,
      "▁Bridge": 5376,
      "▁Rog": 5377,
      "▁Prof": 5378,
      "ishes": 5379,
      "ournament": 5380,
      "▁adopted": 5381,
      "▁Bat": 5382,
      "▁defend": 5383,
      "▁proced": 5384,
      "▁Our": 5385,
      "▁pilot": 5386,
      "▁remember": 5387,
      "▁diam": 5388,
      "aven": 5389,
      "▁arms": 5390,
      "▁accident": 5391,
      "▁memory": 5392,
      "▁viewers": 5393,
      "▁Journal": 5394,
      "▁experienced": 5395,
      "▁kat": 5396,
      "▁column": 5397,
      "▁1941": 5398,
      "▁Dutch": 5399,
      "▁analy": 5400,
      "▁auth": 5401,
      "AC": 5402,
      "▁select": 5403,
      "▁Bern": 5404,
      "cious": 5405,
      "pris": 5406,
      "oking": 5407,
      "▁techniques": 5408,
      "▁adults": 5409,
      "▁maintained": 5410,
      "▁contained": 5411,
      "▁BBC": 5412,
      "▁belong": 5413,
      "▁Dam": 5414,
      "▁grew": 5415,
      "ographic": 5416,
      "▁featuring": 5417,
      "▁lic": 5418,
      "▁elimin": 5419,
      "▁bed": 5420,
      "tar": 5421,
      "▁Dec": 5422,
      "▁Mu": 5423,
      "quarters": 5424,
      "orped": 5425,
      "▁narrow": 5426,
      "▁Bas": 5427,
      "▁connected": 5428,
      "▁laid": 5429,
      "▁invasion": 5430,
      "▁doctor": 5431,
      "▁rating": 5432,
      "▁termin": 5433,
      "▁44": 5434,
      "▁sequence": 5435,
      "aming": 5436,
      "▁alternative": 5437,
      "▁height": 5438,
      "▁Victoria": 5439,
      "▁molec": 5440,
      "inder": 5441,
      "▁mental": 5442,
      "ylvania": 5443,
      "▁possibly": 5444,
      "▁aid": 5445,
      "▁Mean": 5446,
      "▁captain": 5447,
      "▁Fam": 5448,
      "ucky": 5449,
      "▁controlled": 5450,
      "roll": 5451,
      "▁volume": 5452,
      "▁Tay": 5453,
      "AF": 5454,
      "▁Addition": 5455,
      "▁Admiral": 5456,
      "▁agreement": 5457,
      "iday": 5458,
      "▁peaked": 5459,
      "▁prepared": 5460,
      "▁64": 5461,
      "ounger": 5462,
      "bur": 5463,
      "▁learned": 5464,
      "ato": 5465,
      "ev": 5466,
      "sect": 5467,
      "▁literature": 5468,
      "▁Common": 5469,
      "aved": 5470,
      "▁Plan": 5471,
      "▁resc": 5472,
      "▁ign": 5473,
      "▁tank": 5474,
      "▁scoring": 5475,
      "isco": 5476,
      "▁teaching": 5477,
      "▁describes": 5478,
      "▁senior": 5479,
      "ba": 5480,
      "▁MD": 5481,
      "▁Line": 5482,
      "chest": 5483,
      "▁achieved": 5484,
      "▁x": 5485,
      "▁offers": 5486,
      "ora": 5487,
      "ocked": 5488,
      "▁argued": 5489,
      "▁District": 5490,
      "▁code": 5491,
      "vious": 5492,
      "▁Series": 5493,
      "▁rates": 5494,
      "aga": 5495,
      "▁values": 5496,
      "▁ends": 5497,
      "▁budget": 5498,
      "▁teeth": 5499,
      "▁Battalion": 5500,
      "▁43": 5501,
      "▁Christmas": 5502,
      "▁rich": 5503,
      "▁Early": 5504,
      "▁IMD": 5505,
      "▁Ohio": 5506,
      "▁Harrison": 5507,
      "▁sports": 5508,
      "▁Spain": 5509,
      "▁glass": 5510,
      "▁leadership": 5511,
      "▁etc": 5512,
      "▁vote": 5513,
      "▁naval": 5514,
      "▁Cla": 5515,
      "attle": 5516,
      "▁Su": 5517,
      "ban": 5518,
      "▁nor": 5519,
      "▁1943": 5520,
      "ordin": 5521,
      "issions": 5522,
      "ipe": 5523,
      "▁repeated": 5524,
      "da": 5525,
      "▁promoted": 5526,
      "▁Corn": 5527,
      "▁actor": 5528,
      "▁Manchester": 5529,
      "▁core": 5530,
      "▁isol": 5531,
      "▁Russia": 5532,
      "▁versions": 5533,
      "▁Techn": 5534,
      "▁sort": 5535,
      "stream": 5536,
      "▁visited": 5537,
      "78": 5538,
      "▁fear": 5539,
      "▁items": 5540,
      "):": 5541,
      "▁CD": 5542,
      "▁Eastern": 5543,
      "ager": 5544,
      "▁sets": 5545,
      "▁extensive": 5546,
      "▁Ra": 5547,
      "▁consec": 5548,
      "ta": 5549,
      "▁Today": 5550,
      "▁Sand": 5551,
      "▁emerg": 5552,
      "▁About": 5553,
      "▁46": 5554,
      "▁centuries": 5555,
      "▁extremely": 5556,
      "▁Ko": 5557,
      "▁tiss": 5558,
      "▁faced": 5559,
      "▁containing": 5560,
      "▁Croat": 5561,
      "▁details": 5562,
      "▁hall": 5563,
      "▁differences": 5564,
      "iken": 5565,
      "▁correspond": 5566,
      "▁Exp": 5567,
      "▁Then": 5568,
      "▁protein": 5569,
      "mes": 5570,
      "▁Dun": 5571,
      "▁encoun": 5572,
      "▁northeast": 5573,
      "itors": 5574,
      "omew": 5575,
      "▁Lar": 5576,
      "▁focused": 5577,
      "othes": 5578,
      "inger": 5579,
      "▁depend": 5580,
      "▁roll": 5581,
      "▁properties": 5582,
      "▁executive": 5583,
      "▁*": 5584,
      "▁Chap": 5585,
      "▁motion": 5586,
      "▁reaction": 5587,
      "▁motor": 5588,
      "eller": 5589,
      "▁shortly": 5590,
      "▁lands": 5591,
      "osa": 5592,
      "▁Irish": 5593,
      "ighth": 5594,
      "▁opposed": 5595,
      "essions": 5596,
      "▁horses": 5597,
      "▁exped": 5598,
      "▁escape": 5599,
      "▁trust": 5600,
      "▁launch": 5601,
      "▁violence": 5602,
      "▁dial": 5603,
      "▁trav": 5604,
      "▁vehicles": 5605,
      "town": 5606,
      "▁lov": 5607,
      "▁htt": 5608,
      "▁firm": 5609,
      "▁prompt": 5610,
      "▁successfully": 5611,
      "▁seasons": 5612,
      "▁stations": 5613,
      "▁split": 5614,
      "ya": 5615,
      "▁administration": 5616,
      "pson": 5617,
      "amber": 5618,
      "▁torped": 5619,
      "▁negoti": 5620,
      "▁sixth": 5621,
      "▁combination": 5622,
      "▁sam": 5623,
      "▁statement": 5624,
      "▁Avenue": 5625,
      "▁Os": 5626,
      "▁52": 5627,
      "▁Brigade": 5628,
      "rat": 5629,
      "era": 5630,
      "▁serving": 5631,
      "▁1985": 5632,
      "▁officially": 5633,
      "▁Orig": 5634,
      "▁evolution": 5635,
      "▁newly": 5636,
      "▁regarding": 5637,
      "▁stream": 5638,
      "▁wave": 5639,
      "standing": 5640,
      "reyòl": 5641,
      "▁Among": 5642,
      "▁broken": 5643,
      "▁displ": 5644,
      "ji": 5645,
      "isters": 5646,
      "▁kg": 5647,
      "▁symbol": 5648,
      "▁measures": 5649,
      "▁editor": 5650,
      "▁vocals": 5651,
      "▁existence": 5652,
      "▁Show": 5653,
      "arts": 5654,
      "lines": 5655,
      "▁Albert": 5656,
      "▁Home": 5657,
      "▁Field": 5658,
      "▁AD": 5659,
      "▁Hard": 5660,
      "▁tests": 5661,
      "ricket": 5662,
      "▁Elizabeth": 5663,
      "▁honor": 5664,
      "▁Cat": 5665,
      "▁entirely": 5666,
      "▁testing": 5667,
      "▁accompan": 5668,
      "▁thin": 5669,
      "▁useful": 5670,
      "yan": 5671,
      "▁paralle": 5672,
      "uration": 5673,
      "▁decades": 5674,
      "▁Ob": 5675,
      "▁shared": 5676,
      "umes": 5677,
      "▁liber": 5678,
      "▁solar": 5679,
      "ima": 5680,
      ".)": 5681,
      "▁facilities": 5682,
      "▁organized": 5683,
      "▁everyone": 5684,
      "▁returning": 5685,
      "▁Marsh": 5686,
      "▁patient": 5687,
      "▁protected": 5688,
      "▁authorities": 5689,
      "▁Nic": 5690,
      "▁rainfall": 5691,
      "▁enh": 5692,
      "oured": 5693,
      "▁thousands": 5694,
      "▁rapidly": 5695,
      "▁wealth": 5696,
      "ads": 5697,
      "▁Cub": 5698,
      "▁faith": 5699,
      "▁Musl": 5700,
      "▁closely": 5701,
      "elve": 5702,
      "erse": 5703,
      "▁Regiment": 5704,
      "▁Alexander": 5705,
      "▁Lew": 5706,
      "▁actual": 5707,
      "70": 5708,
      "▁Card": 5709,
      "rence": 5710,
      "▁Bey": 5711,
      "▁Pen": 5712,
      "▁northwest": 5713,
      "▁finding": 5714,
      "▁turns": 5715,
      "▁standards": 5716,
      "▁dram": 5717,
      "▁deploy": 5718,
      "erate": 5719,
      "pping": 5720,
      "▁pul": 5721,
      "▁Gre": 5722,
      "▁consists": 5723,
      "66": 5724,
      "TC": 5725,
      "▁Revolution": 5726,
      "▁behavi": 5727,
      "▁install": 5728,
      "▁NH": 5729,
      "▁mort": 5730,
      "▁Rem": 5731,
      "▁Jon": 5732,
      "▁Cur": 5733,
      "▁descript": 5734,
      "▁Week": 5735,
      "▁expansion": 5736,
      "▁clin": 5737,
      "kin": 5738,
      "▁innings": 5739,
      "▁orders": 5740,
      "▁sched": 5741,
      "▁wick": 5742,
      "▁Andrew": 5743,
      "▁exercise": 5744,
      "▁recognized": 5745,
      "▁lat": 5746,
      "▁thinking": 5747,
      "▁guard": 5748,
      "▁Gall": 5749,
      "▁franse": 5750,
      "zil": 5751,
      "omy": 5752,
      "va": 5753,
      "▁standing": 5754,
      "ii": 5755,
      "3.": 5756,
      "▁artillery": 5757,
      "▁pregn": 5758,
      "▁Ep": 5759,
      "arp": 5760,
      "▁Hu": 5761,
      "▁row": 5762,
      "▁silver": 5763,
      "▁consisted": 5764,
      "orship": 5765,
      "▁1984": 5766,
      "▁182": 5767,
      "▁Every": 5768,
      "▁Office": 5769,
      "▁Board": 5770,
      "▁reign": 5771,
      "▁Prov": 5772,
      "▁Short": 5773,
      "▁examples": 5774,
      "▁Entertain": 5775,
      "▁roles": 5776,
      "▁IMDb": 5777,
      "ati": 5778,
      "▁recommended": 5779,
      "met": 5780,
      "▁distribution": 5781,
      "▁teacher": 5782,
      "▁eval": 5783,
      "▁neut": 5784,
      "▁Upon": 5785,
      "▁income": 5786,
      "▁600": 5787,
      "ext": 5788,
      "rons": 5789,
      "▁chose": 5790,
      "▁Ul": 5791,
      "▁nominated": 5792,
      "▁Only": 5793,
      "eration": 5794,
      "▁bottom": 5795,
      "▁letters": 5796,
      "▁Wilson": 5797,
      "istan": 5798,
      "▁substant": 5799,
      "▁Blue": 5800,
      "oz": 5801,
      "icate": 5802,
      "▁collected": 5803,
      "▁Thus": 5804,
      "▁Colon": 5805,
      "ava": 5806,
      "▁device": 5807,
      "▁fired": 5808,
      "ca": 5809,
      "▁message": 5810,
      "▁Roll": 5811,
      "inity": 5812,
      "▁losing": 5813,
      "unte": 5814,
      "▁solution": 5815,
      "▁benefit": 5816,
      "▁aspects": 5817,
      "▁opposition": 5818,
      "▁vary": 5819,
      "rows": 5820,
      "▁din": 5821,
      "ksyon": 5822,
      "vant": 5823,
      "▁challenge": 5824,
      "orders": 5825,
      "kins": 5826,
      "rance": 5827,
      "▁Coast": 5828,
      "▁regarded": 5829,
      "▁dedicated": 5830,
      "▁answer": 5831,
      "▁application": 5832,
      "▁Sund": 5833,
      "▁roof": 5834,
      "▁selection": 5835,
      "▁1968": 5836,
      "ocated": 5837,
      "rete": 5838,
      "▁Lab": 5839,
      "uled": 5840,
      "▁Due": 5841,
      "add": 5842,
      "▁calls": 5843,
      "▁herself": 5844,
      "▁generation": 5845,
      "▁Liber": 5846,
      "▁Bond": 5847,
      "▁warm": 5848,
      "▁phase": 5849,
      "ping": 5850,
      "▁religion": 5851,
      "▁internal": 5852,
      "ouri": 5853,
      "akers": 5854,
      "▁kont": 5855,
      "▁roads": 5856,
      "▁Jersey": 5857,
      "ashion": 5858,
      "▁locations": 5859,
      "-19": 5860,
      "▁Fleet": 5861,
      "▁newspaper": 5862,
      "outs": 5863,
      "based": 5864,
      "▁picture": 5865,
      "illy": 5866,
      "▁passes": 5867,
      "▁Die": 5868,
      "▁operated": 5869,
      "encies": 5870,
      "▁operating": 5871,
      "▁knew": 5872,
      "▁DNA": 5873,
      "▁Guard": 5874,
      "▁flying": 5875,
      "▁Taylor": 5876,
      "▁unus": 5877,
      "▁Entertainment": 5878,
      "▁Pennsylvania": 5879,
      "▁Bul": 5880,
      "▁Scient": 5881,
      "▁younger": 5882,
      "▁historian": 5883,
      "▁Polish": 5884,
      "▁kids": 5885,
      "▁steel": 5886,
      "▁increasingly": 5887,
      "ns": 5888,
      "etts": 5889,
      "▁request": 5890,
      "▁killing": 5891,
      "oir": 5892,
      "▁identify": 5893,
      "▁communication": 5894,
      "▁Zèv": 5895,
      "▁Governor": 5896,
      "▁tren": 5897,
      "▁Women": 5898,
      "▁alcoh": 5899,
      "▁menm": 5900,
      "▁Never": 5901,
      "▁street": 5902,
      "ano": 5903,
      "▁council": 5904,
      "enger": 5905,
      "▁SS": 5906,
      "pton": 5907,
      "▁1979": 5908,
      "oral": 5909,
      "AN": 5910,
      "▁secondary": 5911,
      "▁rom": 5912,
      "▁introduction": 5913,
      "pir": 5914,
      "▁solid": 5915,
      "inth": 5916,
      "ophy": 5917,
      "▁Ven": 5918,
      "azz": 5919,
      "▁Gi": 5920,
      "▁Germ": 5921,
      "▁assault": 5922,
      "▁granted": 5923,
      "▁strike": 5924,
      "▁supporting": 5925,
      "osy": 5926,
      "▁Girl": 5927,
      "▁vo": 5928,
      "▁concerns": 5929,
      "▁powers": 5930,
      "▁Att": 5931,
      "ports": 5932,
      "isa": 5933,
      "▁showing": 5934,
      "pool": 5935,
      "▁casual": 5936,
      "ua": 5937,
      "itis": 5938,
      "equ": 5939,
      "▁Senate": 5940,
      "▁fan": 5941,
      "▁wrong": 5942,
      "▁youth": 5943,
      "▁Found": 5944,
      "▁promote": 5945,
      "▁requires": 5946,
      "▁mountain": 5947,
      "▁absor": 5948,
      "▁1967": 5949,
      "▁Crit": 5950,
      "▁governor": 5951,
      "▁fellow": 5952,
      "▁Islands": 5953,
      "▁reality": 5954,
      "▁depth": 5955,
      "▁edge": 5956,
      "▁abandoned": 5957,
      "▁else": 5958,
      "▁Scottish": 5959,
      "hemat": 5960,
      "▁Duke": 5961,
      "▁connection": 5962,
      "▁chair": 5963,
      "▁scholars": 5964,
      "▁waste": 5965,
      "▁Project": 5966,
      "▁Conn": 5967,
      "▁incident": 5968,
      "▁producers": 5969,
      "▁map": 5970,
      "▁kid": 5971,
      "iot": 5972,
      "iable": 5973,
      "ilasyon": 5974,
      "pective": 5975,
      "▁Education": 5976,
      "▁revolution": 5977,
      "▁Mir": 5978,
      "▁populations": 5979,
      "▁wounded": 5980,
      "▁ven": 5981,
      "▁distingu": 5982,
      "▁1983": 5983,
      "▁boat": 5984,
      "▁paint": 5985,
      "▁interested": 5986,
      "▁rear": 5987,
      "▁teachers": 5988,
      "▁cloud": 5989,
      "▁Instead": 5990,
      "gian": 5991,
      "▁Tro": 5992,
      "▁advert": 5993,
      "▁sufficient": 5994,
      "▁strik": 5995,
      "▁Who": 5996,
      "vey": 5997,
      "▁adding": 5998,
      "▁caught": 5999,
      "90": 6000,
      "▁seat": 6001,
      "▁soundtrack": 6002,
      "▁journey": 6003,
      "▁vacc": 6004,
      "▁fim": 6005,
      "▁achieve": 6006,
      "▁Wild": 6007,
      "▁Review": 6008,
      "▁feeling": 6009,
      "▁mal": 6010,
      "▁Bank": 6011,
      "ternal": 6012,
      "▁2017": 6013,
      "▁classes": 6014,
      "1,": 6015,
      "▁Web": 6016,
      "risis": 6017,
      "▁albums": 6018,
      "antine": 6019,
      "▁Georgia": 6020,
      "▁acquired": 6021,
      "▁Az": 6022,
      "IV": 6023,
      "▁armed": 6024,
      "▁trou": 6025,
      "▁Stand": 6026,
      "▁software": 6027,
      "▁circum": 6028,
      "▁expanded": 6029,
      "▁infection": 6030,
      "▁ready": 6031,
      "utation": 6032,
      "▁islands": 6033,
      "oln": 6034,
      "▁explos": 6035,
      "▁Bart": 6036,
      "▁views": 6037,
      "▁Cop": 6038,
      "▁95": 6039,
      "▁intensity": 6040,
      "▁exchange": 6041,
      "▁myth": 6042,
      "▁Hurricane": 6043,
      "ceived": 6044,
      "BA": 6045,
      "▁Cambridge": 6046,
      "▁criticized": 6047,
      "▁fields": 6048,
      "▁nob": 6049,
      "▁opinion": 6050,
      "▁fiction": 6051,
      "IN": 6052,
      "▁stages": 6053,
      "▁specifically": 6054,
      "ycl": 6055,
      "▁deaths": 6056,
      "▁Est": 6057,
      "▁practices": 6058,
      "▁recommend": 6059,
      "▁fought": 6060,
      "▁tools": 6061,
      "▁cart": 6062,
      "▁Night": 6063,
      "zen": 6064,
      "▁Columbia": 6065,
      "▁Rome": 6066,
      "▁reyal": 6067,
      "▁Ric": 6068,
      "▁participated": 6069,
      "▁Holly": 6070,
      "▁Joe": 6071,
      "▁appearances": 6072,
      "▁Homer": 6073,
      "▁1969": 6074,
      "▁Francisco": 6075,
      "▁appropriate": 6076,
      "▁freedom": 6077,
      "rann": 6078,
      "▁witness": 6079,
      "▁parallel": 6080,
      "▁finds": 6081,
      "▁Key": 6082,
      "heim": 6083,
      "▁buy": 6084,
      "ockey": 6085,
      "▁studied": 6086,
      "▁manner": 6087,
      "▁kick": 6088,
      "▁receiving": 6089,
      "ologies": 6090,
      "ructure": 6091,
      "raction": 6092,
      "▁Brazil": 6093,
      "apes": 6094,
      "▁Mah": 6095,
      "▁1982": 6096,
      "power": 6097,
      "▁Rh": 6098,
      "▁guest": 6099,
      "onc": 6100,
      "▁somew": 6101,
      "▁holding": 6102,
      "▁debuted": 6103,
      "▁Space": 6104,
      "ective": 6105,
      "▁Bru": 6106,
      "▁die": 6107,
      "orough": 6108,
      "▁experiences": 6109,
      "▁ha": 6110,
      "▁diseases": 6111,
      "▁Mov": 6112,
      "▁doct": 6113,
      "▁breat": 6114,
      "intend": 6115,
      "▁drawn": 6116,
      "idel": 6117,
      "▁treated": 6118,
      "▁Meanwhile": 6119,
      "adelph": 6120,
      "▁fine": 6121,
      "▁Well": 6122,
      "pper": 6123,
      "▁Harry": 6124,
      "▁insect": 6125,
      "▁foods": 6126,
      "eless": 6127,
      "▁deck": 6128,
      "▁contributed": 6129,
      "▁End": 6130,
      "▁cars": 6131,
      "▁Treat": 6132,
      "render": 6133,
      "▁Hon": 6134,
      "▁instance": 6135,
      "orage": 6136,
      "▁museum": 6137,
      "▁Nan": 6138,
      "▁actors": 6139,
      "▁1975": 6140,
      "▁evac": 6141,
      "▁120": 6142,
      "rations": 6143,
      "▁Pot": 6144,
      "▁Down": 6145,
      "gent": 6146,
      "▁aired": 6147,
      "▁WW": 6148,
      "▁stret": 6149,
      "ampion": 6150,
      "ilding": 6151,
      "▁divers": 6152,
      "▁vision": 6153,
      "thes": 6154,
      "▁1976": 6155,
      "▁Telev": 6156,
      "▁branch": 6157,
      "▁concer": 6158,
      "▁producing": 6159,
      "gery": 6160,
      "▁interpret": 6161,
      "▁pret": 6162,
      "aste": 6163,
      "▁Beat": 6164,
      "▁Allied": 6165,
      "▁domestic": 6166,
      "uro": 6167,
      "▁genetic": 6168,
      "▁Gil": 6169,
      "▁exposure": 6170,
      "nic": 6171,
      "iform": 6172,
      "▁domèn": 6173,
      "▁3.": 6174,
      "▁engaged": 6175,
      "▁Jews": 6176,
      "▁rival": 6177,
      "▁Festival": 6178,
      "▁atmosphere": 6179,
      "avig": 6180,
      "rim": 6181,
      "ician": 6182,
      "▁resident": 6183,
      "▁Lind": 6184,
      "▁Philadelph": 6185,
      "▁vent": 6186,
      "▁committee": 6187,
      "▁excess": 6188,
      "▁secure": 6189,
      "▁approved": 6190,
      "▁mile": 6191,
      "▁Gree": 6192,
      "▁Football": 6193,
      "▁choose": 6194,
      "▁effectively": 6195,
      "▁Arthur": 6196,
      "▁innov": 6197,
      "▁factor": 6198,
      "▁dismiss": 6199,
      "▁capable": 6200,
      "▁tower": 6201,
      "▁withdraw": 6202,
      "▁offensive": 6203,
      "▁1939": 6204,
      "▁sport": 6205,
      "▁tom": 6206,
      "life": 6207,
      "▁util": 6208,
      "▁Ash": 6209,
      "▁Hit": 6210,
      "▁session": 6211,
      "rome": 6212,
      "ushing": 6213,
      "▁identity": 6214,
      "▁landing": 6215,
      "▁parties": 6216,
      "manuel": 6217,
      "▁battery": 6218,
      "▁Linc": 6219,
      "tor": 6220,
      "▁rejected": 6221,
      "▁signs": 6222,
      "ignment": 6223,
      "▁interesting": 6224,
      "▁Tech": 6225,
      "pe": 6226,
      "▁1964": 6227,
      "aph": 6228,
      "char": 6229,
      "▁wel": 6230,
      "▁1965": 6231,
      "▁Mike": 6232,
      "▁rural": 6233,
      "▁85": 6234,
      "▁railway": 6235,
      "▁Secretary": 6236,
      "mun": 6237,
      "▁foss": 6238,
      "▁illness": 6239,
      "▁Point": 6240,
      "▁Children": 6241,
      "▁Mos": 6242,
      "PA": 6243,
      "▁depict": 6244,
      "rees": 6245,
      "break": 6246,
      "BN": 6247,
      "▁hear": 6248,
      "▁twelve": 6249,
      "▁authors": 6250,
      "▁drugs": 6251,
      "greg": 6252,
      "onia": 6253,
      "▁Castle": 6254,
      "ivite": 6255,
      "▁consecutive": 6256,
      "▁Marc": 6257,
      "▁ek": 6258,
      "▁flat": 6259,
      "uzz": 6260,
      "▁1973": 6261,
      "▁unp": 6262,
      "▁typical": 6263,
      "▁Philadelphia": 6264,
      "ira": 6265,
      "▁54": 6266,
      "▁tournament": 6267,
      "▁tele": 6268,
      "▁1974": 6269,
      "▁painting": 6270,
      "▁poem": 6271,
      "isers": 6272,
      "ivalent": 6273,
      "▁Sus": 6274,
      "▁devices": 6275,
      "▁huge": 6276,
      "▁employed": 6277,
      "elle": 6278,
      "és": 6279,
      "▁publication": 6280,
      "▁temperatures": 6281,
      "▁complic": 6282,
      "▁filled": 6283,
      "▁performing": 6284,
      "▁Naz": 6285,
      "▁Bal": 6286,
      "▁discover": 6287,
      "▁singles": 6288,
      "asty": 6289,
      "igen": 6290,
      "yles": 6291,
      "▁genus": 6292,
      "▁cycle": 6293,
      "▁catch": 6294,
      "orus": 6295,
      "▁1972": 6296,
      "▁virus": 6297,
      "▁Lincoln": 6298,
      "▁academic": 6299,
      "ansas": 6300,
      "▁AC": 6301,
      "▁constitution": 6302,
      "▁Burn": 6303,
      "▁1966": 6304,
      "▁trip": 6305,
      "itled": 6306,
      "imet": 6307,
      "▁Var": 6308,
      "▁Coll": 6309,
      "▁anyone": 6310,
      "▁Sher": 6311,
      "▁Operation": 6312,
      "itage": 6313,
      "▁crossing": 6314,
      "rm": 6315,
      "icit": 6316,
      "▁san": 6317,
      "▁--": 6318,
      "▁Gade": 6319,
      "ygen": 6320,
      "▁Special": 6321,
      "▁purchased": 6322,
      "▁organizations": 6323,
      "▁gets": 6324,
      "▁accompanied": 6325,
      "▁Head": 6326,
      "▁driving": 6327,
      "▁Power": 6328,
      "▁Lang": 6329,
      "▁undert": 6330,
      "▁acts": 6331,
      "bar": 6332,
      "agan": 6333,
      "▁aktivite": 6334,
      "▁briefly": 6335,
      "▁Republican": 6336,
      "▁obtained": 6337,
      "▁crowd": 6338,
      "▁favour": 6339,
      "▁tall": 6340,
      "▁leads": 6341,
      "▁shel": 6342,
      "▁Six": 6343,
      "▁processes": 6344,
      "▁heads": 6345,
      "▁occupied": 6346,
      "umin": 6347,
      "▁viewed": 6348,
      "iate": 6349,
      "▁sustain": 6350,
      "▁conference": 6351,
      "▁53": 6352,
      "uan": 6353,
      "achus": 6354,
      "▁Live": 6355,
      "istered": 6356,
      "jo": 6357,
      "▁Why": 6358,
      "▁balance": 6359,
      "▁finish": 6360,
      "▁kon": 6361,
      "▁unl": 6362,
      "▁truth": 6363,
      "▁composition": 6364,
      "▁1971": 6365,
      "▁Bi": 6366,
      "▁gross": 6367,
      "eper": 6368,
      "▁Turn": 6369,
      "▁Mot": 6370,
      "theless": 6371,
      "iger": 6372,
      "▁Jenn": 6373,
      "▁•": 6374,
      "▁Hun": 6375,
      "rates": 6376,
      "▁apart": 6377,
      "▁context": 6378,
      "▁grass": 6379,
      "▁Islam": 6380,
      "▁Development": 6381,
      "ès": 6382,
      "▁overl": 6383,
      "▁stock": 6384,
      "▁1978": 6385,
      "▁decade": 6386,
      "▁Engine": 6387,
      "▁Indust": 6388,
      "▁Social": 6389,
      "▁strate": 6390,
      "▁roughly": 6391,
      "▁recru": 6392,
      "▁fashion": 6393,
      "formation": 6394,
      "then": 6395,
      "▁starts": 6396,
      "▁strategy": 6397,
      "▁Square": 6398,
      "nce": 6399,
      "▁Ca": 6400,
      "▁turning": 6401,
      "▁concerned": 6402,
      "▁rhy": 6403,
      "▁intelligence": 6404,
      "▁retired": 6405,
      "▁gall": 6406,
      "▁56": 6407,
      "othing": 6408,
      "▁essay": 6409,
      "▁technical": 6410,
      "▁Program": 6411,
      "▁phen": 6412,
      "▁consult": 6413,
      "IC": 6414,
      "▁Lear": 6415,
      "▁Doctor": 6416,
      "▁Studios": 6417,
      "▁responsibility": 6418,
      "awa": 6419,
      "▁Hay": 6420,
      "ifications": 6421,
      "▁1981": 6422,
      "▁relative": 6423,
      "▁missing": 6424,
      "▁surrender": 6425,
      "FA": 6426,
      "▁800": 6427,
      "▁Conference": 6428,
      "▁arrival": 6429,
      "▁ocean": 6430,
      "idden": 6431,
      "▁cab": 6432,
      "▁ri": 6433,
      "▁Sound": 6434,
      "▁vit": 6435,
      "▁snow": 6436,
      "ensus": 6437,
      "▁kilometres": 6438,
      "osite": 6439,
      "▁expand": 6440,
      "▁applications": 6441,
      "▁supplies": 6442,
      "▁patterns": 6443,
      "▁emotional": 6444,
      "ologists": 6445,
      "▁Ast": 6446,
      "▁Fantasy": 6447,
      "▁178": 6448,
      "▁See": 6449,
      "▁predict": 6450,
      "lig": 6451,
      "onym": 6452,
      "▁agent": 6453,
      "▁increases": 6454,
      "▁remove": 6455,
      "▁Jr": 6456,
      "BS": 6457,
      "achusetts": 6458,
      "▁losses": 6459,
      "roc": 6460,
      "▁technique": 6461,
      "▁Brook": 6462,
      "▁infantry": 6463,
      "▁advent": 6464,
      "ulpt": 6465,
      "▁singing": 6466,
      "▁enl": 6467,
      "▁eating": 6468,
      "▁Po": 6469,
      "▁download": 6470,
      "enses": 6471,
      "▁Bell": 6472,
      "▁upgr": 6473,
      "▁Massachusetts": 6474,
      "▁flooding": 6475,
      "▁van": 6476,
      "▁alcohol": 6477,
      "olt": 6478,
      "▁Earl": 6479,
      "▁Lewis": 6480,
      "OR": 6481,
      "ée": 6482,
      "rum": 6483,
      "▁squadron": 6484,
      "iciency": 6485,
      "▁functions": 6486,
      "▁relationships": 6487,
      "▁Ok": 6488,
      "▁ty": 6489,
      "▁liqu": 6490,
      "▁door": 6491,
      "▁satis": 6492,
      "▁pè": 6493,
      "▁Liver": 6494,
      "▁ord": 6495,
      "▁vul": 6496,
      "elly": 6497,
      "▁Michel": 6498,
      "▁Miller": 6499,
      "going": 6500,
      "▁alle": 6501,
      "▁headquarters": 6502,
      "▁Gulf": 6503,
      "▁Prime": 6504,
      "▁soul": 6505,
      "▁themes": 6506,
      "▁vehicle": 6507,
      "urance": 6508,
      "▁1914": 6509,
      "▁carrying": 6510,
      "▁Pu": 6511,
      "ilton": 6512,
      "▁permanent": 6513,
      "▁Wars": 6514,
      "▁Korean": 6515,
      "▁Command": 6516,
      "▁explain": 6517,
      "▁Shak": 6518,
      "▁indicated": 6519,
      "▁Mul": 6520,
      "▁Human": 6521,
      "unicip": 6522,
      "▁infect": 6523,
      "▁commissioned": 6524,
      "▁steps": 6525,
      "▁filmed": 6526,
      "▁41": 6527,
      "agues": 6528,
      "▁Ari": 6529,
      "EC": 6530,
      "▁policies": 6531,
      "▁Between": 6532,
      "abil": 6533,
      "▁Supreme": 6534,
      "▁otherwise": 6535,
      "▁garden": 6536,
      "▁eggs": 6537,
      "▁Forest": 6538,
      "▁filming": 6539,
      "▁bond": 6540,
      "avalry": 6541,
      "▁transition": 6542,
      "▁Anderson": 6543,
      "erg": 6544,
      "atically": 6545,
      "▁Roberto": 6546,
      "▁independence": 6547,
      "▁Bad": 6548,
      "▁Tam": 6549,
      "▁aer": 6550,
      "bal": 6551,
      "▁surpris": 6552,
      "▁steam": 6553,
      "▁sounds": 6554,
      "▁merch": 6555,
      "▁dangerous": 6556,
      "▁ban": 6557,
      "▁1918": 6558,
      "▁seventh": 6559,
      "▁designs": 6560,
      "▁Balt": 6561,
      "▁dens": 6562,
      "icians": 6563,
      "cknow": 6564,
      "▁linked": 6565,
      "▁sections": 6566,
      "▁bass": 6567,
      "▁vessels": 6568,
      "IT": 6569,
      "▁1977": 6570,
      "▁earliest": 6571,
      "▁gradually": 6572,
      "igration": 6573,
      "▁drama": 6574,
      "▁Profess": 6575,
      "▁Id": 6576,
      "75": 6577,
      "▁crime": 6578,
      "▁relief": 6579,
      "▁grade": 6580,
      "▁slowly": 6581,
      "▁Frit": 6582,
      "▁characteristics": 6583,
      "ooth": 6584,
      "▁regional": 6585,
      "▁interests": 6586,
      "▁sole": 6587,
      "▁athlet": 6588,
      "▁Gro": 6589,
      "▁fly": 6590,
      "▁von": 6591,
      "▁scheduled": 6592,
      "▁Back": 6593,
      "ikal": 6594,
      "▁decline": 6595,
      "▁ori": 6596,
      "box": 6597,
      "▁IV": 6598,
      "▁boats": 6599,
      "▁titles": 6600,
      "▁wonder": 6601,
      "▁bright": 6602,
      "▁exposed": 6603,
      "▁interchange": 6604,
      "▁Budd": 6605,
      "▁reprodu": 6606,
      "▁regularly": 6607,
      "ivered": 6608,
      "ía": 6609,
      "▁emergency": 6610,
      "▁teach": 6611,
      "ector": 6612,
      "▁Bon": 6613,
      "▁Tropical": 6614,
      "▁upd": 6615,
      "▁Spring": 6616,
      "▁camera": 6617,
      "icide": 6618,
      "▁Nap": 6619,
      "▁mounted": 6620,
      "▁derived": 6621,
      "▁Organ": 6622,
      "▁entry": 6623,
      "gers": 6624,
      "ipping": 6625,
      "▁ceremony": 6626,
      "lee": 6627,
      "▁changing": 6628,
      "una": 6629,
      "▁Cas": 6630,
      "worth": 6631,
      "mann": 6632,
      "oli": 6633,
      "▁defence": 6634,
      "▁shark": 6635,
      "▁landsc": 6636,
      "uations": 6637,
      "▁renew": 6638,
      "▁expedition": 6639,
      "▁Davis": 6640,
      "▁users": 6641,
      "ossible": 6642,
      "▁Ve": 6643,
      "▁baby": 6644,
      "▁credit": 6645,
      "▁exclus": 6646,
      "▁sed": 6647,
      "▁arc": 6648,
      "▁Grant": 6649,
      "▁personnel": 6650,
      "▁(200": 6651,
      "▁possibility": 6652,
      "idges": 6653,
      "athan": 6654,
      "▁tick": 6655,
      "▁pric": 6656,
      "▁solo": 6657,
      "▁76": 6658,
      "▁torpedo": 6659,
      "▁shaped": 6660,
      "apore": 6661,
      "▁formal": 6662,
      "▁buried": 6663,
      "▁bacteria": 6664,
      "▁corpor": 6665,
      "etball": 6666,
      "ED": 6667,
      "don": 6668,
      "▁Whe": 6669,
      "▁Ty": 6670,
      "▁alt": 6671,
      "▁web": 6672,
      "▁ISBN": 6673,
      "espread": 6674,
      "▁Constitution": 6675,
      "▁zone": 6676,
      "ila": 6677,
      "▁proceed": 6678,
      "▁raise": 6679,
      "▁coastal": 6680,
      "unch": 6681,
      "wall": 6682,
      "▁funds": 6683,
      "▁Germans": 6684,
      "▁criticism": 6685,
      "▁kèk": 6686,
      "▁Univers": 6687,
      "▁sell": 6688,
      "ador": 6689,
      "▁delivered": 6690,
      "▁Ross": 6691,
      "▁converted": 6692,
      "▁lap": 6693,
      "▁Federal": 6694,
      "▁Independ": 6695,
      "▁politics": 6696,
      "▁acres": 6697,
      "▁speaking": 6698,
      "▁1,": 6699,
      "▁Ur": 6700,
      "edia": 6701,
      "▁colour": 6702,
      "▁Walter": 6703,
      "▁Broad": 6704,
      "▁describe": 6705,
      "▁Moon": 6706,
      "▁notable": 6707,
      "▁Age": 6708,
      "▁Ta": 6709,
      "taining": 6710,
      "▁SR": 6711,
      "▁send": 6712,
      "▁oxygen": 6713,
      "lan": 6714,
      "22": 6715,
      "▁possess": 6716,
      "▁defensive": 6717,
      "▁Singapore": 6718,
      "▁acknow": 6719,
      "vements": 6720,
      "▁Order": 6721,
      "▁frag": 6722,
      "▁convent": 6723,
      "▁semi": 6724,
      "▁58": 6725,
      "▁Ken": 6726,
      "▁taught": 6727,
      "▁subs": 6728,
      "champ": 6729,
      "▁astron": 6730,
      "▁250": 6731,
      "▁Steve": 6732,
      "organ": 6733,
      "▁Kentucky": 6734,
      "▁Fair": 6735,
      "▁debate": 6736,
      "▁assistance": 6737,
      "▁gwo": 6738,
      "▁Lady": 6739,
      "▁enjoyed": 6740,
      "▁Pass": 6741,
      "obe": 6742,
      "▁2018": 6743,
      "▁option": 6744,
      "▁movements": 6745,
      "▁occas": 6746,
      "▁purchase": 6747,
      "ante": 6748,
      "▁ò": 6749,
      "▁sculpt": 6750,
      "▁Emperor": 6751,
      "ito": 6752,
      "▁discovery": 6753,
      "upt": 6754,
      "▁attached": 6755,
      "▁Dark": 6756,
      "iveness": 6757,
      "▁franch": 6758,
      "▁comedy": 6759,
      "▁popularity": 6760,
      "mouth": 6761,
      "▁excell": 6762,
      "▁settlement": 6763,
      "▁equivalent": 6764,
      "▁ancest": 6765,
      "▁volunte": 6766,
      "▁pure": 6767,
      "▁Fritz": 6768,
      "▁brothers": 6769,
      "▁1917": 6770,
      "▁installed": 6771,
      "ompl": 6772,
      "emble": 6773,
      "▁visible": 6774,
      "▁cited": 6775,
      "ulating": 6776,
      "▁battalion": 6777,
      "▁Lat": 6778,
      "▁flo": 6779,
      "▁1915": 6780,
      "iro": 6781,
      "▁investigation": 6782,
      "RA": 6783,
      "ibb": 6784,
      "▁helping": 6785,
      "▁males": 6786,
      "▁constant": 6787,
      "aina": 6788,
      "▁massive": 6789,
      "▁Liverpool": 6790,
      "aked": 6791,
      "rets": 6792,
      "▁1916": 6793,
      "▁clearly": 6794,
      "▁highlight": 6795,
      "▁suffering": 6796,
      "▁shut": 6797,
      "opher": 6798,
      "▁Democratic": 6799,
      "▁breeding": 6800,
      "▁jump": 6801,
      "▁writes": 6802,
      "▁opposite": 6803,
      "▁Nations": 6804,
      "▁guide": 6805,
      "▁sud": 6806,
      "▁girls": 6807,
      "▁educational": 6808,
      "▁looked": 6809,
      "▁orchest": 6810,
      "▁Director": 6811,
      "ione": 6812,
      "▁Disc": 6813,
      "▁piano": 6814,
      "▁estate": 6815,
      "▁meters": 6816,
      "▁stopped": 6817,
      "▁compris": 6818,
      "▁degrees": 6819,
      "burgh": 6820,
      "urally": 6821,
      "ènman": 6822,
      "▁Supp": 6823,
      "raph": 6824,
      "eline": 6825,
      "▁Barb": 6826,
      "9.": 6827,
      "▁injured": 6828,
      "▁PC": 6829,
      "▁recognition": 6830,
      "▁Daily": 6831,
      "state": 6832,
      "▁sugar": 6833,
      "▁principal": 6834,
      "▁involving": 6835,
      "▁department": 6836,
      "▁funding": 6837,
      "▁66": 6838,
      "▁Carey": 6839,
      "▁efficient": 6840,
      "▁1963": 6841,
      "▁accompl": 6842,
      "▁Walk": 6843,
      "▁bands": 6844,
      "▁extent": 6845,
      "▁Olympic": 6846,
      "▁disturb": 6847,
      "▁fal": 6848,
      "▁widespread": 6849,
      "▁(20": 6850,
      "▁Fire": 6851,
      "▁Additionally": 6852,
      "aser": 6853,
      "aka": 6854,
      "▁detailed": 6855,
      "▁components": 6856,
      "▁isn": 6857,
      "▁Kir": 6858,
      "▁1948": 6859,
      "▁Vietnam": 6860,
      "ali": 6861,
      "sey": 6862,
      "▁Ren": 6863,
      "▁Emmanuel": 6864,
      "▁injuries": 6865,
      "▁crown": 6866,
      "▁Ba": 6867,
      "▁fè": 6868,
      "▁shooting": 6869,
      "▁od": 6870,
      "▁mode": 6871,
      "▁hearing": 6872,
      "▁tool": 6873,
      "▁greatly": 6874,
      "▁Brian": 6875,
      "▁Vill": 6876,
      "▁engineering": 6877,
      "▁dream": 6878,
      "▁therapy": 6879,
      "▁languages": 6880,
      "friend": 6881,
      "▁accounts": 6882,
      "▁Storm": 6883,
      "▁Anton": 6884,
      "regon": 6885,
      "▁reputation": 6886,
      "▁Str": 6887,
      "▁1946": 6888,
      "▁evening": 6889,
      "▁declined": 6890,
      "▁indicate": 6891,
      "▁ped": 6892,
      "▁submar": 6893,
      "▁hundreds": 6894,
      "▁pig": 6895,
      "▁Summer": 6896,
      "▁females": 6897,
      "▁57": 6898,
      "▁Radio": 6899,
      "▁Main": 6900,
      "iminal": 6901,
      "▁purposes": 6902,
      "▁owner": 6903,
      "rane": 6904,
      "asure": 6905,
      "▁conqu": 6906,
      "roke": 6907,
      "▁shop": 6908,
      "▁towns": 6909,
      "▁trains": 6910,
      "▁committed": 6911,
      "cop": 6912,
      "▁duty": 6913,
      "▁Offic": 6914,
      "▁layer": 6915,
      "hered": 6916,
      "▁supposed": 6917,
      "▁Lieutenant": 6918,
      "▁Ball": 6919,
      "▁volcan": 6920,
      "FL": 6921,
      "▁Han": 6922,
      "tenance": 6923,
      "▁Color": 6924,
      "èz": 6925,
      "▁difficulty": 6926,
      "▁Alf": 6927,
      "issance": 6928,
      "▁storage": 6929,
      "▁considerable": 6930,
      "▁discussed": 6931,
      "▁rated": 6932,
      "▁rive": 6933,
      "bell": 6934,
      "▁clim": 6935,
      "▁casualties": 6936,
      "dy": 6937,
      "ieval": 6938,
      "▁pitch": 6939,
      "▁keeping": 6940,
      "▁tact": 6941,
      "▁160": 6942,
      "lets": 6943,
      "▁corner": 6944,
      "▁Rey": 6945,
      "▁Hart": 6946,
      "▁opportunities": 6947,
      "uct": 6948,
      "▁sik": 6949,
      "▁Oregon": 6950,
      "rehens": 6951,
      "▁requirements": 6952,
      "▁Kim": 6953,
      "▁rebu": 6954,
      "ader": 6955,
      "▁ment": 6956,
      "▁bone": 6957,
      "▁throw": 6958,
      "oster": 6959,
      "▁desire": 6960,
      "▁Gord": 6961,
      "▁Station": 6962,
      "▁fil": 6963,
      "▁advice": 6964,
      "▁extreme": 6965,
      "ieties": 6966,
      "▁cou": 6967,
      "inois": 6968,
      "▁library": 6969,
      "unior": 6970,
      "▁proport": 6971,
      "▁refers": 6972,
      "▁satell": 6973,
      "▁Justice": 6974,
      "ilation": 6975,
      "▁touchdown": 6976,
      "adow": 6977,
      "▁sustained": 6978,
      "▁Last": 6979,
      "▁threatened": 6980,
      "▁hired": 6981,
      "▁Arts": 6982,
      "aska": 6983,
      "▁periods": 6984,
      "ework": 6985,
      "▁sudden": 6986,
      "▁crisis": 6987,
      "▁les": 6988,
      "real": 6989,
      "▁happened": 6990,
      "▁Ly": 6991,
      "▁Ple": 6992,
      "riers": 6993,
      "▁surgery": 6994,
      "▁Confeder": 6995,
      "manse": 6996,
      "▁Mars": 6997,
      "▁Pierre": 6998,
      "▁ògan": 6999,
      "olis": 7000,
      "▁Byz": 7001,
      "▁goods": 7002,
      "▁Poland": 7003,
      "▁candidate": 7004,
      "▁charts": 7005,
      "▁voy": 7006,
      "▁dates": 7007,
      "oto": 7008,
      "ographer": 7009,
      "▁74": 7010,
      "ragon": 7011,
      "▁99": 7012,
      "▁professor": 7013,
      "▁Library": 7014,
      "atters": 7015,
      "▁stands": 7016,
      "▁uncle": 7017,
      "▁chapter": 7018,
      "▁southeast": 7019,
      "▁kou": 7020,
      "▁passage": 7021,
      "▁seeing": 7022,
      "▁gal": 7023,
      "▁Greg": 7024,
      "eman": 7025,
      "▁Syd": 7026,
      "▁Anth": 7027,
      "▁Pict": 7028,
      "▁Nintend": 7029,
      "▁Disney": 7030,
      "▁preced": 7031,
      "aria": 7032,
      "erted": 7033,
      "▁destruction": 7034,
      "▁trail": 7035,
      "yer": 7036,
      "▁Get": 7037,
      "col": 7038,
      "▁1962": 7039,
      "▁engines": 7040,
      "abilities": 7041,
      "▁Robaina": 7042,
      "▁challenges": 7043,
      "ON": 7044,
      "▁Nintendo": 7045,
      "▁strongly": 7046,
      "▁succeeded": 7047,
      "udes": 7048,
      "▁Lo": 7049,
      "▁intersection": 7050,
      "▁2004.": 7051,
      "iration": 7052,
      "▁neighbor": 7053,
      "body": 7054,
      "▁nick": 7055,
      "www": 7056,
      "▁Album": 7057,
      "▁comic": 7058,
      "▁Free": 7059,
      "▁seed": 7060,
      "wing": 7061,
      "uccess": 7062,
      "▁Popilasyon": 7063,
      "lav": 7064,
      "zyèm": 7065,
      "▁Simon": 7066,
      "▁sector": 7067,
      "▁Labor": 7068,
      "▁matem": 7069,
      "▁headed": 7070,
      "▁ju": 7071,
      "▁Hollywood": 7072,
      "▁immediate": 7073,
      "aret": 7074,
      "▁drew": 7075,
      "▁Sunday": 7076,
      "▁bought": 7077,
      "roid": 7078,
      "▁Abb": 7079,
      "▁entrance": 7080,
      "rine": 7081,
      "▁Foundation": 7082,
      "▁reserv": 7083,
      "▁breed": 7084,
      "▁entitled": 7085,
      "▁Serb": 7086,
      "▁appeal": 7087,
      "▁dress": 7088,
      "IA": 7089,
      "▁arranged": 7090,
      "▁tissue": 7091,
      "▁temple": 7092,
      "____": 7093,
      "eler": 7094,
      "emies": 7095,
      "uable": 7096,
      "▁neither": 7097,
      "ommod": 7098,
      "▁watched": 7099,
      "▁spok": 7100,
      "wen": 7101,
      "▁depending": 7102,
      "7.": 7103,
      "ja": 7104,
      "▁nest": 7105,
      "insula": 7106,
      "▁inner": 7107,
      "ache": 7108,
      "▁options": 7109,
      "▁Norway": 7110,
      "èf": 7111,
      "▁hang": 7112,
      "abled": 7113,
      "▁Portug": 7114,
      "▁Holy": 7115,
      "▁Ron": 7116,
      "ranean": 7117,
      "▁51": 7118,
      "▁Leon": 7119,
      "▁Vide": 7120,
      "ouvènman": 7121,
      "▁contest": 7122,
      "▁amounts": 7123,
      "no": 7124,
      "▁stick": 7125,
      "▁charged": 7126,
      "▁southwest": 7127,
      "place": 7128,
      "rieved": 7129,
      "▁awards": 7130,
      "▁responded": 7131,
      "point": 7132,
      "abetes": 7133,
      "▁association": 7134,
      "▁discussion": 7135,
      "▁none": 7136,
      "▁Golden": 7137,
      "▁obvious": 7138,
      "▁alf": 7139,
      "▁chain": 7140,
      "▁survived": 7141,
      "▁user": 7142,
      "▁Maria": 7143,
      "▁minimum": 7144,
      "▁alman": 7145,
      "▁lose": 7146,
      "▁Low": 7147,
      "▁exactly": 7148,
      "▁Maryland": 7149,
      "▁bringing": 7150,
      "▁stim": 7151,
      "▁fèt": 7152,
      "▁argument": 7153,
      "ervative": 7154,
      "▁decisions": 7155,
      "▁craft": 7156,
      "▁wet": 7157,
      "▁Environment": 7158,
      "▁disorder": 7159,
      "▁cricket": 7160,
      "▁Jane": 7161,
      "▁ruled": 7162,
      "ocal": 7163,
      "▁outbreak": 7164,
      "▁synd": 7165,
      "▁oldest": 7166,
      "▁decor": 7167,
      "▁poly": 7168,
      "▁photograph": 7169,
      "▁swim": 7170,
      "▁employees": 7171,
      "▁bask": 7172,
      "▁Chart": 7173,
      "▁beautiful": 7174,
      "▁electricity": 7175,
      "▁mathemat": 7176,
      "▁consumption": 7177,
      "▁grown": 7178,
      "▁59": 7179,
      "▁Dig": 7180,
      "▁sight": 7181,
      "▁Tout": 7182,
      "osh": 7183,
      "▁comfort": 7184,
      "▁Francis": 7185,
      "engers": 7186,
      "▁timoun": 7187,
      "▁Cape": 7188,
      "▁unusual": 7189,
      "▁moral": 7190,
      "▁subjects": 7191,
      "▁Internet": 7192,
      "rep": 7193,
      "▁antib": 7194,
      "▁spin": 7195,
      "▁Similar": 7196,
      "▁62": 7197,
      "▁televizyon": 7198,
      "▁NAS": 7199,
      "▁McG": 7200,
      "▁generated": 7201,
      "ureau": 7202,
      "▁Nick": 7203,
      "▁nations": 7204,
      "▁bear": 7205,
      "orrow": 7206,
      "▁stem": 7207,
      "▁gather": 7208,
      "▁Circ": 7209,
      "▁extension": 7210,
      "▁architecture": 7211,
      "▁partner": 7212,
      "▁serves": 7213,
      "▁shif": 7214,
      "▁Konst": 7215,
      "▁Patrick": 7216,
      "▁exception": 7217,
      "OS": 7218,
      "▁medium": 7219,
      "▁amer": 7220,
      "▁Domin": 7221,
      "▁Adam": 7222,
      "▁reserve": 7223,
      "▁proposal": 7224,
      "▁72": 7225,
      "▁campus": 7226,
      "▁entering": 7227,
      "term": 7228,
      "ashed": 7229,
      "oked": 7230,
      "Station": 7231,
      "▁dezyèm": 7232,
      "▁unsuccess": 7233,
      "▁HMS": 7234,
      "▁wrest": 7235,
      "▁Railway": 7236,
      "▁signal": 7237,
      "amental": 7238,
      "▁grounds": 7239,
      "▁Ka": 7240,
      "▁gone": 7241,
      "▁teen": 7242,
      "▁biggest": 7243,
      "▁reducing": 7244,
      "▁Cra": 7245,
      "▁fer": 7246,
      "▁depos": 7247,
      "▁Pak": 7248,
      "▁seemed": 7249,
      "hus": 7250,
      "▁restaur": 7251,
      "▁tanks": 7252,
      "▁vert": 7253,
      "▁Dat": 7254,
      "▁prisoners": 7255,
      "▁Indiana": 7256,
      "▁Imperial": 7257,
      "▁breast": 7258,
      "▁vulner": 7259,
      "▁childhood": 7260,
      "▁PlayStation": 7261,
      "▁institutions": 7262,
      "▁literary": 7263,
      "▁approached": 7264,
      "▁Hug": 7265,
      "▁aw": 7266,
      "▁chronic": 7267,
      "iversary": 7268,
      "▁1956": 7269,
      "▁Dream": 7270,
      "irt": 7271,
      "▁1938": 7272,
      "▁phr": 7273,
      "▁assistant": 7274,
      "oard": 7275,
      "▁settled": 7276,
      "▁ham": 7277,
      "▁conclusion": 7278,
      "▁Sel": 7279,
      "anger": 7280,
      "▁normally": 7281,
      "▁articles": 7282,
      "iated": 7283,
      "▁mir": 7284,
      "▁Sab": 7285,
      "▁absol": 7286,
      "arant": 7287,
      "▁notice": 7288,
      "ses": 7289,
      "bound": 7290,
      "▁lies": 7291,
      "▁meat": 7292,
      "▁chans": 7293,
      "▁Roger": 7294,
      "▁pull": 7295,
      "bec": 7296,
      "ko": 7297,
      "▁lasted": 7298,
      "▁Such": 7299,
      "▁piti": 7300,
      "▁universe": 7301,
      "▁renamed": 7302,
      "▁63": 7303,
      "pat": 7304,
      "asks": 7305,
      "▁spons": 7306,
      "▁closer": 7307,
      "rell": 7308,
      "▁Run": 7309,
      "▁Network": 7310,
      "▁expression": 7311,
      "ails": 7312,
      "fe": 7313,
      "▁outer": 7314,
      "▁ille": 7315,
      "▁yield": 7316,
      "▁Dougl": 7317,
      "▁Colonel": 7318,
      "▁mic": 7319,
      "▁plate": 7320,
      "▁retained": 7321,
      "▁nonm": 7322,
      "▁measured": 7323,
      "▁neck": 7324,
      "▁anx": 7325,
      "▁strengthen": 7326,
      "leton": 7327,
      "▁1961": 7328,
      "▁folk": 7329,
      "▁USA": 7330,
      "inton": 7331,
      "▁Rhod": 7332,
      "▁Moore": 7333,
      "▁driven": 7334,
      "▁medicine": 7335,
      "▁Unlike": 7336,
      "bi": 7337,
      "▁warning": 7338,
      "▁73": 7339,
      "▁adapted": 7340,
      "▁agricultural": 7341,
      "▁facility": 7342,
      "ogy": 7343,
      "▁Ira": 7344,
      "▁apply": 7345,
      "▁circulation": 7346,
      "▁somewhat": 7347,
      "▁dynam": 7348,
      "▁700": 7349,
      "▁Barn": 7350,
      "▁equipped": 7351,
      "▁happen": 7352,
      "▁Sydney": 7353,
      "▁òganizasyon": 7354,
      "resents": 7355,
      "▁circumst": 7356,
      "▁wearing": 7357,
      "▁accommod": 7358,
      "▁definition": 7359,
      "ais": 7360,
      "▁Dab": 7361,
      "owa": 7362,
      "▁Ext": 7363,
      "▁Tel": 7364,
      "▁tooth": 7365,
      "ardo": 7366,
      "weight": 7367,
      "▁Ottoman": 7368,
      "onot": 7369,
      "▁familiar": 7370,
      "hetic": 7371,
      "▁Anne": 7372,
      "▁1958": 7373,
      "▁holds": 7374,
      "▁moves": 7375,
      "▁weakened": 7376,
      "▁spiritual": 7377,
      "▁Base": 7378,
      "▁squad": 7379,
      "▁trained": 7380,
      "▁consisting": 7381,
      "Ar": 7382,
      "We": 7383,
      "▁principles": 7384,
      "▁68": 7385,
      "▁Jord": 7386,
      "▁veter": 7387,
      "▁assumed": 7388,
      "▁Es": 7389,
      "rett": 7390,
      "▁rose": 7391,
      "▁apprec": 7392,
      "▁Gill": 7393,
      "▁operate": 7394,
      "ester": 7395,
      "▁http": 7396,
      "▁0.": 7397,
      "eri": 7398,
      "▁Within": 7399,
      "▁duties": 7400,
      "▁sample": 7401,
      "▁Lin": 7402,
      "▁Illinois": 7403,
      "▁routes": 7404,
      "▁Rose": 7405,
      "▁Cab": 7406,
      "▁Roy": 7407,
      "aware": 7408,
      "andom": 7409,
      "▁explains": 7410,
      "▁Longchamp": 7411,
      "eenth": 7412,
      "▁Espò": 7413,
      "▁happy": 7414,
      "riksyon": 7415,
      "▁Indones": 7416,
      "▁underst": 7417,
      "▁restrict": 7418,
      "bra": 7419,
      "▁Whit": 7420,
      "▁mamm": 7421,
      "▁archae": 7422,
      "achel": 7423,
      "▁ideal": 7424,
      "▁NHL": 7425,
      "▁dogs": 7426,
      "istans": 7427,
      "▁category": 7428,
      "izin": 7429,
      "▁Prem": 7430,
      "▁otor": 7431,
      "icy": 7432,
      "▁Stew": 7433,
      "▁lake": 7434,
      "▁motiv": 7435,
      "iva": 7436,
      "oys": 7437,
      "▁fert": 7438,
      "▁creative": 7439,
      "▁feelings": 7440,
      "▁output": 7441,
      "do": 7442,
      "atè": 7443,
      "▁Bir": 7444,
      "aid": 7445,
      "▁thousand": 7446,
      "ribed": 7447,
      "con": 7448,
      "after": 7449,
      "▁habitat": 7450,
      "SA": 7451,
      "▁window": 7452,
      "▁Ped": 7453,
      "▁maintenance": 7454,
      "▁sivil": 7455,
      "orous": 7456,
      "▁1962,": 7457,
      "Th": 7458,
      "orney": 7459,
      "▁sisp": 7460,
      "▁pages": 7461,
      "▁credited": 7462,
      "▁legislation": 7463,
      "thm": 7464,
      "▁partn": 7465,
      "▁navig": 7466,
      "▁represents": 7467,
      "▁convin": 7468,
      "▁legs": 7469,
      "▁impossible": 7470,
      "▁radyo": 7471,
      "▁Family": 7472,
      "▁begun": 7473,
      "▁easier": 7474,
      "▁96": 7475,
      "where": 7476,
      "borne": 7477,
      "▁promotion": 7478,
      "▁Ale": 7479,
      "▁Again": 7480,
      "▁130": 7481,
      "▁genre": 7482,
      "▁ax": 7483,
      "active": 7484,
      "arsh": 7485,
      "▁spend": 7486,
      "▁Kat": 7487,
      "▁returns": 7488,
      "▁Kilti": 7489,
      "▁establishment": 7490,
      "▁77": 7491,
      "andy": 7492,
      "▁hits": 7493,
      "▁looks": 7494,
      "▁1936": 7495,
      "▁actress": 7496,
      "▁Nether": 7497,
      "▁instruments": 7498,
      "ić": 7499,
      "▁invited": 7500,
      "▁describing": 7501,
      "wan": 7502,
      "▁kontak": 7503,
      "▁classified": 7504,
      "▁medikal": 7505,
      "▁segment": 7506,
      "▁file": 7507,
      "▁otorite": 7508,
      "▁distributed": 7509,
      "▁Korea": 7510,
      "▁Kreyòl": 7511,
      "▁perspective": 7512,
      "▁Hitler": 7513,
      "▁faster": 7514,
      "▁profession": 7515,
      "▁Sante": 7516,
      "▁78": 7517,
      "elye": 7518,
      "CC": 7519,
      "▁bag": 7520,
      "▁Pur": 7521,
      "▁sispann": 7522,
      "using": 7523,
      "▁businesses": 7524,
      "▁franchise": 7525,
      "▁separated": 7526,
      "▁replacement": 7527,
      "rikilti": 7528,
      "▁Kong": 7529,
      "▁simpl": 7530,
      "▁Minnes": 7531,
      "▁expert": 7532,
      "▁Hamilton": 7533,
      "▁Gib": 7534,
      "iterranean": 7535,
      "▁absence": 7536,
      "BI": 7537,
      "▁Cre": 7538,
      "▁4.": 7539,
      "▁1959": 7540,
      "asters": 7541,
      "ami": 7542,
      "▁surf": 7543,
      "▁1904.": 7544,
      "▁radiation": 7545,
      "▁Laure": 7546,
      "▁sessions": 7547,
      "▁Feder": 7548,
      "▁ing": 7549,
      "▁Gouvènman": 7550,
      "aug": 7551,
      "▁emerged": 7552,
      "▁1957": 7553,
      "▁Missouri": 7554,
      "▁diplomatik": 7555,
      "oncé": 7556,
      "▁adjust": 7557,
      "▁format": 7558,
      "▁emissions": 7559,
      "▁owners": 7560,
      "▁wed": 7561,
      "▁cooper": 7562,
      "▁Sav": 7563,
      "▁intention": 7564,
      "▁Corpor": 7565,
      "▁admitted": 7566,
      "rant": 7567,
      "▁favorite": 7568,
      "▁Alb": 7569,
      "▁conscious": 7570,
      "▁1919": 7571,
      "▁reven": 7572,
      "zon": 7573,
      "▁Mountain": 7574,
      "▁baseball": 7575,
      "acher": 7576,
      "▁1947": 7577,
      "▁estasyon": 7578,
      "▁historic": 7579,
      "▁rub": 7580,
      "▁posted": 7581,
      "orted": 7582,
      "▁phenomen": 7583,
      "oming": 7584,
      "▁crossed": 7585,
      "▁Bush": 7586,
      "▁Kooper": 7587,
      "▁Turk": 7588,
      "▁Staff": 7589,
      "uts": 7590,
      "▁immune": 7591,
      "omic": 7592,
      "▁courts": 7593,
      "▁Mediterranean": 7594,
      "▁Gordon": 7595,
      "▁Indians": 7596,
      "▁expensive": 7597,
      "itter": 7598,
      "iqu": 7599,
      "21": 7600,
      "▁conservation": 7601,
      "▁pp": 7602,
      "▁persu": 7603,
      "▁excellent": 7604,
      "▁gameplay": 7605,
      "chang": 7606,
      "▁Olympics": 7607,
      "ching": 7608,
      "▁agree": 7609,
      "▁Sinema": 7610,
      "▁forming": 7611,
      "▁storyline": 7612,
      "▁);": 7613,
      "▁Agrikilti": 7614,
      "▁1953": 7615,
      "▁asistans": 7616,
      "▁1955": 7617,
      "▁Know": 7618,
      "▁dwèt": 7619,
      "▁Naval": 7620,
      "▁Assembly": 7621,
      "▁Adams": 7622,
      "▁breaking": 7623,
      "▁Howard": 7624,
      "▁Heart": 7625,
      "▁Touris": 7626,
      "▁mand": 7627,
      "▁alfabet": 7628,
      "▁Beyoncé": 7629,
      "▁lb": 7630,
      "▁jobs": 7631,
      "▁Pèsonalite": 7632,
      "▁Airport": 7633,
      "”.": 7634,
      "▁Pit": 7635,
      "▁hal": 7636,
      "▁encouraged": 7637,
      "▁reprann": 7638,
      "ellect": 7639,
      "inction": 7640,
      "▁arrested": 7641,
      "▁worst": 7642,
      "▁deleg": 7643,
      "▁Konstriksyon": 7644,
      "▁69": 7645,
      "▁vast": 7646,
      "▁alfabetizasyon": 7647,
      "OT": 7648,
      "▁trials": 7649,
      "▁koumanse": 7650,
      "▁pèsonalite": 7651,
      "▁OEA": 7652,
      "▁Pèch": 7653,
      "▁300000": 7654,
      "▁stadium": 7655,
      "▁Centre": 7656,
      "▁ethnic": 7657,
      "▁chanselye": 7658,
      "onotik": 7659,
      "▁Five": 7660,
      "ewonotik": 7661,
      "▁Dabòn": 7662,
      "▁survive": 7663,
      "▁Author": 7664,
      "▁Kooperasyon": 7665,
      "▁Therefore": 7666,
      "▁modified": 7667,
      "▁Jay": 7668,
      "uster": 7669,
      "▁Aewonotik": 7670,
      "▁ble": 7671,
      "▁Asian": 7672,
      "iller": 7673,
      "▁spr": 7674,
      "▁177": 7675,
      "▁classic": 7676,
      "▁Shortly": 7677,
      "▁participate": 7678,
      "▁colonial": 7679,
      "▁dating": 7680,
      "▁sail": 7681,
      "▁protest": 7682,
      "▁Sym": 7683,
      "▁ca": 7684,
      "athy": 7685,
      "▁suitable": 7686,
      "▁Dra": 7687,
      "▁1910": 7688,
      "▁drinking": 7689,
      "▁attributed": 7690,
      "western": 7691,
      "▁programme": 7692,
      "incess": 7693,
      "▁prey": 7694,
      "▁victims": 7695,
      "▁involves": 7696,
      "ewhere": 7697,
      "▁whereas": 7698,
      "▁Kennedy": 7699,
      "▁province": 7700,
      "▁Pear": 7701,
      "▁stable": 7702,
      "▁VII": 7703,
      "▁Hawai": 7704,
      "nings": 7705,
      "related": 7706,
      "▁thirty": 7707,
      "▁Minnesota": 7708,
      "▁plane": 7709,
      "▁Band": 7710,
      "▁Temple": 7711,
      "GN": 7712,
      "▁ameriken": 7713,
      "▁Der": 7714,
      "hedral": 7715,
      "▁detect": 7716,
      "zer": 7717,
      "▁shore": 7718,
      "▁comments": 7719,
      "▁yourself": 7720,
      "▁Non": 7721,
      "▁minister": 7722,
      "PS": 7723,
      "▁temporary": 7724,
      "▁phone": 7725,
      "itid": 7726,
      "▁hill": 7727,
      "▁Where": 7728,
      "elson": 7729,
      "▁superior": 7730,
      "▁Memorial": 7731,
      "▁Throughout": 7732,
      "▁resemb": 7733,
      "▁participants": 7734,
      "spec": 7735,
      "▁forests": 7736,
      "▁drawing": 7737,
      "▁Marg": 7738,
      "▁Mexican": 7739,
      "▁synthes": 7740,
      "▁informed": 7741,
      "45": 7742,
      "▁root": 7743,
      "▁organic": 7744,
      "olo": 7745,
      "▁Jacob": 7746,
      "▁stood": 7747,
      "▁retreat": 7748,
      "acent": 7749,
      "▁penal": 7750,
      "▁falling": 7751,
      "▁copy": 7752,
      "▁ru": 7753,
      "▁Hou": 7754,
      "▁Eric": 7755,
      "▁Bos": 7756,
      "ificial": 7757,
      "▁Use": 7758,
      "▁struggle": 7759,
      "▁reduction": 7760,
      "▁”": 7761,
      "▁Alan": 7762,
      "▁voted": 7763,
      "iley": 7764,
      "▁enemies": 7765,
      "▁prepare": 7766,
      "▁Those": 7767,
      "ctic": 7768,
      "▁description": 7769,
      "▁charges": 7770,
      "ré": 7771,
      "▁premier": 7772,
      "▁electronic": 7773,
      "▁Bang": 7774,
      "war": 7775,
      "▁liquid": 7776,
      "▁Nes": 7777,
      "burn": 7778,
      "▁Douglas": 7779,
      "▁67": 7780,
      "otes": 7781,
      "wick": 7782,
      "▁Beach": 7783,
      "▁Ele": 7784,
      "▁Using": 7785,
      "▁documents": 7786,
      "▁concrete": 7787,
      "▁refuge": 7788,
      "▁110": 7789,
      "▁cul": 7790,
      "▁1937": 7791,
      "▁Marine": 7792,
      "ultane": 7793,
      "heastern": 7794,
      "indu": 7795,
      "▁sons": 7796,
      "▁Third": 7797,
      "hire": 7798,
      "▁Jordan": 7799,
      "▁regiment": 7800,
      "chen": 7801,
      "▁Bab": 7802,
      "▁Cart": 7803,
      "emed": 7804,
      "▁Marie": 7805,
      "▁findings": 7806,
      "▁parliament": 7807,
      "▁repair": 7808,
      "▁flowers": 7809,
      "olas": 7810,
      "▁custom": 7811,
      "▁McK": 7812,
      "▁pin": 7813,
      "iac": 7814,
      "▁Master": 7815,
      "▁1954": 7816,
      "▁believes": 7817,
      "▁certified": 7818,
      "▁Hor": 7819,
      "▁milk": 7820,
      "▁manage": 7821,
      "▁Matthew": 7822,
      "▁Phys": 7823,
      "▁Tony": 7824,
      "apping": 7825,
      "iox": 7826,
      "▁incorporated": 7827,
      "apse": 7828,
      "▁Argent": 7829,
      "▁accused": 7830,
      "▁facing": 7831,
      "iege": 7832,
      "▁streets": 7833,
      "coming": 7834,
      "aks": 7835,
      "▁dated": 7836,
      "▁Rhodes": 7837,
      "racy": 7838,
      "▁fict": 7839,
      "▁Santa": 7840,
      "ints": 7841,
      "▁Gab": 7842,
      "▁roots": 7843,
      "▁CE": 7844,
      "esis": 7845,
      "▁Lyn": 7846,
      "▁foundation": 7847,
      "▁98": 7848,
      "inding": 7849,
      "▁Ho": 7850,
      "▁occasionally": 7851,
      "ografik": 7852,
      "▁Hospital": 7853,
      "ture": 7854,
      "vens": 7855,
      "▁frequent": 7856,
      "▁Bh": 7857,
      "▁milit": 7858,
      "▁remainder": 7859,
      "▁landfall": 7860,
      "▁winner": 7861,
      "▁stead": 7862,
      "wich": 7863,
      "▁grav": 7864,
      "▁sacr": 7865,
      "aki": 7866,
      "▁tied": 7867,
      "▁Food": 7868,
      "▁Ford": 7869,
      "bro": 7870,
      "▁spoke": 7871,
      "▁Medical": 7872,
      "▁advoc": 7873,
      "cho": 7874,
      "▁alter": 7875,
      "ete": 7876,
      "▁reinforce": 7877,
      "ivals": 7878,
      "▁Gh": 7879,
      "bourne": 7880,
      "▁Muslim": 7881,
      "▁portrayed": 7882,
      "6.": 7883,
      "▁freeway": 7884,
      "▁channel": 7885,
      "▁Magazine": 7886,
      "▁missions": 7887,
      "▁Iraq": 7888,
      "▁recalled": 7889,
      "▁controversy": 7890,
      "itye": 7891,
      "ailed": 7892,
      "▁Stra": 7893,
      "▁Iowa": 7894,
      "▁municip": 7895,
      "▁electrical": 7896,
      "ulum": 7897,
      "▁Bou": 7898,
      "▁sick": 7899,
      "▁soti": 7900,
      "alities": 7901,
      "▁bom": 7902,
      "▁housing": 7903,
      "erald": 7904,
      "uv": 7905,
      "▁Nob": 7906,
      "▁monit": 7907,
      "▁−": 7908,
      "▁suit": 7909,
      "roph": 7910,
      "▁rooms": 7911,
      "▁union": 7912,
      "▁interior": 7913,
      "▁explan": 7914,
      "▁sale": 7915,
      "▁denied": 7916,
      "▁intense": 7917,
      "▁involvement": 7918,
      "▁intent": 7919,
      "él": 7920,
      "▁Bol": 7921,
      "▁Songs": 7922,
      "▁bon": 7923,
      "▁Dog": 7924,
      "35": 7925,
      "▁Conc": 7926,
      "▁classical": 7927,
      "▁hip": 7928,
      "▁Ut": 7929,
      "▁moderate": 7930,
      "▁88": 7931,
      "▁jewografik": 7932,
      "▁Bry": 7933,
      "▁pounds": 7934,
      "▁sin": 7935,
      "▁175": 7936,
      "otype": 7937,
      "err": 7938,
      "psons": 7939,
      "▁references": 7940,
      "DA": 7941,
      "▁Freder": 7942,
      "phone": 7943,
      "▁explore": 7944,
      "▁ash": 7945,
      "▁external": 7946,
      "exp": 7947,
      "▁colony": 7948,
      "urches": 7949,
      "▁waves": 7950,
      "▁frequency": 7951,
      "acc": 7952,
      "▁Iron": 7953,
      "▁adopt": 7954,
      "▁Open": 7955,
      "▁prol": 7956,
      "▁concentration": 7957,
      "ogether": 7958,
      "▁Simpsons": 7959,
      "cont": 7960,
      "▁Alab": 7961,
      "▁brand": 7962,
      "▁opera": 7963,
      "uther": 7964,
      "▁narrative": 7965,
      "▁historians": 7966,
      "▁Video": 7967,
      "erto": 7968,
      "▁Modern": 7969,
      "▁spending": 7970,
      "▁almanak": 7971,
      "▁Rain": 7972,
      "▁Nich": 7973,
      "▁hotel": 7974,
      "▁memorial": 7975,
      "▁explo": 7976,
      "claimed": 7977,
      "▁Ever": 7978,
      "▁render": 7979,
      "olar": 7980,
      "▁noting": 7981,
      "▁gene": 7982,
      "▁listen": 7983,
      "inations": 7984,
      "▁continuing": 7985,
      "▁prohib": 7986,
      "▁visitors": 7987,
      "▁Gun": 7988,
      "night": 7989,
      "▁Micro": 7990,
      "▁proteins": 7991,
      "▁covers": 7992,
      "▁recovered": 7993,
      "▁multi": 7994,
      "▁knots": 7995,
      "▁Theatre": 7996,
      "▁Mississ": 7997,
      "▁assessment": 7998,
      "▁Lim": 7999,
      "▁agents": 8000,
      "▁uniform": 8001,
      "opes": 8002,
      "▁samples": 8003,
      "▁torn": 8004,
      "▁giant": 8005,
      "▁certainly": 8006,
      "▁Kr": 8007,
      "▁Obs": 8008,
      "▁Somet": 8009,
      "▁Alabama": 8010,
      "▁acknowled": 8011,
      "onto": 8012,
      "▁scheme": 8013,
      "▁coordin": 8014,
      "▁justice": 8015,
      "▁Od": 8016,
      "▁Administ": 8017,
      "▁FA": 8018,
      "▁uncertain": 8019,
      "▁MTV": 8020,
      "▁cryst": 8021,
      "aws": 8022,
      "▁prices": 8023,
      "▁É": 8024,
      "je": 8025,
      "olitan": 8026,
      "icon": 8027,
      "dule": 8028,
      "itzer": 8029,
      "ersed": 8030,
      "tes": 8031,
      "▁substantial": 8032,
      "▁surrounded": 8033,
      "▁wants": 8034,
      "▁salt": 8035,
      "▁Ult": 8036,
      "EN": 8037,
      "▁Bowl": 8038,
      "▁practical": 8039,
      "▁Having": 8040,
      "kes": 8041,
      "▁gender": 8042,
      "▁missed": 8043,
      "▁Vis": 8044,
      "osm": 8045,
      "▁Prior": 8046,
      "▁fixed": 8047,
      "▁completion": 8048,
      "▁1949": 8049,
      "▁kingdom": 8050,
      "MA": 8051,
      "ilit": 8052,
      "▁supporters": 8053,
      "▁mine": 8054,
      "▁muscle": 8055,
      "▁tested": 8056,
      "ère": 8057,
      "▁attracted": 8058,
      "▁leta": 8059,
      "▁cup": 8060,
      "▁ske": 8061,
      "igenous": 8062,
      "▁component": 8063,
      "▁1900": 8064,
      "▁judge": 8065,
      "▁circuit": 8066,
      "▁investment": 8067,
      "▁bot": 8068,
      "▁topic": 8069,
      "▁readers": 8070,
      "▁disappoint": 8071,
      "▁Native": 8072,
      "▁Any": 8073,
      "▁eighth": 8074,
      "eld": 8075,
      "▁94": 8076,
      "▁ere": 8077,
      "▁poison": 8078,
      "▁persons": 8079,
      "▁passengers": 8080,
      "▁Cook": 8081,
      "▁Philip": 8082,
      "▁NC": 8083,
      "▁Mit": 8084,
      "▁diameter": 8085,
      "▁relie": 8086,
      "▁intellect": 8087,
      "▁tub": 8088,
      "▁AI": 8089,
      "▁willing": 8090,
      "▁classification": 8091,
      "▁Bah": 8092,
      "▁crash": 8093,
      "▁rarely": 8094,
      "lye": 8095,
      "po": 8096,
      "▁1935": 8097,
      "uma": 8098,
      "▁alleged": 8099,
      "▁inher": 8100,
      "▁Around": 8101,
      "▁behaviour": 8102,
      "▁rivers": 8103,
      "▁pointed": 8104,
      "▁Professor": 8105,
      "▁89": 8106,
      "▁medieval": 8107,
      "ker": 8108,
      "▁circumstances": 8109,
      "aya": 8110,
      "▁pron": 8111,
      "aza": 8112,
      "▁1952": 8113,
      "▁entertain": 8114,
      "▁Tru": 8115,
      "▁percentage": 8116,
      "▁Init": 8117,
      "zi": 8118,
      "▁isolated": 8119,
      "▁Netherlands": 8120,
      "anth": 8121,
      "usal": 8122,
      "teenth": 8123,
      "8.": 8124,
      "▁pretty": 8125,
      "▁crops": 8126,
      "▁criminal": 8127,
      "reck": 8128,
      "ori": 8129,
      "▁1933": 8130,
      "▁inhabit": 8131,
      "▁obtain": 8132,
      "▁surviv": 8133,
      "▁poetry": 8134,
      "▁79": 8135,
      "▁Raj": 8136,
      "pet": 8137,
      "estyle": 8138,
      "▁vital": 8139,
      "▁representing": 8140,
      "ocol": 8141,
      "apped": 8142,
      "▁Tal": 8143,
      "▁Norwe": 8144,
      "gus": 8145,
      "grad": 8146,
      "cell": 8147,
      "▁controll": 8148,
      "▁restored": 8149,
      "▁Media": 8150,
      "▁Kevin": 8151,
      "▁nerv": 8152,
      "arr": 8153,
      "▁87": 8154,
      "▁dollars": 8155,
      "▁PA": 8156,
      "atever": 8157,
      "▁surviving": 8158,
      "▁Transport": 8159,
      "▁abund": 8160,
      "▁Sweden": 8161,
      "▁hosted": 8162,
      "▁hunting": 8163,
      "▁Sin": 8164,
      "▁sitye": 8165,
      "▁Rights": 8166,
      "▁stayed": 8167,
      "osaurus": 8168,
      "▁plastic": 8169,
      "▁Maur": 8170,
      "ht": 8171,
      "▁Stat": 8172,
      "▁rig": 8173,
      "▁nutri": 8174,
      "ials": 8175,
      "▁Mulder": 8176,
      "▁comparison": 8177,
      "▁difficulties": 8178,
      "▁lect": 8179,
      "▁smooth": 8180,
      "etime": 8181,
      "▁resolution": 8182,
      "emor": 8183,
      "aints": 8184,
      "onomic": 8185,
      "▁inspiration": 8186,
      "▁tot": 8187,
      "agle": 8188,
      "▁governments": 8189,
      "▁Fig": 8190,
      "▁82": 8191,
      "uty": 8192,
      "▁sees": 8193,
      "▁curren": 8194,
      "▁mobile": 8195,
      "iner": 8196,
      "▁diabetes": 8197,
      "▁weapon": 8198,
      "ogle": 8199,
      "▁deter": 8200,
      "han": 8201,
      "▁Dick": 8202,
      "▁seeking": 8203,
      "▁pup": 8204,
      "▁flex": 8205,
      "▁Juan": 8206,
      "▁elections": 8207,
      "▁styles": 8208,
      "▁falls": 8209,
      "▁nurs": 8210,
      "▁preferred": 8211,
      "▁driver": 8212,
      "▁UTC": 8213,
      "▁Allen": 8214,
      "iyografi": 8215,
      "▁boys": 8216,
      "▁Cooper": 8217,
      "▁CR": 8218,
      "▁Merc": 8219,
      "▁composer": 8220,
      "▁videos": 8221,
      "▁farmers": 8222,
      "▁properly": 8223,
      "▁bes": 8224,
      "▁playoff": 8225,
      "▁turb": 8226,
      "▁Hand": 8227,
      "▁Cult": 8228,
      "▁fill": 8229,
      "year": 8230,
      "▁Ryan": 8231,
      "▁unn": 8232,
      "▁shots": 8233,
      "duction": 8234,
      "▁1951": 8235,
      "▁Cost": 8236,
      "▁plus": 8237,
      "endment": 8238,
      "▁fur": 8239,
      "▁Bruce": 8240,
      "▁valid": 8241,
      "▁institution": 8242,
      "▁Colorado": 8243,
      "▁nit": 8244,
      "▁Chèf": 8245,
      "▁Lanc": 8246,
      "CA": 8247,
      "▁Channel": 8248,
      "▁anniversary": 8249,
      "▁Trib": 8250,
      "▁Mississipp": 8251,
      "▁Stadium": 8252,
      "▁Berlin": 8253,
      "▁Retrieved": 8254,
      "olve": 8255,
      "▁lung": 8256,
      "▁Dor": 8257,
      "▁nomination": 8258,
      "▁accurate": 8259,
      "▁watching": 8260,
      "ng": 8261,
      "▁AR": 8262,
      "▁Finally": 8263,
      "▁asc": 8264,
      "senal": 8265,
      "▁painted": 8266,
      "▁parent": 8267,
      "▁apparently": 8268,
      "▁Hell": 8269,
      "▁false": 8270,
      "▁Morgan": 8271,
      "▁simultane": 8272,
      "▁neighborhood": 8273,
      "▁bones": 8274,
      "▁Phill": 8275,
      "▁brigade": 8276,
      "▁Call": 8277,
      "▁technologies": 8278,
      "▁talking": 8279,
      "▁champion": 8280,
      "▁wings": 8281,
      "▁Fred": 8282,
      "▁97": 8283,
      "▁aged": 8284,
      "▁string": 8285,
      "▁Along": 8286,
      "▁concepts": 8287,
      "▁partnership": 8288,
      "▁commanded": 8289,
      "veland": 8290,
      "▁Greece": 8291,
      "▁switch": 8292,
      "▁Robinson": 8293,
      "nold": 8294,
      "▁Guide": 8295,
      "▁restric": 8296,
      "▁gard": 8297,
      "▁asking": 8298,
      "\",": 8299,
      "agonist": 8300,
      "▁divisions": 8301,
      "▁Row": 8302,
      "▁demonstrated": 8303,
      "▁<": 8304,
      "▁Toronto": 8305,
      "▁tempor": 8306,
      "ET": 8307,
      "▁Ger": 8308,
      "▁NASA": 8309,
      "▁Students": 8310,
      "▁Nelson": 8311,
      "▁medal": 8312,
      "-20": 8313,
      "▁departure": 8314,
      "elsh": 8315,
      "▁angle": 8316,
      "▁windows": 8317,
      "▁clinical": 8318,
      "▁fishing": 8319,
      "▁reveals": 8320,
      "▁demol": 8321,
      "▁engage": 8322,
      "▁wire": 8323,
      "rastructure": 8324,
      "elli": 8325,
      "▁impress": 8326,
      "▁Stanley": 8327,
      "▁wooden": 8328,
      "▁neutral": 8329,
      "▁wasn": 8330,
      "▁Kansas": 8331,
      "▁Lisa": 8332,
      "▁electron": 8333,
      "chers": 8334,
      "▁adaptation": 8335,
      "phoon": 8336,
      "▁hoped": 8337,
      "▁à": 8338,
      "▁doubt": 8339,
      "▁Gard": 8340,
      "▁Bible": 8341,
      "▁tries": 8342,
      "▁Samuel": 8343,
      "▁personality": 8344,
      "▁haz": 8345,
      "▁toxic": 8346,
      "▁comprehens": 8347,
      "▁Publ": 8348,
      "▁Aff": 8349,
      "▁existed": 8350,
      "▁Military": 8351,
      "▁Imp": 8352,
      "ods": 8353,
      "▁potentially": 8354,
      "▁Cru": 8355,
      "▁aggress": 8356,
      "▁fled": 8357,
      "▁Vinc": 8358,
      "▁orbit": 8359,
      "▁collaboration": 8360,
      "▁bay": 8361,
      "▁IGN": 8362,
      "▁convinced": 8363,
      "▁votes": 8364,
      "▁arts": 8365,
      "▁José": 8366,
      "▁cultiv": 8367,
      "▁Belg": 8368,
      "▁earthqu": 8369,
      "iere": 8370,
      "▁Mach": 8371,
      "▁praise": 8372,
      "▁Bishop": 8373,
      "ST": 8374,
      "òd": 8375,
      "▁patrol": 8376,
      "▁downtown": 8377,
      "▁Cleveland": 8378,
      "▁Hop": 8379,
      "pan": 8380,
      "▁sailed": 8381,
      "▁unless": 8382,
      "▁Norman": 8383,
      "▁lowest": 8384,
      "▁valuable": 8385,
      "▁meets": 8386,
      "▁armor": 8387,
      "cription": 8388,
      "olph": 8389,
      "riven": 8390,
      "▁approaches": 8391,
      "ér": 8392,
      "▁delayed": 8393,
      "▁Norwegian": 8394,
      "▁recover": 8395,
      "▁obst": 8396,
      "▁subt": 8397,
      "▁DE": 8398,
      "▁Born": 8399,
      "▁controversial": 8400,
      "rix": 8401,
      "uters": 8402,
      "▁Mort": 8403,
      "▁particles": 8404,
      "sole": 8405,
      "▁Andy": 8406,
      "▁awareness": 8407,
      "▁coff": 8408,
      "▁permission": 8409,
      "▁Brist": 8410,
      "-3": 8411,
      "▁preparation": 8412,
      "▁Rick": 8413,
      "▁gap": 8414,
      "▁kit": 8415,
      "▁Biyografi": 8416,
      "▁orb": 8417,
      "▁TH": 8418,
      "▁input": 8419,
      "▁monarch": 8420,
      "▁railroad": 8421,
      "It": 8422,
      "▁requested": 8423,
      "▁strategies": 8424,
      "▁Mississippi": 8425,
      "▁gat": 8426,
      "▁Contin": 8427,
      "én": 8428,
      "▁disaster": 8429,
      "▁agency": 8430,
      "▁situations": 8431,
      "▁Blood": 8432,
      "ishment": 8433,
      "▁evil": 8434,
      "▁tone": 8435,
      "rition": 8436,
      "▁alien": 8437,
      "▁2020": 8438,
      "▁Yank": 8439,
      "▁wheel": 8440,
      "ifies": 8441,
      "▁Front": 8442,
      "▁Jam": 8443,
      "▁rescue": 8444,
      "▁rising": 8445,
      "atherine": 8446,
      "amps": 8447,
      "▁Chron": 8448,
      "▁Furthermore": 8449,
      "▁toler": 8450,
      "▁philosophy": 8451,
      "▁Nevertheless": 8452,
      "iens": 8453,
      "▁drink": 8454,
      "▁sharp": 8455,
      "▁dominated": 8456,
      "▁solutions": 8457,
      "xual": 8458,
      "osystem": 8459,
      "▁assemb": 8460,
      "igrants": 8461,
      "▁fewer": 8462,
      "▁offering": 8463,
      "▁fictional": 8464,
      "▁84": 8465,
      "▁Brun": 8466,
      "▁Real": 8467,
      "▁oblig": 8468,
      "▁abuse": 8469,
      "omes": 8470,
      "▁rid": 8471,
      "▁climb": 8472,
      "rans": 8473,
      "▁dissip": 8474,
      "▁experts": 8475,
      "▁accum": 8476,
      "▁animated": 8477,
      "▁attempting": 8478,
      "▁pictures": 8479,
      "▁Natural": 8480,
      "▁clubs": 8481,
      "▁decide": 8482,
      "▁HIV": 8483,
      "▁tight": 8484,
      "▁enthus": 8485,
      "▁vessel": 8486,
      "▁landscape": 8487,
      "▁bran": 8488,
      "▁indicates": 8489,
      "▁principle": 8490,
      "▁dub": 8491,
      "alo": 8492,
      "achment": 8493,
      "▁controls": 8494,
      "▁banks": 8495,
      "uman": 8496,
      "yard": 8497,
      "▁survival": 8498,
      "▁Morris": 8499,
      "▁ben": 8500,
      "▁Bor": 8501,
      "▁frame": 8502,
      "▁flower": 8503,
      "AAF": 8504,
      "▁err": 8505,
      "▁Tar": 8506,
      "▁Weekly": 8507,
      "▁Ts": 8508,
      "▁theatre": 8509,
      "▁processing": 8510,
      "azing": 8511,
      "▁covering": 8512,
      "▁offices": 8513,
      "▁influences": 8514,
      "▁discip": 8515,
      "▁targets": 8516,
      "▁loyal": 8517,
      "▁understood": 8518,
      "▁colleagues": 8519,
      "▁Bird": 8520,
      "▁Energy": 8521,
      "▁Welsh": 8522,
      "▁Tun": 8523,
      "▁satellite": 8524,
      "▁Lenn": 8525,
      "▁encourage": 8526,
      "▁contribute": 8527,
      "▁1913": 8528,
      "fire": 8529,
      "▁Sarah": 8530,
      "▁moon": 8531,
      "▁representative": 8532,
      "▁Ah": 8533,
      "▁schedule": 8534,
      "▁Lane": 8535,
      "-0": 8536,
      "rating": 8537,
      "▁Guy": 8538,
      "▁influential": 8539,
      "▁usual": 8540,
      "9,": 8541,
      "itudes": 8542,
      "▁id": 8543,
      "wealth": 8544,
      "▁finishing": 8545,
      "▁93": 8546,
      "emet": 8547,
      "▁seeds": 8548,
      "▁festival": 8549,
      "ls": 8550,
      "▁Exper": 8551,
      "▁predecess": 8552,
      "▁prog": 8553,
      "▁precip": 8554,
      "▁walking": 8555,
      "▁(1": 8556,
      "▁Studies": 8557,
      "▁cutting": 8558,
      "▁aboard": 8559,
      "hist": 8560,
      "▁eleven": 8561,
      "▁86": 8562,
      "ronze": 8563,
      "▁anticip": 8564,
      "▁penalty": 8565,
      "ibilities": 8566,
      "▁tum": 8567,
      "▁jur": 8568,
      "▁deemed": 8569,
      "▁Origin": 8570,
      "▁residential": 8571,
      "▁conventional": 8572,
      "▁×": 8573,
      "▁net": 8574,
      "▁erect": 8575,
      "▁claiming": 8576,
      "▁Fa": 8577,
      "orph": 8578,
      "▁arrangement": 8579,
      "▁Sn": 8580,
      "gi": 8581,
      "▁musicians": 8582,
      "aux": 8583,
      "▁Palest": 8584,
      "▁Tok": 8585,
      "▁Much": 8586,
      "▁Less": 8587,
      "▁marks": 8588,
      "▁blocks": 8589,
      "oyd": 8590,
      "▁Scully": 8591,
      "omot": 8592,
      "▁Bristol": 8593,
      "▁biological": 8594,
      "▁Aud": 8595,
      "agu": 8596,
      "fish": 8597,
      "stic": 8598,
      "▁mac": 8599,
      "▁throne": 8600,
      "unc": 8601,
      "▁recovery": 8602,
      "nest": 8603,
      "▁NBA": 8604,
      "▁consistent": 8605,
      "▁documentary": 8606,
      "avery": 8607,
      "▁els": 8608,
      "▁feeding": 8609,
      "▁experiments": 8610,
      "ennis": 8611,
      "▁truck": 8612,
      "▁rit": 8613,
      "▁DC": 8614,
      "▁marine": 8615,
      "▁Pope": 8616,
      "▁reception": 8617,
      "▁flank": 8618,
      "▁papers": 8619,
      "▁remn": 8620,
      "▁horiz": 8621,
      "atinum": 8622,
      "▁cavalry": 8623,
      "▁remix": 8624,
      "lyn": 8625,
      "▁executed": 8626,
      "▁depicted": 8627,
      "▁pushed": 8628,
      "▁Rolling": 8629,
      "▁terminus": 8630,
      "▁Dal": 8631,
      "▁elsewhere": 8632,
      "▁Winter": 8633,
      "zing": 8634,
      "▁longest": 8635,
      "▁characterized": 8636,
      "▁prevented": 8637,
      "ocracy": 8638,
      "▁abilities": 8639,
      "▁satisf": 8640,
      "▁valley": 8641,
      "▁Story": 8642,
      "▁fitted": 8643,
      "▁fossil": 8644,
      "▁limits": 8645,
      "icks": 8646,
      "▁shift": 8647,
      "▁landed": 8648,
      "emetery": 8649,
      "▁insects": 8650,
      "▁observations": 8651,
      "otton": 8652,
      "▁Da": 8653,
      "▁Mas": 8654,
      "▁hem": 8655,
      "▁Lam": 8656,
      "▁friendly": 8657,
      "▁Armen": 8658,
      "▁delivery": 8659,
      "▁Thompson": 8660,
      "▁Corporation": 8661,
      "▁sequel": 8662,
      "▁links": 8663,
      "noon": 8664,
      "▁sky": 8665,
      "▁prosp": 8666,
      "uscript": 8667,
      "▁afterwards": 8668,
      "▁Ot": 8669,
      "▁mit": 8670,
      "▁hyper": 8671,
      "▁ride": 8672,
      "▁objective": 8673,
      "▁Technology": 8674,
      "▁Brother": 8675,
      "▁races": 8676,
      "ancer": 8677,
      "ographical": 8678,
      "▁Bernard": 8679,
      "▁reconst": 8680,
      "▁Wright": 8681,
      "▁agriculture": 8682,
      "▁density": 8683,
      "▁matters": 8684,
      "▁liver": 8685,
      "5.": 8686,
      "ilst": 8687,
      "oly": 8688,
      "pòt": 8689,
      "▁beach": 8690,
      "▁Carter": 8691,
      "▁Russell": 8692,
      "▁Jacques": 8693,
      "▁telling": 8694,
      "▁Finn": 8695,
      "otyp": 8696,
      "▁WWE": 8697,
      "▁procedure": 8698,
      "▁invent": 8699,
      "▁Nesans": 8700,
      "24": 8701,
      "▁Kal": 8702,
      "gas": 8703,
      "▁audio": 8704,
      "▁Nature": 8705,
      "▁Saf": 8706,
      "▁cod": 8707,
      "▁Spe": 8708,
      "ruption": 8709,
      "▁Cry": 8710,
      "▁flash": 8711,
      "anta": 8712,
      "▁danger": 8713,
      "▁hydrogen": 8714,
      "▁belt": 8715,
      "▁ratings": 8716,
      "▁recip": 8717,
      "▁Ark": 8718,
      "▁tex": 8719,
      "▁prove": 8720,
      "▁appearing": 8721,
      "▁rum": 8722,
      "éd": 8723,
      "▁strict": 8724,
      "ixon": 8725,
      "▁diverse": 8726,
      "▁bat": 8727,
      "▁partly": 8728,
      "li": 8729,
      "▁ST": 8730,
      "care": 8731,
      "▁1934": 8732,
      "▁adm": 8733,
      "oga": 8734,
      "▁Anthony": 8735,
      "▁graphics": 8736,
      "fare": 8737,
      "▁Wat": 8738,
      "▁deployed": 8739,
      "▁presidential": 8740,
      "▁indeed": 8741,
      "▁assass": 8742,
      "ui": 8743,
      "ika": 8744,
      "▁Sax": 8745,
      "▁wish": 8746,
      "▁monument": 8747,
      "▁Nar": 8748,
      "▁alg": 8749,
      "▁disag": 8750,
      "ivan": 8751,
      "▁compounds": 8752,
      "▁basketball": 8753,
      "▁Dean": 8754,
      "▁decrease": 8755,
      "▁outl": 8756,
      "ti": 8757,
      "▁Puerto": 8758,
      "▁pound": 8759,
      "tre": 8760,
      "▁colors": 8761,
      "▁terror": 8762,
      "▁happens": 8763,
      "▁Police": 8764,
      "▁Alexand": 8765,
      "▁mountains": 8766,
      "▁passenger": 8767,
      "▁random": 8768,
      "▁scenar": 8769,
      "▁Ministry": 8770,
      "▁Win": 8771,
      "▁sup": 8772,
      "▁ages": 8773,
      "▁supplement": 8774,
      "▁tasks": 8775,
      "▁guarant": 8776,
      "▁surprise": 8777,
      "▁moist": 8778,
      "▁advis": 8779,
      "▁Mes": 8780,
      "▁Death": 8781,
      "▁infrastructure": 8782,
      "rot": 8783,
      "Ch": 8784,
      "▁Las": 8785,
      "▁aimed": 8786,
      "▁coins": 8787,
      "adi": 8788,
      "▁paintings": 8789,
      "▁Harris": 8790,
      "▁verse": 8791,
      "▁crosses": 8792,
      "▁secured": 8793,
      "▁airport": 8794,
      "▁unlike": 8795,
      "▁Read": 8796,
      "▁enters": 8797,
      "▁Roberts": 8798,
      "▁fundamental": 8799,
      "26": 8800,
      "▁hypothes": 8801,
      "jan": 8802,
      "▁Control": 8803,
      "▁convention": 8804,
      "▁sweet": 8805,
      "▁Hans": 8806,
      "▁fasc": 8807,
      "▁recur": 8808,
      "▁61": 8809,
      "▁1912": 8810,
      "eas": 8811,
      "▁chest": 8812,
      "▁churches": 8813,
      "▁violent": 8814,
      "▁manufacturing": 8815,
      "▁risks": 8816,
      "▁Houston": 8817,
      "▁AS": 8818,
      "▁chorus": 8819,
      "umps": 8820,
      "▁carrier": 8821,
      "▁Look": 8822,
      "▁overw": 8823,
      "▁suffer": 8824,
      "▁Commonwealth": 8825,
      "▁accompany": 8826,
      "▁mart": 8827,
      "▁Beatles": 8828,
      "oslav": 8829,
      "▁relevant": 8830,
      "▁manufactur": 8831,
      "▁Kelly": 8832,
      "▁markets": 8833,
      "▁resource": 8834,
      "see": 8835,
      "▁empt": 8836,
      "▁displayed": 8837,
      "lah": 8838,
      "ortunately": 8839,
      "▁Rab": 8840,
      "▁partially": 8841,
      "▁bats": 8842,
      "▁trouble": 8843,
      "▁dismissed": 8844,
      "▁romantic": 8845,
      "▁USS": 8846,
      "▁exists": 8847,
      "▁dialogue": 8848,
      "▁elder": 8849,
      "▁vic": 8850,
      "▁Make": 8851,
      "▁Hend": 8852,
      "▁engineer": 8853,
      "▁founder": 8854,
      "▁Diego": 8855,
      "▁villages": 8856,
      "▁demands": 8857,
      "▁140": 8858,
      "▁putting": 8859,
      "▁Fact": 8860,
      "▁Building": 8861,
      "▁recre": 8862,
      "▁Quest": 8863,
      "▁minimal": 8864,
      "▁sav": 8865,
      "lie": 8866,
      "▁Horn": 8867,
      "▁attacking": 8868,
      "▁skill": 8869,
      "asp": 8870,
      "mad": 8871,
      "rin": 8872,
      "▁territories": 8873,
      "▁coin": 8874,
      "▁Byzantine": 8875,
      "▁consequences": 8876,
      "▁Small": 8877,
      "ded": 8878,
      "▁wickets": 8879,
      "▁artificial": 8880,
      "▁Arsenal": 8881,
      "espe": 8882,
      "▁Son": 8883,
      "iks": 8884,
      "▁Trust": 8885,
      "▁extract": 8886,
      "rus": 8887,
      "vy": 8888,
      "roit": 8889,
      "▁Trad": 8890,
      "▁liv": 8891,
      "▁pip": 8892,
      "▁Benj": 8893,
      "23": 8894,
      "▁crucial": 8895,
      "owder": 8896,
      "▁efficiency": 8897,
      "▁Late": 8898,
      "enh": 8899,
      "▁ray": 8900,
      "▁Design": 8901,
      "▁coverage": 8902,
      "▁Hindu": 8903,
      "▁slaves": 8904,
      "▁ongoing": 8905,
      "▁1927": 8906,
      "▁printed": 8907,
      "itals": 8908,
      "onies": 8909,
      "▁vice": 8910,
      "earing": 8911,
      "▁stores": 8912,
      "▁Set": 8913,
      "▁reyalize": 8914,
      "tery": 8915,
      "▁improvement": 8916,
      "▁5.": 8917,
      "▁Parker": 8918,
      "▁Garden": 8919,
      "FC": 8920,
      "▁suicide": 8921,
      "▁tel": 8922,
      "ounced": 8923,
      "▁clothing": 8924,
      "oen": 8925,
      "▁sentence": 8926,
      "▁preserved": 8927,
      "▁genes": 8928,
      "▁dramatic": 8929,
      "▁picked": 8930,
      "▁profit": 8931,
      "▁formerly": 8932,
      "▁Dur": 8933,
      "▁lists": 8934,
      "ocking": 8935,
      "▁dies": 8936,
      "eor": 8937,
      "attered": 8938,
      "▁mining": 8939,
      "▁Murray": 8940,
      ");": 8941,
      "▁evolved": 8942,
      "inces": 8943,
      "▁commemor": 8944,
      "ource": 8945,
      "name": 8946,
      "▁1932": 8947,
      "imore": 8948,
      "▁Palace": 8949,
      "▁anxiety": 8950,
      "fit": 8951,
      "rav": 8952,
      "▁dominant": 8953,
      "▁MS": 8954,
      "▁syndrome": 8955,
      "▁gay": 8956,
      "▁interpre": 8957,
      "▁afternoon": 8958,
      "▁disorders": 8959,
      "obile": 8960,
      "▁forg": 8961,
      "ourage": 8962,
      "▁neighb": 8963,
      "arth": 8964,
      "bb": 8965,
      "▁1911": 8966,
      "▁Premier": 8967,
      "▁aqu": 8968,
      "▁Mess": 8969,
      "▁therm": 8970,
      "aired": 8971,
      "▁boil": 8972,
      "▁panel": 8973,
      "▁Marshall": 8974,
      "▁1926": 8975,
      "▁considering": 8976,
      "▁Cuba": 8977,
      "▁pace": 8978,
      "▁Anna": 8979,
      "▁bombard": 8980,
      "▁approval": 8981,
      "▁summ": 8982,
      "▁encounter": 8983,
      "▁encountered": 8984,
      "▁Singles": 8985,
      "onsin": 8986,
      "▁Swedish": 8987,
      "▁strip": 8988,
      "▁Wy": 8989,
      "▁tribes": 8990,
      "▁releases": 8991,
      "▁Advent": 8992,
      "▁tag": 8993,
      "oven": 8994,
      "▁Psych": 8995,
      "▁collapse": 8996,
      "▁Area": 8997,
      "▁diagnosis": 8998,
      "▁intervention": 8999,
      "òm": 9000,
      "rator": 9001,
      "▁cogn": 9002,
      "▁battleships": 9003,
      "▁adjacent": 9004,
      "▁Data": 9005,
      "▁quiet": 9006,
      "▁announce": 9007,
      "▁notably": 9008,
      "acle": 9009,
      "▁colonies": 9010,
      "▁Take": 9011,
      "▁Turkish": 9012,
      "▁forth": 9013,
      "44": 9014,
      "▁pap": 9015,
      "ibbean": 9016,
      "▁Business": 9017,
      "▁Ban": 9018,
      "agen": 9019,
      "▁Pin": 9020,
      "▁continu": 9021,
      "▁Jess": 9022,
      "▁Silver": 9023,
      "▁merely": 9024,
      "sters": 9025,
      "▁vertical": 9026,
      "isconsin": 9027,
      "▁Lon": 9028,
      "otten": 9029,
      "▁dimens": 9030,
      "▁interaction": 9031,
      "eu": 9032,
      "▁courses": 9033,
      "▁Oliv": 9034,
      "yd": 9035,
      "▁os": 9036,
      "▁Mario": 9037,
      "isd": 9038,
      "▁firing": 9039,
      "bòl": 9040,
      "-8": 9041,
      "▁Austria": 9042,
      "▁Wrest": 9043,
      "▁traveled": 9044,
      "▁appointment": 9045,
      "▁Fame": 9046,
      "▁pollution": 9047,
      "▁Fem": 9048,
      "fficient": 9049,
      "ropolitan": 9050,
      "▁span": 9051,
      "▁removal": 9052,
      "acon": 9053,
      "▁surge": 9054,
      "▁employment": 9055,
      "verty": 9056,
      "▁Wisconsin": 9057,
      "▁ninth": 9058,
      "▁legend": 9059,
      "▁hat": 9060,
      "▁vel": 9061,
      "▁Iran": 9062,
      "▁Tenness": 9063,
      "irèl": 9064,
      "▁ratio": 9065,
      "▁Clinton": 9066,
      "arked": 9067,
      "▁Egyptian": 9068,
      "▁inflamm": 9069,
      "▁circle": 9070,
      "▁tekn": 9071,
      "▁diversity": 9072,
      "▁facts": 9073,
      "▁Caribbean": 9074,
      "▁Hud": 9075,
      "▁submarine": 9076,
      "▁transportation": 9077,
      "▁rhythm": 9078,
      "▁Hungarian": 9079,
      "▁underground": 9080,
      "ét": 9081,
      "▁Ariz": 9082,
      "▁classroom": 9083,
      "▁specimens": 9084,
      "▁manuscript": 9085,
      "▁compens": 9086,
      "▁debt": 9087,
      "away": 9088,
      "▁saved": 9089,
      "▁fighter": 9090,
      "▁ou": 9091,
      "▁retirement": 9092,
      "▁Buck": 9093,
      "▁Lawrence": 9094,
      "espeare": 9095,
      "▁Connect": 9096,
      "anny": 9097,
      "utor": 9098,
      "▁loan": 9099,
      "▁scholar": 9100,
      "▁successor": 9101,
      "▁infections": 9102,
      "nt": 9103,
      "▁extend": 9104,
      "▁poverty": 9105,
      "OC": 9106,
      "▁afford": 9107,
      "▁vulnerable": 9108,
      "eign": 9109,
      "▁Croatian": 9110,
      "▁AN": 9111,
      "▁facilit": 9112,
      "▁Apple": 9113,
      "▁programming": 9114,
      "▁fab": 9115,
      "▁push": 9116,
      "▁songwrit": 9117,
      "▁Expl": 9118,
      "▁Nazi": 9119,
      "▁ranging": 9120,
      "orious": 9121,
      "▁dust": 9122,
      "▁ecosystem": 9123,
      "▁reflected": 9124,
      "▁170": 9125,
      "▁Management": 9126,
      "▁estimates": 9127,
      "▁confidence": 9128,
      "▁Oak": 9129,
      "▁pump": 9130,
      "▁restoration": 9131,
      "▁1921": 9132,
      "▁au": 9133,
      "▁convection": 9134,
      "▁Christopher": 9135,
      "▁blog": 9136,
      "▁formally": 9137,
      "▁canal": 9138,
      "▁Tennessee": 9139,
      "iami": 9140,
[...]
