<unk>	0
<s>	0
</s>	0
<pad>	0
<user>	0
<assistant>	0
<system>	0
▁the	-3.09631
▁,	-3.51771
s	-3.71999
▁of	-3.74825
▁.	-3.82559
▁and	-3.8571
▁to	-4.03732
▁in	-4.15059
▁a	-4.18078
.	-4.32701
,	-4.39601
▁"	-4.78313
▁was	-4.90656
▁The	-5.00487
▁that	-5.0797
▁@	-5.08933
▁for	-5.11795
▁is	-5.13897
▁'	-5.1664
▁on	-5.20998
▁	-5.23412
-@	-5.25642
▁with	-5.26187
▁as	-5.27515
▁(	-5.31817
▁by	-5.36379
▁from	-5.6371
▁)	-5.6944
▁at	-5.724
▁it	-5.75192
▁his	-5.81227
▁an	-5.87569
▁be	-5.90462
▁are	-5.91483
▁were	-5.95489
ing	-6.04328
▁In	-6.04987
▁he	-6.08271
-	-6.08362
▁:	-6.09573
▁which	-6.10021
▁or	-6.12144
ed	-6.17806
▁had	-6.1929
▁not	-6.25413
▁have	-6.31389
▁their	-6.34684
▁but	-6.39129
▁A	-6.39534
▁this	-6.41647
▁also	-6.48736
e	-6.49453
d	-6.51542
t	-6.52059
▁one	-6.53027
▁has	-6.54592
▁I	-6.56645
▁first	-6.5891
▁they	-6.6111
▁its	-6.65291
▁who	-6.66691
▁can	-6.68574
▁her	-6.69286
▁been	-6.69629
’	-6.69698
▁–	-6.70524
▁more	-6.72578
▁two	-6.75319
▁;	-6.76883
▁It	-6.78223
:	-6.80129
▁He	-6.807
▁other	-6.81362
▁time	-6.81573
ly	-6.83426
er	-6.84221
▁into	-6.86019
▁you	-6.86771
y	-6.86872
▁-	-6.87056
▁all	-6.88339
▁would	-6.88345
)	-6.88446
th	-6.91886
▁after	-6.95949
.@	-6.96837
▁1	-6.97734
▁about	-6.97913
▁when	-6.97973
▁de	-6.98279
▁2	-6.98375
▁over	-7.00161
a	-7.0247
'	-7.02595
▁@,@	-7.02707
▁than	-7.04804
▁out	-7.05858
▁nan	-7.06762
▁up	-7.07482
n	-7.07716
▁This	-7.10398
▁only	-7.12789
▁3	-7.14409
▁most	-7.16176
▁will	-7.17094
▁new	-7.22264
▁between	-7.23107
▁during	-7.23429
▁such	-7.23826
▁she	-7.2439
▁some	-7.26345
▁them	-7.26972
▁him	-7.2815
o	-7.30548
▁used	-7.31532
▁so	-7.34985
▁there	-7.36191
▁three	-7.36212
▁5	-7.36631
es	-7.37684
▁where	-7.37799
▁while	-7.38011
▁we	-7.38424
i	-7.38873
▁your	-7.40527
al	-7.4071
▁years	-7.40827
▁made	-7.4118
▁through	-7.41921
▁no	-7.42367
▁may	-7.42533
▁4	-7.43772
▁people	-7.44348
▁later	-7.44687
m	-7.44912
▁these	-7.45017
▁game	-7.45683
▁well	-7.45724
▁many	-7.4588
▁year	-7.45967
▁before	-7.46632
▁“	-7.47077
▁being	-7.47242
▁On	-7.47789
▁New	-7.48341
re	-7.52307
▁then	-7.53747
▁use	-7.53809
▁part	-7.5587
▁work	-7.56203
in	-7.56972
r	-7.57056
▁could	-7.57552
▁number	-7.57947
▁both	-7.59036
▁S	-7.59736
▁6	-7.60249
▁like	-7.61266
S	-7.61385
▁said	-7.62079
▁film	-7.62127
▁B	-7.62527
▁under	-7.63309
▁including	-7.63745
▁against	-7.6486
▁second	-7.65561
▁As	-7.65689
▁if	-7.65814
▁season	-7.65846
▁do	-7.65863
▁C	-7.67775
▁/	-7.6815
▁000	-7.68634
▁what	-7.68816
▁—	-7.69826
▁re	-7.70238
▁any	-7.70909
▁10	-7.71741
▁United	-7.71944
;	-7.72273
▁because	-7.73692
▁became	-7.74173
▁American	-7.75294
▁7	-7.76332
▁After	-7.76346
▁known	-7.76513
▁day	-7.76734
▁se	-7.77463
▁U	-7.77509
▁=	-7.79242
man	-7.79299
▁found	-7.79518
▁E	-7.7962
▁four	-7.80267
▁did	-7.80278
▁several	-7.80866
▁same	-7.81341
▁8	-7.81679
▁called	-7.82108
?	-7.82644
▁team	-7.82661
▁song	-7.8302
▁series	-7.83244
▁each	-7.84241
▁album	-7.84304
▁end	-7.85649
▁long	-7.85706
▁early	-7.86041
en	-7.86095
▁They	-7.86666
▁high	-7.86891
▁M	-7.86948
▁water	-7.8715
▁make	-7.87555
g	-7.88465
▁D	-7.88498
▁back	-7.88586
▁9	-7.88632
/	-7.88885
▁around	-7.8897
▁how	-7.89539
▁sa	-7.90102
▁system	-7.90888
▁F	-7.91221
▁until	-7.91409
▁At	-7.91554
k	-7.91762
▁She	-7.92607
▁began	-7.93991
▁much	-7.94913
▁life	-7.94961
▁very	-7.95027
ers	-7.95096
l	-7.95451
▁million	-7.95596
▁episode	-7.95715
▁However	-7.96053
▁world	-7.96347
▁state	-7.96508
▁those	-7.97383
▁way	-7.97526
▁15	-7.97865
▁just	-7.98182
▁P	-7.98705
▁our	-7.99047
▁For	-7.99339
▁20	-7.99789
▁area	-8.00664
▁12	-8.00785
▁down	-8.01032
▁L	-8.01096
▁off	-8.01334
▁States	-8.01393
▁16	-8.02001
▁yo	-8.02033
▁even	-8.02054
an	-8.02447
).	-8.03178
▁following	-8.03228
▁British	-8.03534
▁$	-8.04167
▁[	-8.04767
▁released	-8.0534
▁G	-8.05383
▁R	-8.0544
▁When	-8.05545
▁own	-8.06246
▁0	-8.06388
us	-8.07095
▁large	-8.07623
▁T	-8.07699
▁li	-8.07747
▁place	-8.07817
▁should	-8.07881
▁17	-8.08739
▁different	-8.08801
st	-8.08939
▁War	-8.09104
▁O	-8.09247
▁yon	-8.09274
▁along	-8.09311
▁May	-8.09339
▁since	-8.09449
▁now	-8.09483
▁World	-8.09838
▁John	-8.09933
▁m	-8.1015
on	-8.10343
▁set	-8.10645
or	-8.11151
▁There	-8.11265
▁music	-8.11455
▁group	-8.11621
▁century	-8.12102
▁took	-8.12513
▁another	-8.12539
▁September	-8.1287
▁home	-8.13047
c	-8.13091
▁show	-8.13625
▁km	-8.14652
b	-8.14772
▁often	-8.15057
▁five	-8.15546
▁government	-8.15711
▁war	-8.1608
▁city	-8.16146
ic	-8.16577
▁August	-8.16607
▁men	-8.16849
▁single	-8.1694
▁still	-8.1716
▁take	-8.17999
▁name	-8.18319
▁due	-8.18422
▁small	-8.1846
▁11	-8.18721
▁US	-8.19035
▁based	-8.19091
▁York	-8.19442
2	-8.19712
▁received	-8.19955
▁help	-8.20144
▁To	-8.20223
▁K	-8.20986
▁left	-8.21142
▁children	-8.21262
▁family	-8.21472
▁within	-8.21602
▁October	-8.2167
▁best	-8.21903
A	-8.22083
▁We	-8.22542
▁school	-8.22729
▁La	-8.23013
▁using	-8.24819
▁June	-8.24844
▁ak	-8.24882
p	-8.25074
▁line	-8.26031
u	-8.26119
▁By	-8.26223
▁last	-8.26363
▁power	-8.26517
▁species	-8.2677
▁per	-8.26952
▁July	-8.27477
▁March	-8.27782
▁North	-8.27957
▁s	-8.2832
▁If	-8.29036
▁public	-8.29222
▁13	-8.29255
▁30	-8.29617
le	-8.29625
▁April	-8.29632
▁un	-8.29646
▁November	-8.29913
▁form	-8.3042
▁...	-8.30505
▁South	-8.30538
▁H	-8.30656
▁good	-8.30995
▁During	-8.31293
▁&	-8.31336
▁without	-8.31343
▁These	-8.31351
▁final	-8.31376
▁National	-8.31478
▁14	-8.31649
▁No	-8.31733
▁important	-8.32017
able	-8.3238
▁N	-8.3256
),	-8.32689
▁J	-8.32837
▁third	-8.33237
▁get	-8.33261
▁St	-8.33294
▁character	-8.33319
▁become	-8.33486
▁main	-8.33536
▁next	-8.33581
▁included	-8.33582
▁few	-8.33833
▁near	-8.33997
▁major	-8.34085
▁]	-8.34126
▁18	-8.34382
▁%	-8.35384
ity	-8.35831
▁support	-8.35856
▁University	-8.36186
▁local	-8.36558
▁One	-8.36833
▁An	-8.36977
▁December	-8.3714
C	-8.3738
▁led	-8.37523
▁side	-8.37587
▁January	-8.3764
▁role	-8.3791
▁death	-8.38083
▁right	-8.38216
▁book	-8.38254
▁play	-8.38368
▁wrote	-8.38774
h	-8.38954
ar	-8.39139
▁include	-8.39476
▁won	-8.39489
te	-8.3987
”	-8.39905
▁see	-8.40069
▁however	-8.4024
▁His	-8.40404
▁six	-8.40547
▁days	-8.40683
ve	-8.4069
▁point	-8.40703
▁order	-8.40708
▁need	-8.41041
▁described	-8.4122
▁development	-8.41229
B	-8.41279
▁played	-8.41363
▁body	-8.41436
▁2010	-8.43009
z	-8.43061
▁again	-8.4342
▁vil	-8.43737
▁production	-8.43767
▁among	-8.43847
▁band	-8.43973
▁record	-8.43982
▁You	-8.44012
▁original	-8.44098
▁built	-8.44269
f	-8.44313
▁All	-8.44491
▁late	-8.44542
▁named	-8.44546
▁kòm	-8.44583
▁my	-8.44639
▁W	-8.44939
▁te	-8.45004
▁man	-8.45061
▁less	-8.45084
to	-8.45495
▁further	-8.45799
▁Le	-8.45817
▁non	-8.45855
ist	-8.46386
▁19	-8.46414
▁Li	-8.46784
D	-8.46789
▁me	-8.4683
ia	-8.46849
▁top	-8.47082
▁German	-8.4712
ation	-8.47142
▁period	-8.47217
▁having	-8.48074
▁French	-8.48256
▁came	-8.48306
▁2011	-8.48393
▁given	-8.48454
▁history	-8.48623
▁north	-8.48949
▁ship	-8.48957
▁100	-8.48981
▁held	-8.49002
▁although	-8.49185
▁control	-8.49224
▁Istwa	-8.49227
"	-8.49359
▁2009	-8.49433
ta	-8.49756
▁De	-8.49756
▁25	-8.4982
▁English	-8.49937
ton	-8.50088
▁students	-8.50165
▁2008	-8.50375
▁considered	-8.50397
▁example	-8.5062
▁But	-8.50657
▁story	-8.50741
▁February	-8.51114
▁great	-8.51218
▁country	-8.51533
▁video	-8.51575
▁members	-8.51803
ian	-8.51879
▁lead	-8.51992
▁result	-8.52623
ism	-8.52664
▁short	-8.52785
▁While	-8.52854
▁study	-8.53151
▁making	-8.53681
▁does	-8.53832
▁common	-8.54098
▁old	-8.54391
▁V	-8.54569
▁la	-8.54762
▁2012	-8.55548
▁must	-8.5558
▁Although	-8.55812
ne	-8.55912
▁women	-8.55977
▁health	-8.55986
▁release	-8.56142
▁human	-8.56157
▁though	-8.56189
▁information	-8.56246
▁2007	-8.56271
na	-8.5634
▁go	-8.5642
▁half	-8.56907
▁level	-8.57185
3	-8.57841
▁research	-8.58105
▁land	-8.58213
▁south	-8.58324
▁air	-8.58602
▁games	-8.58757
▁West	-8.58787
▁continued	-8.58851
is	-8.59064
▁never	-8.59403
▁low	-8.59483
▁able	-8.596
▁every	-8.59657
▁England	-8.59908
▁similar	-8.60094
▁Re	-8.60095
ness	-8.60534
▁d	-8.60654
▁building	-8.6067
▁too	-8.60863
F	-8.6097
▁process	-8.61049
▁position	-8.61071
▁published	-8.61414
▁total	-8.62012
▁written	-8.62191
▁areas	-8.6239
▁change	-8.6257
▁match	-8.62648
▁head	-8.62699
il	-8.62789
▁company	-8.62833
ll	-8.63193
▁light	-8.63201
▁across	-8.63578
▁21	-8.63878
▁City	-8.64386
▁class	-8.64441
▁age	-8.64654
▁former	-8.64826
ry	-8.64859
▁River	-8.64987
▁food	-8.65058
▁24	-8.65074
▁little	-8.65141
▁case	-8.65244
▁data	-8.65924
▁away	-8.65938
▁service	-8.6608
▁various	-8.66204
▁us	-8.66211
▁According	-8.6622
▁version	-8.66303
▁II	-8.6636
▁Some	-8.66438
▁King	-8.6648
▁co	-8.66583
▁find	-8.66631
▁storm	-8.66673
1	-8.66748
ch	-8.67039
▁developed	-8.67371
▁e	-8.67431
▁moved	-8.67431
▁times	-8.67753
▁America	-8.67837
▁produced	-8.68061
▁2013	-8.68075
▁State	-8.68111
▁London	-8.68479
▁2006	-8.68657
▁With	-8.69104
▁general	-8.69158
▁present	-8.69203
▁design	-8.69595
▁fire	-8.69614
▁run	-8.69654
▁full	-8.69771
▁attack	-8.69913
ment	-8.70013
▁know	-8.70622
▁went	-8.70677
la	-8.70857
ma	-8.70893
el	-8.71267
▁week	-8.71674
▁might	-8.71814
▁gave	-8.71869
▁lost	-8.71921
▁seen	-8.72172
▁Ayiti	-8.72768
▁And	-8.72771
▁created	-8.73178
▁What	-8.73244
son	-8.73352
▁months	-8.73356
▁epi	-8.73386
▁population	-8.73493
▁player	-8.73668
E	-8.73717
▁possible	-8.73976
▁better	-8.74427
▁white	-8.7452
▁together	-8.74547
nd	-8.7455
x	-8.74698
▁So	-8.74979
▁military	-8.75071
▁range	-8.75228
▁political	-8.75235
▁addition	-8.75236
▁town	-8.75406
▁house	-8.75704
ie	-8.75833
▁force	-8.75882
age	-8.7593
▁put	-8.76083
▁performance	-8.76124
id	-8.76128
▁black	-8.76552
▁50	-8.76592
▁law	-8.7668
▁p	-8.76746
H	-8.7681
▁person	-8.76904
co	-8.77523
▁thought	-8.77576
▁father	-8.77775
▁east	-8.77813
▁22	-8.77834
▁taken	-8.77849
▁l	-8.77956
▁national	-8.78211
▁himself	-8.78294
N	-8.78343
▁returned	-8.78422
▁project	-8.78428
▁forces	-8.785
▁Sa	-8.78531
▁child	-8.78599
▁social	-8.78656
it	-8.78684
▁available	-8.78896
▁career	-8.78939
▁Kiba	-8.79026
▁writing	-8.79183
▁live	-8.79304
▁reported	-8.79448
P	-8.7973
▁ki	-8.79734
▁west	-8.80128
▁2014	-8.8015
V	-8.80189
de	-8.80199
.”	-8.80385
▁field	-8.8054
▁throughout	-8.80542
▁Man	-8.80712
ra	-8.80818
w	-8.80947
▁General	-8.81101
I	-8.81117
▁William	-8.81153
▁pre	-8.81195
▁Australia	-8.8133
M	-8.81414
▁once	-8.81484
▁free	-8.81642
▁site	-8.81654
▁working	-8.81728
▁2005	-8.8185
▁come	-8.81881
▁James	-8.81901
▁Al	-8.81992
G	-8.82004
▁stated	-8.82045
▁recorded	-8.82045
da	-8.82066
▁least	-8.82264
um	-8.8233
▁died	-8.82697
▁God	-8.82728
▁provide	-8.8293
▁son	-8.82937
▁rather	-8.82998
▁hand	-8.83176
▁young	-8.83241
▁23	-8.83651
▁return	-8.84007
▁c	-8.84117
▁start	-8.84401
▁energy	-8.84627
▁ten	-8.84642
▁track	-8.84647
▁night	-8.84669
▁others	-8.84709
▁al	-8.84855
▁previous	-8.84965
▁George	-8.85158
▁caused	-8.8532
ine	-8.85355
T	-8.85512
ive	-8.85551
▁Park	-8.85668
▁cause	-8.85912
▁sent	-8.86026
▁action	-8.86054
▁far	-8.86164
▁modern	-8.86376
ley	-8.86965
▁aircraft	-8.87371
▁40	-8.87445
▁upon	-8.87931
▁close	-8.88121
▁damage	-8.88158
▁sea	-8.88179
▁title	-8.8819
com	-8.88242
et	-8.88307
▁open	-8.88385
▁either	-8.88588
▁ayisyen	-8.88623
▁type	-8.88773
ling	-8.88828
▁2000	-8.88851
▁ships	-8.88859
land	-8.88893
▁remained	-8.89124
▁established	-8.89208
▁followed	-8.89603
▁Army	-8.89753
men	-8.90272
▁started	-8.90296
▁style	-8.90579
▁feet	-8.90684
▁ground	-8.90702
▁almost	-8.90791
me	-8.90919
ro	-8.911
▁2015	-8.9119
▁Japanese	-8.91428
▁County	-8.9148
▁strong	-8.91538
▁San	-8.91699
▁give	-8.91949
▁post	-8.92081
▁club	-8.92277
▁X	-8.92526
▁popular	-8.92654
▁added	-8.92685
▁think	-8.92685
▁reached	-8.92762
▁average	-8.92774
▁felt	-8.93026
▁region	-8.93034
▁Co	-8.9316
▁ant	-8.93209
▁road	-8.93234
▁instead	-8.93431
W	-8.93483
▁28	-8.93511
at	-8.93518
▁h	-8.93591
▁above	-8.93613
▁School	-8.93742
▁Dr	-8.93773
▁fact	-8.93831
▁eight	-8.93867
▁El	-8.93895
▁Division	-8.93926
▁performed	-8.94084
▁2004	-8.94132
▁seven	-8.94171
ion	-8.94181
▁27	-8.94218
▁success	-8.94241
!	-8.94419
ate	-8.94502
▁noted	-8.9452
▁member	-8.94523
▁points	-8.94755
▁miles	-8.94763
▁Street	-8.94787
▁enough	-8.94834
▁rest	-8.95042
▁front	-8.95066
▁usually	-8.95165
▁provided	-8.95203
▁win	-8.95252
▁ever	-8.95299
▁26	-8.95418
▁features	-8.95447
▁percent	-8.95478
▁program	-8.95628
▁future	-8.95663
ary	-8.95845
▁served	-8.95877
▁blood	-8.95885
▁significant	-8.96009
▁characters	-8.96064
ur	-8.96214
▁car	-8.96363
é	-8.96368
▁That	-8.96522
▁killed	-8.96524
▁community	-8.96534
▁race	-8.96567
▁going	-8.96617
am	-8.96632
▁located	-8.96716
▁risk	-8.96978
▁David	-8.9699
▁East	-8.97358
▁lower	-8.97472
be	-8.97547
▁en	-8.97573
▁France	-8.97806
▁disease	-8.97863
ir	-8.97891
▁ft	-8.97957
▁means	-8.97992
▁behind	-8.98065
▁stage	-8.98134
K	-8.9824
▁announced	-8.98249
ized	-8.98257
▁battle	-8.98295
ous	-8.98325
the	-8.98331
▁Me	-8.98398
O	-8.9846
▁works	-8.9896
▁mi	-8.99116
▁love	-8.99262
▁songs	-8.99423
▁television	-8.99452
▁course	-8.9946
▁special	-8.99508
▁space	-8.99516
▁event	-8.99924
▁increased	-9.0005
▁don	-9.00128
▁saw	-9.00155
▁formed	-9.00265
▁League	-9.00514
▁Road	-9.00567
▁create	-9.00734
▁eventually	-9.00757
▁past	-9.00795
j	-9.00839
▁born	-9.00939
▁increase	-9.00967
▁mother	-9.00977
▁language	-9.01034
ty	-9.01103
▁Australian	-9.01193
▁pressure	-9.01263
▁especially	-9.01303
ca	-9.01385
▁House	-9.01441
▁European	-9.01447
▁real	-9.01533
▁campaign	-9.01556
▁natural	-9.01604
▁Vil	-9.01636
▁Ko	-9.01818
▁Be	-9.01845
as	-9.01853
▁leading	-9.01875
▁hours	-9.01898
▁evidence	-9.01912
▁want	-9.01933
▁|	-9.01975
▁Etazini	-9.0199
▁designed	-9.02052
▁material	-9.02133
▁decided	-9.02209
ge	-9.02278
▁experience	-9.02431
▁construction	-9.02477
less	-9.02515
▁Europe	-9.02557
▁generally	-9.02714
▁appeared	-9.02842
▁star	-9.02898
▁problems	-9.02974
▁likely	-9.02977
▁lane	-9.03059
▁mid	-9.03394
▁route	-9.03437
▁training	-9.03451
ter	-9.035
▁Michael	-9.03616
▁involved	-9.03634
▁look	-9.03727
▁tropical	-9.03813
▁term	-9.04159
▁2003	-9.04185
▁Robert	-9.04278
rs	-9.04352
ner	-9.04427
▁towards	-9.04536
▁changes	-9.0458
▁From	-9.04596
▁events	-9.04644
▁brought	-9.04681
▁always	-9.04768
▁already	-9.04959
4	-9.04978
▁players	-9.0498
▁sold	-9.05087
▁current	-9.05164
▁surface	-9.05213
▁something	-9.0535
▁higher	-9.05436
os	-9.05635
no	-9.05668
▁required	-9.05771
▁here	-9.05792
▁Black	-9.05805
▁move	-9.05819
▁according	-9.05913
▁weeks	-9.06044
ad	-9.06067
▁keep	-9.06085
▁things	-9.06195
▁mm	-9.06203
▁heavy	-9.06529
▁effects	-9.06579
▁29	-9.06761
▁countries	-9.06855
▁taking	-9.06937
▁Her	-9.07028
▁completed	-9.07205
▁particularly	-9.07387
▁worked	-9.07413
ant	-9.07545
▁itself	-9.07607
▁Washington	-9.07708
▁Royal	-9.07807
▁idea	-9.0792
▁Air	-9.08055
▁list	-9.08328
do	-9.08438
▁command	-9.08519
▁soon	-9.08661
▁anti	-9.08853
▁allowed	-9.09219
▁business	-9.09321
▁et	-9.09346
5	-9.09355
▁effect	-9.09357
▁First	-9.09377
▁cost	-9.09417
▁plan	-9.09685
▁turn	-9.09693
▁groups	-9.09713
▁art	-9.09744
▁outside	-9.09807
▁playing	-9.09808
▁party	-9.09836
▁size	-9.09899
▁!	-9.10128
▁treatment	-9.10138
▁individual	-9.10201
▁eta	-9.10258
▁placed	-9.10436
▁loss	-9.10457
ting	-9.10498
▁2001	-9.10517
▁con	-9.10616
▁self	-9.10809
▁heart	-9.10815
—	-9.11131
di	-9.11212
▁Do	-9.11213
▁‘	-9.11233
▁states	-9.11251
▁station	-9.1126
▁’	-9.11282
▁India	-9.11527
▁whether	-9.11555
▁positive	-9.11569
▁conditions	-9.11653
▁interest	-9.11723
▁t	-9.1177
▁office	-9.12168
▁President	-9.12245
wa	-9.1229
▁red	-9.12293
▁says	-9.12327
▁goal	-9.12675
▁key	-9.12765
▁Most	-9.12823
,”	-9.12849
▁levels	-9.12924
▁opened	-9.12929
▁education	-9.1296
li	-9.13048
▁Paul	-9.13091
▁Other	-9.13259
▁wanted	-9.13423
▁pou	-9.13493
▁done	-9.13511
▁largest	-9.13556
▁Henry	-9.13618
▁care	-9.13774
▁money	-9.13855
den	-9.13869
ri	-9.13914
▁2002	-9.14528
est	-9.14548
▁really	-9.14569
▁minutes	-9.14622
L	-9.14641
ul	-9.1477
▁science	-9.14812
▁originally	-9.14925
▁Many	-9.14977
▁month	-9.14983
▁relationship	-9.14988
▁sound	-9.1503
▁issue	-9.15111
▁believed	-9.15185
▁successful	-9.15214
▁sou	-9.15262
se	-9.1547
▁central	-9.15491
▁rock	-9.15978
▁hit	-9.15979
▁200	-9.15986
ba	-9.16083
ent	-9.16331
ke	-9.16337
▁court	-9.16357
▁report	-9.1638
▁plant	-9.16435
▁met	-9.16517
▁earlier	-9.16716
▁International	-9.16841
▁moun	-9.17125
▁scene	-9.17218
▁living	-9.17321
▁test	-9.17445
▁Canada	-9.17524
▁say	-9.17593
▁related	-9.1763
▁themselves	-9.17665
▁certain	-9.17755
▁beginning	-9.17799
||	-9.17845
▁Two	-9.1803
▁complete	-9.18043
▁view	-9.18089
ol	-9.1811
▁base	-9.1819
▁problem	-9.18345
▁island	-9.18358
▁international	-9.18424
▁Japan	-9.1843
▁director	-9.18511
▁California	-9.18531
▁wife	-9.18634
▁word	-9.18643
▁hard	-9.18797
▁structure	-9.1883
ha	-9.1898
▁Despite	-9.19027
▁army	-9.19181
▁parts	-9.19206
▁Thomas	-9.19408
ka	-9.1942
▁sometimes	-9.19489
▁tour	-9.19543
▁read	-9.19652
▁Charles	-9.19653
▁media	-9.1968
▁fourth	-9.1973
▁Sea	-9.19738
ted	-9.19889
▁lack	-9.19909
▁?	-9.19912
▁Red	-9.19988
▁lyen	-9.20023
▁response	-9.20026
lo	-9.20123
▁difficult	-9.20219
▁words	-9.2037
▁face	-9.2043
▁access	-9.20436
▁Act	-9.20461
▁guns	-9.20465
▁saying	-9.20573
▁Kèk	-9.20624
▁troops	-9.20812
▁referans	-9.20881
▁particular	-9.20907
▁highest	-9.20997
▁31	-9.21011
▁economic	-9.21034
▁rights	-9.21047
▁section	-9.21109
go	-9.21236
▁500	-9.21279
▁cut	-9.21318
▁told	-9.21419
rd	-9.21439
▁nature	-9.21737
▁whole	-9.21743
▁Con	-9.21746
▁Ayisyen	-9.21827
▁sub	-9.21857
▁today	-9.21979
▁elements	-9.22193
▁rate	-9.22367
▁opening	-9.22473
▁entire	-9.22501
▁associated	-9.22527
▁1996	-9.22536
▁passed	-9.22645
▁pa	-9.22769
▁My	-9.22817
▁personal	-9.22875
▁longer	-9.22996
▁Indian	-9.23024
▁quickly	-9.23039
▁cover	-9.23055
▁Court	-9.2308
▁whose	-9.23088
▁below	-9.23129
▁shows	-9.23241
▁church	-9.23304
▁additional	-9.23322
▁Best	-9.23461
mo	-9.2355
▁movement	-9.2357
▁wide	-9.23667
line	-9.23825
▁joined	-9.23888
▁Great	-9.24025
▁oil	-9.24331
▁specific	-9.24366
▁Church	-9.24578
▁needed	-9.24924
▁replaced	-9.25033
▁Battle	-9.25041
▁center	-9.25055
▁Jewografi	-9.25129
▁amount	-9.25137
▁turned	-9.25142
▁review	-9.25143
▁featured	-9.25204
v	-9.25207
ler	-9.25267
▁Referans	-9.25299
▁relasyon	-9.25509
▁Union	-9.25664
▁source	-9.25777
▁southern	-9.25795
▁model	-9.2582
▁speed	-9.25822
▁Mo	-9.25898
▁Earth	-9.25903
▁decision	-9.26067
▁official	-9.26124
▁scored	-9.26189
▁forced	-9.26311
▁b	-9.26372
▁Relasyon	-9.26409
▁practice	-9.2648
▁larger	-9.2672
up	-9.26751
▁issues	-9.26756
▁Following	-9.26976
▁1990	-9.26986
un	-9.27068
The	-9.27086
▁White	-9.27237
▁quality	-9.27242
▁results	-9.27489
▁cases	-9.27511
▁asked	-9.27531
▁How	-9.27583
ally	-9.27665
▁prevent	-9.27703
▁allow	-9.27785
ce	-9.2791
ated	-9.27985
▁runs	-9.27986
▁Z	-9.28053
▁makes	-9.28184
▁units	-9.28185
and	-9.28381
▁gun	-9.28414
▁Island	-9.2849
▁appearance	-9.28571
▁learning	-9.28601
▁length	-9.28611
▁summer	-9.28658
▁systems	-9.28712
ak	-9.28738
▁Mar	-9.28788
ization	-9.28794
▁novel	-9.28829
▁critics	-9.28846
▁potential	-9.28975
▁attempt	-9.28996
▁clear	-9.28999
▁northern	-9.29076
▁impact	-9.29148
▁Germany	-9.29153
▁High	-9.29292
▁services	-9.29401
▁shot	-9.2947
▁produce	-9.29622
▁finished	-9.29709
▁Aktè	-9.2972
▁act	-9.2975
▁Hall	-9.29769
▁dis	-9.29844
▁studio	-9.29948
▁ability	-9.29963
▁victory	-9.3004
lin	-9.30101
▁yet	-9.3017
▁limited	-9.30329
ium	-9.30553
▁influence	-9.30706
▁crew	-9.30843
▁terms	-9.30947
▁Pro	-9.31057
▁Peter	-9.31098
R	-9.3119
ya	-9.3134
J	-9.31431
▁previously	-9.31559
▁Star	-9.31584
▁hurricane	-9.31589
▁Richard	-9.31599
▁thus	-9.3172
▁lines	-9.31811
by	-9.31886
▁studies	-9.31917
▁physical	-9.31932
▁compared	-9.3194
▁spent	-9.31983
tic	-9.31992
▁Roman	-9.32025
▁probably	-9.3204
▁room	-9.3207
▁Center	-9.3211
ite	-9.32143
–	-9.32154
▁Go	-9.32207
▁initially	-9.32219
▁lot	-9.3232
▁Bo	-9.32374
▁activity	-9.32421
."	-9.32423
▁China	-9.32484
▁learn	-9.3252
ti	-9.32627
▁UK	-9.32729
▁College	-9.32843
▁date	-9.32932
▁industry	-9.32981
der	-9.33006
▁Edikasyon	-9.33047
▁Kingdom	-9.33068
▁Western	-9.33123
▁female	-9.33132
▁1999	-9.33139
▁Since	-9.33328
▁shown	-9.33353
ni	-9.33424
▁poor	-9.33473
io	-9.33516
ga	-9.33765
▁river	-9.33774
▁round	-9.33825
▁ended	-9.33887
ard	-9.33949
▁why	-9.33983
▁Christian	-9.34015
▁Smith	-9.34074
▁cast	-9.34189
▁value	-9.34203
▁build	-9.34218
▁2016	-9.34248
▁includes	-9.34262
▁cells	-9.34349
▁mph	-9.34425
ham	-9.34436
▁nearly	-9.34516
▁Lo	-9.34549
▁appear	-9.34666
ies	-9.34758
▁60	-9.34841
▁introduced	-9.35057
ating	-9.35059
▁technology	-9.3509
ey	-9.35165
▁Company	-9.35279
▁Navy	-9.35412
▁Day	-9.35619
ber	-9.35671
▁develop	-9.35799
▁highway	-9.35813
▁actually	-9.35924
▁Music	-9.35976
▁despite	-9.36075
▁Lord	-9.36182
▁subject	-9.36186
▁coast	-9.36229
▁king	-9.36248
▁Brown	-9.36319
ina	-9.36338
▁whom	-9.36392
▁Bay	-9.36401
▁overall	-9.3652
▁chart	-9.3659
▁brain	-9.3668
▁carried	-9.36708
▁pro	-9.36713
▁regular	-9.36831
▁market	-9.37112
]	-9.37173
▁nine	-9.37534
▁ordered	-9.3757
▁1980	-9.3766
▁medical	-9.37673
▁paper	-9.37704
▁commercial	-9.37734
▁attention	-9.37795
▁sense	-9.37803
▁failed	-9.37901
▁radio	-9.37908
▁estimated	-9.37979
ful	-9.38005
▁approach	-9.38026
▁growth	-9.38104
▁°	-9.38131
▁Jean	-9.38162
▁plants	-9.38233
▁feel	-9.38274
▁signed	-9.3829
▁Se	-9.38379
ish	-9.38426
▁animals	-9.38486
▁1970	-9.3858
ier	-9.3884
▁activities	-9.38922
▁becoming	-9.38979
▁staff	-9.39111
▁Africa	-9.39235
▁woman	-9.39324
▁Chinese	-9.39429
▁professional	-9.39429
▁complex	-9.39486
▁Cup	-9.39614
▁cancer	-9.3963
▁1998	-9.39673
▁police	-9.39713
▁Association	-9.40012
▁standard	-9.40063
▁Lake	-9.401
▁private	-9.40134
▁student	-9.40283
▁wind	-9.40389
▁Britain	-9.40472
▁remains	-9.406
▁environment	-9.40675
▁Los	-9.40922
▁score	-9.41046
▁president	-9.41125
▁leave	-9.41224
▁Don	-9.41317
va	-9.41416
im	-9.41489
▁forward	-9.41506
▁network	-9.41674
▁via	-9.41705
▁western	-9.41739
▁Ar	-9.41762
▁running	-9.41848
ah	-9.4194
▁Hill	-9.42014
▁primary	-9.42118
▁brother	-9.42177
▁author	-9.42242
▁praised	-9.42288
▁trade	-9.42348
▁pay	-9.42429
▁Another	-9.42522
▁Or	-9.42528
▁location	-9.42604
▁call	-9.42618
▁mass	-9.42662
▁continue	-9.4274
▁traditional	-9.42764
▁Soviet	-9.42885
▁weight	-9.42972
▁article	-9.43157
▁Times	-9.43178
▁directed	-9.43191
▁di	-9.43269
▁Spanish	-9.43332
▁variety	-9.43426
▁Texas	-9.43431
▁changed	-9.43441
▁types	-9.43459
▁kind	-9.43504
▁African	-9.4361
▁winds	-9.43698
▁meaning	-9.43828
▁critical	-9.43886
▁active	-9.43996
▁league	-9.44081
▁parents	-9.44176
▁Council	-9.4429
ac	-9.44397
▁mind	-9.44451
▁fall	-9.44673
out	-9.44728
▁knowledge	-9.44757
▁arrived	-9.44798
▁Un	-9.44823
▁claimed	-9.44892
con	-9.4497
è	-9.45158
▁cannot	-9.45262
▁takes	-9.45406
▁society	-9.45421
▁ex	-9.45446
▁suggested	-9.45621
▁£	-9.4566
▁Na	-9.45815
▁direct	-9.45888
▁Award	-9.46006
▁greater	-9.46164
▁capital	-9.46167
▁cell	-9.46193
▁effective	-9.46253
▁recording	-9.46275
▁culture	-9.46282
▁NY	-9.46282
▁recent	-9.46424
▁fight	-9.46424
▁understand	-9.46472
▁90	-9.46584
▁Force	-9.46594
▁musical	-9.46645
▁1997	-9.46647
▁proposed	-9.46742
▁intended	-9.46822
▁election	-9.46827
▁Virginia	-9.46839
▁approximately	-9.46843
▁remaining	-9.46896
▁contains	-9.469
▁bridge	-9.47013
▁Du	-9.47109
▁reason	-9.47194
▁35	-9.47236
▁matter	-9.47271
▁Love	-9.47354
▁helped	-9.47407
▁latter	-9.47496
▁Sun	-9.47542
▁ː	-9.47563
▁account	-9.47575
▁deep	-9.47695
▁feature	-9.47825
▁eastern	-9.47865
▁majority	-9.4793
sa	-9.47961
▁1960	-9.48023
▁gold	-9.48057
▁reach	-9.4814
per	-9.48145
▁unit	-9.48202
▁focus	-9.4825
6	-9.48505
▁got	-9.48508
▁supported	-9.48655
▁highly	-9.48675
▁leaving	-9.48683
▁status	-9.48693
▁directly	-9.48713
▁believe	-9.4874
▁true	-9.48946
▁inside	-9.49006
▁Russian	-9.49109
▁eye	-9.49153
▁discovered	-9.49253
▁immediately	-9.49257
▁share	-9.49362
sh	-9.49468
▁schools	-9.49718
▁content	-9.50073
▁follow	-9.50096
▁contact	-9.50142
▁mostly	-9.50215
▁comes	-9.5037
▁reviews	-9.5037
▁Grand	-9.50451
▁Mary	-9.50465
▁Department	-9.50466
▁Route	-9.50513
▁contract	-9.5068
▁skin	-9.50725
ot	-9.50808
▁smaller	-9.50808
▁Both	-9.50833
▁question	-9.50905
▁reduce	-9.50963
▁multiple	-9.51006
▁writer	-9.51117
▁magazine	-9.51156
▁voice	-9.51159
▁religious	-9.51238
▁expected	-9.51248
▁gas	-9.51252
field	-9.51361
▁books	-9.51407
▁entered	-9.51501
▁operations	-9.51508
▁80	-9.51538
▁daughter	-9.51584
ship	-9.51653
mi	-9.51753
bo	-9.51795
▁initial	-9.51903
ki	-9.51965
▁condition	-9.51977
▁pwovens	-9.51995
▁stop	-9.52054
▁destroyed	-9.52079
▁simple	-9.52096
ko	-9.52125
ize	-9.52167
▁moving	-9.52191
▁improve	-9.5226
ster	-9.52349
U	-9.52436
▁necessary	-9.525
▁Mark	-9.52583
▁removed	-9.52588
▁needs	-9.52594
▁image	-9.52701
▁policy	-9.52804
ut	-9.52867
▁leader	-9.52899
▁prior	-9.52939
ana	-9.53006
▁football	-9.53057
▁debut	-9.5309
▁management	-9.53131
▁middle	-9.53156
▁depression	-9.53268
▁Canadian	-9.53342
▁Martin	-9.53358
▁method	-9.53376
ence	-9.53414
▁double	-9.53573
▁write	-9.53774
▁fleet	-9.53791
▁forms	-9.53965
▁appears	-9.53967
▁Game	-9.54002
▁legal	-9.54057
▁computer	-9.54201
▁appointed	-9.54302
▁friend	-9.5436
▁deal	-9.54407
▁companies	-9.54426
▁break	-9.54481
mer	-9.54551
▁Pacific	-9.54565
▁married	-9.54614
▁function	-9.54772
▁meeting	-9.54807
▁ways	-9.54807
▁Car	-9.54807
▁plans	-9.54834
▁situation	-9.55126
▁Chicago	-9.55141
▁numerous	-9.55191
▁products	-9.55199
▁pass	-9.55231
▁1995	-9.5525
▁agreed	-9.55277
▁peyi	-9.55289
...	-9.55305
▁effort	-9.55355
▁climate	-9.55368
▁individuals	-9.55462
ek	-9.55689
▁Party	-9.55756
▁du	-9.56011
ial	-9.56104
▁male	-9.56194
▁big	-9.56199
▁doing	-9.56249
▁Ben	-9.5629
▁avoid	-9.56293
▁Edward	-9.56306
ance	-9.56312
▁analysis	-9.56415
▁lived	-9.5643
▁sources	-9.56504
pe	-9.56522
▁defeated	-9.56545
▁v	-9.56579
▁ball	-9.56628
▁numbers	-9.56658
▁village	-9.56665
▁stars	-9.56673
▁le	-9.56738
▁separate	-9.56763
min	-9.56804
▁buildings	-9.56878
▁hour	-9.56932
ja	-9.5694
▁responsible	-9.57035
au	-9.57069
▁Green	-9.57152
▁board	-9.57206
▁Second	-9.57281
▁green	-9.57384
▁Ka	-9.57421
pa	-9.57484
▁giving	-9.57507
▁offered	-9.57577
▁Queen	-9.57703
▁soldiers	-9.5775
▁letter	-9.57758
▁goals	-9.57782
▁financial	-9.57809
▁hold	-9.57831
▁pain	-9.57858
▁Ne	-9.57932
▁text	-9.5797
▁Because	-9.57983
▁referred	-9.58057
▁friends	-9.58147
▁captured	-9.58275
▁color	-9.58286
▁simply	-9.58325
vo	-9.58349
ran	-9.58353
▁Over	-9.58383
que	-9.584
▁Di	-9.58404
▁foot	-9.58426
les	-9.5847
▁reduced	-9.58476
▁theory	-9.58514
▁winning	-9.58727
▁Kominote	-9.58771
▁Central	-9.58839
▁efforts	-9.59003
▁extended	-9.59109
▁fish	-9.59169
▁Florida	-9.59182
▁ran	-9.5944
▁scale	-9.59465
▁metal	-9.59466
ville	-9.59527
▁division	-9.59545
▁i	-9.59573
ten	-9.59596
▁job	-9.59669
▁Johnson	-9.59682
ised	-9.59831
▁normal	-9.59895
▁provides	-9.59903
▁planned	-9.59935
▁thing	-9.6005
0	-9.60056
▁symptoms	-9.60077
▁begin	-9.60144
▁raised	-9.60162
▁reading	-9.60236
▁occurred	-9.60269
▁45	-9.60371
▁park	-9.60373
▁Can	-9.60385
▁temperature	-9.60393
▁upper	-9.60466
▁More	-9.60485
▁g	-9.60653
way	-9.60666
▁lives	-9.60694
▁mixed	-9.60765
▁1994	-9.60811
Y	-9.60858
ists	-9.60892
▁300	-9.60943
▁property	-9.60994
he	-9.60998
▁covered	-9.61002
▁resources	-9.61003
▁federal	-9.61014
▁cm	-9.61089
▁Old	-9.61119
▁Jackson	-9.61154
▁70	-9.61163
▁patients	-9.61219
▁films	-9.61228
▁operation	-9.61264
▁Politik	-9.61275
ger	-9.61352
▁Ekonomi	-9.61392
ring	-9.61396
▁bring	-9.6144
▁cross	-9.61613
▁Y	-9.61618
▁protect	-9.61744
▁Jack	-9.61765
▁wall	-9.61807
▁Les	-9.6181
▁issued	-9.61833
▁direction	-9.61844
7	-9.61964
ver	-9.61979
za	-9.61988
▁flight	-9.61998
▁fell	-9.62039
▁remain	-9.6205
▁plot	-9.62074
▁Po	-9.62173
▁therefore	-9.62364
,"	-9.62441
▁Atlantic	-9.6248
▁Their	-9.62527
▁Italian	-9.62648
▁winter	-9.6269
▁finally	-9.62718
ck	-9.6278
á	-9.62875
▁Ca	-9.62925
(	-9.62939
▁script	-9.62973
▁lang	-9.63039
▁Ma	-9.63045
▁rule	-9.63081
▁growing	-9.63097
▁presence	-9.63144
▁concept	-9.63147
▁awarded	-9.63161
▁Ra	-9.63185
▁animal	-9.63223
▁collection	-9.63241
▁showed	-9.63294
ron	-9.63308
▁let	-9.63332
▁Congress	-9.63338
▁revealed	-9.63434
▁suffered	-9.63482
▁Group	-9.63507
▁dark	-9.63593
▁strength	-9.63647
▁meet	-9.63706
▁largely	-9.63783
wood	-9.63898
▁presented	-9.63949
▁fifth	-9.63995
▁scenes	-9.64001
▁figure	-9.64008
▁manager	-9.64061
▁Championship	-9.64123
▁uses	-9.64217
▁Later	-9.64343
▁distance	-9.64407
▁fuel	-9.64466
▁Club	-9.64555
ny	-9.64822
em	-9.65007
▁minute	-9.65035
▁Greek	-9.65048
10	-9.65119
▁Institute	-9.65202
▁try	-9.65247
▁Big	-9.65251
▁visit	-9.65304
▁supply	-9.6531
▁defeat	-9.65386
▁dead	-9.65458
▁Of	-9.65464
▁global	-9.65481
▁damaged	-9.65591
▁TV	-9.65648
▁piece	-9.65667
mar	-9.65676
▁selected	-9.65707
▁tree	-9.65739
▁annual	-9.65905
▁ice	-9.65915
▁skills	-9.66056
▁Pe	-9.66071
ci	-9.66119
ford	-9.66131
▁spread	-9.66175
▁Society	-9.66213
▁attacks	-9.66216
▁Saint	-9.66247
X	-9.66274
▁college	-9.66296
ho	-9.66305
▁1992	-9.66397
▁Tom	-9.66467
▁heat	-9.66584
ze	-9.66634
▁audience	-9.66636
▁powerful	-9.6678
▁Rock	-9.66874
▁press	-9.66976
▁Am	-9.66988
lan	-9.67004
▁Empire	-9.67027
▁Sir	-9.6712
▁questions	-9.67189
ise	-9.67198
▁completely	-9.67216
▁stories	-9.67254
▁unique	-9.67282
▁interview	-9.67285
one	-9.67345
▁pop	-9.674
▁copies	-9.6743
▁offer	-9.67449
▁officers	-9.67493
▁teams	-9.67602
▁launched	-9.67602
ye	-9.6763
▁Ro	-9.67738
▁trees	-9.67764
▁composed	-9.67802
▁relatively	-9.6782
▁tons	-9.67847
▁becomes	-9.67847
▁severe	-9.67876
▁conducted	-9.67928
led	-9.68012
▁square	-9.68019
▁1950	-9.6802
▁resulting	-9.6819
▁Research	-9.68257
▁Frank	-9.68342
▁bar	-9.68373
▁purpose	-9.68453
▁Here	-9.68504
▁Mexico	-9.68538
▁minor	-9.68565
▁respectively	-9.68574
▁Cor	-9.68673
▁Ba	-9.68688
▁weather	-9.68707
|	-9.6875
▁port	-9.6878
▁III	-9.68784
▁genyen	-9.68911
▁observed	-9.68967
▁serious	-9.69006
▁birth	-9.69026
▁organization	-9.69086
▁occur	-9.69119
▁fans	-9.69156
ative	-9.69166
▁gen	-9.69191
▁peak	-9.69197
▁f	-9.69241
▁listed	-9.69242
▁closed	-9.6954
▁Time	-9.69611
▁bit	-9.69654
▁1993	-9.69718
hi	-9.69763
▁singer	-9.69767
▁1991	-9.69831
▁Lu	-9.6997
▁contrast	-9.70003
▁Anviwònman	-9.70049
▁Per	-9.70058
▁subsequently	-9.70074
▁ideas	-9.70121
▁looking	-9.70126
▁Health	-9.70154
▁Even	-9.70261
▁resulted	-9.70364
▁product	-9.7038
▁Devlòpman	-9.7042
▁website	-9.7059
▁morning	-9.7065
▁older	-9.70659
▁sure	-9.70764
▁online	-9.70789
▁Mr	-9.70806
▁unable	-9.70817
▁inspired	-9.70818
▁developing	-9.70821
▁32	-9.70961
▁marriage	-9.70966
▁Film	-9.7098
▁understanding	-9.71099
▁sign	-9.71207
▁native	-9.71251
▁Pre	-9.71283
sen	-9.71433
▁basic	-9.71578
▁blue	-9.71736
ru	-9.71792
▁coming	-9.71835
▁Paris	-9.71869
▁mission	-9.71881
ker	-9.71994
▁perform	-9.72004
▁kept	-9.7204
ow	-9.72095
▁inter	-9.72109
▁billion	-9.72139
▁affected	-9.72165
▁materials	-9.72221
▁Year	-9.72232
▁producer	-9.7225
▁starting	-9.72268
▁workers	-9.72306
▁Science	-9.72321
▁artist	-9.72433
▁Da	-9.72547
▁broadcast	-9.72602
▁alone	-9.7263
▁typically	-9.72672
▁increasing	-9.7269
8	-9.72797
▁negative	-9.72806
▁equipment	-9.72911
▁deyò	-9.72915
▁fighting	-9.72987
▁conflict	-9.72996
▁hands	-9.73
chi	-9.73012
▁Your	-9.73021
▁centre	-9.73034
▁Billboard	-9.73118
▁quite	-9.73127
▁grow	-9.73153
▁notes	-9.73207
▁era	-9.73213
▁identified	-9.73253
▁hair	-9.73277
▁competition	-9.73311
▁records	-9.73334
▁Lyen	-9.73391
▁sales	-9.73446
▁combat	-9.73554
▁elected	-9.73564
▁Minister	-9.73644
▁soil	-9.73649
▁Angeles	-9.73649
▁tried	-9.73689
▁Pa	-9.73716
▁Latin	-9.73747
▁assigned	-9.73803
▁independent	-9.73814
▁nation	-9.73861
20	-9.739
▁factors	-9.7394
▁Joseph	-9.73954
▁names	-9.73968
▁security	-9.74025
▁toward	-9.74036
▁degree	-9.74071
▁Men	-9.74103
ai	-9.74142
▁+	-9.7424
ov	-9.74339
▁serve	-9.74365
▁tracks	-9.74377
▁depi	-9.74445
▁k	-9.74539
▁Highway	-9.74599
▁n	-9.74691
▁Awards	-9.74735
▁basis	-9.74752
ius	-9.74767
▁Law	-9.74816
▁episodes	-9.74904
▁Also	-9.7503
▁begins	-9.75056
▁step	-9.75151
▁getting	-9.75194
▁dance	-9.75194
▁Like	-9.75198
▁families	-9.75222
▁machine	-9.75255
▁jewografi	-9.75266
▁allowing	-9.75316
▁actions	-9.75326
▁attempted	-9.75344
▁am	-9.75375
▁accepted	-9.75401
▁ensure	-9.75441
▁foreign	-9.7546
▁declared	-9.75464
▁mean	-9.75482
bi	-9.75498
ino	-9.75536
▁Squadron	-9.75624
▁75	-9.75626
▁Each	-9.75747
▁ha	-9.75788
▁safety	-9.75905
▁causes	-9.75923
▁ancient	-9.75927
▁protection	-9.75929
▁trying	-9.76007
ex	-9.76075
▁officer	-9.76122
▁stay	-9.76128
tro	-9.76138
▁meant	-9.76157
▁daily	-9.7627
▁attacked	-9.76274
▁Bi	-9.76314
▁travel	-9.76351
▁nothing	-9.7644
▁continues	-9.76492
▁leaves	-9.76519
▁creating	-9.76524
▁Ha	-9.76532
▁Several	-9.76649
▁couple	-9.76725
▁Bill	-9.76753
ning	-9.76876
▁widely	-9.76883
▁engine	-9.76885
▁visual	-9.76934
▁cities	-9.76953
▁Louis	-9.77022
▁dry	-9.77263
▁easily	-9.77343
▁1940	-9.77343
▁guitar	-9.77378
▁lyrics	-9.77387
▁nearby	-9.77427
house	-9.77432
▁pair	-9.77435
▁receive	-9.77463
▁constructed	-9.77514
▁slow	-9.77559
▁Life	-9.77574
▁portion	-9.77616
▁path	-9.77673
▁researchers	-9.77728
▁traffic	-9.77799
▁spring	-9.77804
▁primarily	-9.77851
▁o	-9.77863
▁Not	-9.77872
▁failure	-9.7797
▁Zealand	-9.78
▁ranked	-9.78041
▁sister	-9.78112
mp	-9.78196
▁camp	-9.78233
▁causing	-9.78284
▁Sam	-9.78352
▁inches	-9.78368
▁En	-9.78464
▁Before	-9.78554
▁surrounding	-9.78571
▁charge	-9.7862
▁twenty	-9.78641
▁beyond	-9.78651
▁border	-9.78667
▁Michigan	-9.78729
▁People	-9.78732
▁managed	-9.78778
▁cold	-9.78809
▁environmental	-9.78819
▁refused	-9.78823
▁Corps	-9.78864
▁page	-9.78898
▁Fort	-9.7891
▁stone	-9.78932
ang	-9.78943
▁Super	-9.791
▁Stone	-9.79157
▁programs	-9.79207
▁Ho	-9.79253
▁Art	-9.79282
▁determine	-9.79304
▁Museum	-9.79374
ding	-9.7938
▁Lee	-9.79386
▁Wales	-9.79431
▁birds	-9.79432
ure	-9.79571
▁fast	-9.7958
om	-9.79607
▁Final	-9.79713
▁fully	-9.79778
ile	-9.79788
▁earned	-9.7982
▁Moun	-9.79832
▁Scott	-9.79891
ji	-9.79954
▁Tu	-9.79955
ig	-9.80143
▁Port	-9.80147
▁methods	-9.80293
▁edition	-9.80299
▁mainly	-9.80315
▁advance	-9.80335
▁Van	-9.80367
▁box	-9.80473
▁chief	-9.80526
che	-9.80534
▁trial	-9.8055
▁train	-9.80565
▁combined	-9.80595
▁marked	-9.80746
ping	-9.8079
▁Su	-9.80791
▁Service	-9.8095
▁onto	-9.8097
▁(19	-9.81157
▁ago	-9.81158
▁famous	-9.8117
▁allows	-9.81211
_	-9.81287
▁scientific	-9.81332
tu	-9.81455
dy	-9.81494
tor	-9.81559
▁alternative	-9.81559
▁Three	-9.81566
▁commander	-9.81606
▁extra	-9.81621
▁Bridge	-9.81635
▁1930	-9.81744
▁slightly	-9.81772
▁recently	-9.81776
▁yards	-9.81813
▁bad	-9.81909
▁Kiben	-9.81913
▁background	-9.81932
▁fevry	-9.81944
▁capacity	-9.82046
▁Test	-9.82097
▁stand	-9.82099
▁someone	-9.82122
▁historical	-9.8213
▁screen	-9.82139
▁divided	-9.82139
▁paid	-9.82143
▁maximum	-9.82145
op	-9.82154
ung	-9.82157
▁Americans	-9.82158
vi	-9.82175
▁reference	-9.82209
▁Q	-9.82253
▁movie	-9.8229
▁Mac	-9.82295
▁speech	-9.82334
▁Committee	-9.82584
fe	-9.82625
▁save	-9.82677
po	-9.8268
▁Si	-9.82693
▁cultural	-9.82765
gi	-9.82845
izing	-9.82882
▁setting	-9.82914
▁easy	-9.82967
ap	-9.83042
▁diet	-9.83402
ik	-9.8341
jo	-9.83438
▁search	-9.83624
time	-9.83628
▁injury	-9.83734
▁choice	-9.83885
▁civil	-9.83952
▁Tour	-9.83992
▁equal	-9.8404
▁Chris	-9.84071
we	-9.84256
▁Southern	-9.84278
gen	-9.84443
ward	-9.84507
▁ending	-9.84558
▁Under	-9.84604
▁leaders	-9.84681
▁commonly	-9.84681
▁Once	-9.84785
▁greatest	-9.84838
lic	-9.84871
▁commented	-9.84963
▁Government	-9.85018
▁400	-9.85103
▁iron	-9.8532
tin	-9.85325
▁Te	-9.85361
▁enemy	-9.85461
▁tell	-9.85481
▁Home	-9.85607
tre	-9.85614
▁1989	-9.8562
▁carbon	-9.85629
▁Ver	-9.85758
all	-9.85779
▁Long	-9.85874
▁shape	-9.85888
▁rise	-9.85917
▁agreement	-9.86045
▁Post	-9.86126
▁founded	-9.86141
oc	-9.86199
▁transport	-9.86223
▁Team	-9.86282
▁Sch	-9.86283
://	-9.86297
▁frequently	-9.86333
▁33	-9.86351
▁gives	-9.86368
▁00	-9.86394
▁Press	-9.86419
▁houses	-9.86456
▁floor	-9.86597
▁Hot	-9.86609
ft	-9.8672
▁teaching	-9.86727
▁anything	-9.8677
ities	-9.86812
▁Oxford	-9.86814
▁Scotland	-9.86824
▁Jones	-9.86831
▁attended	-9.86832
▁opportunity	-9.86835
▁require	-9.86868
▁r	-9.86905
▁Line	-9.86941
▁Bar	-9.87054
▁explained	-9.87082
▁hospital	-9.87116
▁ultimately	-9.87122
▁concert	-9.87132
▁currently	-9.87163
▁Jewish	-9.87257
▁seems	-9.87346
▁Creek	-9.87431
▁drive	-9.87442
▁positions	-9.8748
▁capture	-9.87548
▁contain	-9.87566
▁providing	-9.87581
▁didn	-9.87603
▁flow	-9.87632
▁fruit	-9.87716
▁reports	-9.87749
▁DVD	-9.87756
port	-9.87816
▁formation	-9.87871
▁claim	-9.8801
▁Ireland	-9.88069
▁scientists	-9.88107
red	-9.88195
▁Fox	-9.88199
▁wing	-9.88393
▁Har	-9.88487
▁wood	-9.88568
je	-9.88601
▁planet	-9.8864
▁digital	-9.88748
ric	-9.88752
▁dropped	-9.88908
▁consider	-9.88942
▁earth	-9.88994
▁Nan	-9.89014
▁matches	-9.89037
▁leg	-9.89082
▁sides	-9.89108
▁escape	-9.89179
▁officials	-9.89179
▁Ni	-9.89215
ab	-9.89243
ped	-9.89271
▁residents	-9.89295
▁communities	-9.89296
▁mouth	-9.89366
▁economy	-9.89538
▁eyes	-9.89558
9	-9.89612
▁theme	-9.89643
tan	-9.89686
▁yard	-9.89686
ors	-9.89698
▁peace	-9.89821
▁Academy	-9.89851
berg	-9.89871
▁Now	-9.89918
▁price	-9.89921
king	-9.89969
▁bodies	-9.89977
▁join	-9.90014
▁concluded	-9.9002
▁captain	-9.90034
▁thick	-9.90071
of	-9.90378
▁expressed	-9.90395
▁Italy	-9.90396
▁award	-9.90403
▁Prince	-9.90433
▁Cross	-9.9053
▁difference	-9.90576
▁importance	-9.90627
▁sex	-9.90635
▁existing	-9.9065
▁Hu	-9.90661
▁Water	-9.90662
▁aid	-9.90745
well	-9.90749
▁combination	-9.90789
▁Little	-9.90818
ology	-9.9092
▁humans	-9.90937
30	-9.91036
▁forest	-9.91056
ries	-9.91108
▁advanced	-9.9117
ari	-9.91255
▁authority	-9.91343
▁Is	-9.91427
▁suggests	-9.91514
kin	-9.91533
▁horse	-9.91591
▁reasons	-9.91818
▁36	-9.91827
▁stating	-9.91859
ita	-9.91888
▁creation	-9.91889
ong	-9.91897
▁Daniel	-9.91986
▁Sha	-9.92023
▁Carolina	-9.92093
▁except	-9.92111
▁heard	-9.92209
▁quarter	-9.92287
▁district	-9.92293
▁tax	-9.92327
▁master	-9.92379
▁Boston	-9.92392
▁behavior	-9.92401
▁1942	-9.92416
▁Jesus	-9.92417
▁pieces	-9.92433
▁goes	-9.92484
ud	-9.9249
▁adult	-9.92561
▁pilot	-9.9264
▁Republic	-9.9265
▁doesn	-9.92699
▁transferred	-9.92707
▁sought	-9.9278
▁healthy	-9.92782
▁code	-9.92832
▁influenced	-9.92852
ib	-9.92888
lon	-9.92903
▁Civil	-9.92955
▁multi	-9.93006
▁Cha	-9.93014
▁drug	-9.93034
▁Jo	-9.93088
▁writers	-9.93138
▁owned	-9.93163
ez	-9.93273
▁places	-9.93301
▁gain	-9.93314
▁Young	-9.93316
▁bill	-9.93353
▁History	-9.93385
▁chance	-9.9343
▁attempts	-9.93447
▁metres	-9.93476
▁Catholic	-9.93516
▁table	-9.93543
▁sites	-9.93579
▁Northern	-9.9363
▁secret	-9.93658
▁husband	-9.93698
▁Though	-9.93721
▁Stephen	-9.93766
▁rules	-9.93831
tra	-9.93882
tz	-9.93912
▁rich	-9.93979
▁defense	-9.94155
▁Major	-9.94296
▁Asia	-9.94297
zi	-9.94327
▁Ocean	-9.94357
lu	-9.94363
▁religion	-9.94521
ven	-9.94538
▁maintain	-9.94555
▁represented	-9.94598
istic	-9.94656
▁1988	-9.94707
ell	-9.94823
▁System	-9.94873
▁everything	-9.94991
▁acid	-9.94998
▁county	-9.95015
▁Chief	-9.95152
▁Ten	-9.95171
side	-9.95181
▁defined	-9.95213
▁Wood	-9.95266
▁37	-9.95267
▁confirmed	-9.9531
od	-9.95413
▁perhaps	-9.95418
▁ring	-9.95422
▁advantage	-9.95461
▁Ta	-9.95538
▁target	-9.9554
▁Valley	-9.95542
▁invasion	-9.95559
▁Jim	-9.9561
don	-9.95613
▁acting	-9.95658
▁sequence	-9.95703
▁1987	-9.95714
▁coach	-9.95726
▁Infantry	-9.95733
▁projects	-9.95784
▁proved	-9.95792
▁gained	-9.95825
▁essential	-9.95913
tter	-9.9595
▁subsequent	-9.96012
ach	-9.96044
▁moment	-9.96105
▁Part	-9.96114
▁bank	-9.96119
▁improved	-9.96121
▁worldwide	-9.96137
▁mentioned	-9.9614
▁sleep	-9.96142
▁determined	-9.96168
▁threat	-9.9617
pp	-9.96186
▁calling	-9.96187
ou	-9.96188
qui	-9.9622
▁images	-9.9625
▁tells	-9.96274
▁height	-9.96337
han	-9.96362
▁passing	-9.96397
▁senior	-9.96435
▁fine	-9.96505
mon	-9.96523
50	-9.96563
▁motion	-9.96581
▁measure	-9.9661
▁rare	-9.96656
▁benefits	-9.9667
▁artists	-9.96783
▁governor	-9.96865
▁eat	-9.96869
▁nuclear	-9.96871
▁royal	-9.96885
▁cyclone	-9.96893
bu	-9.97004
▁1920	-9.97187
▁Tri	-9.97283
▁castle	-9.97318
▁sun	-9.97339
▁ahead	-9.97387
ini	-9.97401
▁claims	-9.97402
use	-9.97418
▁significantly	-9.97432
▁Captain	-9.97507
▁plays	-9.97531
▁selling	-9.9754
▁applied	-9.97556
▁broke	-9.97568
▁fan	-9.97593
▁reaching	-9.97643
▁core	-9.97668
▁Chi	-9.97675
▁check	-9.97771
▁stress	-9.97775
▁mental	-9.97779
▁Our	-9.97792
▁add	-9.97815
▁safe	-9.97821
▁carry	-9.97858
▁resistance	-9.97871
▁1944	-9.97882
▁figures	-9.97883
▁Middle	-9.97888
gan	-9.97936
▁designated	-9.97959
▁1986	-9.97983
▁sexual	-9.98022
▁pale	-9.98049
head	-9.9809
▁draw	-9.98125
▁150	-9.98141
▁industrial	-9.98168
▁Battalion	-9.98171
▁respect	-9.9821
ney	-9.98219
▁urban	-9.98265
▁follows	-9.98289
▁models	-9.98291
▁38	-9.98293
▁Ex	-9.9831
yl	-9.9843
▁twice	-9.98518
ng	-9.98583
fa	-9.98636
▁walls	-9.9868
▁Madonna	-9.98867
▁exist	-9.98939
▁dog	-9.98954
ea	-9.98965
▁planning	-9.98983
▁1945	-9.98996
▁struck	-9.99001
▁promote	-9.99106
▁enter	-9.99129
▁Fim	-9.99183
▁chemical	-9.99336
▁bi	-9.99401
▁Records	-9.99442
▁34	-9.99523
12	-9.99536
▁contemporary	-9.99541
▁volume	-9.99576
▁Williams	-9.99647
▁territory	-9.9965
▁university	-9.99682
25	-9.99732
▁1941	-9.9979
▁counter	-9.99798
▁heavily	-9.99823
▁Dutch	-9.99853
▁alongside	-9.99939
▁ca	-9.99982
▁unknown	-10.001
▁prominent	-10.001
fer	-10.0012
▁kat	-10.0027
▁rating	-10.003
▁costs	-10.0034
▁element	-10.0041
▁weapons	-10.005
van	-10.0064
▁chosen	-10.0064
▁answer	-10.0067
▁titled	-10.0072
▁#	-10.0074
▁adopted	-10.0093
▁Dis	-10.0094
ren	-10.0105
▁Parliament	-10.0105
▁laws	-10.0108
▁Brigade	-10.0111
▁host	-10.0113
▁memory	-10.0114
▁District	-10.0124
▁objects	-10.0131
▁Ke	-10.0149
▁news	-10.0153
▁Gold	-10.0154
▁draft	-10.0162
▁regions	-10.0162
▁Light	-10.0162
▁experienced	-10.0165
▁Good	-10.0165
▁viewers	-10.0166
▁Victoria	-10.0166
▁demand	-10.0168
▁vote	-10.017
11	-10.0179
▁note	-10.018
▁structures	-10.0192
▁BBC	-10.0201
▁grew	-10.0202
▁Show	-10.0205
▁featuring	-10.0208
▁object	-10.021
uk	-10.0213
▁maintained	-10.0219
▁Christ	-10.0221
▁contained	-10.0222
▁Gu	-10.0223
▁occurs	-10.0225
▁inch	-10.0241
15	-10.0244
▁laid	-10.0248
▁murder	-10.025
net	-10.0252
▁connected	-10.0256
▁selection	-10.026
▁literature	-10.026
▁actor	-10.0262
▁teeth	-10.0267
off	-10.0271
▁Regiment	-10.0275
▁arms	-10.0278
▁Its	-10.0279
▁challenge	-10.028
▁possibly	-10.0283
▁administration	-10.0283
▁Will	-10.0284
▁mis	-10.0284
ther	-10.0289
▁progress	-10.0292
▁wave	-10.0297
▁killing	-10.0312
▁standing	-10.0315
▁controlled	-10.0316
ible	-10.0322
▁executive	-10.0325
▁protein	-10.0325
▁News	-10.0326
▁Commission	-10.0327
▁Live	-10.0334
▁prepared	-10.0335
▁Christmas	-10.0335
▁Par	-10.034
▁Blue	-10.0348
ane	-10.0348
▁scoring	-10.0349
▁peaked	-10.0352
▁tradition	-10.0359
▁reaction	-10.036
▁BC	-10.0365
▁learned	-10.0374
▁picture	-10.0377
▁distribution	-10.0378
▁phase	-10.0379
▁techniques	-10.0379
ide	-10.0394
▁Harrison	-10.0396
▁wild	-10.0397
du	-10.0398
▁achieved	-10.0398
▁nor	-10.0402
▁argued	-10.0402
▁sports	-10.0406
▁Series	-10.0407
▁income	-10.0409
▁etc	-10.0409
▁budget	-10.0409
work	-10.0411
▁naval	-10.0412
▁committee	-10.0413
tal	-10.0414
▁brief	-10.0415
▁See	-10.0422
▁address	-10.0422
▁fun	-10.0423
▁Ohio	-10.0426
▁Spain	-10.0427
▁serving	-10.0433
▁Early	-10.0435
▁leadership	-10.0437
▁Russia	-10.0447
▁Manchester	-10.045
▁statement	-10.0453
▁1943	-10.0454
▁adults	-10.0456
▁talk	-10.0457
ator	-10.046
▁promoted	-10.0476
▁genetic	-10.048
▁49	-10.0483
▁exchange	-10.0485
▁Public	-10.0487
▁split	-10.0493
▁extensive	-10.0496
▁Eastern	-10.0502
▁expansion	-10.0506
▁silver	-10.0508
▁Today	-10.051
▁visited	-10.0512
▁hot	-10.052
hu	-10.0523
▁About	-10.0523
▁centuries	-10.0524
▁extremely	-10.0534
▁edge	-10.0538
ns	-10.0541
▁benefit	-10.0543
▁performances	-10.0547
▁describes	-10.0548
town	-10.0556
▁super	-10.0557
▁Avenue	-10.0558
▁containing	-10.0566
▁faced	-10.0571
▁affect	-10.0575
▁items	-10.0576
uff	-10.0579
gu	-10.058
▁kill	-10.0582
▁boat	-10.0588
▁properties	-10.0591
nt	-10.0606
▁rele	-10.0608
▁Who	-10.0609
▁focused	-10.0614
▁academic	-10.0622
▁Irish	-10.0626
▁Just	-10.0627
▁Gar	-10.0627
▁Che	-10.063
▁patient	-10.063
▁opposed	-10.0636
▁violence	-10.0638
▁railway	-10.0642
▁tournament	-10.0644
▁del	-10.0646
▁rain	-10.0649
ub	-10.0655
▁transfer	-10.0659
▁Field	-10.066
▁block	-10.0662
ee	-10.0664
▁shortly	-10.0666
▁successfully	-10.0685
▁details	-10.069
▁exercise	-10.0699
▁existence	-10.07
▁Journal	-10.0707
▁1985	-10.0717
her	-10.0719
▁Among	-10.0732
▁sixth	-10.0732
▁regarding	-10.0733
▁Hurricane	-10.0735
▁officially	-10.074
▁broken	-10.0741
▁display	-10.0743
▁kg	-10.0749
▁suggest	-10.0749
▁brown	-10.0753
▁Dan	-10.0757
▁1984	-10.0758
▁doctor	-10.0764
▁Games	-10.0765
▁finding	-10.0772
".	-10.0773
▁offers	-10.0774
▁feed	-10.0778
ability	-10.0781
▁generation	-10.0782
▁Elizabeth	-10.0783
▁Col	-10.0787
▁seem	-10.079
▁Due	-10.079
▁Board	-10.0793
▁bottom	-10.0797
▁Power	-10.0802
▁task	-10.0803
▁Office	-10.0804
▁Governor	-10.0804
▁parallel	-10.0813
▁entirely	-10.0816
if	-10.082
▁fit	-10.0826
19	-10.0827
▁solar	-10.0829
▁differences	-10.0833
ff	-10.0834
▁flag	-10.0838
▁electric	-10.0841
▁choose	-10.0846
▁vehicles	-10.0848
ct	-10.0849
▁teacher	-10.085
▁shared	-10.0851
▁testing	-10.0853
▁facilities	-10.0854
▁everyone	-10.0857
cher	-10.0858
▁Ti	-10.086
▁holding	-10.086
▁organized	-10.0864
▁Let	-10.0878
▁authorities	-10.0878
▁rainfall	-10.0881
▁drama	-10.0884
▁yellow	-10.0885
▁Alexander	-10.0892
▁actual	-10.0893
▁flat	-10.0895
▁pattern	-10.0898
ken	-10.0899
bar	-10.09
▁rapidly	-10.0901
▁message	-10.0902
▁values	-10.0902
▁protected	-10.0904
▁launch	-10.0904
▁newly	-10.0905
▁perfect	-10.0907
▁Far	-10.0914
vin	-10.0914
▁device	-10.0916
▁Ge	-10.0917
▁Fa	-10.0918
▁newspaper	-10.0918
▁horses	-10.0922
▁homes	-10.0929
▁Top	-10.0933
ix	-10.0933
▁Land	-10.0935
▁solution	-10.0935
day	-10.0937
▁closely	-10.0937
▁Del	-10.0939
▁manner	-10.094
▁returning	-10.094
▁cent	-10.0941
▁sort	-10.0945
▁Tech	-10.0947
▁*	-10.0949
▁introduction	-10.0949
▁Ed	-10.0956
▁useful	-10.0956
In	-10.0963
▁rates	-10.0965
▁vocals	-10.0972
▁appropriate	-10.0979
▁application	-10.0984
▁Andrew	-10.0989
80	-10.0991
16	-10.0992
cha	-10.0995
▁franse	-10.0995
▁Ad	-10.0997
▁recognized	-10.0999
ble	-10.1002
▁watch	-10.1005
ev	-10.1008
▁artillery	-10.1009
▁steel	-10.101
▁consists	-10.1011
▁waste	-10.1012
▁Out	-10.1014
▁measures	-10.1019
▁fellow	-10.1022
▁represent	-10.1026
▁innings	-10.103
▁stock	-10.103
▁sp	-10.1031
▁decades	-10.1032
▁consisted	-10.1034
▁Pi	-10.1035
ata	-10.1037
▁vision	-10.1043
▁chose	-10.1049
▁clean	-10.1052
▁seat	-10.1053
40	-10.1054
▁Pennsylvania	-10.1054
▁thousands	-10.1056
based	-10.1059
▁thinking	-10.1067
shi	-10.1069
wi	-10.1072
▁IMDb	-10.1073
▁Wilson	-10.1077
▁street	-10.1079
▁straight	-10.1081
org	-10.1081
ging	-10.1087
▁recommended	-10.1091
▁store	-10.1091
▁historian	-10.1093
▁domestic	-10.1094
▁opposition	-10.1098
ose	-10.1102
▁Upon	-10.1104
▁buy	-10.1109
▁communication	-10.1112
▁Duke	-10.1114
▁achieve	-10.1121
▁nominated	-10.1121
▁Pan	-10.1127
▁Columbia	-10.1129
mann	-10.1138
▁Four	-10.1139
ani	-10.1143
▁Book	-10.1146
▁conference	-10.1146
▁65	-10.1148
▁48	-10.1149
cy	-10.115
▁context	-10.1151
▁Ab	-10.116
▁collected	-10.1169
▁losing	-10.1171
▁hope	-10.118
▁Fleet	-10.1182
▁Thus	-10.1185
▁raise	-10.1202
▁Up	-10.1208
▁internal	-10.1212
▁Ga	-10.1214
▁roof	-10.1215
▁dedicated	-10.1221
▁ka	-10.1221
▁600	-10.1224
▁freedom	-10.1226
▁regarded	-10.1226
▁fired	-10.1228
▁1968	-10.1234
▁Entertainment	-10.1243
▁herself	-10.1247
▁Ku	-10.1248
▁Taylor	-10.1253
▁55	-10.1265
▁Bond	-10.127
▁cap	-10.1278
▁link	-10.128
▁connection	-10.1281
▁Jersey	-10.1282
▁Only	-10.1282
▁exposure	-10.1286
-19	-10.1291
▁incident	-10.1299
▁operating	-10.1304
▁knew	-10.1304
▁stations	-10.1304
▁Polish	-10.1304
▁passes	-10.1305
▁operated	-10.1308
▁label	-10.1309
▁DNA	-10.1312
▁1983	-10.1313
▁micro	-10.132
▁aspects	-10.1321
▁flying	-10.1326
22	-10.1327
▁trip	-10.1328
▁w	-10.1333
▁identify	-10.1336
▁Women	-10.1348
▁debate	-10.135
▁showing	-10.1354
▁council	-10.1357
▁branch	-10.1357
▁remove	-10.1358
▁Zèv	-10.136
▁fim	-10.1361
▁1982	-10.1361
▁girl	-10.1364
▁increasingly	-10.1364
▁bird	-10.1367
▁Song	-10.137
▁Operation	-10.1372
▁younger	-10.1373
med	-10.1374
í	-10.1377
▁menm	-10.1378
▁x	-10.1385
▁tests	-10.1388
▁kids	-10.1405
▁1979	-10.1412
▁standards	-10.1412
▁factor	-10.1413
▁expedition	-10.1414
▁Mu	-10.1418
ery	-10.1419
ola	-10.1422
▁Bre	-10.1424
▁assault	-10.143
▁secondary	-10.143
▁offensive	-10.1432
▁hundred	-10.1444
▁turns	-10.1445
▁granted	-10.1449
▁feeling	-10.1453
▁Cambridge	-10.1455
▁Bank	-10.1455
▁accept	-10.1455
fi	-10.1456
▁tower	-10.146
▁Wall	-10.146
▁vi	-10.1463
▁infection	-10.1463
▁Senate	-10.1471
▁Ri	-10.1471
▁versions	-10.148
▁rear	-10.1484
▁steam	-10.1495
▁Bu	-10.1495
iz	-10.1497
▁1967	-10.1501
▁Castle	-10.1502
▁semi	-10.1504
▁else	-10.1506
▁opinion	-10.1514
▁depth	-10.1515
▁Scottish	-10.1517
▁reality	-10.1518
▁ocean	-10.1518
▁abandoned	-10.1521
▁solid	-10.1522
▁Human	-10.153
▁Mon	-10.1531
eg	-10.1534
ants	-10.1534
▁Doctor	-10.1536
▁Project	-10.1537
isation	-10.1539
▁guest	-10.1541
▁Ya	-10.1543
▁39	-10.1548
▁garden	-10.1553
▁Education	-10.1555
▁letters	-10.1557
car	-10.1559
▁MD	-10.1566
our	-10.1571
ett	-10.1573
▁wounded	-10.158
▁supporting	-10.158
▁helps	-10.1589
▁Space	-10.16
▁coal	-10.1608
▁Georgia	-10.1614
▁crossing	-10.1615
▁purchase	-10.1617
▁Instead	-10.1618
ps	-10.1619
▁caught	-10.1626
▁soundtrack	-10.1631
▁journey	-10.1634
tion	-10.1645
▁interested	-10.1647
▁reign	-10.1648
▁Joe	-10.1652
▁adding	-10.1653
▁ready	-10.1653
▁warm	-10.1654
▁64	-10.1655
▁worth	-10.166
▁atmosphere	-10.166
ians	-10.1662
▁concerns	-10.1663
▁2017	-10.1664
▁software	-10.1667
Z	-10.1668
▁huge	-10.1675
▁disc	-10.1682
▁replace	-10.1686
▁fiction	-10.1686
▁classes	-10.169
▁acquired	-10.1695
▁instance	-10.1698
▁van	-10.17
ura	-10.1705
▁ta	-10.1706
▁armed	-10.1715
▁expanded	-10.1717
▁Ja	-10.1721
water	-10.1725
▁platform	-10.1726
▁decline	-10.1729
▁intensity	-10.1729
back	-10.1729
▁Point	-10.1738
▁calls	-10.1739
ep	-10.1742
▁1972	-10.1744
▁criticized	-10.1747
▁sugar	-10.1748
▁Han	-10.1762
▁transition	-10.1763
▁distinct	-10.1764
▁specifically	-10.1769
▁42	-10.1771
▁fought	-10.178
▁Shi	-10.1781
▁locations	-10.1782
▁citizens	-10.1789
▁Mike	-10.179
▁interchange	-10.1792
▁47	-10.1806
▁requires	-10.1809
▁narrow	-10.181
▁Festival	-10.1812
▁vocal	-10.1813
▁participated	-10.1814
▁1969	-10.1815
val	-10.1816
▁Francisco	-10.1818
q	-10.1818
▁finish	-10.1822
▁Ju	-10.1825
▁41	-10.1833
pt	-10.1833
▁survey	-10.1837
▁studied	-10.1857
▁teachers	-10.1863
▁Mel	-10.1863
▁mile	-10.1865
▁receiving	-10.1866
▁Homer	-10.1867
▁Wa	-10.1867
▁criticism	-10.1868
▁session	-10.1875
▁Bob	-10.1893
▁balance	-10.1903
gar	-10.1914
▁fear	-10.192
▁spot	-10.1922
▁Director	-10.1922
▁secure	-10.1926
▁producers	-10.1926
▁Meanwhile	-10.1932
▁farm	-10.1935
▁Harry	-10.1939
▁drawn	-10.1939
▁beat	-10.1942
▁shall	-10.1943
▁debuted	-10.1945
▁roads	-10.1946
▁decade	-10.1949
▁treated	-10.195
▁1971	-10.1952
▁des	-10.1958
▁establish	-10.1963
▁museum	-10.1966
▁contributed	-10.1966
▁prison	-10.1971
▁die	-10.1972
▁fresh	-10.1973
▁1964	-10.1974
▁1975	-10.1974
▁cycle	-10.1977
▁grade	-10.1985
▁Cal	-10.199
mate	-10.1992
▁consecutive	-10.1995
▁tools	-10.1998
▁format	-10.1999
▁tail	-10.2008
▁wrong	-10.2008
bel	-10.201
▁landing	-10.201
▁1973	-10.2011
▁1976	-10.2015
ris	-10.2017
▁deck	-10.2019
▁origin	-10.2022
▁Rose	-10.2026
▁poem	-10.2026
▁1974	-10.2028
▁Then	-10.2028
▁Arthur	-10.2031
▁painting	-10.2034
▁producing	-10.204
▁Allied	-10.2046
▁Va	-10.2053
▁publication	-10.2055
si	-10.2058
▁domèn	-10.206
▁interesting	-10.2062
21	-10.2062
14	-10.207
▁engaged	-10.2073
let	-10.2074
▁arrival	-10.2074
▁glass	-10.2075
▁bio	-10.2076
▁seconds	-10.2077
art	-10.2078
mat	-10.208
▁electronic	-10.2086
▁Admiral	-10.2087
▁aired	-10.2092
ological	-10.2092
▁1981	-10.2093
unt	-10.2096
▁Islands	-10.2098
▁Football	-10.2101
▁approved	-10.2102
▁Night	-10.2103
▁Israel	-10.2106
▁Jews	-10.2107
▁capable	-10.2113
▁camera	-10.2114
▁1939	-10.2116
▁battery	-10.2117
▁layer	-10.2117
ette	-10.2117
▁northeast	-10.2123
ara	-10.2125
▁effectively	-10.2128
▁UN	-10.2129
my	-10.213
ified	-10.213
▁identity	-10.2131
▁championship	-10.2142
▁parties	-10.2147
▁rejected	-10.2152
▁rural	-10.2156
▁Philadelphia	-10.2159
▁Bell	-10.2162
▁1965	-10.2164
▁Secretary	-10.2169
▁trans	-10.217
▁Mi	-10.2171
▁Children	-10.2173
▁Republican	-10.2174
▁cr	-10.2177
▁correct	-10.2179
▁wear	-10.2184
ification	-10.2188
▁twelve	-10.2192
70	-10.2193
▁desire	-10.2194
▁Walter	-10.2196
▁Egypt	-10.2203
▁firm	-10.2209
▁Coast	-10.221
▁brand	-10.2213
ec	-10.2228
13	-10.2241
▁fat	-10.2242
▁ideal	-10.2243
▁typical	-10.2243
▁professor	-10.2246
▁Town	-10.2251
ica	-10.2251
▁44	-10.2256
▁composition	-10.226
▁appeal	-10.2261
▁actors	-10.2263
pi	-10.2271
▁End	-10.2275
old	-10.2277
▁tend	-10.2286
▁Development	-10.2287
▁employed	-10.2288
▁ask	-10.2302
aj	-10.2308
▁proper	-10.2312
can	-10.2312
▁filled	-10.2314
▁Special	-10.2315
▁limit	-10.2316
▁medicine	-10.2318
und	-10.2319
▁genus	-10.2322
▁hearing	-10.2323
ay	-10.2323
▁examples	-10.2327
ned	-10.2328
▁mountain	-10.2328
▁virus	-10.2331
▁hall	-10.2331
▁1966	-10.2332
▁performing	-10.2334
▁Prime	-10.2339
▁sets	-10.2344
▁retire	-10.2351
▁Gade	-10.2353
▁anyone	-10.2353
▁Sal	-10.2354
▁drop	-10.2355
tes	-10.2357
▁orders	-10.2358
▁critic	-10.2363
Q	-10.2363
▁essay	-10.2364
▁Ch	-10.2365
▁Free	-10.2369
▁conduct	-10.2372
▁broad	-10.2378
▁relative	-10.2378
stone	-10.2378
▁Grant	-10.2383
nes	-10.2383
▁pick	-10.2383
▁request	-10.2386
▁practices	-10.2392
▁views	-10.2394
▁Lewis	-10.2396
▁strike	-10.2399
▁driving	-10.24
▁accompanied	-10.2401
▁purchased	-10.2404
▁islands	-10.2406
▁1914	-10.2411
▁appearances	-10.2413
▁Why	-10.2416
▁credit	-10.2419
▁Way	-10.242
▁aktivite	-10.2422
ably	-10.2424
▁poll	-10.2429
▁remember	-10.2431
▁intelligence	-10.2432
▁43	-10.2435
▁briefly	-10.2436
▁map	-10.2441
ade	-10.2446
ok	-10.2446
▁obtained	-10.2446
▁mo	-10.2449
ations	-10.2452
▁occupied	-10.2458
▁hear	-10.247
▁gross	-10.2477
▁Gulf	-10.2479
▁processes	-10.2484
ue	-10.2488
▁Conference	-10.2495
▁truth	-10.2495
▁Vi	-10.2499
▁moral	-10.2501
▁technique	-10.251
▁Mc	-10.2512
qu	-10.2513
ò	-10.2513
ans	-10.2514
▁52	-10.2514
▁labor	-10.2516
▁roles	-10.2518
▁joint	-10.252
▁viewed	-10.2522
ria	-10.2523
▁Bra	-10.2523
▁•	-10.2528
▁drugs	-10.2538
▁Ken	-10.2541
▁CD	-10.2542
ray	-10.2548
▁1978	-10.2553
▁devices	-10.2553
▁signs	-10.2554
sha	-10.2554
▁Plan	-10.2558
▁roughly	-10.2563
▁motor	-10.2563
▁principal	-10.2565
▁print	-10.2566
▁SS	-10.257
▁squadron	-10.2577
▁agent	-10.2582
▁sell	-10.2582
▁strategy	-10.2584
▁stages	-10.2589
▁pi	-10.2594
▁youth	-10.2596
▁mode	-10.2596
▁technical	-10.2598
▁Age	-10.2599
▁populations	-10.2607
▁retired	-10.2612
▁Fi	-10.2612
▁explain	-10.2613
▁concerned	-10.2614
▁responsibility	-10.2617
pre	-10.2623
▁vehicle	-10.2628
end	-10.263
pro	-10.2636
▁lo	-10.2639
▁turning	-10.2643
▁missing	-10.2646
▁Supreme	-10.2657
▁Korean	-10.2659
▁walk	-10.266
▁Miller	-10.2666
▁Order	-10.2673
ath	-10.2675
▁46	-10.2676
like	-10.2677
▁boy	-10.2684
▁par	-10.2688
▁CO	-10.2688
pen	-10.2689
ph	-10.269
▁storyline	-10.2692
▁emotional	-10.2693
▁supplies	-10.2697
▁Studios	-10.2701
so	-10.2708
▁Fantasy	-10.2715
▁experiences	-10.2716
sky	-10.2718
▁crime	-10.2721
▁equivalent	-10.2723
▁Kar	-10.2726
▁kilometres	-10.2728
▁si	-10.2732
▁fields	-10.2734
▁weak	-10.2735
▁Forest	-10.2738
har	-10.2738
▁guide	-10.2741
▁regional	-10.2745
▁temperatures	-10.2746
▁Davis	-10.2757
▁diseases	-10.276
▁infantry	-10.2762
▁authors	-10.2763
▁800	-10.2764
sch	-10.2764
▁Jr	-10.2764
▁Anderson	-10.2765
▁soul	-10.2767
▁losses	-10.2776
▁Boy	-10.278
▁fi	-10.2781
▁ends	-10.2782
▁singing	-10.2782
▁cars	-10.2785
ō	-10.279
iv	-10.2795
▁Massachusetts	-10.28
▁baby	-10.2802
▁--	-10.2804
▁Arab	-10.2804
▁eating	-10.2806
▁ill	-10.2807
▁defence	-10.281
▁flooding	-10.2815
▁organizations	-10.2816
▁concern	-10.282
▁zone	-10.2825
▁honor	-10.2825
yan	-10.2829
ER	-10.2835
▁Railway	-10.2843
▁extension	-10.2848
▁speak	-10.2854
▁rapid	-10.2855
▁perspective	-10.2857
▁send	-10.2858
▁signal	-10.2859
▁headquarters	-10.2859
▁Bur	-10.2861
ical	-10.2866
▁partner	-10.2868
▁permanent	-10.2882
▁treat	-10.2889
▁northwest	-10.2897
▁suit	-10.2899
ign	-10.2899
▁web	-10.2901
light	-10.2909
▁Between	-10.2916
▁indicated	-10.2916
▁carrying	-10.2917
▁extreme	-10.2922
▁policies	-10.2923
▁editor	-10.2929
▁otherwise	-10.2929
▁commissioned	-10.2935
▁Ottoman	-10.2938
ions	-10.2943
ens	-10.2945
▁constant	-10.2949
▁reform	-10.295
▁defensive	-10.2956
▁independence	-10.2958
▁massive	-10.2961
▁load	-10.2962
▁finds	-10.2962
mm	-10.2965
▁Roberto	-10.2973
▁dangerous	-10.2974
▁rive	-10.2976
▁1918	-10.2977
▁applications	-10.2978
▁Rome	-10.2981
▁Ve	-10.2982
▁entrance	-10.2983
▁Cu	-10.2985
▁describe	-10.2986
▁patterns	-10.299
▁1977	-10.2991
▁foods	-10.2991
▁earliest	-10.2992
▁gradually	-10.2995
▁von	-10.2998
▁relief	-10.3006
▁linked	-10.3009
▁seventh	-10.3013
▁rail	-10.3015
▁slowly	-10.3026
▁Jan	-10.303
mb	-10.3031
▁shooting	-10.3032
gue	-10.3035
▁Moon	-10.3041
▁Fire	-10.3053
▁scheduled	-10.3053
▁fly	-10.3055
▁phone	-10.3057
▁acts	-10.3061
▁Review	-10.3066
▁exposed	-10.3066
▁hip	-10.3071
more	-10.3071
▁emergency	-10.3072
▁comic	-10.3073
▁Tropical	-10.3077
▁spend	-10.3089
▁Ray	-10.309
ving	-10.3093
▁entry	-10.3094
▁Emperor	-10.3094
▁regularly	-10.3095
▁derived	-10.3096
60	-10.3099
▁mounted	-10.3099
▁ceremony	-10.3102
▁piano	-10.3113
▁assistant	-10.3114
▁survive	-10.3115
▁changing	-10.3115
▁formal	-10.3122
▁Sunday	-10.3125
▁intersection	-10.3126
▁opposite	-10.3132
án	-10.3133
illa	-10.3134
▁IV	-10.3135
▁Ban	-10.3137
▁notable	-10.314
ice	-10.314
▁investigation	-10.3145
bury	-10.3146
▁strip	-10.3152
▁y	-10.3159
▁characteristics	-10.3159
▁powers	-10.3162
▁vessels	-10.3162
▁union	-10.3164
▁Mad	-10.3166
▁Lincoln	-10.3166
▁personnel	-10.3172
▁Square	-10.3175
▁possibility	-10.3181
▁settlement	-10.3181
▁torpedo	-10.3185
90	-10.3186
▁bacteria	-10.3192
▁Vo	-10.3195
▁Ross	-10.3197
▁steps	-10.32
▁120	-10.32
▁arm	-10.32
▁lose	-10.3203
▁buried	-10.3207
▁rose	-10.3208
▁battalion	-10.3209
▁salt	-10.3219
▁filmed	-10.3219
▁Mount	-10.3222
▁Key	-10.3223
▁ISBN	-10.3223
ase	-10.3225
▁seek	-10.3226
▁Gen	-10.3229
▁option	-10.323
▁evening	-10.3233
▁gwo	-10.3234
▁tank	-10.3235
▁Mal	-10.3236
▁shaped	-10.3239
ano	-10.324
▁kèk	-10.3243
▁coastal	-10.3245
▁51	-10.3252
▁passage	-10.3253
ral	-10.3254
▁lay	-10.3259
▁delivered	-10.3272
▁suffering	-10.3275
▁converted	-10.3275
▁eggs	-10.328
▁Lady	-10.3281
▁politics	-10.3283
▁filming	-10.3284
▁el	-10.3287
17	-10.329
▁oxygen	-10.3294
▁estate	-10.3298
▁speaking	-10.3298
▁assessment	-10.3303
▁Justice	-10.3306
▁Steve	-10.3315
ü	-10.3324
▁Singapore	-10.3324
▁aware	-10.3329
▁deaths	-10.333
▁functions	-10.3337
▁department	-10.3345
▁taught	-10.3348
▁chain	-10.3349
cal	-10.3355
▁em	-10.3357
▁Chart	-10.3358
▁Olympic	-10.3363
hr	-10.3366
▁Kentucky	-10.3366
▁acres	-10.3367
▁boats	-10.3367
▁assistance	-10.3367
▁Simon	-10.3369
▁hotel	-10.3372
▁1963	-10.3375
tle	-10.3384
▁da	-10.3389
▁funds	-10.339
▁2018	-10.3391
▁enjoyed	-10.3398
▁Carl	-10.3401
▁snow	-10.3406
▁faith	-10.3406
▁campus	-10.3406
▁heads	-10.3413
▁attached	-10.3415
▁discovery	-10.3415
▁comedy	-10.3422
▁Fritz	-10.3425
▁popularity	-10.3429
ged	-10.344
▁users	-10.3441
▁recognition	-10.3442
▁solo	-10.3443
▁fè	-10.3444
▁1917	-10.3445
▁visible	-10.3447
▁relations	-10.3448
▁installed	-10.3451
▁cited	-10.3452
▁reputation	-10.3454
▁1915	-10.3458
▁soft	-10.3458
▁Cape	-10.3461
▁indicate	-10.3464
18	-10.3465
▁crowd	-10.3465
▁Za	-10.3467
▁Station	-10.3478
▁Son	-10.3478
gg	-10.3482
ada	-10.3485
board	-10.3487
▁Liverpool	-10.3487
▁1916	-10.3492
▁Democratic	-10.3493
▁educational	-10.3494
▁bone	-10.3495
▁Brian	-10.35
▁Val	-10.3501
24	-10.3503
▁extent	-10.3507
▁95	-10.3518
▁breeding	-10.3519
▁clearly	-10.3527
%	-10.353
ski	-10.3531
ates	-10.3533
▁Earl	-10.3538
▁stopped	-10.3545
▁circuit	-10.3547
fo	-10.355
▁disorder	-10.3557
▁250	-10.3565
▁sounds	-10.3566
We	-10.3572
▁injured	-10.3573
uck	-10.3578
▁Daily	-10.358
wo	-10.3584
▁involving	-10.3586
▁Are	-10.359
▁franchise	-10.3592
▁Carey	-10.3598
▁relationships	-10.3599
▁Head	-10.3602
▁funding	-10.3604
▁looked	-10.3605
▁owner	-10.3606
uc	-10.3609
▁lap	-10.361
▁widespread	-10.3614
form	-10.3615
term	-10.3616
▁starts	-10.3617
▁increases	-10.3618
▁Gi	-10.362
▁Matt	-10.3621
▁Nations	-10.3624
▁establishment	-10.363
▁Additionally	-10.363
▁Arm	-10.3631
▁destroy	-10.3634
▁Vietnam	-10.3636
▁brigade	-10.3636
▁Emmanuel	-10.3638
ual	-10.364
▁1948	-10.364
▁kingdom	-10.3642
▁meat	-10.3643
▁shell	-10.3644
▁criminal	-10.3647
▁helping	-10.3648
▁detailed	-10.3649
▁1962	-10.365
▁injuries	-10.3654
ious	-10.3656
▁Foundation	-10.3658
▁Revolution	-10.3665
▁door	-10.3665
▁symbol	-10.3665
▁Lieutenant	-10.367
▁reduction	-10.367
▁promotion	-10.3672
▁fill	-10.3682
▁tool	-10.3684
▁Sound	-10.3684
▁meters	-10.3693
zo	-10.3697
▁engineering	-10.37
▁therapy	-10.3702
▁Clark	-10.371
▁classic	-10.3712
▁1946	-10.3712
▁SR	-10.3713
bb	-10.3716
▁Storm	-10.3718
▁kò	-10.3718
▁seasons	-10.3719
▁candidate	-10.3725
aire	-10.3725
▁sections	-10.3726
▁declined	-10.3741
▁greatly	-10.3745
▁chapter	-10.3746
▁storage	-10.3755
▁Ant	-10.3755
▁committed	-10.3756
len	-10.3757
23	-10.3767
▁tri	-10.3767
▁duty	-10.3767
▁user	-10.3773
▁ma	-10.3786
▁considerable	-10.3791
▁Marine	-10.3797
▁alcohol	-10.3798
▁Back	-10.3801
▁seed	-10.3803
27	-10.3806
▁discussed	-10.3808
▁casualties	-10.3811
▁favorite	-10.3813
▁difficulty	-10.3818
▁landscape	-10.3822
▁replacement	-10.3827
▁girls	-10.3827
▁components	-10.383
cul	-10.3833
▁sector	-10.3834
▁colour	-10.3835
▁opportunities	-10.3838
▁interests	-10.384
nic	-10.3842
▁Oregon	-10.3842
▁advice	-10.3846
▁themes	-10.385
tis	-10.3852
ments	-10.3857
▁lands	-10.386
▁mark	-10.3861
▁Tim	-10.3864
▁sik	-10.3869
ight	-10.3874
▁leads	-10.3874
▁Albert	-10.388
▁rated	-10.3884
▁guard	-10.3886
▁tissue	-10.3888
▁temple	-10.389
▁library	-10.3895
▁85	-10.3898
▁Sp	-10.3902
=	-10.3904
▁keeping	-10.392
▁Pierre	-10.3921
▁universe	-10.3922
▁sustained	-10.3927
▁assist	-10.3928
▁association	-10.3931
▁favor	-10.3932
▁hired	-10.3935
▁threatened	-10.3935
▁Open	-10.3937
▁crisis	-10.394
▁discussion	-10.3948
▁fair	-10.3948
over	-10.3951
▁surgery	-10.3953
▁doubt	-10.3956
www	-10.3963
▁happened	-10.3963
▁quick	-10.3964
▁requirements	-10.3968
▁argument	-10.397
▁Summer	-10.397
▁Poland	-10.397
▁dat	-10.397
▁Radio	-10.3975
▁southeast	-10.398
▁Library	-10.398
rie	-10.3984
▁spirit	-10.3985
▁evolution	-10.3989
ory	-10.3991
dan	-10.3994
▁Last	-10.3996
▁destruction	-10.3998
ox	-10.3998
▁architecture	-10.4
▁degrees	-10.4005
▁cat	-10.4005
▁lb	-10.4007
ux	-10.4008
▁Adam	-10.4008
▁spiritual	-10.4013
▁Disney	-10.4015
ks	-10.4016
▁males	-10.402
▁opera	-10.4021
▁Nintendo	-10.4021
▁prepare	-10.4025
▁hundreds	-10.4033
▁Robaina	-10.4036
▁1961	-10.4041
>	-10.4047
▁succeeded	-10.4051
▁Francis	-10.4052
▁inner	-10.4052
▁narrative	-10.4053
▁corner	-10.4054
par	-10.4055
▁sand	-10.4058
▁Federal	-10.4058
▁brothers	-10.4064
▁sample	-10.4071
▁Popilasyon	-10.4073
▁writes	-10.4074
▁immediate	-10.4078
▁strongly	-10.4088
ag	-10.409
▁Hollywood	-10.4092
▁Command	-10.4096
▁bought	-10.4096
▁drew	-10.4098
▁reserve	-10.4101
ula	-10.4103
▁titles	-10.4103
▁refers	-10.4108
▁Bart	-10.411
▁AD	-10.4112
▁stands	-10.4114
▁proposal	-10.4119
▁entitled	-10.4119
cc	-10.412
low	-10.412
nan	-10.4121
ida	-10.4122
▁habitat	-10.4123
▁Holy	-10.4124
▁Maria	-10.4126
▁Roger	-10.4129
ram	-10.4131
▁arranged	-10.4132
▁Anne	-10.4133
▁neither	-10.4134
▁movements	-10.4135
.)	-10.4139
▁Mars	-10.414
▁creative	-10.4146
▁liquid	-10.4149
▁gets	-10.4149
▁tall	-10.4149
▁Norway	-10.4151
▁depending	-10.4151
▁trouble	-10.4151
▁southwest	-10.4159
▁watched	-10.4163
▁grand	-10.4171
▁seeing	-10.4175
▁imp	-10.4179
▁1.	-10.418
45	-10.4188
▁Tout	-10.4189
sk	-10.4191
▁lake	-10.4191
▁contribute	-10.4193
▁minimum	-10.4199
▁prove	-10.4202
▁trains	-10.4203
▁responded	-10.4205
▁fèt	-10.4206
▁charged	-10.4208
▁Maryland	-10.4209
▁headed	-10.4212
▁survived	-10.4213
▁disaster	-10.4214
▁exactly	-10.4217
▁shoot	-10.4224
▁Ru	-10.4226
▁piti	-10.4227
ó	-10.4229
▁purposes	-10.4234
▁conclusion	-10.4236
▁designs	-10.4237
▁beautiful	-10.4239
▁outbreak	-10.4241
▁journal	-10.4244
▁consumption	-10.4245
▁outer	-10.4249
▁belief	-10.4256
▁oldest	-10.4257
▁honour	-10.4258
asyon	-10.426
▁electricity	-10.4263
▁bringing	-10.4264
▁ruled	-10.4264
ella	-10.4268
▁Eric	-10.427
tte	-10.4273
air	-10.4279
▁unusual	-10.4282
▁cricket	-10.4282
▁fer	-10.4286
▁timoun	-10.4287
▁waters	-10.4287
▁Internet	-10.4288
▁grown	-10.4289
▁54	-10.4289
ick	-10.4298
▁accounts	-10.4299
▁stream	-10.43
▁televizyon	-10.4304
▁expression	-10.4305
▁bomb	-10.4312
▁Pat	-10.4316
▁Patrick	-10.4319
ju	-10.4321
▁generated	-10.4324
▁copy	-10.4325
▁card	-10.4338
for	-10.4349
▁Pop	-10.435
row	-10.435
mes	-10.4354
▁medium	-10.4355
▁employees	-10.4357
▁stable	-10.436
▁po	-10.436
▁accident	-10.4365
▁valley	-10.4369
▁Th	-10.4371
▁Colonel	-10.4375
▁thin	-10.4376
▁dezyèm	-10.4379
▁document	-10.4382
▁warning	-10.4383
▁singles	-10.4386
▁Arts	-10.4386
▁HMS	-10.4388
▁USA	-10.439
▁file	-10.4391
▁challenges	-10.4394
▁biggest	-10.4398
▁definition	-10.4399
▁reducing	-10.44
▁entering	-10.4404
▁gone	-10.4406
▁mu	-10.4412
▁options	-10.4416
26	-10.4416
▁hill	-10.4417
▁Moore	-10.4417
IS	-10.4418
ef	-10.4422
hl	-10.4427
28	-10.4427
▁Imperial	-10.4428
▁Max	-10.4429
ku	-10.4433
▁Video	-10.4434
▁im	-10.4435
▁justice	-10.4435
▁females	-10.4437
▁PlayStation	-10.4437
▁childhood	-10.4437
▁Tra	-10.444
▁Sante	-10.4441
▁Such	-10.4442
▁operate	-10.4443
▁Inter	-10.4445
▁seemed	-10.4448
▁literary	-10.4449
▁participate	-10.4461
▁albums	-10.4463
▁53	-10.4465
▁1938	-10.4465
ese	-10.4467
▁Indiana	-10.4467
▁circulation	-10.4467
▁illness	-10.4468
▁1956	-10.4469
▁Dar	-10.4472
▁Bowl	-10.4474
▁pe	-10.4474
mas	-10.4475
▁parent	-10.4476
▁Mor	-10.4477
▁http	-10.4478
▁settled	-10.4484
▁Mexican	-10.4485
ces	-10.4487
▁flu	-10.4494
▁FA	-10.4494
sion	-10.4495
▁enjoy	-10.4496
▁engines	-10.4498
▁foundation	-10.45
▁behaviour	-10.4506
▁normally	-10.4508
35	-10.4509
▁approached	-10.4509
▁closer	-10.4513
▁sum	-10.4516
▁inspiration	-10.4523
▁poly	-10.4524
▁agricultural	-10.4524
▁intense	-10.4526
▁nonm	-10.4526
era	-10.4527
▁Use	-10.4527
▁attend	-10.453
▁Jay	-10.4532
▁renamed	-10.4534
▁thousand	-10.4536
ill	-10.4541
▁prisoners	-10.4544
▁Network	-10.4546
▁Anti	-10.4549
ome	-10.455
▁window	-10.4551
▁bear	-10.4554
▁Unlike	-10.4558
▁exit	-10.456
▁familiar	-10.4569
▁Douglas	-10.457
tern	-10.4572
▁Constitution	-10.4572
▁Asian	-10.4574
▁bound	-10.4575
▁classification	-10.4576
▁plastic	-10.4581
▁retained	-10.4587
war	-10.4589
▁download	-10.4593
ction	-10.4593
▁experiment	-10.4593
▁institutions	-10.4594
▁measured	-10.4596
▁Social	-10.4596
▁Fair	-10.4596
▁awards	-10.4603
▁interior	-10.4606
▁absence	-10.4607
▁apply	-10.4608
▁bed	-10.4611
▁Hospital	-10.4611
▁driven	-10.4616
▁facility	-10.4617
▁genre	-10.462
▁somewhat	-10.4621
▁apart	-10.4627
▁Com	-10.4629
yn	-10.463
▁equipped	-10.463
▁adapted	-10.4631
matic	-10.4631
▁none	-10.4631
▁Cap	-10.4633
▁trust	-10.4633
▁Sydney	-10.4636
▁Ram	-10.4637
▁òganizasyon	-10.4637
▁Prior	-10.4639
▁Golden	-10.464
▁2004.	-10.464
▁segment	-10.4641
▁giant	-10.4642
75	-10.4648
▁debt	-10.465
▁commission	-10.4656
▁breed	-10.4656
▁56	-10.4657
▁1958	-10.4664
▁charts	-10.4664
br	-10.4667
▁wearing	-10.4667
▁languages	-10.4668
▁Dark	-10.467
▁sight	-10.4674
izin	-10.4675
▁weakened	-10.4675
▁resolution	-10.4677
▁Illinois	-10.4677
▁frequent	-10.4678
▁consisting	-10.4685
oid	-10.4686
▁happen	-10.4692
▁spoke	-10.4696
▁discuss	-10.4697
▁offering	-10.4697
▁assumed	-10.4697
▁tanks	-10.4698
▁moon	-10.4702
66	-10.4703
▁Band	-10.4703
▁dates	-10.4705
▁sufficient	-10.4709
86	-10.471
▁lasted	-10.4711
▁Touris	-10.4711
▁duties	-10.4712
cho	-10.4718
▁trained	-10.472
▁1959	-10.4722
▁net	-10.4724
▁Marie	-10.4726
▁Mountain	-10.4727
hal	-10.4727
▁Espò	-10.4728
▁Longchamp	-10.4732
▁legislation	-10.4733
▁Santa	-10.4733
▁spin	-10.4733
▁happy	-10.4734
▁Within	-10.4734
▁prey	-10.4738
▁bass	-10.4744
▁700	-10.4744
▁photo	-10.4749
▁ko	-10.475
▁1957	-10.4753
▁NHL	-10.4755
fu	-10.4756
▁Alan	-10.4758
▁category	-10.4759
65	-10.4761
vis	-10.4764
▁lies	-10.4764
▁fashion	-10.4764
▁electrical	-10.4772
▁cool	-10.4772
▁theatre	-10.4775
ture	-10.4775
eau	-10.478
▁output	-10.4781
▁1947	-10.4784
07	-10.4789
▁radyo	-10.479
▁maintenance	-10.4793
▁sivil	-10.4796
▁Fer	-10.4796
▁1919	-10.4797
▁organic	-10.4797
▁gene	-10.4799
▁radiation	-10.48
▁angle	-10.4802
▁Heart	-10.4804
die	-10.4805
ret	-10.4805
▁Kilti	-10.4806
▁Angel	-10.4806
▁external	-10.4806
ough	-10.4807
SA	-10.4807
▁nations	-10.4809
37	-10.4814
▁impossible	-10.4817
▁ridge	-10.482
▁minister	-10.482
▁Bush	-10.4824
▁Family	-10.4827
▁Temple	-10.4827
▁credited	-10.4831
▁easier	-10.4833
▁Korea	-10.4836
til	-10.4837
▁begun	-10.4838
▁serves	-10.4839
▁folk	-10.4846
▁Real	-10.4853
▁1936	-10.4869
▁Pu	-10.4873
▁moderate	-10.4873
▁Des	-10.4874
av	-10.4874
▁mix	-10.4875
▁Kim	-10.4877
▁1953	-10.4878
▁describing	-10.488
▁kontak	-10.4881
▁invited	-10.4883
▁medikal	-10.4883
▁classified	-10.4885
▁Hitler	-10.4887
▁Airport	-10.4888
▁programme	-10.4889
▁otorite	-10.489
▁principles	-10.4891
▁Centre	-10.4891
▁Philip	-10.4893
▁distributed	-10.4894
▁Germans	-10.4895
▁Kreyòl	-10.4895
01	-10.4896
ré	-10.4898
▁para	-10.49
operasyon	-10.49
▁rescue	-10.49
▁medal	-10.4901
▁Bal	-10.4904
▁excellent	-10.4905
▁Hamilton	-10.4906
▁respond	-10.4907
▁sport	-10.4907
▁household	-10.491
▁sispann	-10.4916
▁Take	-10.4916
▁smooth	-10.4917
ama	-10.4919
▁faster	-10.4919
▁Missouri	-10.4926
▁rank	-10.493
▁Minnesota	-10.4934
▁province	-10.4936
▁1962,	-10.4939
▁businesses	-10.4946
▁neck	-10.4948
▁emphasis	-10.4951
▁Gordon	-10.4954
▁Gouvènman	-10.4955
▁fa	-10.4955
85	-10.4957
▁separated	-10.4959
▁Dream	-10.496
▁Howard	-10.496
▁milk	-10.4961
fish	-10.4964
▁diplomatik	-10.4964
▁expensive	-10.4966
▁Kong	-10.4967
▁emerged	-10.4968
▁Sinema	-10.4975
▁plane	-10.4977
▁amounts	-10.4978
▁abuse	-10.4979
▁admitted	-10.4982
▁historic	-10.4984
ack	-10.4984
▁estasyon	-10.4984
ique	-10.4992
yo	-10.4995
▁baseball	-10.4998
▁gender	-10.5005
29	-10.5005
33	-10.5006
▁classroom	-10.5008
▁Naval	-10.5011
▁decisions	-10.5014
▁Mediterranean	-10.5015
▁freeway	-10.5018
▁struggle	-10.5019
▁Report	-10.5019
▁conservation	-10.502
▁immune	-10.5021
▁subjects	-10.5022
▁root	-10.5024
▁1904.	-10.5026
▁explains	-10.5029
ena	-10.5033
▁mention	-10.5034
osis	-10.5035
▁Master	-10.5041
▁pp	-10.5041
99	-10.5042
▁Kennedy	-10.5045
▁towns	-10.5045
cre	-10.5046
▁belt	-10.5046
▁Em	-10.5047
▁drawing	-10.5047
▁emissions	-10.5048
▁gameplay	-10.5048
▁Tre	-10.5053
▁praise	-10.5053
▁Agrikilti	-10.5055
▁asistans	-10.5057
▁crossed	-10.506
▁dwèt	-10.506
▁Assembly	-10.5062
▁instruments	-10.5062
▁1955	-10.5062
▁Beyoncé	-10.507
▁Five	-10.5071
reprann	-10.5071
mit	-10.5075
▁channel	-10.5076
▁description	-10.5078
▁row	-10.5078
tel	-10.5078
▁airport	-10.5081
▁Sta	-10.5085
▁vast	-10.5087
▁Pèsonalite	-10.5087
ip	-10.509
eur	-10.5095
▁founder	-10.5095
▁detail	-10.5095
tain	-10.5097
▁posted	-10.5102
▁sequel	-10.5105
▁pit	-10.5107
▁worst	-10.5109
▁encouraged	-10.511
▁Konstriksyon	-10.5111
▁flank	-10.5111
▁tape	-10.5111
hanselye	-10.5113
▁Sky	-10.5114
▁repair	-10.5114
▁feelings	-10.5115
▁alfabetizasyon	-10.5116
▁koumanse	-10.5117
▁Wi	-10.5118
▁pèsonalite	-10.5118
▁colonial	-10.5118
▁Pèch	-10.5119
▁OEA	-10.5119
▁300000	-10.5122
▁shore	-10.5124
▁stadium	-10.5125
▁arrested	-10.5126
▁Dabò	-10.5128
▁Adams	-10.5129
ewonotik	-10.513
▁breaking	-10.5131
▁Therefore	-10.5135
▁modified	-10.5135
▁schedule	-10.5136
▁der	-10.5141
▁manage	-10.5144
▁false	-10.5145
▁Op	-10.5146
▁dating	-10.5147
▁Norman	-10.5148
▁Guide	-10.515
▁collaboration	-10.5151
▁Shortly	-10.5152
▁dogs	-10.5155
▁76	-10.5156
▁suitable	-10.5157
▁1910	-10.5163
▁Beach	-10.5165
▁concrete	-10.5165
ball	-10.5166
▁attributed	-10.5169
▁articles	-10.517
down	-10.5171
book	-10.5173
▁represents	-10.5174
▁Native	-10.5175
▁Byzantine	-10.5177
▁thirty	-10.5177
▁Kent	-10.5179
elle	-10.5182
▁1937	-10.5183
▁drinking	-10.5183
lor	-10.5188
rum	-10.5188
▁Sen	-10.5188
▁Ber	-10.5191
▁kon	-10.5192
ala	-10.5195
▁ameriken	-10.5204
▁Fe	-10.5206
vert	-10.5207
▁Further	-10.5209
▁1954	-10.521
▁whereas	-10.521
▁engage	-10.5212
▁yourself	-10.5218
▁Jordan	-10.5223
▁temporary	-10.5225
lay	-10.5226
▁Memorial	-10.5236
▁Throughout	-10.5237
▁winner	-10.5243
AC	-10.5249
▁Down	-10.5252
▁Fu	-10.5254
▁legs	-10.5256
pping	-10.526
▁holds	-10.5268
▁suffer	-10.5269
bra	-10.5269
▁Well	-10.527
▁Mont	-10.5271
▁percentage	-10.5271
▁Muslim	-10.5271
gate	-10.5275
▁Jacob	-10.5276
bal	-10.5276
▁rep	-10.5277
▁sessions	-10.5282
▁stood	-10.5284
▁interpretation	-10.5284
cent	-10.5286
▁informed	-10.5287
▁participants	-10.5291
▁Pen	-10.5291
▁fluid	-10.5292
tt	-10.5293
▁owners	-10.5294
▁pages	-10.5296
▁enemies	-10.5309
▁obtain	-10.531
▁Magazine	-10.5313
▁Those	-10.5315
▁Cre	-10.5316
▁Iowa	-10.532
▁classical	-10.5322
▁Win	-10.5325
▁Six	-10.5326
38	-10.5329
▁Phil	-10.5331
▁forming	-10.5331
▁voted	-10.5332
▁Olympics	-10.5335
dis	-10.5336
des	-10.5337
▁involves	-10.5339
▁Cro	-10.5341
▁victims	-10.5341
lye	-10.5345
▁Using	-10.5345
▁Gra	-10.5346
▁Ann	-10.535
▁appointment	-10.535
▁ap	-10.5352
▁diameter	-10.5357
▁falling	-10.5358
▁sale	-10.5358
▁facing	-10.5361
▁Jeff	-10.5361
▁Third	-10.5363
ros	-10.5363
▁Tony	-10.5364
▁comments	-10.5369
▁Media	-10.5372
▁remainder	-10.5373
.1	-10.5375
▁ratio	-10.5375
▁harm	-10.5378
▁isn	-10.5382
▁wish	-10.5382
▁explore	-10.5385
▁marine	-10.5385
ky	-10.539
▁Ly	-10.5392
▁contest	-10.5398
▁Luc	-10.5399
):	-10.54
▁certified	-10.5403
▁Iron	-10.5404
▁ride	-10.5408
▁Matthew	-10.5409
ising	-10.5418
tch	-10.5418
▁incorporated	-10.5419
▁accused	-10.542
▁muscle	-10.5431
▁reflect	-10.5442
▁Medical	-10.5442
▁66	-10.5448
▁Allen	-10.5449
▁app	-10.5451
▁occasionally	-10.5454
▁Nick	-10.5455
▁Class	-10.5455
▁concentration	-10.5458
zy	-10.5458
ax	-10.546
▁scheme	-10.5466
▁grounds	-10.5471
▁Jane	-10.5471
▁breast	-10.5475
▁Egyptian	-10.5475
ero	-10.5476
bit	-10.5478
▁landfall	-10.5479
▁Theatre	-10.5484
ular	-10.5489
▁judge	-10.549
▁housing	-10.5491
▁bands	-10.5491
▁57	-10.5496
▁organ	-10.5499
▁ra	-10.55
rid	-10.5504
▁Food	-10.5505
▁dated	-10.5509
itis	-10.5512
▁bo	-10.5518
▁1952	-10.552
▁tied	-10.5527
▁rival	-10.5534
ins	-10.5535
▁Alex	-10.5539
▁portrayed	-10.5541
ole	-10.5544
▁apparent	-10.5544
▁controversy	-10.555
▁plain	-10.5551
▁flowers	-10.5555
▁completion	-10.5558
▁involvement	-10.5559
▁recalled	-10.5562
▁Tan	-10.5562
ever	-10.5563
▁clinical	-10.5565
▁reception	-10.5579
▁notice	-10.558
▁soti	-10.5582
▁−	-10.5585
uch	-10.5593
▁Professor	-10.5596
act	-10.5597
▁denied	-10.56
▁Through	-10.5602
▁z	-10.5605
▁trials	-10.5616
▁Anna	-10.5617
▁documents	-10.562
▁Bishop	-10.562
▁Juan	-10.5623
▁Natural	-10.5625
▁component	-10.5629
▁Area	-10.5633
▁Fo	-10.5634
bert	-10.5635
▁investment	-10.564
▁Char	-10.5642
▁vary	-10.5644
▁Type	-10.5651
▁Ph	-10.5652
▁jewografik	-10.5656
▁);	-10.5658
▁1949	-10.5659
▁log	-10.5662
▁vital	-10.5664
year	-10.5667
▁Ash	-10.567
▁tooth	-10.567
▁column	-10.5672
▁Nu	-10.5677
tè	-10.5678
▁colony	-10.5682
▁roots	-10.5682
▁jobs	-10.5684
▁frequency	-10.5685
▁bright	-10.5688
▁Main	-10.5692
▁count	-10.5692
oon	-10.5693
ima	-10.5695
▁2019	-10.5697
▁forests	-10.5698
▁Tar	-10.5702
▁DE	-10.5704
lis	-10.5705
bre	-10.5709
▁kick	-10.571
▁McC	-10.5711
▁moves	-10.5712
▁pool	-10.5715
▁Ana	-10.5715
▁Modern	-10.5718
▁periods	-10.5719
▁almanak	-10.572
▁memorial	-10.5727
67	-10.5729
▁Las	-10.5731
▁taste	-10.5737
▁sit	-10.5738
▁continuing	-10.5739
▁topic	-10.5739
ming	-10.5739
▁canal	-10.574
▁Sub	-10.5743
▁spending	-10.5746
▁defend	-10.5748
nal	-10.5749
▁Girl	-10.575
▁cloud	-10.575
af	-10.5752
▁Program	-10.5756
▁”	-10.5761
▁Plant	-10.5763
▁recovered	-10.5763
ón	-10.5765
▁Rio	-10.5766
▁cup	-10.5767
▁uniform	-10.5768
▁1951	-10.5769
▁findings	-10.5772
▁touch	-10.5773
▁58	-10.5777
▁pounds	-10.5778
▁departure	-10.5778
▁Alabama	-10.5779
▁Hart	-10.578
▁Ford	-10.578
55	-10.5781
▁twin	-10.5782
dale	-10.5782
▁routes	-10.5783
▁knots	-10.5785
▁Control	-10.5787
▁1933	-10.5788
▁Design	-10.5789
▁Dat	-10.5792
▁plus	-10.5793
▁stick	-10.5797
▁72	-10.5799
▁MTV	-10.5802
èt	-10.5805
▁visitors	-10.5805
▁throw	-10.5805
▁teach	-10.5806
44	-10.5808
▁hits	-10.5809
▁recognize	-10.581
▁Trans	-10.5814
▁substantial	-10.5816
▁certainly	-10.5821
▁comparison	-10.5823
ić	-10.5825
▁practical	-10.5825
▁Get	-10.5827
iff	-10.5827
▁Dun	-10.583
▁surrounded	-10.5833
▁repeated	-10.5836
▁orbit	-10.5839
▁Having	-10.5844
▁charges	-10.5847
rus	-10.5848
▁successor	-10.5853
▁engagement	-10.5854
▁Mer	-10.5855
▁Ger	-10.5855
▁missed	-10.5857
▁smoke	-10.5859
▁Hungarian	-10.5859
▁Make	-10.586
▁Villa	-10.5866
▁fixed	-10.5869
fin	-10.587
▁leta	-10.5872
▁Morgan	-10.5872
▁handle	-10.5872
▁1900	-10.5876
▁attracted	-10.5883
▁crash	-10.5884
▁evil	-10.5888
▁translation	-10.589
▁bus	-10.5894
▁Simpsons	-10.5894
▁streets	-10.5898
▁eighth	-10.59
▁loop	-10.5901
09	-10.5907
pri	-10.5908
▁ethnic	-10.5909
nce	-10.5909
▁Sh	-10.5914
31	-10.5915
▁ne	-10.5915
▁arch	-10.5916
▁driver	-10.5918
dar	-10.5919
▁Horse	-10.5919
▁Indians	-10.5924
▁gap	-10.5925
▁composer	-10.5928
36	-10.5935
▁1935	-10.5936
▁Hay	-10.5938
▁controversial	-10.5938
▁sky	-10.5938
▁looks	-10.594
▁Samuel	-10.594
▁rarely	-10.594
az	-10.5942
▁Around	-10.5943
▁Yu	-10.5944
▁medieval	-10.5945
▁audio	-10.5949
ene	-10.595
▁tested	-10.595
▁sharp	-10.5954
▁creator	-10.5957
dor	-10.5959
list	-10.5959
eb	-10.5965
nch	-10.5968
PA	-10.5969
pon	-10.5969
▁130	-10.597
▁Building	-10.5971
AT	-10.5972
▁Netherlands	-10.5976
▁circumstances	-10.5976
▁supporters	-10.5979
▁isolated	-10.5979
pin	-10.5982
▁Songs	-10.5984
▁string	-10.5985
▁refer	-10.5988
▁armor	-10.5991
▁pretty	-10.5992
▁mobile	-10.5993
▁expand	-10.5996
▁nomination	-10.5998
▁bay	-10.6001
▁2.	-10.6004
▁proportion	-10.6009
▁arrest	-10.601
▁Play	-10.6012
▁poetry	-10.6013
▁exception	-10.6014
▁Ste	-10.6014
ties	-10.6018
qua	-10.6024
▁Kevin	-10.6024
▁surviving	-10.6038
▁restored	-10.6039
RA	-10.6043
▁Sweden	-10.6043
ency	-10.6044
gin	-10.6045
▁Norwegian	-10.6045
AN	-10.6046
▁Berlin	-10.6046
▁biological	-10.605
▁champion	-10.6051
▁Mill	-10.6052
sel	-10.6052
▁representing	-10.6055
▁Mulder	-10.6059
▁violent	-10.606
▁samples	-10.6062
▁hunting	-10.6064
▁Bruce	-10.6067
▁Channel	-10.6067
▁difficulties	-10.607
▁Au	-10.6072
95	-10.6072
▁chair	-10.6074
▁62	-10.6084
▁stem	-10.6084
▁hosted	-10.6085
▁Guy	-10.6087
dom	-10.6089
▁convoy	-10.609
▁plate	-10.6091
▁frame	-10.6093
▁readers	-10.6093
oma	-10.6094
▁ban	-10.6099
▁valuable	-10.6099
▁goods	-10.6099
▁Nor	-10.61
▁historians	-10.61
▁stayed	-10.61
▁Colorado	-10.6103
▁permission	-10.6104
▁waves	-10.6104
▁agents	-10.6105
▁Sand	-10.6106
▁believes	-10.611
▁Im	-10.6111
▁Bad	-10.6113
▁passengers	-10.6115
▁missions	-10.6115
▁cutting	-10.6116
▁Bible	-10.6121
▁diabetes	-10.6124
▁conventional	-10.613
▁pointed	-10.6132
ii	-10.6133
▁wealth	-10.614
▁scholars	-10.6146
mis	-10.6147
▁adaptation	-10.6147
▁Fall	-10.6147
▁preferred	-10.615
77	-10.6151
▁Bernard	-10.6153
ob	-10.6153
▁revolution	-10.6153
▁UTC	-10.6155
▁mine	-10.6157
▁deliver	-10.6159
▁wire	-10.6163
▁Dean	-10.6163
▁proteins	-10.6164
▁artificial	-10.6168
▁Ryan	-10.6169
▁sin	-10.617
▁collect	-10.6173
▁seeking	-10.6174
▁99	-10.6179
mel	-10.6179
▁returns	-10.618
▁residence	-10.6182
▁Robinson	-10.6187
▁references	-10.6187
sitye	-10.6188
▁Cur	-10.619
It	-10.619
▁surprise	-10.619
▁explanation	-10.6191
▁properly	-10.6191
.5	-10.6192
▁Ci	-10.6192
dal	-10.6192
▁Rights	-10.6193
▁regime	-10.6193
▁chronic	-10.6194
▁principle	-10.6197
tri	-10.62
win	-10.62
▁pitch	-10.6203
39	-10.6206
ons	-10.6208
▁dollars	-10.6216
▁Comp	-10.6217
▁vice	-10.6219
ES	-10.6221
▁Chèf	-10.6222
▁Ball	-10.6225
▁catch	-10.6226
lam	-10.6226
▁Cooper	-10.6227
▁anniversary	-10.6228
▁crops	-10.6228
▁Winter	-10.623
▁actress	-10.6231
▁Mississippi	-10.6231
▁accurate	-10.6231
▁Stadium	-10.6234
▁Bull	-10.6234
▁Retrieved	-10.6236
▁Lisa	-10.6237
▁Apple	-10.624
▁pan	-10.6251
▁profile	-10.6253
AL	-10.6256
▁expect	-10.6256
▁hop	-10.6258
▁dream	-10.6259
▁farmers	-10.6266
▁connect	-10.6271
▁preparation	-10.6271
nar	-10.6272
▁apparently	-10.6273
▁select	-10.6274
▁watching	-10.6276
▁painted	-10.6279
lar	-10.6281
▁Finally	-10.6282
▁1913	-10.6284
▁technologies	-10.6287
ire	-10.6291
▁decide	-10.6292
▁prices	-10.6294
▁objective	-10.6294
une	-10.6295
▁chorus	-10.6296
▁Toronto	-10.63
▁Every	-10.6304
05	-10.6307
▁collapse	-10.631
▁partnership	-10.6312
▁fe	-10.6313
▁nest	-10.6313
▁presentation	-10.6314
▁representation	-10.6314
▁Greece	-10.6314
kh	-10.6315
▁Cat	-10.6321
▁Nelson	-10.6323
▁efficient	-10.6324
▁knee	-10.6325
”.	-10.6325
▁110	-10.6328
▁Stanley	-10.6329
▁Ki	-10.633
▁poet	-10.633
▁talking	-10.6333
▁drink	-10.6335
▁NASA	-10.6335
▁Persian	-10.6336
▁demonstrated	-10.6339
ore	-10.634
bro	-10.6341
▁retain	-10.6342
▁Camp	-10.6344
ute	-10.6347
▁dialogue	-10.6349
▁Wind	-10.635
lum	-10.6353
▁aspect	-10.6357
▁crop	-10.6367
▁PA	-10.6376
lock	-10.638
▁Kansas	-10.6383
▁wooden	-10.6385
jan	-10.639
▁Qu	-10.6395
▁ho	-10.6399
▁61	-10.6402
▁tries	-10.6407
▁animation	-10.6408
▁commanded	-10.641
▁Brazil	-10.6411
▁fundamental	-10.6413
mal	-10.6414
▁romantic	-10.6415
▁vessel	-10.6416
▁personality	-10.6418
▁Je	-10.6419
▁Bel	-10.6419
▁exact	-10.6419
▁Military	-10.6423
▁neuro	-10.6424
▁à	-10.6424
wing	-10.6425
cu	-10.6425
▁Morris	-10.6426
▁radical	-10.6427
▁fishing	-10.643
▁Ser	-10.6432
▁Cleveland	-10.6433
▁IGN	-10.6433
▁Lane	-10.6437
▁exhibition	-10.6438
▁Call	-10.6439
▁59	-10.644
▁hoped	-10.6442
▁earthquake	-10.6447
▁roll	-10.6447
▁convinced	-10.6448
▁regiment	-10.645
▁beach	-10.6452
▁rooms	-10.6452
▁ni	-10.6453
▁superior	-10.6453
▁sweet	-10.6453
▁rising	-10.6454
lia	-10.6455
▁profit	-10.6457
▁recommend	-10.6457
▁covering	-10.6457
tr	-10.6457
▁Students	-10.6458
▁encourage	-10.6462
▁existed	-10.6462
▁downtown	-10.6465
get	-10.6465
▁Cho	-10.6469
▁potentially	-10.647
▁representative	-10.6472
▁Premier	-10.6473
ati	-10.6475
▁lowest	-10.6478
▁sailed	-10.648
▁unless	-10.648
▁asking	-10.6481
ids	-10.6482
see	-10.6482
bor	-10.6491
▁Vol	-10.6491
▁satellite	-10.6497
▁ch	-10.6497
▁boys	-10.6499
▁delayed	-10.6505
▁approaches	-10.6507
▁awareness	-10.6509
▁1912	-10.6516
▁Pope	-10.6519
▁shift	-10.652
▁Biyografi	-10.652
▁railroad	-10.6523
▁agree	-10.6527
ges	-10.6527
▁pen	-10.653
48	-10.653
su	-10.6531
▁PC	-10.6531
▁generate	-10.6532
▁festival	-10.6534
▁grave	-10.6536
▁strategies	-10.6536
▁Bon	-10.6539
▁flood	-10.6541
▁Mag	-10.6544
▁ranking	-10.6545
gy	-10.6547
▁agency	-10.6549
▁supposed	-10.655
▁<	-10.655
vel	-10.655
ora	-10.6551
▁Ham	-10.6555
cut	-10.6556
pan	-10.6559
▁Blood	-10.656
▁occupation	-10.6561
84	-10.6562
▁reveals	-10.6567
▁pure	-10.6567
▁weekend	-10.6567
▁requested	-10.6568
▁survival	-10.6572
▁Ron	-10.6575
▁Andy	-10.6582
▁prime	-10.6582
▁fictional	-10.6584
▁Qui	-10.6584
▁2020	-10.6591
▁Furthermore	-10.6592
▁arrangement	-10.6594
▁Nevertheless	-10.6596
▁philosophy	-10.6596
▁graduate	-10.6596
ona	-10.6604
▁ke	-10.661
▁particles	-10.6612
▁bones	-10.6613
ö	-10.6613
▁verse	-10.6615
▁dominated	-10.6615
32	-10.662
▁Michel	-10.662
▁José	-10.6621
Re	-10.6623
▁panel	-10.6623
▁throne	-10.6626
▁favour	-10.6626
eo	-10.6631
cer	-10.6637
▁Lang	-10.6642
▁beam	-10.6644
▁aged	-10.6648
▁animated	-10.6649
▁windows	-10.665
▁express	-10.6652
▁minimal	-10.6653
▁Ak	-10.6654
▁wait	-10.6655
▁grant	-10.6658
▁63	-10.6659
▁HIV	-10.666
▁input	-10.6662
▁danger	-10.6663
08	-10.6665
34	-10.667
▁Wright	-10.6671
▁crown	-10.6672
hy	-10.6674
▁Work	-10.6676
▁Ze	-10.6678
▁compete	-10.668
▁Corporation	-10.6685
56	-10.6686
▁bow	-10.6686
ien	-10.6691
èl	-10.6693
▁Weekly	-10.6698
▁Tower	-10.67
ved	-10.6703
bed	-10.6703
▁monitor	-10.6704
81	-10.6705
nia	-10.6707
▁Late	-10.671
▁fossil	-10.671
arian	-10.6711
▁covers	-10.6712
▁fewer	-10.6723
▁understood	-10.6727
▁Welsh	-10.6731
▁influential	-10.6731
▁emperor	-10.6732
▁Energy	-10.6733
ches	-10.674
wan	-10.674
mus	-10.674
▁attempting	-10.674
▁Sim	-10.6741
49	-10.6749
▁craft	-10.675
▁Sarah	-10.675
▁1911	-10.6751
▁usual	-10.6751
▁detect	-10.6758
▁tone	-10.6759
▁eleven	-10.6761
tar	-10.6764
tru	-10.6774
▁Hy	-10.6774
▁formula	-10.6775
▁jump	-10.6776
▁Min	-10.678
▁Much	-10.678
▁Studies	-10.679
▁Inc	-10.679
▁Garden	-10.6795
▁Sar	-10.6798
▁finishing	-10.68
▁predict	-10.6807
rich	-10.6808
▁penalty	-10.6808
eng	-10.681
▁procedure	-10.6811
▁Hol	-10.6814
▁colleagues	-10.6815
▁desert	-10.6816
▁deemed	-10.6817
▁residential	-10.6818
ug	-10.682
uri	-10.682
▁syndrome	-10.682
▁feeding	-10.6825
▁wings	-10.6825
▁Run	-10.6826
▁sons	-10.6826
▁walking	-10.6827
▁circle	-10.6834
▁Read	-10.6835
eth	-10.6835
hn	-10.6835
mont	-10.6836
▁×	-10.6837
ae	-10.6838
▁suicide	-10.6841
▁experts	-10.6842
lle	-10.6842
▁Bas	-10.6851
▁Sol	-10.6853
▁margin	-10.6854
▁96	-10.6855
▁tube	-10.6855
ille	-10.6856
89	-10.6857
▁77	-10.6857
▁Scully	-10.6859
▁Fame	-10.6861
▁Ali	-10.6867
bin	-10.6867
78	-10.6869
ew	-10.687
▁Bristol	-10.6874
▁Miss	-10.6874
ify	-10.6875
▁processing	-10.6877
▁decrease	-10.6877
▁protest	-10.6887
▁claiming	-10.6888
▁god	-10.6888
▁Hard	-10.6889
▁infrastructure	-10.6889
tus	-10.689
▁consistent	-10.6892
▁NBA	-10.6898
▁ear	-10.6899
▁votes	-10.6899
ston	-10.69
▁gay	-10.6902
ich	-10.6902
dia	-10.6906
▁trick	-10.6906
▁documentary	-10.6906
▁Mat	-10.6908
▁Dam	-10.6908
▁recovery	-10.6908
▁passenger	-10.691
▁1934	-10.691
▁explosion	-10.6911
▁examination	-10.6912
▁Russell	-10.6917
▁Er	-10.6918
▁68	-10.6919
▁Rolling	-10.6919
▁hero	-10.6922
00	-10.6923
▁cavalry	-10.6925
cle	-10.6925
▁elections	-10.6926
del	-10.693
▁terminus	-10.6931
▁earning	-10.6933
▁Hindu	-10.6934
▁resource	-10.6935
▁executed	-10.6935
79	-10.6935
▁cha	-10.6937
▁elsewhere	-10.6939
▁depicted	-10.694
▁Jon	-10.694
▁Chan	-10.6944
▁falls	-10.6948
oo	-10.695
▁pushed	-10.6955
▁abilities	-10.6963
▁characterized	-10.6963
▁bat	-10.6965
▁longest	-10.6965
play	-10.6965
ement	-10.6966
▁fitted	-10.6968
▁Police	-10.6969
▁skill	-10.6972
▁Story	-10.6976
88	-10.6977
▁concepts	-10.6981
gon	-10.6984
▁Thompson	-10.6984
▁carrier	-10.6986
▁1932	-10.6986
IC	-10.6989
▁pack	-10.6989
rin	-10.6992
ato	-10.6996
▁indicates	-10.6998
▁mechanical	-10.6999
▁Yo	-10.7
▁delivery	-10.7003
▁garrison	-10.7005
▁aboard	-10.701
▁Carter	-10.7011
▁Technology	-10.7015
▁custom	-10.7018
▁lock	-10.7018
▁discover	-10.702
▁Nature	-10.7022
avi	-10.7023
▁agriculture	-10.7027
▁pace	-10.7027
▁friendly	-10.7028
▁divisions	-10.7029
▁density	-10.7032
▁prevented	-10.7035
▁hydrogen	-10.7035
ban	-10.7036
▁engineer	-10.704
68	-10.704
▁solutions	-10.7042
▁wants	-10.7043
ace	-10.7046
▁diverse	-10.7047
▁WWE	-10.7047
▁Common	-10.7049
▁Jacques	-10.7052
▁Nesans	-10.7057
▁burn	-10.7062
▁telling	-10.7063
▁inform	-10.7067
▁email	-10.7068
▁mono	-10.7077
▁crucial	-10.7079
+	-10.708
nie	-10.7083
▁afterwards	-10.7086
▁dress	-10.7087
▁Nazi	-10.709
▁journalist	-10.7091
▁afternoon	-10.7092
itz	-10.7095
▁67	-10.71
▁insects	-10.7101
▁protagonist	-10.7101
▁unlike	-10.7107
▁Puerto	-10.7107
▁presidential	-10.7109
▁pictures	-10.711
sey	-10.711
▁Anthony	-10.7111
▁Rob	-10.7112
▁seeds	-10.7117
ets	-10.7119
cor	-10.7121
▁deployed	-10.7123
▁indeed	-10.7125
▁basketball	-10.713
▁intervention	-10.7131
▁Harris	-10.7135
▁surrender	-10.7137
▁landed	-10.7143
▁improvement	-10.7148
▁shots	-10.7148
sp	-10.7148
▁sentence	-10.7151
vent	-10.7153
▁Ministry	-10.7156
▁78	-10.7156
▁Data	-10.7157
▁meets	-10.7158
▁wine	-10.7159
▁rap	-10.7162
64	-10.7164
▁Death	-10.718
▁marks	-10.7182
▁vo	-10.7183
▁restoration	-10.7184
▁adapt	-10.7187
▁appearing	-10.7187
▁pull	-10.7189
▁1927	-10.7189
▁rivers	-10.7189
57	-10.7191
▁cur	-10.7191
▁Pri	-10.7192
shire	-10.7193
46	-10.7195
▁observations	-10.7196
ender	-10.7198
▁boost	-10.7202
▁aimed	-10.7204
▁crosses	-10.7208
put	-10.7208
▁160	-10.7212
▁secured	-10.7213
▁aim	-10.7214
▁experiments	-10.7215
▁bond	-10.7215
▁holiday	-10.7215
sol	-10.7215
▁Houston	-10.7217
▁targets	-10.7217
▁intellectual	-10.7218
▁Sel	-10.7224
▁manufacturing	-10.7228
ED	-10.7229
▁ray	-10.7232
▁encounter	-10.7233
▁worship	-10.7234
▁relevant	-10.7242
▁graphics	-10.7242
▁Commonwealth	-10.7244
▁approval	-10.7244
▁Mas	-10.7246
▁Beatles	-10.7251
▁Hal	-10.7252
▁churches	-10.7254
▁Silver	-10.7255
▁Where	-10.7256
▁Tur	-10.7257
▁Arsenal	-10.7263
▁Kelly	-10.7264
▁Lar	-10.7264
▁banks	-10.7266
ded	-10.7269
dra	-10.727
▁Gre	-10.7274
▁partially	-10.7277
eu	-10.7277
▁dismissed	-10.7278
og	-10.728
▁Den	-10.7282
▁dominant	-10.7283
top	-10.7284
▁weapon	-10.7284
chan	-10.7287
▁Hor	-10.7289
var	-10.7292
▁Mass	-10.7293
▁1921	-10.7294
▁conservative	-10.7296
▁Diego	-10.7297
ington	-10.7301
▁displayed	-10.7301
▁1926	-10.7306
▁dramatic	-10.7306
▁87	-10.7306
▁delay	-10.7307
▁situations	-10.7308
xi	-10.731
▁remote	-10.7311
▁putting	-10.7312
zer	-10.7315
▁territories	-10.7323
ā	-10.7325
▁interaction	-10.7327
▁submarine	-10.7327
▁Ros	-10.7328
.2	-10.7329
▁Palace	-10.7333
▁74	-10.7335
ean	-10.7337
ei	-10.734
▁brick	-10.734
▁coverage	-10.7354
▁extend	-10.7354
▁musicians	-10.7354
▁limits	-10.7356
58	-10.7356
▁partly	-10.7359
▁fur	-10.7359
▁Hi	-10.736
yen	-10.7361
▁compounds	-10.7362
▁Parker	-10.7368
▁efficiency	-10.7369
▁sc	-10.7372
▁ongoing	-10.7373
▁Cuba	-10.7375
kar	-10.7376
▁firing	-10.7376
▁reyalize	-10.7383
▁liver	-10.7385
▁coins	-10.7385
47	-10.7385
▁tea	-10.739
▁Writing	-10.7394
▁1929	-10.7396
▁prefer	-10.7398
▁Murray	-10.7401
▁premiere	-10.7401
aw	-10.7403
ites	-10.7403
▁94	-10.7404
▁routine	-10.7404
▁happens	-10.7405
cro	-10.7406
▁Khan	-10.7408
▁radar	-10.7408
▁Along	-10.7409
▁clothing	-10.7411
▁printed	-10.7411
▁loan	-10.7412
ators	-10.7412
▁relation	-10.7414
seri	-10.7416
▁preserved	-10.742
▁chairman	-10.7422
▁69	-10.7423
▁intention	-10.7426
▁Article	-10.7426
▁prize	-10.7429
▁Mario	-10.7431
▁evolved	-10.744
▁links	-10.7441
▁lu	-10.7443
▁Die	-10.7443
▁1931	-10.7443
▁regard	-10.7444
▁mining	-10.7445
▁anxiety	-10.7445
▁transmission	-10.7445
▁Ol	-10.7446
▁picked	-10.7447
▁courts	-10.7448
▁stroke	-10.7449
▁Tor	-10.7449
▁Sin	-10.7454
▁Sports	-10.7456
63	-10.7457
▁pot	-10.7458
▁tie	-10.7461
▁removal	-10.7462
▁touchdown	-10.7464
59	-10.7466
▁retreat	-10.7467
▁82	-10.747
▁trend	-10.7478
98	-10.7478
▁blocks	-10.7481
rick	-10.7483
▁retirement	-10.7483
▁Anglo	-10.7486
▁consequences	-10.7487
▁Marshall	-10.7488
▁fighter	-10.7489
69	-10.7489
▁persons	-10.749
▁Ou	-10.7495
▁instrument	-10.7497
▁attacking	-10.7498
▁wickets	-10.7498
41	-10.7499
stra	-10.75
▁talent	-10.7503
▁shark	-10.7509
▁formerly	-10.751
43	-10.751
▁DC	-10.7512
▁Clinton	-10.7513
▁Swedish	-10.7513
▁tomb	-10.7517
▁Gilbert	-10.7521
▁Greg	-10.7521
▁encountered	-10.7524
▁adjacent	-10.7525
▁diagnosis	-10.7528
▁fort	-10.7532
97	-10.7534
76	-10.7535
▁push	-10.7539
▁charter	-10.754
▁Frederick	-10.7542
▁Has	-10.7543
▁colonies	-10.7544
▁considering	-10.7545
▁(1	-10.7547
ulation	-10.7548
hand	-10.7548
▁Turkish	-10.755
▁experimental	-10.7551
▁obvious	-10.7551
▁discipline	-10.7555
▁Commander	-10.7557
▁alien	-10.7558
▁Business	-10.7559
",	-10.7566
chy	-10.7567
▁vertical	-10.7568
long	-10.7569
▁compound	-10.7574
▁notably	-10.7575
61	-10.7576
▁merely	-10.7579
▁rhythm	-10.7579
71	-10.7579
▁Austria	-10.7583
▁73	-10.7589
▁designation	-10.759
▁Dec	-10.759
ili	-10.759
▁ratings	-10.7591
▁employment	-10.7593
▁pollution	-10.7593
▁commitment	-10.7593
aff	-10.7594
▁paintings	-10.7595
tta	-10.7595
▁styles	-10.7599
▁Croatian	-10.7601
▁slaves	-10.7602
▁noble	-10.7606
▁sing	-10.761
▁climb	-10.7612
▁genes	-10.7613
▁mini	-10.7615
▁Singles	-10.7617
are	-10.7625
▁tasks	-10.7625
▁noise	-10.7628
uring	-10.7634
oli	-10.7634
▁mature	-10.7635
load	-10.7636
▁Wisconsin	-10.7637
▁ninth	-10.7637
▁Canal	-10.7638
▁Caribbean	-10.764
▁Low	-10.7642
worth	-10.7645
▁arts	-10.7646
int	-10.7648
▁error	-10.7648
▁racial	-10.7651
ition	-10.7652
▁Spring	-10.7653
▁1,	-10.7653
▁tribes	-10.7654
sur	-10.7654
ration	-10.7656
vy	-10.7657
▁transportation	-10.7658
but	-10.7658
83	-10.7659
▁bra	-10.7663
▁diversity	-10.7665
▁dust	-10.7667
▁pursue	-10.7667
▁traveled	-10.7669
rat	-10.7669
▁underground	-10.7669
▁fled	-10.7685
▁investigate	-10.7686
▁mountains	-10.7686
▁noting	-10.7686
▁cruiser	-10.7686
▁influences	-10.7687
▁siege	-10.7687
▁Lawrence	-10.7694
▁alternate	-10.7695
onic	-10.7696
dic	-10.7697
▁forecast	-10.7697
03	-10.7699
▁Confederate	-10.7702
▁enters	-10.7704
96	-10.7705
burg	-10.7707
stein	-10.7709
log	-10.7709
▁confidence	-10.771
▁poverty	-10.7711
▁vulnerable	-10.7717
ening	-10.7725
not	-10.7729
rè	-10.7729
▁saved	-10.7733
▁Stra	-10.7735
▁convention	-10.7735
▁programming	-10.7737
▁Christopher	-10.7739
▁pr	-10.7744
▁Have	-10.7744
▁battleships	-10.7745
▁98	-10.7745
▁observation	-10.7748
▁Management	-10.7755
▁ranging	-10.7755
▁ti	-10.7756
▁Tennessee	-10.7758
▁examine	-10.7758
▁mainstream	-10.776
▁Digital	-10.7765
▁conversion	-10.7769
▁elevation	-10.777
▁1922	-10.7774
▁convection	-10.7775
▁su	-10.7777
ika	-10.7777
▁fl	-10.7779
tha	-10.778
▁blog	-10.7783
▁reflected	-10.7784
▁cable	-10.7784
▁Gri	-10.7786
▁Staff	-10.7789
some	-10.779
▁alive	-10.7792
▁exists	-10.7793
▁Drive	-10.7795
▁Vice	-10.7801
uv	-10.7805
▁demands	-10.7805
▁wedding	-10.7805
▁sick	-10.7807
▁illegal	-10.781
▁formally	-10.781
▁Community	-10.781
osa	-10.7812
▁ownership	-10.7812
ava	-10.7813
04	-10.7815
▁Recording	-10.7819
▁Franklin	-10.7819
▁disorders	-10.782
▁ro	-10.7821
▁avèk	-10.7822
hill	-10.7825
5%	-10.7825
▁Bor	-10.7829
▁registered	-10.7829
▁mechanism	-10.783
ock	-10.783
▁waiting	-10.7832
▁wider	-10.7837
▁Baltimore	-10.7838
ami	-10.7838
cing	-10.7838
tim	-10.7841
rt	-10.7843
▁Benjamin	-10.7845
▁sitting	-10.7845
▁dealing	-10.7854
▁Non	-10.7855
▁papers	-10.7856
▁latest	-10.7856
▁clock	-10.7857
▁leaf	-10.7859
▁continuous	-10.7859
▁specimens	-10.786
rian	-10.7864
din	-10.7864
▁assume	-10.7868
▁Pass	-10.7869
▁Alfred	-10.7872
▁possession	-10.7879
▁arc	-10.7885
▁79	-10.7886
▁Medicine	-10.7887
▁matters	-10.7889
tur	-10.7893
cast	-10.7894
▁structural	-10.7894
▁offices	-10.7894
▁shear	-10.7895
gal	-10.7899
▁mar	-10.7904
▁Gro	-10.7908
▁Cook	-10.7908
▁Oklahoma	-10.7912
▁Knight	-10.7914
▁Yet	-10.7915
gent	-10.7915
▁unsuccessful	-10.7917
▁Bureau	-10.7918
▁associate	-10.792
▁Ag	-10.7921
▁Note	-10.7923
kan	-10.7923
▁Gun	-10.7924
bri	-10.7926
▁colors	-10.7929
▁Stewart	-10.7929
▁Miami	-10.7931
▁marketing	-10.7934
▁Guard	-10.7936
▁Arizona	-10.7938
nu	-10.794
lli	-10.7942
▁sacrifice	-10.7944
▁hole	-10.7947
▁maintaining	-10.7948
▁Jason	-10.7948
▁Next	-10.7949
▁operational	-10.795
▁reviewer	-10.795
▁Dor	-10.7952
▁wa	-10.7955
▁Ren	-10.7955
pper	-10.7955
▁sensitive	-10.7956
nk	-10.7957
▁stores	-10.7959
iel	-10.7963
▁submitted	-10.7966
▁estimates	-10.7967
▁88	-10.7971
);	-10.7972
ée	-10.7973
elli	-10.7977
▁1890	-10.7977
▁Peninsula	-10.7981
▁Dragon	-10.7986
poli	-10.7991
▁mate	-10.7992
▁truly	-10.7995
▁bell	-10.7995
iya	-10.7999
AS	-10.8
▁pet	-10.8002
000	-10.8005
▁Marc	-10.8006
▁Television	-10.8008
▁Evans	-10.8009
▁900	-10.801
nis	-10.801
▁tip	-10.8012
▁alliance	-10.8016
▁treaty	-10.8019
▁Lin	-10.802
▁1928	-10.8024
▁fault	-10.8028
hood	-10.8031
mor	-10.8033
▁Treaty	-10.8033
▁Standard	-10.804
▁Victor	-10.8042
▁batting	-10.8042
▁slave	-10.8043
▁decay	-10.8043
room	-10.8044
▁handed	-10.8052
▁chi	-10.8056
▁hyper	-10.8056
▁Shakespeare	-10.8056
ale	-10.8057
lus	-10.8059
CA	-10.8059
ito	-10.806
▁tunnel	-10.806
▁corn	-10.8061
▁lifestyle	-10.8062
▁stronger	-10.8063
▁contributions	-10.8066
bridge	-10.8066
iti	-10.8067
▁enpòtan	-10.8068
▁Detroit	-10.8072
▁distinctive	-10.8078
▁starred	-10.808
▁ve	-10.808
▁shop	-10.808
▁designer	-10.8081
AR	-10.8082
▁Ring	-10.8083
▁Windows	-10.8084
▁Bio	-10.8086
▁negotiations	-10.8089
▁palace	-10.8091
gel	-10.8095
▁defended	-10.8098
▁villages	-10.8099
▁71	-10.8102
▁studying	-10.8106
▁pin	-10.8108
▁81	-10.811
▁Soon	-10.8113
▁phrase	-10.8115
▁hidden	-10.812
▁clubs	-10.8122
▁characteristic	-10.8122
▁stored	-10.8125
▁organisms	-10.8128
TA	-10.813
▁Princess	-10.8134
▁Hell	-10.8134
▁forcing	-10.8149
▁slavery	-10.8152
▁naturally	-10.8153
▁fund	-10.8153
sse	-10.8154
▁sinema	-10.8155
▁coat	-10.8156
▁please	-10.8156
▁loved	-10.8156
▁Sur	-10.8157
▁reader	-10.8158
▁Zo	-10.8159
▁worse	-10.816
▁Melbourne	-10.8162
▁reveal	-10.8163
▁flew	-10.8164
▁infections	-10.8165
▁1925	-10.8167
▁Hero	-10.8167
▁Roosevelt	-10.8168
▁suggesting	-10.8168
ffer	-10.8169
aki	-10.817
▁console	-10.8178
▁Simpson	-10.8182
▁Convention	-10.8184
▁execution	-10.8186
▁reaches	-10.8187
▁3.	-10.8187
enberg	-10.8188
▁improving	-10.8188
▁burning	-10.8191
▁laboratory	-10.8194
▁Country	-10.8198
▁perceived	-10.8198
ters	-10.8199
▁withdraw	-10.8203
las	-10.8203
ä	-10.8203
▁93	-10.8204
▁grass	-10.8206
▁amongst	-10.8206
▁vol	-10.8207
sis	-10.821
▁natirèl	-10.8211
▁Front	-10.8216
-1	-10.8221
▁revenue	-10.8225
▁Seattle	-10.8229
▁rough	-10.8229
▁militia	-10.8232
▁Rat	-10.8237
▁tribute	-10.8239
▁markets	-10.8243
▁mask	-10.8244
▁dam	-10.8246
▁Claude	-10.8247
▁raid	-10.8247
▁Austrian	-10.825
▁seal	-10.8251
▁Charlie	-10.8253
▁140	-10.8255
▁Ur	-10.8256
▁instrumental	-10.8257
▁Saturday	-10.8258
▁Information	-10.8259
▁legend	-10.8259
point	-10.826
▁agencies	-10.8261
▁Raw	-10.8266
-3	-10.8268
▁Croatia	-10.8268
▁crack	-10.8269
▁Administration	-10.827
▁convert	-10.8271
▁copper	-10.8272
▁tag	-10.8275
▁Br	-10.8278
â	-10.828
▁labour	-10.8281
▁thereafter	-10.8283
93	-10.8285
▁1924	-10.8285
▁Friday	-10.8289
42	-10.829
▁Guardian	-10.8294
▁opponents	-10.83
▁occasion	-10.83
▁Still	-10.8301
▁export	-10.8301
▁junction	-10.8302
▁restricted	-10.8306
▁candidates	-10.8307
▁branches	-10.8308
▁bearing	-10.8309
▁Warner	-10.831
▁Mil	-10.8317
▁participation	-10.8317
▁Blu	-10.8319
▁alignment	-10.8319
vol	-10.8322
▁Initially	-10.8323
lat	-10.8323
▁1909	-10.8325
aga	-10.8326
▁households	-10.8326
▁administrative	-10.8327
app	-10.8331
▁91	-10.8336
▁Sy	-10.8338
▁eliminated	-10.834
▁videos	-10.8342
▁bull	-10.8343
▁Web	-10.8343
▁predicted	-10.8344
▁connections	-10.8345
▁imperial	-10.8345
▁ba	-10.8347
▁inhabitants	-10.8349
▁domain	-10.835
▁lab	-10.8351
▁retail	-10.8351
▁polar	-10.8352
▁survivors	-10.8352
▁basin	-10.8353
▁attitude	-10.8358
▁1908	-10.8358
ines	-10.8359
▁premiered	-10.8361
▁earn	-10.8362
▁liberal	-10.8364
rate	-10.8367
▁conversation	-10.8368
▁reverse	-10.8369
▁joining	-10.8369
▁Section	-10.8371
▁oral	-10.8373
▁Mun	-10.8374
▁NFL	-10.8377
▁nose	-10.838
▁impressed	-10.838
▁junior	-10.838
▁skull	-10.8382
▁communicate	-10.8383
▁artistic	-10.8384
▁Dance	-10.8391
▁pregnancy	-10.8392
▁poorly	-10.8395
▁willing	-10.8398
▁seriously	-10.8398
cell	-10.84
02	-10.84
▁empire	-10.8403
▁Hong	-10.8403
ON	-10.8407
▁substance	-10.8408
CC	-10.8408
ave	-10.8408
▁contribution	-10.8409
▁97	-10.8415
▁demo	-10.8419
▁dispute	-10.8419
▁Mother	-10.842
▁arrive	-10.8422
▁paint	-10.8423
▁fairly	-10.8424
▁Pakistan	-10.8426
▁Mur	-10.8427
06	-10.8428
▁situated	-10.8431
▁op	-10.8431
▁Small	-10.8432
cus	-10.8432
ode	-10.8434
▁resigned	-10.8435
▁hull	-10.8435
▁reportedly	-10.8437
osaurus	-10.8442
▁asks	-10.8449
▁NBC	-10.8454
▁tight	-10.8458
eri	-10.846
▁Unit	-10.8463
▁CR	-10.8463
▁Category	-10.8465
▁Margaret	-10.8465
▁jet	-10.8466
▁Dead	-10.8467
72	-10.8469
▁moments	-10.8474
gre	-10.8475
▁races	-10.8478
▁gr	-10.8478
▁drivers	-10.848
▁Crown	-10.8483
▁exhibit	-10.8484
▁powered	-10.8485
rant	-10.8486
▁mill	-10.8487
▁topics	-10.8489
spir	-10.8489
▁Ven	-10.8493
▁raising	-10.8497
▁comp	-10.8498
▁grey	-10.85
▁konte	-10.8502
pu	-10.8506
▁mild	-10.8506
▁footage	-10.8508
▁Belgium	-10.851
▁duration	-10.8513
▁behalf	-10.8513
53	-10.8514
▁reactions	-10.8514
▁Pra	-10.8517
▁Child	-10.8519
▁dynasty	-10.8519
gger	-10.852
▁MP	-10.8522
▁Security	-10.8524
▁affairs	-10.8526
▁Edge	-10.8529
▁organisation	-10.8534
▁pump	-10.8535
RI	-10.8537
▁vitamin	-10.8542
▁competitive	-10.8543
▁Fred	-10.8544
▁impression	-10.8545
▁apartment	-10.8545
▁Luis	-10.8547
▁1923	-10.855
▁categories	-10.8551
▁Father	-10.8555
ante	-10.8563
▁seats	-10.8563
▁mood	-10.8566
ira	-10.857
▁Batman	-10.8572
▁Ice	-10.8572
▁Philippines	-10.8575
▁Seven	-10.8578
▁psychological	-10.8578
▁pregnant	-10.858
▁ruling	-10.8581
▁Cam	-10.8587
▁planets	-10.8588
▁publicly	-10.8591
▁realized	-10.8592
▁statue	-10.8594
▁boundary	-10.8598
▁Dave	-10.86
col	-10.8604
▁constitution	-10.8604
▁clip	-10.8605
▁molecules	-10.8607
hen	-10.8611
▁physics	-10.8612
▁filter	-10.8612
▁click	-10.8613
▁Angle	-10.8614
ple	-10.8614
▁84	-10.8615
▁Bus	-10.8616
▁Fish	-10.8617
▁customers	-10.8618
▁gear	-10.8618
▁variable	-10.862
▁reward	-10.8623
▁Spirit	-10.8623
▁Kon	-10.8624
FC	-10.8625
▁aggressive	-10.8625
▁mirror	-10.8627
▁wet	-10.863
▁electro	-10.8633
▁celebrated	-10.8634
▁prompted	-10.8635
▁striking	-10.8637
▁simultaneously	-10.8639
▁Para	-10.8639
▁entertainment	-10.8641
▁Had	-10.8648
▁argues	-10.8649
▁regulations	-10.865
▁beauty	-10.8654
▁comprehensive	-10.8656
▁Global	-10.8656
▁Trust	-10.8661
lie	-10.8661
▁Wild	-10.8663
▁preserve	-10.8664
▁89	-10.8665
▁triple	-10.8666
▁solve	-10.8666
73	-10.8674
▁Auto	-10.8674
lip	-10.8675
▁occasions	-10.8678
▁tu	-10.8679
▁lessons	-10.8681
▁Walker	-10.8685
nell	-10.8686
▁restaurant	-10.8686
▁egg	-10.8687
▁shut	-10.8688
▁vaccine	-10.8694
phy	-10.8696
▁vs	-10.8696
ila	-10.8697
▁restore	-10.8699
▁monitoring	-10.8703
▁Clo	-10.8703
non	-10.8705
▁Bee	-10.871
▁risks	-10.8711
▁queen	-10.8711
▁magic	-10.8712
▁acted	-10.8713
▁Rev	-10.8716
▁RAAF	-10.8717
vers	-10.8719
▁bypass	-10.872
▁recover	-10.8722
▁infected	-10.8723
▁muscles	-10.8724
▁improvements	-10.8728
try	-10.8729
▁closing	-10.8731
▁fallen	-10.8731
▁va	-10.8733
▁Agency	-10.8734
▁theories	-10.8735
▁trail	-10.8736
struct	-10.8737
▁signing	-10.8738
▁newspapers	-10.8739
▁mixture	-10.8743
▁adventure	-10.8744
▁squad	-10.8745
▁insurance	-10.8746
▁bridges	-10.8747
▁wonder	-10.8749
▁flash	-10.8749
▁Hotel	-10.8752
-2	-10.8753
▁RAF	-10.8754
▁vegetables	-10.8754
right	-10.8757
▁blow	-10.8759
▁stuff	-10.8761
▁license	-10.8762
▁sharing	-10.8762
▁significance	-10.8763
▁zero	-10.8765
▁cl	-10.8767
▁departed	-10.8769
▁Alice	-10.8769
▁Without	-10.8772
▁Med	-10.8772
▁universal	-10.8772
▁Louisiana	-10.8776
▁expert	-10.8776
▁valid	-10.8776
▁shield	-10.878
▁implemented	-10.8782
mobil	-10.8783
▁attract	-10.8784
▁Alaska	-10.8785
▁construct	-10.8789
▁hybrid	-10.8791
▁athletes	-10.8794
▁essentially	-10.8795
▁distinguished	-10.8799
▁Care	-10.8799
▁bèzbòl	-10.8802
▁myth	-10.8806
▁enhance	-10.8808
▁lists	-10.8811
▁Jam	-10.8812
▁Vincent	-10.8813
▁sees	-10.8813
▁fifty	-10.8814
▁Senator	-10.8815
▁86	-10.8815
▁shorter	-10.882
▁visiting	-10.882
▁Born	-10.8821
▁airline	-10.8823
ologist	-10.8824
54	-10.883
▁procedures	-10.883
62	-10.8832
▁victim	-10.8833
▁pulled	-10.8837
pha	-10.8837
▁Gaga	-10.8837
▁Environmental	-10.884
▁Services	-10.884
▁Mid	-10.884
▁App	-10.884
▁sequences	-10.8841
▁travelled	-10.8842
▁Any	-10.8844
ear	-10.8848
mic	-10.8848
▁battleship	-10.8849
▁depends	-10.885
cia	-10.8852
▁distinguish	-10.8855
hard	-10.8858
cri	-10.8859
▁Nielsen	-10.8861
▁magnetic	-10.8863
▁excess	-10.8865
▁Iraq	-10.8868
▁Somerset	-10.8871
▁cannon	-10.8874
▁texts	-10.8875
▁monument	-10.8877
▁Off	-10.8877
sson	-10.8879
▁Industry	-10.8879
▁replacing	-10.8879
▁1880	-10.8883
▁chest	-10.8887
nn	-10.889
▁withdrew	-10.889
ado	-10.8891
bound	-10.8891
pers	-10.8892
▁sta	-10.8894
▁outdoor	-10.89
▁gathered	-10.8902
▁dependent	-10.8905
▁lòt	-10.8907
▁Obama	-10.8909
RE	-10.891
▁northward	-10.8912
▁Kin	-10.8913
▁usage	-10.8914
vid	-10.8914
▁wheel	-10.8915
▁severely	-10.8915
▁proof	-10.8916
iness	-10.8918
▁trigger	-10.8918
▁Dev	-10.8919
This	-10.8923
▁auto	-10.8923
▁chamber	-10.8924
▁raw	-10.8924
acy	-10.8926
yè	-10.8928
gra	-10.8929
▁novels	-10.8929
▁VI	-10.893
▁variation	-10.8932
▁observe	-10.8933
idae	-10.8935
ska	-10.8937
▁Race	-10.8939
▁dollar	-10.8943
▁accessible	-10.8949
▁Historic	-10.8949
▁assisted	-10.8951
▁Construction	-10.8952
▁Campbell	-10.8953
lim	-10.8953
bla	-10.8965
▁Mari	-10.8965
▁1905	-10.8969
▁maps	-10.8969
▁arriving	-10.897
▁Roy	-10.897
▁Organization	-10.897
▁bid	-10.8974
▁Cy	-10.8975
▁strategic	-10.8975
ela	-10.8976
burn	-10.8976
rk	-10.8981
▁Pal	-10.8984
▁demon	-10.8987
▁plis	-10.8989
▁Snow	-10.8989
▁equally	-10.899
▁whatever	-10.8994
▁assignment	-10.8995
▁funeral	-10.8995
▁MS	-10.8995
▁Christianity	-10.9
rang	-10.9002
▁Steven	-10.9002
▁Harvard	-10.9011
▁Vietnamese	-10.9012
▁Bat	-10.9012
▁AI	-10.9013
ali	-10.9014
▁assembly	-10.9019
▁Dog	-10.902
▁controls	-10.9023
▁92	-10.9023
▁attendance	-10.903
.3	-10.9037
▁magnitude	-10.9038
wer	-10.9041
▁involve	-10.9043
tation	-10.9043
ked	-10.9046
▁establishing	-10.9046
▁marking	-10.9048
▁forty	-10.9049
▁identical	-10.9051
▁orange	-10.9051
▁upgraded	-10.9054
fully	-10.9055
▁na	-10.9057
wick	-10.9063
cat	-10.9064
▁Medal	-10.9067
▁factory	-10.9072
▁completing	-10.9076
AM	-10.9078
▁enable	-10.9078
▁Similarly	-10.9078
▁Peace	-10.908
▁tenth	-10.9081
▁partial	-10.9081
▁recognised	-10.9082
▁annually	-10.9091
▁courses	-10.9093
▁database	-10.9096
▁signature	-10.9097
▁lesson	-10.9099
▁doctors	-10.9106
▁Gil	-10.9109
▁cash	-10.911
pot	-10.9112
▁1907	-10.9113
▁suspended	-10.9115
▁Cold	-10.9117
▁tra	-10.912
▁poems	-10.912
▁cargo	-10.9123
▁1870	-10.9124
ua	-10.9127
ico	-10.9128
▁Reserve	-10.9129
chen	-10.9131
▁complicated	-10.9132
▁Ian	-10.9134
▁Bro	-10.9134
OS	-10.914
▁dense	-10.9147
▁Lennon	-10.9148
▁internet	-10.9149
▁Mus	-10.915
▁Keep	-10.9153
▁fifteen	-10.9154
▁constantly	-10.9157
▁kinds	-10.9157
▁industries	-10.9158
▁rice	-10.9163
▁challenging	-10.9164
▁Step	-10.9166
▁compare	-10.917
▁Word	-10.9176
▁sole	-10.9177
ching	-10.9178
wen	-10.918
ben	-10.9181
▁Pin	-10.9182
▁j	-10.919
▁Week	-10.9191
▁Xbox	-10.9191
▁Fan	-10.9192
▁excessive	-10.9193
▁temporarily	-10.9193
▁Carr	-10.9194
cker	-10.9195
▁coin	-10.9199
▁Wing	-10.9203
▁Rain	-10.9207
▁beliefs	-10.9209
▁shock	-10.9209
▁nice	-10.9211
▁finance	-10.9213
▁produces	-10.9218
▁sustainable	-10.922
ust	-10.9222
▁Mrs	-10.9225
▁Shin	-10.9227
▁Hungary	-10.9229
▁Catherine	-10.9232
▁constitutional	-10.9232
▁flower	-10.9234
▁Wars	-10.9234
ides	-10.9237
▁Manhattan	-10.9238
▁ballad	-10.9243
▁Prize	-10.9243
ST	-10.9244
▁(18	-10.9247
▁feels	-10.9247
▁repeatedly	-10.9248
▁Susan	-10.9255
▁Depression	-10.9258
▁cards	-10.9261
bul	-10.9263
▁networks	-10.9263
▁Var	-10.9265
▁settlers	-10.9268
▁pitched	-10.927
▁altitude	-10.9274
▁communist	-10.9274
▁Israeli	-10.9276
▁taxes	-10.9279
▁horror	-10.928
▁indicating	-10.9282
▁Spears	-10.9285
▁march	-10.929
▁shells	-10.9298
▁Cla	-10.9302
arm	-10.9304
▁Ridge	-10.9305
sia	-10.9307
ivity	-10.9307
▁compilation	-10.9308
thi	-10.9311
▁altered	-10.9311
▁priest	-10.9315
▁emotions	-10.9316
▁Secret	-10.9318
▁ed	-10.9319
▁Gal	-10.9319
▁functional	-10.9319
▁platinum	-10.9321
▁layers	-10.9322
TV	-10.933
▁screening	-10.9331
▁Independent	-10.9331
▁governments	-10.9334
La	-10.9335
▁chemicals	-10.9335
els	-10.9336
▁blind	-10.9337
▁cult	-10.9338
51	-10.934
▁Township	-10.9344
▁Bri	-10.9344
hol	-10.9349
sburg	-10.9349
▁Chronicle	-10.935
▁legislature	-10.935
ort	-10.935
▁fin	-10.9351
▁tele	-10.9351
▁Mah	-10.9353
▁specialist	-10.9356
▁shipping	-10.9359
▁origins	-10.9361
▁whilst	-10.9362
▁trap	-10.9362
▁Karl	-10.9363
▁institution	-10.9364
▁wasn	-10.9364
▁cattle	-10.9364
▁clothes	-10.9368
▁Gray	-10.9368
▁ju	-10.9368
gr	-10.937
▁prayer	-10.9372
▁estimate	-10.9373
▁spoken	-10.9373
▁lie	-10.9375
▁empty	-10.9376
▁celebrate	-10.9378
▁Nar	-10.9378
▁criticised	-10.9379
▁Flight	-10.9382
pic	-10.9385
87	-10.9386
▁framework	-10.9386
▁favorable	-10.9387
▁photographs	-10.9389
▁orchestra	-10.9391
▁toll	-10.9391
▁Trade	-10.9392
▁fighters	-10.9392
▁centers	-10.9393
▁placing	-10.9394
▁sheet	-10.9395
yon	-10.9396
▁installation	-10.9399
▁meter	-10.94
▁cho	-10.9401
▁battles	-10.9403
▁Learning	-10.9405
▁cousin	-10.9406
ois	-10.941
ult	-10.9412
▁toxic	-10.9414
▁Islamic	-10.9415
▁mat	-10.9416
▁lifetime	-10.942
▁facts	-10.942
▁Warren	-10.9421
▁instructions	-10.9424
▁wake	-10.9426
▁sistèm	-10.9427
▁Wolf	-10.9435
lt	-10.9435
gle	-10.9436
late	-10.9437
▁mal	-10.9438
press	-10.944
▁flows	-10.9441
▁Sto	-10.9442
▁grid	-10.9444
▁Switzerland	-10.9445
▁heritage	-10.9445
▁shoulder	-10.9448
▁kidney	-10.9449
▁carefully	-10.945
▁Local	-10.9452
▁decreased	-10.9455
▁outcome	-10.9458
▁counties	-10.9458
▁Antonio	-10.9461
▁Place	-10.9462
▁reviewers	-10.9463
▁switch	-10.9464
cap	-10.9464
▁machines	-10.9466
▁bore	-10.9477
▁Hunt	-10.9478
--	-10.948
▁Darwin	-10.9481
▁continent	-10.9481
▁Jonathan	-10.9482
och	-10.9483
▁Liberal	-10.9485
▁Kra	-10.9485
▁ages	-10.9486
▁1906	-10.9488
▁Dylan	-10.9491
aud	-10.9491
mun	-10.9492
▁distant	-10.9493
▁Portland	-10.9493
ient	-10.9493
▁addressed	-10.9495
▁friendship	-10.9498
▁Change	-10.9499
▁ven	-10.9499
▁Saxon	-10.9501
lla	-10.9507
▁Graham	-10.9508
▁tough	-10.9509
▁bombing	-10.951
cin	-10.951
▁filed	-10.9512
▁cruisers	-10.9514
▁wins	-10.9514
▁sword	-10.9516
▁concerning	-10.9516
▁Base	-10.9517
▁hat	-10.9517
▁sending	-10.9517
ched	-10.952
▁Ontario	-10.9522
▁Islam	-10.9527
▁opponent	-10.9529
▁escaped	-10.9529
94	-10.953
▁permit	-10.9532
▁Kan	-10.9535
▁neutral	-10.9536
▁trading	-10.9539
▁matematik	-10.954
▁Fund	-10.954
▁shallow	-10.9543
mond	-10.9543
▁Bou	-10.9545
▁List	-10.9545
yer	-10.9548
▁gray	-10.9549
▁environments	-10.9552
▁affair	-10.9553
▁merchant	-10.9555
▁perception	-10.9561
▁μ	-10.9563
▁focuses	-10.9566
74	-10.9569
▁Montreal	-10.9572
▁span	-10.9575
▁Mission	-10.9575
▁varied	-10.9577
▁Link	-10.9578
ú	-10.9578
▁prospect	-10.958
▁meetings	-10.9581
▁adopt	-10.9582
▁bronze	-10.9585
▁parish	-10.9586
MA	-10.9588
▁evident	-10.9593
▁Carlos	-10.9594
▁ammunition	-10.9595
▁necessarily	-10.9597
▁meta	-10.9598
▁und	-10.9599
▁originated	-10.96
▁Wal	-10.9605
▁drove	-10.9606
▁fatal	-10.9607
▁Der	-10.9611
▁civilian	-10.9612
▁Economic	-10.9614
▁westward	-10.9615
▁lighting	-10.9616
▁Trek	-10.9617
fall	-10.962
▁drum	-10.9623
▁pilots	-10.9628
▁Ward	-10.963
▁san	-10.963
▁citing	-10.9634
▁rocks	-10.9637
▁Hand	-10.9639
ori	-10.9642
▁Mir	-10.9642
syon	-10.9646
ann	-10.9649
▁artwork	-10.9649
▁weekly	-10.9651
▁promised	-10.9652
▁signals	-10.9654
read	-10.9655
▁bases	-10.9656
▁pl	-10.9656
▁package	-10.9657
▁victories	-10.9662
▁Forces	-10.9666
▁dynamic	-10.9666
▁destroyers	-10.9666
▁shelter	-10.9667
▁Stan	-10.967
▁Whit	-10.9671
▁lift	-10.9677
▁qualified	-10.9683
▁connecting	-10.9684
▁deeply	-10.9685
rab	-10.9687
▁indigenous	-10.9688
▁syn	-10.9689
▁turrets	-10.9691
▁wore	-10.9692
▁Heritage	-10.9693
▁scan	-10.9702
▁supplement	-10.971
related	-10.9716
ically	-10.9716
atic	-10.9716
▁USD	-10.9723
▁personally	-10.9727
▁traditions	-10.9728
▁hockey	-10.9728
▁resumed	-10.973
▁Never	-10.9732
▁jazz	-10.9733
▁lieutenant	-10.9733
pur	-10.9737
▁tips	-10.9738
▁Labour	-10.9738
▁Sullivan	-10.9739
▁interact	-10.974
▁hook	-10.9742
▁rebellion	-10.9744
▁Giants	-10.9744
▁fever	-10.9744
▁Grade	-10.975
▁Mitchell	-10.9751
▁Based	-10.9755
▁Tro	-10.9756
▁communications	-10.9757
▁jurisdiction	-10.9757
▁minority	-10.9757
▁Albums	-10.9758
▁Communist	-10.9761
▁Connecticut	-10.9762
▁badly	-10.9766
▁360	-10.9767
ake	-10.9769
▁fastest	-10.9769
▁bombers	-10.9771
▁similarly	-10.9774
▁Baby	-10.9775
▁developers	-10.9779
▁Jupiter	-10.9779
ech	-10.9784
▁hence	-10.9785
▁unlikely	-10.9788
▁Jerusalem	-10.9791
▁concentrated	-10.9792
▁finale	-10.9792
An	-10.9792
▁loose	-10.9792
▁Ty	-10.9793
▁est	-10.9799
gram	-10.9801
▁Stein	-10.9803
rit	-10.9806
▁diamond	-10.9807
ect	-10.9812
▁intensified	-10.9815
▁Wil	-10.9817
▁Tag	-10.9818
▁tension	-10.982
▁soldier	-10.982
▁disturbance	-10.9821
▁liked	-10.9821
▁Byografi	-10.9823
▁comment	-10.9824
▁stomach	-10.9824
▁hide	-10.9825
▁François	-10.983
▁fu	-10.9832
▁tan	-10.9838
▁permitted	-10.9841
▁register	-10.9841
▁Tokyo	-10.9841
ert	-10.9842
▁integrated	-10.9842
aka	-10.9843
HA	-10.9845
▁Rick	-10.9848
▁wealthy	-10.9851
▁180	-10.9853
ache	-10.9853
▁occurring	-10.9854
▁thereby	-10.9855
▁batteries	-10.9857
dd	-10.9857
▁stretch	-10.9868
▁promise	-10.9868
ele	-10.9869
omy	-10.987
▁jaw	-10.9871
▁serial	-10.9873
una	-10.9874
▁alleged	-10.9877
▁demonstrate	-10.9879
▁Past	-10.9879
▁Denmark	-10.9881
▁fix	-10.9885
▁implementation	-10.9887
▁thanks	-10.9887
▁prince	-10.9888
ways	-10.9888
▁repairs	-10.9892
▁allies	-10.9893
ware	-10.9898
▁sail	-10.9899
LA	-10.9901
▁revolt	-10.9903
▁math	-10.9904
▁Enterprise	-10.9906
▁blend	-10.9907
▁lying	-10.9908
▁releases	-10.9909
▁affects	-10.991
atory	-10.9911
▁guilty	-10.9914
▁dock	-10.9915
▁mayor	-10.9917
▁83	-10.9918
▁Tamil	-10.9919
▁gift	-10.9919
▁diagnosed	-10.992
▁prototype	-10.992
▁Pr	-10.9921
gh	-10.9922
▁heading	-10.9924
▁Microsoft	-10.9936
▁Gene	-10.994
▁USS	-10.9941
▁tune	-10.9942
AD	-10.9943
▁Baker	-10.9944
▁stability	-10.9953
▁burned	-10.9955
▁withdrawal	-10.9955
▁Officer	-10.9959
▁1904	-10.9959
▁ABC	-10.9959
▁nervous	-10.996
▁chapel	-10.9964
▁Mis	-10.9965
▁coffee	-10.9965
▁diver	-10.9971
wall	-10.9972
▁initiated	-10.9975
▁choices	-10.9975
▁translated	-10.9976
▁Eu	-10.9976
▁preparing	-10.9978
▁spotted	-10.998
▁architect	-10.998
▁Originally	-10.9981
▁Eventually	-10.9983
▁alert	-10.9985
▁gl	-10.9987
▁hurt	-10.999
tom	-10.999
▁Bros	-10.9992
▁boundaries	-10.9992
▁Player	-10.9995
▁eruption	-10.9995
▁Hudson	-10.9995
▁listen	-10.9997
▁grain	-10.9998
inger	-11
▁preventing	-11.0002
▁Gor	-11.0007
▁Cast	-11.0008
š	-11.0011
▁Horn	-11.0012
▁Disease	-11.0012
▁announcement	-11.0013
▁epizòd	-11.0014
▁impacts	-11.0019
▁swimming	-11.002
▁Kat	-11.0022
ination	-11.0023
▁ranks	-11.0024
▁Sciences	-11.003
▁Jefferson	-11.0032
▁Portuguese	-11.0033
cycl	-11.0034
▁molecular	-11.0036
▁underlying	-11.0036
▁distinction	-11.0038
▁Rachel	-11.0041
▁habit	-11.0042
▁Grammy	-11.0042
▁tiny	-11.0043
▁Reg	-11.0044
▁Federation	-11.0046
▁kit	-11.005
tik	-11.0053
▁rebuilt	-11.0064
▁credits	-11.0065
▁beneath	-11.0065
▁Table	-11.0065
▁sank	-11.0067
▁wound	-11.0068
▁stones	-11.007
▁architectural	-11.007
world	-11.0071
▁str	-11.0076
▁attraction	-11.0077
▁exercises	-11.0077
▁É	-11.008
itt	-11.0081
▁tap	-11.0082
▁advertising	-11.0083
▁tubes	-11.0083
▁Model	-11.0084
▁mail	-11.0085
▁sunk	-11.0087
91	-11.0088
▁precipitation	-11.0091
born	-11.0092
▁eliminate	-11.0092
▁1901	-11.0093
▁ski	-11.0096
▁import	-11.0098
CS	-11.0099
aba	-11.0101
▁Nine	-11.0102
ook	-11.0102
▁accommodate	-11.0102
▁concerts	-11.0104
▁closest	-11.0104
ern	-11.0105
dent	-11.0106
▁Set	-11.0107
▁Page	-11.0108
▁coup	-11.011
▁thoughts	-11.0111
▁membership	-11.0113
▁edited	-11.0115
▁migration	-11.0116
▁venture	-11.0117
mark	-11.0117
▁statements	-11.0117
DS	-11.012
▁Australians	-11.0121
▁reviewed	-11.0123
▁competed	-11.0126
▁destination	-11.0128
cur	-11.013
▁Dakota	-11.0134
▁curriculum	-11.0134
▁supplied	-11.0134
▁arise	-11.0134
▁substitute	-11.0135
▁cognitive	-11.0135
▁smart	-11.0136
ault	-11.0136
▁suspect	-11.0138
▁Hunter	-11.0138
part	-11.014
▁Billy	-11.014
▁examined	-11.0142
▁keyboard	-11.0143
▁Qua	-11.0144
ash	-11.0144
lines	-11.0145
▁ob	-11.0146
▁representatives	-11.0148
▁Delaware	-11.015
▁qui	-11.0151
▁Pedro	-11.0152
bid	-11.0156
▁possess	-11.0158
▁fruits	-11.0158
SS	-11.0159
▁Honor	-11.016
▁ordinary	-11.0162
zen	-11.0163
▁Say	-11.0163
▁index	-11.0165
▁Bru	-11.0165
▁membrane	-11.0166
▁Mountains	-11.0166
▁Interstate	-11.0168
▁bonus	-11.0168
▁nutrients	-11.0169
cies	-11.0172
▁Nixon	-11.0176
NS	-11.0176
.4	-11.0177
path	-11.018
▁Farm	-11.0182
▁worn	-11.0182
▁sq	-11.0182
▁button	-11.0188
▁demanded	-11.0191
own	-11.0195
▁Deep	-11.0201
ière	-11.0202
▁nerve	-11.0205
▁Author	-11.0208
▁divide	-11.0208
▁armament	-11.021
▁mines	-11.021
▁organize	-11.0211
▁Ap	-11.0212
▁Google	-11.0213
IT	-11.0215
TS	-11.0215
ography	-11.0216
▁detected	-11.0218
▁scrap	-11.0218
arch	-11.022
▁storms	-11.022
umb	-11.0221
▁breath	-11.0224
ras	-11.0227
▁rocket	-11.0229
▁flights	-11.0229
▁racing	-11.023
▁consideration	-11.0231
ij	-11.0232
▁Ye	-11.0233
phe	-11.0234
▁afford	-11.0234
▁audiences	-11.0234
▁Owen	-11.0235
▁suddenly	-11.0235
cept	-11.0237
▁Amy	-11.0239
▁decides	-11.024
etic	-11.0242
▁defeating	-11.0244
▁brings	-11.0245
▁konnen	-11.0248
▁abandon	-11.025
MS	-11.0251
elo	-11.0251
ison	-11.0257
▁yield	-11.0257
▁Overall	-11.0257
ame	-11.0259
▁erected	-11.026
▁Atlanta	-11.0262
ude	-11.0266
▁publishing	-11.0268
nik	-11.0271
rous	-11.0274
▁computers	-11.0274
▁enormous	-11.0274
▁Harvey	-11.0276
▁Rico	-11.0277
▁burial	-11.0278
iva	-11.0279
▁exclusively	-11.0283
▁knowing	-11.0283
▁Glen	-11.0285
▁Az	-11.0286
▁parliament	-11.0287
▁Christians	-11.0288
▁bread	-11.0288
▁audition	-11.0294
▁fate	-11.0294
▁recordings	-11.0295
▁chemistry	-11.0299
▁lacked	-11.0299
▁array	-11.03
▁rotation	-11.0301
▁Tam	-11.0301
▁Maya	-11.0303
▁Watch	-11.0307
▁treatments	-11.0312
▁phenomenon	-11.0316
▁visits	-11.0317
▁Number	-11.0317
tract	-11.0319
▁petition	-11.032
▁engineers	-11.032
▁promoting	-11.0321
▁funded	-11.0324
▁challenged	-11.0329
▁virtually	-11.0329
▁Virgin	-11.0329
ifying	-11.0329
▁neighborhood	-11.033
▁partners	-11.0331
▁Universal	-11.0332
▁Dy	-11.0333
▁Finn	-11.0334
▁exploration	-11.0335
ographic	-11.0336
▁measuring	-11.0337
▁carries	-11.0338
▁Syria	-11.0341
▁Sometimes	-11.0341
mu	-11.0344
▁exam	-11.0346
▁Books	-11.0347
wed	-11.0348
▁watershed	-11.0349
▁remnants	-11.0351
▁Halo	-11.0353
▁Bach	-11.0355
▁Dick	-11.0355
zu	-11.0358
▁cultures	-11.0358
▁terminal	-11.0358
rel	-11.0358
▁Code	-11.036
test	-11.0361
Le	-11.0364
DA	-11.0365
▁calm	-11.0365
▁desired	-11.0367
▁1903	-11.0367
▁EU	-11.0368
▁printing	-11.0369
▁uncle	-11.0373
▁Rod	-11.0374
▁Rosa	-11.0375
▁theater	-11.0377
▁voiced	-11.0378
▁acknowledged	-11.0379
ital	-11.038
▁threw	-11.0381
▁Figure	-11.0386
▁rev	-11.039
ree	-11.0393
RC	-11.0394
▁Side	-11.0394
▁scientist	-11.0394
▁ease	-11.0395
▁Moreover	-11.0396
▁overseas	-11.0397
▁holes	-11.04
▁corresponding	-11.0401
▁inclusion	-11.0402
PS	-11.0407
▁Training	-11.0407
▁Hockey	-11.0408
▁armies	-11.0408
▁birthday	-11.0411
▁VII	-11.0413
▁interactions	-11.0414
los	-11.0416
▁Hampshire	-11.0419
▁dancing	-11.0424
▁smoking	-11.0424
▁tribe	-11.0425
▁1000	-11.0426
▁react	-11.0429
band	-11.0431
▁Napoleon	-11.0433
▁portions	-11.0434
▁ou	-11.0435
▁universities	-11.0437
▁traveling	-11.044
▁Monte	-11.0443
▁cu	-11.0446
▁argue	-11.0446
▁confusion	-11.0447
▁Name	-11.0447
▁carriers	-11.0449
▁Laboratory	-11.045
92	-11.0453
▁Il	-11.0454
OR	-11.0456
▁instruction	-11.0456
▁Tree	-11.0457
▁tackle	-11.0457
▁Penn	-11.046
▁Amendment	-11.0461
▁attained	-11.0461
▁Kirk	-11.0463
▁Solar	-11.0467
▁referring	-11.0467
▁cor	-11.0468
▁publications	-11.047
▁Perry	-11.0472
▁failing	-11.0472
duction	-11.0475
bus	-11.0476
▁messages	-11.0481
▁terrain	-11.0482
▁assists	-11.0483
▁rec	-11.0484
▁believing	-11.0486
▁Dia	-11.0489
▁Foreign	-11.049
▁Victorian	-11.0493
▁overcome	-11.0494
▁Fab	-11.0495
▁mainland	-11.0496
▁handling	-11.0497
away	-11.0502
▁Donald	-11.0506
▁wildlife	-11.0509
▁Reading	-11.051
▁Kurt	-11.051
▁Record	-11.051
Al	-11.0511
master	-11.0511
▁Trail	-11.0513
zan	-11.0514
ksyon	-11.0515
▁requiring	-11.0516
▁unclear	-11.0516
°	-11.0517
card	-11.0517
▁imagery	-11.0518
▁Hills	-11.0521
▁atomic	-11.0521
cht	-11.0525
▁Box	-11.0525
▁Market	-11.0526
▁sha	-11.0528
▁notion	-11.0529
▁Protestant	-11.053
▁gods	-11.0531
▁platforms	-11.0537
▁clay	-11.0537
lation	-11.0538
▁Study	-11.0538
▁quiet	-11.0543
▁miss	-11.0543
▁uncertain	-11.0544
▁Fra	-11.055
▁implement	-11.0551
▁rounds	-11.0551
▁Ce	-11.0552
▁depend	-11.0553
▁secretary	-11.0558
▁volumes	-11.0559
▁hydro	-11.056
▁horizontal	-11.056
▁1902	-11.0561
▁slight	-11.0561
500	-11.0561
dri	-11.0561
▁08	-11.0563
▁patrol	-11.0563
ugh	-11.0564
▁Turkey	-11.0564
lly	-11.0566
▁evaluation	-11.0566
▁generations	-11.0566
ister	-11.0568
▁threats	-11.057
▁Cop	-11.0571
▁absorb	-11.0572
▁voting	-11.0573
IN	-11.0574
▁feedback	-11.0576
▁pole	-11.0577
▁CE	-11.0577
”,	-11.0578
oe	-11.0578
▁Indies	-11.0581
▁approaching	-11.0583
AP	-11.0584
▁Critics	-11.0585
ère	-11.0588
▁initiative	-11.059
▁Gall	-11.0592
▁lung	-11.0593
▁offense	-11.0596
ema	-11.0598
▁steep	-11.0599
tail	-11.06
▁strongest	-11.0604
logy	-11.0605
▁attending	-11.0605
aries	-11.0605
▁districts	-11.0606
▁Math	-11.0612
▁repeat	-11.0613
▁Murphy	-11.0614
▁ruler	-11.0615
▁heir	-11.0616
oy	-11.0617
▁Source	-11.0617
▁predecessor	-11.0618
▁armored	-11.0624
▁aerial	-11.0626
table	-11.0626
▁humanity	-11.0629
▁Rad	-11.0632
▁remix	-11.0633
▁doctrine	-11.0634
▁dental	-11.0635
▁chord	-11.0637
▁removing	-11.0643
▁cotton	-11.0643
▁strengthened	-11.0644
▁struggled	-11.0645
rm	-11.0647
▁exclusive	-11.0648
▁Lucas	-11.065
▁gate	-11.0653
▁forget	-11.0654
▁documented	-11.0656
▁Pearl	-11.0656
aging	-11.0658
feld	-11.0658
▁favourite	-11.066
▁Century	-11.0662
ova	-11.0663
▁scattered	-11.0663
▁Action	-11.0668
pel	-11.0669
▁Again	-11.067
dit	-11.0672
▁Utah	-11.0673
▁drums	-11.0675
rom	-11.0675
▁guidelines	-11.0675
▁shares	-11.0678
▁fame	-11.0679
lac	-11.0682
▁knows	-11.0682
▁voyage	-11.069
▁realize	-11.0691
▁camps	-11.0692
▁listening	-11.0692
▁Chamber	-11.0693
▁105	-11.0695
stri	-11.0697
▁Conservation	-11.0697
▁corporate	-11.0697
▁separation	-11.0697
rr	-11.0702
▁respective	-11.0702
▁Spe	-11.0702
box	-11.0704
▁spell	-11.0705
▁reporting	-11.0712
▁kW	-11.0712
▁linear	-11.0714
▁creates	-11.0715
▁Kill	-11.0717
▁pairs	-11.0719
▁typhoon	-11.0724
▁musician	-11.0725
▁specimen	-11.0725
▁Bird	-11.0727
▁witness	-11.0727
▁Soul	-11.0728
▁sisters	-11.0728
▁resist	-11.0729
▁Bla	-11.0733
▁insisted	-11.0734
▁Johnny	-11.0736
▁Express	-11.0738
zon	-11.0738
▁Province	-11.0739
▁cancelled	-11.0739
▁lion	-11.0741
set	-11.0744
▁advised	-11.0744
▁Oh	-11.0744
▁bath	-11.0746
èn	-11.0747
▁introduce	-11.0749
▁golden	-11.0749
▁variations	-11.0749
▁Fat	-11.0751
▁Shu	-11.0751
▁emerge	-11.0753
▁vegetation	-11.0755
free	-11.0756
▁Hit	-11.0759
▁Sho	-11.076
nate	-11.0764
kov	-11.0764
▁rational	-11.0766
▁grows	-11.0767
▁Arnold	-11.0767
▁1860	-11.0768
▁Railroad	-11.0769
▁strange	-11.0769
yr	-11.077
▁absolute	-11.0775
▁patent	-11.0777
[	-11.0778
US	-11.0786
▁Chapter	-11.0787
▁volunteers	-11.0787
▁banned	-11.0788
▁farming	-11.0789
▁Collection	-11.0792
▁Oak	-11.0795
▁fee	-11.0796
▁fabric	-11.0796
▁explosive	-11.0797
anda	-11.0801
Co	-11.0801
▁Cole	-11.0802
▁Village	-11.0802
▁Charlotte	-11.0803
▁files	-11.0804
▁Computer	-11.0808
zz	-11.0812
▁provincial	-11.0812
▁ste	-11.0813
▁Grove	-11.0814
▁helpful	-11.0815
▁faces	-11.0819
▁guitarist	-11.082
▁Philippe	-11.0824
▁beneficial	-11.0825
▁pursuit	-11.0825
▁pose	-11.0826
▁Jimmy	-11.0826
▁telephone	-11.0831
▁founding	-11.0835
▁attorney	-11.0837
▁interpreted	-11.0837
ía	-11.0838
▁Blues	-11.0839
oni	-11.0842
▁lanmè	-11.0842
▁Cra	-11.0842
ering	-11.0843
▁convince	-11.0845
fire	-11.0846
▁Buck	-11.0849
▁Indonesia	-11.0849
duc	-11.0849
▁Hope	-11.085
▁Ob	-11.0851
▁casting	-11.0852
▁4.	-11.0855
▁creatures	-11.0855
tile	-11.0858
▁mod	-11.0861
▁Collins	-11.0866
▁Mau	-11.0866
82	-11.0868
▁Leslie	-11.087
bli	-11.0874
▁pink	-11.0875
▁>	-11.0876
▁Roll	-11.0877
▁calculated	-11.0879
▁villain	-11.0884
▁surprised	-11.0889
▁lover	-11.0889
ô	-11.089
serv	-11.0891
▁scholar	-11.0892
▁sur	-11.0895
▁employ	-11.0895
▁lawyer	-11.0896
▁monarch	-11.0897
▁09	-11.09
▁patron	-11.09
▁Luke	-11.0901
▁Card	-11.0901
rim	-11.0902
▁Sri	-11.0902
▁focusing	-11.0903
▁Lou	-11.0907
▁Hawaii	-11.0907
▁mathematics	-11.0907
▁brush	-11.0909
▁noticed	-11.091
amp	-11.0911
tron	-11.0914
BA	-11.0919
▁reliable	-11.092
▁dioxide	-11.0921
▁fed	-11.0921
▁dive	-11.0922
▁sang	-11.0928
▁bulk	-11.0928
▁EP	-11.0929
▁Potter	-11.0932
▁dinner	-11.0932
▁warming	-11.0936
▁dying	-11.0937
▁Hans	-11.0938
type	-11.094
illo	-11.0943
▁Sony	-11.0943
▁Pad	-11.0944
▁organised	-11.0945
cen	-11.0949
LE	-11.095
rag	-11.0953
▁ekriven	-11.0955
▁les	-11.0956
▁Turner	-11.0958
▁realistic	-11.0963
▁impressive	-11.0965
▁myself	-11.0965
▁consciousness	-11.0968
roy	-11.0969
▁ga	-11.0976
▁remarked	-11.0977
ception	-11.0979
▁emerging	-11.098
▁Apollo	-11.0982
▁restrictions	-11.0984
▁finger	-11.0985
▁Kil	-11.0986
kill	-11.0988
▁deeper	-11.0991
▁Survey	-11.0992
pes	-11.0992
▁Mol	-11.0997
▁Phoenix	-11.1005
▁subspecies	-11.1005
▁talks	-11.1011
▁scores	-11.1012
▁assembled	-11.1014
▁acoustic	-11.1015
lf	-11.1015
cit	-11.1016
▁strict	-11.1016
▁bears	-11.1018
▁lasting	-11.102
▁Thi	-11.1021
▁assess	-11.1022
100	-11.1022
▁loud	-11.1023
▁Gabriel	-11.1024
▁Wayne	-11.1024
▁flagship	-11.1024
▁pwo	-11.1025
duct	-11.1026
▁devoted	-11.1027
▁depiction	-11.1029
most	-11.1031
2.	-11.1032
▁enlisted	-11.1033
▁je	-11.1035
▁hypothesis	-11.1036
▁Broadway	-11.1038
▁pitcher	-11.104
▁objectives	-11.1041
▁Gary	-11.1041
▁Argentina	-11.1042
▁bowl	-11.1043
SC	-11.1046
▁armour	-11.1047
▁Works	-11.1048
▁competing	-11.1051
▁sto	-11.1052
▁reconnaissance	-11.1053
▁rely	-11.1055
▁Gate	-11.1056
▁Lost	-11.1057
▁Ang	-11.1059
▁donated	-11.1061
emia	-11.1064
▁youngest	-11.1066
▁surge	-11.1066
tif	-11.1066
▁riders	-11.1067
ensis	-11.1069
▁Upper	-11.1071
▁sat	-11.1072
▁define	-11.1076
▁inland	-11.1077
aya	-11.1078
▁paj	-11.1079
▁updated	-11.108
▁dressed	-11.1082
▁backed	-11.1083
▁Shaw	-11.1084
▁125	-11.1084
NC	-11.1084
▁legislative	-11.1086
▁Maine	-11.1089
▁shaft	-11.1089
▁graduated	-11.1094
▁Rai	-11.1095
▁Beat	-11.1099
▁breathing	-11.11
▁requirement	-11.1101
▁transported	-11.1102
▁Nicholas	-11.1104
▁acids	-11.1104
▁shadow	-11.1106
▁Hugh	-11.1106
▁Until	-11.1108
▁Keith	-11.111
▁managing	-11.111
▁Muhammad	-11.1112
▁circular	-11.1112
▁rifle	-11.1114
▁Engineering	-11.1115
▁wicket	-11.1115
▁amateur	-11.1116
▁curve	-11.1116
▁Wei	-11.1118
▁Barr	-11.1121
▁escort	-11.1126
▁Ancient	-11.1128
▁physically	-11.1129
▁Original	-11.113
▁que	-11.1132
▁cord	-11.1132
▁Todd	-11.1133
bil	-11.1134
▁marry	-11.1136
▁Add	-11.1137
▁arrangements	-11.1141
▁Edition	-11.1141
▁acute	-11.1142
▁Eve	-11.1144
▁Mos	-11.1144
▁Motor	-11.1145
▁timber	-11.1147
tam	-11.1149
▁organs	-11.115
▁velocity	-11.1151
▁spacecraft	-11.1154
▁proven	-11.1154
▁amazing	-11.1155
▁punishment	-11.116
▁def	-11.1161
▁Metro	-11.1162
▁Wy	-11.1164
▁Oliver	-11.1166
▁targeted	-11.1167
▁André	-11.1168
ym	-11.1168
▁identification	-11.1168
▁elaborate	-11.1169
▁Together	-11.117
▁random	-11.1171
▁displays	-11.1173
▁crest	-11.1173
▁harsh	-11.1174
▁arguments	-11.1176
▁absent	-11.1176
▁anlè	-11.1177
▁succeed	-11.1185
▁gathering	-11.1188
▁comfortable	-11.119
logical	-11.1191
ain	-11.1192
▁achievement	-11.1194
▁Abbey	-11.1194
▁mammals	-11.1198
▁Devil	-11.12
▁autumn	-11.1204
▁spaces	-11.1205
via	-11.1207
how	-11.1207
▁prim	-11.1208
SI	-11.1208
▁extract	-11.1208
▁backing	-11.1209
▁Movie	-11.121
▁Years	-11.1211
▁Abu	-11.1211
rite	-11.1212
▁bias	-11.1213
▁fail	-11.1215
▁teknik	-11.1216
▁Hawk	-11.1216
▁THE	-11.1216
▁collapsed	-11.1216
▁mon	-11.1217
▁accuracy	-11.1217
▁defending	-11.1221
▁Mint	-11.1226
▁preference	-11.1227
▁Birmingham	-11.1229
▁Language	-11.1229
▁educated	-11.1233
▁mineral	-11.1233
▁mechanisms	-11.1234
▁alarm	-11.1235
▁honest	-11.1235
▁Sk	-11.1238
▁1850	-11.1243
▁cartoon	-11.1243
▁sheep	-11.1243
▁theatrical	-11.1251
▁cinema	-11.1251
▁virtual	-11.1258
PC	-11.1259
▁Classic	-11.1261
▁medications	-11.1262
▁truck	-11.1262
▁Championships	-11.1264
xe	-11.1266
▁hatch	-11.1266
▁measurements	-11.1267
▁Break	-11.1267
▁settings	-11.1269
▁bowling	-11.1269
▁belonging	-11.1271
▁predators	-11.1274
EN	-11.1274
▁cats	-11.1276
▁Kate	-11.1276
▁Wo	-11.1276
▁adds	-11.1278
▁Short	-11.1279
▁Ter	-11.1279
▁intake	-11.1279
▁saving	-11.1287
▁mèt	-11.1288
▁Liz	-11.1289
▁couldn	-11.1289
▁demolished	-11.129
▁bitter	-11.1294
▁Craig	-11.1294
▁gather	-11.1295
▁elite	-11.1303
▁por	-11.1305
▁Jet	-11.1306
▁psycho	-11.1307
▁revised	-11.131
č	-11.1311
▁Vancouver	-11.1311
▁cal	-11.1313
▁civilization	-11.1314
52	-11.1314
▁strain	-11.1315
ander	-11.1315
▁assets	-11.1315
▁extending	-11.1318
▁funny	-11.1318
▁Large	-11.1319
▁enabled	-11.1321
▁touring	-11.1323
▁Paper	-11.1323
ibility	-11.1324
▁hosts	-11.1324
▁server	-11.1325
▁ports	-11.133
▁biographer	-11.1331
▁paying	-11.1332
link	-11.1332
▁item	-11.1333
▁tonnes	-11.1333
▁Fri	-11.1335
▁confirm	-11.1336
▁commentary	-11.1336
▁portrayal	-11.1338
▁tale	-11.134
▁Muslims	-11.1342
▁Belgian	-11.1344
▁fiber	-11.1347
▁kiss	-11.1348
▁traditionally	-11.1349
▁shi	-11.1354
▁Henri	-11.1356
kes	-11.1357
RO	-11.1359
nier	-11.1363
▁Mind	-11.1363
▁350	-11.1365
▁Ran	-11.1367
▁Tru	-11.137
▁jury	-11.1373
▁Cle	-11.1374
▁Near	-11.1375
▁gang	-11.1379
▁strengthen	-11.138
▁electron	-11.138
bon	-11.1382
Ch	-11.1385
▁scar	-11.1386
▁leak	-11.1387
ID	-11.1389
▁handled	-11.139
▁Sc	-11.1392
▁riding	-11.1394
▁travels	-11.1397
aria	-11.14
▁census	-11.14
take	-11.1405
▁doors	-11.1407
▁crimes	-11.1407
.6	-11.1408
▁consumer	-11.1411
▁relatives	-11.1412
wl	-11.1415
▁Mason	-11.1416
bol	-11.1418
▁Iran	-11.1418
phi	-11.1419
scale	-11.1422
iest	-11.1424
▁cabinet	-11.1424
▁expectations	-11.1426
▁brilliant	-11.1427
lè	-11.1427
far	-11.1428
▁varying	-11.1428
▁Files	-11.1429
▁prevention	-11.143
▁upset	-11.1431
▁regardless	-11.1432
▁athletic	-11.1433
▁destroying	-11.1434
▁Moscow	-11.1435
▁Ker	-11.1435
▁Swa	-11.1437
▁Conservative	-11.1441
▁1800	-11.1441
▁answers	-11.1442
▁breaks	-11.1442
▁Grace	-11.1446
▁consequence	-11.1446
▁seized	-11.1447
eck	-11.1448
▁debris	-11.1455
▁elect	-11.1457
▁eagle	-11.1459
TC	-11.1459
▁actively	-11.1459
▁Allies	-11.146
▁bombs	-11.1461
té	-11.1461
▁Pet	-11.1464
▁succession	-11.1466
▁1898	-11.1468
▁Right	-11.1468
mir	-11.1469
▁duo	-11.1471
▁Swiss	-11.1472
▁adequate	-11.1476
cl	-11.1477
▁ticket	-11.1478
▁pur	-11.1484
▁flesh	-11.1485
holder	-11.1486
▁Ekip	-11.1487
▁immigrants	-11.1491
▁Online	-11.1491
▁versus	-11.1491
cious	-11.1491
▁Artist	-11.1496
▁followers	-11.1498
▁Ralph	-11.1499
▁graph	-11.15
▁turret	-11.15
▁publisher	-11.1501
▁battalions	-11.1502
▁Morrison	-11.1502
▁Judge	-11.1504
▁Rap	-11.1505
▁varies	-11.1505
▁explaining	-11.1508
▁Defense	-11.1509
▁charity	-11.151
▁celebration	-11.151
making	-11.1511
▁cow	-11.1511
▁guidance	-11.1513
▁accompanying	-11.1518
▁06	-11.152
▁Defence	-11.1522
▁mathematical	-11.1526
▁interface	-11.1526
▁laugh	-11.1527
▁dual	-11.1529
▁divine	-11.1531
▁priority	-11.1531
▁inflammation	-11.1532
▁ph	-11.1533
▁medication	-11.1533
▁protecting	-11.1538
▁statistics	-11.154
▁engaging	-11.154
▁rejyon	-11.154
▁View	-11.154
▁Manuel	-11.1541
▁sudden	-11.1541
▁Est	-11.1547
▁voye	-11.1547
▁physician	-11.1548
▁Barb	-11.1548
▁consent	-11.1548
ote	-11.155
▁blocked	-11.155
▁Actor	-11.1552
▁Bun	-11.1552
▁quarterback	-11.1553
rov	-11.1556
leg	-11.1558
▁settle	-11.1559
▁creek	-11.1559
▁lights	-11.1559
▁judgment	-11.156
▁sculpture	-11.1561
▁venue	-11.1561
▁1896	-11.1562
▁effectiveness	-11.1562
▁varieties	-11.1562
▁replied	-11.1562
▁movies	-11.1568
▁intent	-11.1573
key	-11.1574
▁Woman	-11.1575
rio	-11.158
gor	-11.1583
▁feud	-11.1583
▁resident	-11.1586
▁Athletic	-11.1587
▁Talk	-11.1588
▁peaking	-11.1589
▁fold	-11.159
▁ion	-11.159
▁metric	-11.1591
lit	-11.1592
▁Tracy	-11.1592
▁Grey	-11.1593
▁tenure	-11.1593
▁aktè	-11.1593
▁hitting	-11.1593
thy	-11.1593
▁Did	-11.1594
▁columns	-11.1594
▁disk	-11.1595
▁dubbed	-11.1597
▁Edinburgh	-11.1601
▁calcium	-11.1601
▁interpret	-11.1601
▁gardens	-11.1605
▁Please	-11.1605
▁locally	-11.1607
▁Baron	-11.1607
▁Twitter	-11.1607
▁recommendations	-11.161
▁kreyòl	-11.1611
▁payment	-11.1618
▁Harbor	-11.162
▁harmful	-11.1625
loo	-11.1626
▁Come	-11.1628
▁Democrats	-11.1629
fr	-11.1636
▁wonderful	-11.1641
▁suspected	-11.1641
pet	-11.1644
▁theoretical	-11.1646
▁Sweet	-11.1648
▁loyal	-11.1654
▁Robin	-11.1654
▁Kal	-11.1655
▁Guinea	-11.1655
▁Campaign	-11.1656
▁consumers	-11.1657
▁faculty	-11.1659
▁Orange	-11.166
▁Rihanna	-11.1661
▁warfare	-11.1661
▁ceased	-11.1661
▁Rus	-11.1664
*	-11.1666
CO	-11.1668
▁fantasy	-11.1669
▁transit	-11.1669
▁evacuated	-11.167
▁Baseball	-11.1673
▁Helen	-11.1674
▁outcomes	-11.1674
ural	-11.1677
▁displaced	-11.1677
▁Female	-11.1679
ential	-11.168
▁Finland	-11.168
▁Newton	-11.1682
▁convey	-11.1682
▁resort	-11.1686
▁criteria	-11.1687
tting	-11.1688
Pa	-11.1688
view	-11.169
▁gaining	-11.169
▁everyday	-11.1693
▁conceived	-11.1694
▁hopes	-11.1696
▁regulation	-11.1697
▁summit	-11.1697
▁progressive	-11.1702
▁Hebrew	-11.1702
▁songwriter	-11.1702
▁anywhere	-11.1702
▁absorbed	-11.1704
▁cure	-11.1705
ulated	-11.1705
▁Armenian	-11.1712
▁tactics	-11.1712
▁Scout	-11.1713
▁Male	-11.1714
▁parks	-11.1714
▁Canterbury	-11.1714
▁transformation	-11.1717
▁Madagascar	-11.1721
mod	-11.1722
▁questioned	-11.1726
▁Official	-11.1729
▁Brad	-11.173
▁qua	-11.1732
ule	-11.1733
▁plates	-11.1734
▁considerably	-11.1734
▁sphere	-11.1735
▁navy	-11.1737
▁provinces	-11.1738
▁stationed	-11.1739
▁stops	-11.174
▁Queensland	-11.1743
nov	-11.1745
▁scholarship	-11.1746
▁crews	-11.1746
vor	-11.1747
▁meal	-11.175
&	-11.175
▁05	-11.1752
▁07	-11.1752
▁highlighted	-11.1752
▁hills	-11.1754
cra	-11.1757
Ma	-11.1758
▁amendment	-11.1764
▁Rama	-11.1766
▁Machine	-11.1766
▁joy	-11.1766
▁elevated	-11.1767
▁violation	-11.1768
▁Legend	-11.1769
▁Bobby	-11.1769
▁ranges	-11.1773
▁considers	-11.1775
▁responses	-11.1777
anna	-11.178
▁abundant	-11.1781
ello	-11.1783
▁cleared	-11.1784
▁Salt	-11.1784
▁guarantee	-11.1785
?”	-11.1785
▁Lloyd	-11.1789
▁heaven	-11.1791
▁Stevens	-11.1792
▁confront	-11.1792
▁extensively	-11.1793
▁thirteen	-11.1796
BC	-11.1798
tics	-11.1802
▁Lan	-11.1802
▁Lower	-11.1802
▁lawsuit	-11.1803
▁Authority	-11.1806
ê	-11.1808
▁Executive	-11.1808
▁spots	-11.1813
▁errors	-11.1815
▁Kir	-11.1819
▁Freedom	-11.1819
tant	-11.1821
▁tract	-11.1823
▁conflicts	-11.1823
pit	-11.1823
▁1899	-11.1825
▁chase	-11.1826
▁flooded	-11.183
lot	-11.1832
ancy	-11.1834
cial	-11.1834
▁illustrated	-11.1836
▁punk	-11.1837
▁photography	-11.1838
▁1893	-11.1839
▁Swift	-11.184
▁Protection	-11.184
▁sung	-11.1847
▁crystal	-11.1848
▁Celtic	-11.1849
▁expanding	-11.185
▁panels	-11.1851
▁throat	-11.1852
▁directors	-11.1854
phor	-11.1855
lid	-11.1855
▁provision	-11.1859
én	-11.1859
▁Barry	-11.1859
▁Wallace	-11.1861
▁Gang	-11.1863
▁Met	-11.1864
mos	-11.1868
▁fortress	-11.1869
▁shade	-11.1871
▁avoided	-11.1872
▁dwarf	-11.1875
▁politicians	-11.1876
▁aside	-11.1883
▁provisions	-11.1885
▁scenario	-11.1885
▁Wrestling	-11.1886
▁Arctic	-11.1887
gil	-11.1888
▁cream	-11.1889
▁underwent	-11.189
▁Ruth	-11.189
▁dissipated	-11.1892
▁jilyen	-11.1898
▁Richmond	-11.1898
▁Stand	-11.1898
▁Girls	-11.19
dig	-11.19
▁streak	-11.1902
▁Hardy	-11.1903
aku	-11.1904
▁decorated	-11.1907
▁navigation	-11.1907
▁chicken	-11.1908
▁invention	-11.191
▁contributing	-11.1911
▁rot	-11.1911
▁thrown	-11.1912
oi	-11.1912
lee	-11.1914
▁Marcel	-11.1917
▁Learn	-11.1918
▁innovative	-11.1921
▁mortality	-11.1922
▁nitrogen	-11.1926
▁Pine	-11.1928
▁extinct	-11.1929
▁differ	-11.193
▁literally	-11.193
-4	-11.1931
▁hunt	-11.1931
▁Carol	-11.1933
▁Leon	-11.1933
▁Brazilian	-11.1935
horn	-11.1937
ald	-11.194
▁descent	-11.194
▁zoo	-11.1942
RT	-11.1947
cio	-11.1947
rated	-11.1947
mble	-11.1949
▁abroad	-11.1951
▁worker	-11.1951
▁acclaim	-11.1952
▁Fleming	-11.1953
▁abstract	-11.1954
▁shifted	-11.1955
▁lord	-11.1957
phone	-11.1957
▁intelligent	-11.196
▁collision	-11.1962
▁Orleans	-11.1964
▁Independence	-11.1966
▁killer	-11.1966
▁transform	-11.1968
▁Planet	-11.197
tens	-11.1975
sley	-11.1976
▁kitchen	-11.1977
▁Commons	-11.1977
▁Help	-11.1979
▁Scientology	-11.1987
▁Poly	-11.199
▁reinforced	-11.1993
▁cylinder	-11.1994
▁spectrum	-11.1994
▁ritual	-11.1994
▁topped	-11.1994
▁raids	-11.1997
▁garner	-11.1999
▁Look	-11.2
▁cruise	-11.2
▁Mayor	-11.2005
▁Brothers	-11.2005
▁YouTube	-11.2006
Grain	-11.2007
▁pine	-11.2009
▁indoor	-11.201
▁consume	-11.2013
hold	-11.2013
▁Hughes	-11.2014
▁gar	-11.2015
▁Regional	-11.2015
▁epic	-11.2017
▁alter	-11.2017
▁infant	-11.202
▁Know	-11.202
▁revolutionary	-11.2021
sville	-11.2023
▁remarkable	-11.2024
class	-11.2025
vic	-11.2025
▁Maurice	-11.2026
▁supports	-11.2028
bia	-11.2029
▁inherited	-11.2029
▁irregular	-11.203
ject	-11.2032
▁Mega	-11.2032
▁Form	-11.2033
▁volcanic	-11.2034
OC	-11.2034
▁Fighter	-11.2035
▁Jerry	-11.2037
▁enhanced	-11.2037
▁independently	-11.2038
▁laser	-11.2039
▁Register	-11.2041
▁lots	-11.2042
▁Barbara	-11.2045
▁trace	-11.2047
▁Neil	-11.2047
▁Kings	-11.2048
▁kings	-11.2048
▁protective	-11.2054
pect	-11.2056
▁widow	-11.206
awa	-11.2062
▁trailer	-11.2062
rac	-11.2063
VA	-11.2071
▁Image	-11.2072
hir	-11.2075
▁gravity	-11.2076
▁Voice	-11.2076
organ	-11.2076
▁drought	-11.2079
▁campaigns	-11.2082
rink	-11.2082
▁discovers	-11.2083
▁portrait	-11.2084
▁Track	-11.2085
▁Austin	-11.2086
▁swing	-11.2086
▁consistently	-11.2086
▁Pink	-11.2087
▁privilege	-11.2088
lings	-11.2089
ū	-11.2092
▁availability	-11.2092
▁(2	-11.2094
▁playoffs	-11.2095
▁drain	-11.2095
▁aren	-11.2095
▁MA	-11.2096
▁ultimate	-11.2096
▁Ernest	-11.2096
▁Boys	-11.2097
▁Beginning	-11.2099
▁Count	-11.2099
▁conquest	-11.2099
-5	-11.21
▁healthcare	-11.2104
▁acquire	-11.2105
▁pour	-11.2109
▁ignored	-11.2115
▁telescope	-11.2116
▁affecting	-11.2117
▁RNA	-11.2119
▁Want	-11.212
▁confused	-11.2124
▁pound	-11.2124
▁traded	-11.2127
▁Room	-11.2127
▁McCartney	-11.2129
▁cathedral	-11.2129
▁poster	-11.2129
▁Ever	-11.2134
▁trough	-11.2137
▁humor	-11.214
Con	-11.2141
▁channels	-11.2142
▁dozen	-11.2142
▁Pas	-11.2143
olo	-11.2143
▁spine	-11.2144
onia	-11.2145
▁consist	-11.2148
▁Dwight	-11.2148
▁cooperation	-11.2148
▁moisture	-11.2151
ès	-11.2155
▁https	-11.2156
▁Zone	-11.2158
▁exciting	-11.2161
▁ver	-11.2161
▁Cou	-11.2164
▁Edwards	-11.2168
▁Quebec	-11.2168
▁syans	-11.2168
▁exploit	-11.2169
▁Indeed	-11.217
▁Nation	-11.2172
itch	-11.2179
▁solely	-11.218
▁Abraham	-11.2181
▁capabilities	-11.2183
active	-11.2187
▁farms	-11.2189
▁Urban	-11.219
▁·	-11.219
▁steal	-11.2191
▁reject	-11.2191
▁Dale	-11.2193
rik	-11.2193
▁qualities	-11.2194
run	-11.2194
▁divorce	-11.2194
▁arguing	-11.2196
▁Pala	-11.2197
▁angry	-11.2198
▁manuscript	-11.2199
▁interviews	-11.22
eh	-11.2201
▁Yankees	-11.2203
▁segments	-11.2205
▁bigger	-11.2209
▁evacuation	-11.2209
law	-11.2209
▁upgrade	-11.2209
▁Joan	-11.2209
▁protests	-11.2211
etta	-11.2212
▁lit	-11.2213
▁Bennett	-11.2213
.7	-11.2214
▁Future	-11.2214
▁currency	-11.2215
▁salary	-11.2215
▁Bath	-11.2216
▁substances	-11.2217
▁receives	-11.2218
▁demographic	-11.222
▁slide	-11.2221
lect	-11.2223
morph	-11.2223
▁Armstrong	-11.2224
▁detection	-11.2227
hor	-11.2228
▁Gas	-11.223
▁heating	-11.2236
▁hi	-11.2237
▁blast	-11.2238
▁thermal	-11.224
▁consumed	-11.2241
▁silent	-11.2241
▁bite	-11.2243
▁hardware	-11.2243
▁proceeded	-11.2243
▁Too	-11.2243
▁Pain	-11.2248
▁Yorkshire	-11.2248
▁Tang	-11.2251
char	-11.2251
▁Being	-11.2251
▁gum	-11.2253
oh	-11.2256
▁powder	-11.2257
▁similarities	-11.2257
▁Transportation	-11.2259
▁Buddhist	-11.2259
▁che	-11.226
▁cuts	-11.226
▁pm	-11.2262
▁1897	-11.2263
▁Reich	-11.2263
▁Televizyon	-11.2263
▁Dom	-11.2265
▁philosopher	-11.2266
▁gut	-11.2267
▁Picture	-11.2268
▁Outstanding	-11.227
▁Capital	-11.227
▁Players	-11.227
▁mas	-11.2271
▁deposits	-11.2272
▁cluster	-11.2273
fri	-11.2274
tas	-11.2275
▁Ac	-11.2275
▁professionals	-11.2275
▁kilometers	-11.228
▁magazines	-11.2281
▁AM	-11.2282
tsu	-11.2285
.8	-11.2289
▁Triple	-11.2291
▁burden	-11.2292
▁fourteen	-11.2293
▁habitats	-11.2298
▁Belle	-11.2298
▁min	-11.2299
▁Guitar	-11.2303
▁habits	-11.2303
pple	-11.2305
▁Johnston	-11.2307
▁Season	-11.2307
ground	-11.2308
▁Boat	-11.2309
▁prisoner	-11.2309
▁Kam	-11.2309
face	-11.2314
▁Wilhelm	-11.2314
▁reflection	-11.2314
▁fortune	-11.2315
▁Pittsburgh	-11.2316
▁burst	-11.2317
▁imposed	-11.2319
▁Kn	-11.2322
▁grandfather	-11.2323
▁Ground	-11.2325
▁operates	-11.2326
▁Malaysia	-11.2326
▁Steel	-11.2328
▁barrel	-11.2328
▁attractive	-11.2329
▁bottle	-11.2329
▁Globe	-11.233
▁sponsored	-11.2331
▁sixteen	-11.2332
▁scope	-11.2334
▁voltage	-11.2336
▁Nova	-11.2337
star	-11.2339
vet	-11.234
▁ur	-11.2341
▁outline	-11.2341
▁Costa	-11.2341
▁Howe	-11.2341
▁reforms	-11.2344
▁precise	-11.2347
▁CA	-11.2347
▁warnings	-11.2351
▁democracy	-11.2351
To	-11.2352
▁Minor	-11.2353
▁discrimination	-11.2353
dro	-11.2354
▁width	-11.2356
▁quantity	-11.2358
▁voices	-11.236
▁viruses	-11.2361
uma	-11.2363
▁cave	-11.2364
mur	-11.2364
▁Site	-11.2367
▁anger	-11.2368
▁happening	-11.2369
▁Tell	-11.237
oper	-11.2372
▁vector	-11.2373
▁Champion	-11.2374
loc	-11.2375
pop	-11.2377
▁Affairs	-11.238
▁aftermath	-11.238
▁healing	-11.2381
▁remembered	-11.2383
▁Dal	-11.2386
▁surrendered	-11.2388
▁quantities	-11.2389
▁tongue	-11.2389
FA	-11.239
▁Given	-11.239
erman	-11.2391
▁Zero	-11.2394
▁proposals	-11.2395
▁passion	-11.2397
▁transformed	-11.2397
▁Album	-11.2399
▁Falls	-11.2399
▁Scholar	-11.2399
▁Historical	-11.24
▁societies	-11.2402
▁conducting	-11.2402
▁module	-11.2404
gas	-11.2405
▁Maha	-11.2405
pos	-11.2406
▁uranium	-11.2407
▁hu	-11.2407
▁1895	-11.2409
▁technological	-11.2411
▁resolved	-11.2414
▁clouds	-11.2415
▁Fin	-11.2415
▁painter	-11.2415
▁Danish	-11.242
▁Try	-11.2422
▁Davies	-11.2422
▁978	-11.2426
▁comfort	-11.2426
▁companion	-11.2426
uit	-11.243
mmer	-11.243
▁exile	-11.2431
▁colored	-11.2433
▁readily	-11.2434
▁extratropical	-11.2436
▁copyright	-11.2438
▁directions	-11.2439
▁definitely	-11.244
met	-11.244
▁clinic	-11.2444
▁publish	-11.2444
fra	-11.2446
▁melody	-11.2447
ă	-11.2449
▁Pit	-11.2449
▁lighter	-11.2449
▁warned	-11.245
▁Tin	-11.2451
▁participating	-11.2451
▁Performance	-11.2451
position	-11.2452
▁imagine	-11.2452
▁defences	-11.2452
▁clan	-11.2453
▁arrives	-11.2454
▁1861	-11.2457
with	-11.2458
PI	-11.246
▁Pot	-11.2461
▁trapped	-11.2461
▁harbour	-11.2462
▁mock	-11.2463
▁Mall	-11.2464
▁texture	-11.2464
stead	-11.2467
▁Check	-11.2469
▁automatically	-11.247
▁saint	-11.2471
▁Din	-11.2473
▁Impact	-11.2474
▁minerals	-11.2477
▁blade	-11.248
▁positively	-11.2481
▁Norfolk	-11.2484
OL	-11.2487
ET	-11.2488
berry	-11.2488
▁highlight	-11.2489
▁Seri	-11.2492
▁Safety	-11.2494
▁Portugal	-11.2496
▁doi	-11.2496
▁Facebook	-11.2503
▁Case	-11.2509
▁rush	-11.2511
▁aesthetic	-11.2514
▁daughters	-11.2517
▁Montana	-11.2517
▁Stuart	-11.2518
▁Wonder	-11.2518
▁acquisition	-11.252
▁bag	-11.2521
▁ST	-11.2522
hon	-11.2525
▁cooking	-11.2526
rey	-11.2527
▁civilians	-11.2527
gie	-11.2528
hem	-11.2528
▁sacred	-11.253
▁Sara	-11.253
▁eastward	-11.2531
▁beating	-11.2532
▁Diamond	-11.2532
▁barrier	-11.2532
lies	-11.2533
▁Cameron	-11.2536
▁undertaken	-11.2536
▁pleasure	-11.2538
▁anime	-11.254
▁Production	-11.254
▁symbols	-11.2542
▁Magic	-11.2544
nz	-11.2544
▁careful	-11.2545
▁nurse	-11.2546
▁configuration	-11.2547
SU	-11.2548
▁Sor	-11.2549
▁Unfortunately	-11.2552
▁flame	-11.2555
▁rebels	-11.2556
▁beats	-11.2558
▁sad	-11.2559
▁Gallery	-11.2559
▁Opera	-11.256
▁Consider	-11.2563
▁Flying	-11.2565
▁authorized	-11.2566
▁opinions	-11.2566
▁Larry	-11.2567
▁controlling	-11.2569
▁resolve	-11.2571
▁presents	-11.2574
▁illustrate	-11.2575
▁accomplished	-11.2577
▁decisive	-11.2579
lands	-11.2582
▁aims	-11.2583
▁Harold	-11.2583
▁Half	-11.2584
▁Lab	-11.2584
▁ties	-11.2587
▁Indonesian	-11.2591
▁collections	-11.2593
▁zye	-11.2594
▁parody	-11.2595
▁adverse	-11.2595
rry	-11.2595
▁photos	-11.2596
▁pad	-11.2599
▁Micro	-11.26
▁innovation	-11.2601
▁ir	-11.2601
▁acceptance	-11.2601
▁citizen	-11.2602
tone	-11.2605
▁biology	-11.2605
uz	-11.2607
IP	-11.2609
plo	-11.2613
▁prop	-11.2614
▁Need	-11.2614
▁Stock	-11.2617
▁feathers	-11.2617
▁Rich	-11.2618
▁Cathedral	-11.262
roll	-11.2621
1.	-11.2622
▁Was	-11.2623
▁Click	-11.2623
▁Fun	-11.2625
▁elder	-11.2625
▁promotional	-11.2629
▁Afghanistan	-11.2629
▁Burton	-11.2629
onjitid	-11.2631
▁Detay	-11.2631
▁Pla	-11.2634
▁Latitid	-11.2638
▁Fourth	-11.2642
▁commenced	-11.2643
▁slip	-11.2643
▁towers	-11.2643
▁spur	-11.2644
▁lacking	-11.2649
▁voters	-11.2651
▁adjust	-11.2652
piece	-11.2652
▁occasional	-11.2652
▁wished	-11.2656
▁advancing	-11.2658
▁NCAA	-11.2661
▁TNA	-11.2661
▁Mann	-11.2663
▁hostile	-11.2665
▁spec	-11.2666
▁Cer	-11.2666
▁withdrawn	-11.2667
▁commercially	-11.2668
▁pupils	-11.2669
▁surfaces	-11.2669
▁fracture	-11.2674
▁Greater	-11.2675
rri	-11.2675
▁Thor	-11.2676
▁motivation	-11.2676
▁Zi	-11.2678
▁Support	-11.2678
posit	-11.2679
▁101	-11.268
▁facilitate	-11.268
▁bullet	-11.2681
▁Cancer	-11.2682
▁Ivan	-11.2683
▁refugees	-11.2684
itive	-11.2684
▁whale	-11.2684
▁metals	-11.2687
nen	-11.2688
▁safely	-11.2688
▁reinforcements	-11.2688
▁breach	-11.2691
▁feared	-11.2691
▁Spin	-11.2692
▁Oscar	-11.2693
▁sediment	-11.2693
▁viewing	-11.2693
▁Bow	-11.2694
▁roadway	-11.2698
▁searching	-11.2698
▁client	-11.2699
▁smell	-11.27
esh	-11.2701
▁archaeological	-11.2702
ense	-11.2702
▁boss	-11.2703
▁harvest	-11.2703
▁hoping	-11.2707
▁diplomatic	-11.2707
ø	-11.2708
▁Bern	-11.2708
▁Cricket	-11.2711
▁SA	-11.2712
▁icon	-11.2713
▁fra	-11.2713
▁discharge	-11.2717
▁ourselves	-11.2718
heim	-11.2724
▁Marge	-11.2725
media	-11.2727
Mo	-11.2728
▁115	-11.273
De	-11.273
tit	-11.2732
▁chances	-11.2736
nel	-11.2738
▁Hop	-11.2738
▁discussions	-11.2742
uli	-11.2743
▁intermediate	-11.2745
▁nutrition	-11.2746
▁pocket	-11.275
eller	-11.275
phan	-11.2751
▁SE	-11.2753
▁compromise	-11.2753
▁aggregate	-11.2754
pol	-11.2755
▁04	-11.2756
▁Marvel	-11.2758
ridge	-11.2762
IA	-11.2762
▁acre	-11.2764
▁Terry	-11.2766
▁greenhouse	-11.2767
▁Kit	-11.2769
▁synthesis	-11.2773
atus	-11.2775
▁Bradman	-11.2775
▁creature	-11.2776
mut	-11.278
▁worry	-11.2782
rating	-11.2783
▁scout	-11.2785
▁choosing	-11.2786
hole	-11.2788
▁DS	-11.2794
isyon	-11.2794
▁ramp	-11.2795
▁speculation	-11.2796
vil	-11.2796
▁goddess	-11.2798
▁Cass	-11.28
▁historically	-11.28
▁atmospheric	-11.28
▁Joint	-11.2802
rah	-11.2802
mine	-11.2803
uda	-11.2803
▁Yes	-11.2803
▁invented	-11.2803
which	-11.2805
▁legacy	-11.2806
zar	-11.2808
▁Shiva	-11.2811
▁speaker	-11.2814
rb	-11.2815
▁quit	-11.2817
▁Dallas	-11.2819
▁Herald	-11.2824
▁Justin	-11.2824
▁drummer	-11.2824
▁Bryan	-11.2826
▁oversee	-11.2827
ulate	-11.2827
ope	-11.2828
▁Monday	-11.2829
▁fraction	-11.2831
▁highways	-11.2832
tti	-11.2832
▁matematisyen	-11.2833
▁wrestling	-11.2833
▁ecological	-11.2835
kel	-11.2838
igh	-11.284
BS	-11.2842
tine	-11.2843
▁Isaac	-11.2844
▁maybe	-11.2846
▁fo	-11.2846
▁opposing	-11.2847
▁rendered	-11.2855
▁complement	-11.2857
▁colours	-11.2858
ied	-11.2862
▁Def	-11.2864
gro	-11.2864
▁settlements	-11.2866
▁spray	-11.2866
▁collecting	-11.2867
chu	-11.2869
▁Thunder	-11.287
▁extinction	-11.2871
CR	-11.2875
▁Laura	-11.2876
fim	-11.2879
uni	-11.2881
lves	-11.2882
▁Metropolitan	-11.2884
▁Gau	-11.2884
▁correspond	-11.2884
▁confident	-11.2885
▁Hen	-11.2886
▁jo	-11.2886
▁cleaning	-11.2886
new	-11.2887
▁zones	-11.2887
▁tar	-11.2887
EC	-11.2888
▁Kane	-11.2889
vè	-11.2893
▁threatening	-11.2895
▁Por	-11.2895
▁Lie	-11.2896
▁closure	-11.2896
▁01	-11.2897
▁nickname	-11.2902
▁Electronic	-11.2903
▁Pur	-11.2905
▁trauma	-11.2906
MP	-11.2908
▁1889	-11.2909
▁relating	-11.2909
▁specialized	-11.291
ord	-11.2915
▁reserved	-11.2915
▁Oslo	-11.2917
▁Bert	-11.292
▁airfield	-11.2921
kon	-11.2921
▁mysterious	-11.2921
▁Bear	-11.2921
▁Saturn	-11.2922
▁fungus	-11.2924
▁traits	-11.2924
▁soap	-11.2925
▁Branch	-11.2926
▁recurring	-11.2926
ink	-11.2929
▁upcoming	-11.2931
▁reef	-11.2932
▁»	-11.2932
▁reconstruction	-11.2934
bach	-11.2935
mission	-11.2936
▁perfectly	-11.2938
▁Leo	-11.294
▁lip	-11.2942
▁Kas	-11.2944
▁Rangers	-11.2945
▁bishop	-11.2947
0.	-11.2949
▁Fen	-11.2949
cular	-11.2951
▁judges	-11.2952
she	-11.2957
▁kills	-11.2957
▁Level	-11.2958
▁Sad	-11.2961
▁ingredients	-11.2964
▁mistake	-11.2965
CI	-11.2966
ña	-11.2967
▁boilers	-11.2967
▁Row	-11.2971
verse	-11.2971
▁Temp	-11.2972
▁Fur	-11.2973
▁anchor	-11.2974
cas	-11.2974
ont	-11.2975
▁Highland	-11.2976
▁Others	-11.2976
▁outstanding	-11.2976
cite	-11.2977
▁Junior	-11.2977
▁Wii	-11.298
▁AC	-11.2981
any	-11.2982
▁overwhelming	-11.2983
▁conscious	-11.2984
▁sailing	-11.2984
▁juvenile	-11.2984
ologists	-11.2984
dh	-11.2985
▁declare	-11.2986
▁totally	-11.2988
▁collective	-11.2988
▁FBI	-11.2989
▁sentiment	-11.299
▁knight	-11.2992
rup	-11.2992
▁lanes	-11.2993
▁proud	-11.2996
▁dies	-11.2997
tier	-11.2998
▁Nas	-11.2998
▁Rezime	-11.2998
▁erosion	-11.2998
▁Access	-11.2999
▁southeastern	-11.3
▁Euro	-11.3
ING	-11.3
▁Rule	-11.3
▁incorporate	-11.3002
▁destroyer	-11.3003
▁lakes	-11.3008
▁legitimate	-11.301
▁tempo	-11.3012
▁comparing	-11.3013
py	-11.3013
▁compiled	-11.3013
▁reasonable	-11.3014
▁Nancy	-11.3017
▁oriented	-11.3019
ature	-11.3019
▁Against	-11.302
▁champions	-11.3021
▁Ent	-11.3021
▁Av	-11.3021
ín	-11.3022
▁Athens	-11.3022
▁Que	-11.3026
▁Montgomery	-11.3027
▁stamp	-11.303
▁revival	-11.3031
wal	-11.3032
▁mythology	-11.3032
▁Cut	-11.3033
▁geo	-11.3034
▁relocated	-11.3035
▁commit	-11.3036
▁estatistik	-11.3036
▁Testament	-11.3036
▁Alpha	-11.3036
itu	-11.3039
▁travelling	-11.304
nam	-11.3041
▁disappear	-11.3043
oth	-11.3045
.|	-11.3045
▁Gay	-11.3046
gna	-11.3047
▁mystery	-11.3048
bat	-11.3048
▁guy	-11.3049
▁Gla	-11.3051
▁Body	-11.3052
▁Buffalo	-11.3055
▁Sid	-11.3057
uf	-11.3058
▁peninsula	-11.306
No	-11.306
craft	-11.3061
▁Cell	-11.3064
▁1894	-11.3066
kout	-11.3067
▁limitations	-11.3069
▁Labor	-11.3069
▁manifest	-11.307
front	-11.3074
▁sized	-11.3074
▁dose	-11.3076
▁flavor	-11.3081
▁damaging	-11.3081
▁corruption	-11.3085
▁commanding	-11.3085
▁Rep	-11.3089
quest	-11.3089
▁verb	-11.309
▁Adult	-11.3091
▁consensus	-11.3093
▁thickness	-11.3093
hel	-11.3095
pr	-11.3095
▁Pam	-11.3099
▁dome	-11.3101
mag	-11.3101
▁streams	-11.3101
▁scandal	-11.3102
▁nautical	-11.3103
pher	-11.3105
▁mud	-11.3105
▁explored	-11.3106
▁discussing	-11.3107
▁mice	-11.3109
ogen	-11.311
▁memories	-11.3112
▁CBS	-11.3113
▁poison	-11.3116
▁correctly	-11.3118
NA	-11.3121
▁Czech	-11.3122
▁busy	-11.3124
▁Jar	-11.3124
▁tissues	-11.3126
▁disappeared	-11.3126
ér	-11.3127
▁Alliance	-11.3129
itude	-11.3129
▁175	-11.3131
▁Churchill	-11.3131
fort	-11.3132
▁Ages	-11.3132
▁Lock	-11.3132
nge	-11.3134
▁recall	-11.3139
▁anticipated	-11.314
vit	-11.314
▁ceiling	-11.3141
▁territorial	-11.3141
].	-11.3142
▁Prix	-11.3144
▁Clarke	-11.3145
SE	-11.3147
▁atoms	-11.3147
▁bin	-11.3147
een	-11.3154
▁depicts	-11.316
▁Jun	-11.3161
▁pipe	-11.3161
▁housed	-11.3162
▁gu	-11.3162
▁skeleton	-11.3165
▁treating	-11.3169
▁renewed	-11.317
▁beaten	-11.3172
▁elderly	-11.3174
▁silence	-11.3174
SD	-11.3175
NT	-11.3176
pra	-11.3176
▁Trophy	-11.3179
vant	-11.3179
▁Cher	-11.3181
▁Constantine	-11.3182
mini	-11.3183
slav	-11.3184
▁odd	-11.3185
▁Sega	-11.3186
▁María	-11.3187
▁Mé	-11.3189
▁identifying	-11.3189
cis	-11.319
lea	-11.3192
▁Brooks	-11.3192
▁congregation	-11.3193
▁Nebraska	-11.3196
▁urged	-11.3197
▁Friends	-11.3197
▁Sign	-11.3197
cation	-11.32
▁Jamaica	-11.3201
▁stake	-11.3201
▁Inside	-11.3202
▁rivalry	-11.3202
▁Studio	-11.3203
▁wage	-11.3207
▁recruit	-11.3208
▁Sultan	-11.3208
▁declaration	-11.321
▁Total	-11.321
▁capturing	-11.3213
▁receiver	-11.3213
▁progression	-11.3214
▁Return	-11.3215
▁recipient	-11.3215
▁Emmy	-11.3216
▁intersects	-11.3217
▁praising	-11.3217
▁dropping	-11.3219
MC	-11.3221
HL	-11.3224
▁employee	-11.3228
rea	-11.3231
▁cheap	-11.3232
Ro	-11.3234
tory	-11.3235
▁manual	-11.3236
▁renewable	-11.3238
▁undergo	-11.3239
▁stolen	-11.324
▁harder	-11.3243
▁Yon	-11.3245
▁Attorney	-11.3246
▁Youth	-11.3247
▁boom	-11.3248
▁Shah	-11.3248
eon	-11.3249
▁insect	-11.325
▁Pictures	-11.3251
....	-11.3253
▁plenty	-11.3254
life	-11.326
▁millimeter	-11.3261
▁Bang	-11.3262
hil	-11.3264
▁OF	-11.3265
place	-11.3266
▁sketch	-11.3269
▁tender	-11.3271
▁pent	-11.3271
▁1891	-11.3271
▁arose	-11.3272
▁drag	-11.3273
▁eventual	-11.3275
lter	-11.3276
▁bombardment	-11.3279
▁administered	-11.328
▁foster	-11.3283
sum	-11.3285
ily	-11.3286
▁reyalizatè	-11.3287
chin	-11.3288
ending	-11.3291
iki	-11.3291
▁suspension	-11.3292
▁Raymond	-11.3293
▁Amazon	-11.3295
▁Electric	-11.3296
▁relieve	-11.3297
▁biography	-11.3298
bank	-11.3298
shot	-11.33
▁evolutionary	-11.33
stro	-11.3301
He	-11.3302
▁instructor	-11.3302
num	-11.3304
▁104	-11.3305
▁tobacco	-11.3307
inus	-11.3308
▁merged	-11.3308
▁costume	-11.331
▁Gan	-11.331
▁Champions	-11.3311
▁caution	-11.3312
▁flee	-11.3312
▁«	-11.3312
▁Dublin	-11.3313
▁gauge	-11.3314
▁recruited	-11.3315
▁Cru	-11.3318
▁shed	-11.3319
▁experiencing	-11.3319
▁photograph	-11.3319
▁bulb	-11.3319
▁Fisher	-11.3321
▁harbor	-11.3321
▁absolutely	-11.3323
▁Arch	-11.3328
▁Kor	-11.3329
▁subtle	-11.333
▁suggestion	-11.3331
▁volunteer	-11.3333
▁amino	-11.3334
agh	-11.3334
▁03	-11.3334
▁quoted	-11.3339
adi	-11.3344
▁Franco	-11.3345
▁Krist	-11.3347
made	-11.3351
▁fulfill	-11.3353
SO	-11.3362
▁protocol	-11.3363
▁Leonard	-11.3364
▁throwing	-11.3364
▁Walt	-11.3366
▁advances	-11.3367
yne	-11.3367
▁complications	-11.3368
dam	-11.3368
uous	-11.3371
▁Rather	-11.3371
▁tourist	-11.3373
▁cloth	-11.3374
▁Mix	-11.3374
▁triumph	-11.3375
▁Resources	-11.3376
▁manga	-11.3378
▁Spider	-11.3379
▁measurement	-11.3381
▁Perhaps	-11.3382
ees	-11.3384
▁interfere	-11.3386
▁collector	-11.3386
▁municipal	-11.3387
yal	-11.3388
▁mast	-11.3389
mail	-11.3389
▁Climate	-11.339
▁Eight	-11.3391
▁joke	-11.3391
▁nineteenth	-11.3394
▁acknowledge	-11.3395
▁eligible	-11.3395
▁silk	-11.3395
▁predominantly	-11.3396
▁achieving	-11.3397
pat	-11.3399
▁Credit	-11.34
▁tracking	-11.3403
imp	-11.3403
iro	-11.3404
▁binding	-11.3404
▁240	-11.3405
▁1888	-11.3407
▁concentrations	-11.3407
▁Range	-11.341
▁Cyrus	-11.3415
▁Flag	-11.3416
▁magnet	-11.3416
▁1892	-11.3417
tiv	-11.342
▁arena	-11.3423
▁valve	-11.3425
▁complained	-11.3428
▁realm	-11.3429
▁toured	-11.3432
▁Sou	-11.3433
▁Ir	-11.3434
wn	-11.3436
▁blame	-11.3439
▁peaceful	-11.344
▁Burke	-11.3442
▁pursued	-11.3443
tical	-11.3444
▁persuaded	-11.3447
▁lesser	-11.3449
▁JTWC	-11.3451
▁welcome	-11.3451
▁thread	-11.3451
▁tear	-11.3453
▁exterior	-11.3454
▁specified	-11.3454
▁oxide	-11.3458
mot	-11.346
▁Sheffield	-11.3461
lé	-11.3462
gus	-11.3463
▁releasing	-11.3463
ño	-11.3463
▁veteran	-11.3465
▁Wells	-11.3467
hall	-11.3468
▁sentenced	-11.3469
▁Chapel	-11.3469
▁submit	-11.347
▁AS	-11.347
▁Madison	-11.3471
EP	-11.3472
▁ancestors	-11.3472
now	-11.3473
▁customer	-11.3477
▁Cemetery	-11.3478
▁UEFA	-11.3478
▁manufactured	-11.348
▁Roberts	-11.3484
▁Sex	-11.3485
▁Vas	-11.3488
▁Wu	-11.3492
▁Republicans	-11.3492
▁fossils	-11.3494
▁spite	-11.3495
hm	-11.3495
▁staying	-11.3497
▁reservoir	-11.3498
▁Bol	-11.3502
▁Does	-11.3502
▁wouldn	-11.3502
▁evaluate	-11.3503
▁mouse	-11.3505
OM	-11.3505
▁judicial	-11.3508
tag	-11.351
bot	-11.3516
▁Transport	-11.3517
PR	-11.3518
▁wo	-11.3521
▁Find	-11.3521
▁hospitals	-11.3527
▁assessed	-11.3534
▁democratic	-11.3535
▁nevertheless	-11.3535
▁invaded	-11.3539
▁Burns	-11.3539
▁graphic	-11.3539
▁Cri	-11.354
▁cook	-11.3541
▁genome	-11.3542
▁Reagan	-11.3542
▁tendency	-11.3543
▁sharks	-11.3545
▁Alberta	-11.3546
▁modest	-11.3549
▁drafted	-11.3552
▁Rou	-11.3552
▁1865	-11.3553
ume	-11.3554
▁strikes	-11.3556
▁masses	-11.356
▁CEO	-11.356
▁Schu	-11.3561
▁comprised	-11.3563
▁walked	-11.3564
▁posts	-11.3566
cip	-11.3568
▁True	-11.357
▁Scots	-11.3572
▁constitute	-11.3573
▁Liberty	-11.3576
▁tout	-11.3579
▁bonds	-11.358
▁170	-11.358
▁Ship	-11.3581
▁NATO	-11.3583
▁nominations	-11.3584
▁Dur	-11.3587
▁bon	-11.3587
▁imprisoned	-11.3587
▁Lamb	-11.3588
▁Movement	-11.3589
▁expense	-11.3589
quin	-11.3592
▁Marco	-11.3594
▁struggling	-11.3595
▁dimensions	-11.3595
▁lunch	-11.3599
tive	-11.3599
▁eaten	-11.3601
corn	-11.3601
▁qualifying	-11.3606
▁landmark	-11.3608
▁Baptist	-11.3608
ago	-11.3609
▁Sherman	-11.3612
grad	-11.3612
▁steady	-11.3613
▁Mine	-11.3613
▁Yama	-11.3615
▁Chelsea	-11.3615
▁Nevada	-11.3615
▁senator	-11.3616
▁logo	-11.362
▁virtue	-11.362
▁Think	-11.3621
▁extends	-11.3624
▁Raj	-11.3624
▁Mercury	-11.3625
▁Crime	-11.3626
▁critically	-11.3626
▁massacre	-11.3628
▁rays	-11.363
▁loaded	-11.363
▁rebel	-11.3631
wy	-11.3631
▁complexity	-11.3632
▁bush	-11.3632
▁centered	-11.3632
▁quarters	-11.3633
▁viral	-11.3633
▁implications	-11.3635
▁Danny	-11.3635
▁Palestine	-11.3635
▁troop	-11.3637
▁hint	-11.3637
▁Serbian	-11.3637
▁Resident	-11.3638
▁den	-11.3638
▁pleased	-11.3639
▁millions	-11.3639
▁dia	-11.364
▁ser	-11.3642
▁welfare	-11.3645
▁gases	-11.3645
▁corps	-11.3645
▁Julian	-11.3646
▁shapes	-11.3647
▁numbered	-11.3649
▁carved	-11.365
nor	-11.3653
▁Turn	-11.3654
▁planted	-11.3655
ced	-11.3659
▁Riv	-11.366
▁Arabic	-11.3661
-8	-11.3661
▁outfit	-11.3661
▁calendar	-11.3663
LC	-11.3665
▁02	-11.3665
▁orientation	-11.3665
▁Nat	-11.3668
ifies	-11.3668
▁radius	-11.3668
▁Chen	-11.3669
▁knocked	-11.367
▁ballot	-11.3673
▁Bulgarian	-11.3674
▁weigh	-11.3674
DR	-11.3675
quet	-11.3675
gene	-11.3677
cum	-11.3677
▁lyrical	-11.3679
▁Representatives	-11.3679
▁promising	-11.368
▁mere	-11.3686
▁whales	-11.3686
▁corridor	-11.3693
▁Monster	-11.3693
▁1862	-11.3694
▁1864	-11.3695
▁Parsons	-11.3698
mill	-11.3699
mé	-11.3702
east	-11.3703
▁jail	-11.3705
▁accidentally	-11.3707
▁Pete	-11.3708
▁Kids	-11.3708
▁distress	-11.3708
▁imagination	-11.3711
▁Region	-11.3712
▁enterprise	-11.3713
▁1885	-11.3719
▁Price	-11.372
gli	-11.372
▁profession	-11.3721
eries	-11.3722
▁adoption	-11.3723
▁AIDS	-11.3723
▁ecosystem	-11.3723
▁wheat	-11.3724
▁rescued	-11.3724
▁Baltic	-11.3724
▁Lind	-11.3725
▁Policy	-11.3726
▁boot	-11.3727
▁hypo	-11.3731
▁parking	-11.3734
▁Tyler	-11.3737
igan	-11.3738
▁Ry	-11.3738
▁manufacturers	-11.3739
▁warrant	-11.3741
▁tou	-11.3742
▁Len	-11.3742
▁commanders	-11.3742
▁Environment	-11.3745
▁Industrial	-11.3745
▁cooling	-11.3746
▁ears	-11.3747
▁oak	-11.3748
▁embarked	-11.375
▁breeds	-11.3753
а	-11.3754
▁2021	-11.3754
▁enforcement	-11.3755
▁Cardiff	-11.3757
▁murdered	-11.3757
▁109	-11.3757
▁Gregory	-11.3759
▁Strait	-11.376
▁reactor	-11.3764
▁turtle	-11.3764
▁Eye	-11.3764
▁finals	-11.3765
▁dragon	-11.3765
▁fragments	-11.3765
▁endangered	-11.3769
▁tin	-11.377
▁AP	-11.3771
▁vicinity	-11.3774
▁Ei	-11.3776
▁dancers	-11.3777
▁Berg	-11.3778
▁permanently	-11.3778
▁indication	-11.378
▁Additional	-11.3781
▁Py	-11.3782
▁insight	-11.3783
▁palm	-11.3785
▁Omar	-11.3787
▁jam	-11.3793
▁mutual	-11.3794
▁verses	-11.3794
▁carriage	-11.3794
▁reserves	-11.38
New	-11.3802
phon	-11.3802
aver	-11.3802
▁py	-11.3802
▁borders	-11.3803
▁Chu	-11.3805
▁shopping	-11.3806
▁spill	-11.3806
hara	-11.3807
say	-11.3807
▁circles	-11.3807
▁girlfriend	-11.3807
▁Greatest	-11.3809
▁Sean	-11.3811
▁Ellis	-11.3814
etti	-11.3815
▁slot	-11.3815
▁steadily	-11.3815
▁Orthodox	-11.3817
▁monthly	-11.3818
▁Direct	-11.3823
mper	-11.3824
ctor	-11.3824
▁Delta	-11.3825
▁ward	-11.3827
▁contracts	-11.3828
▁Treatment	-11.3829
▁BCE	-11.3829
▁Viking	-11.3832
pl	-11.3834
▁Lau	-11.3834
▁Ton	-11.3834
▁ensuring	-11.3835
▁generator	-11.3836
▁conviction	-11.384
zing	-11.3841
▁drainage	-11.3842
▁exceed	-11.3845
▁Ji	-11.3846
▁liner	-11.3847
court	-11.3852
nant	-11.3858
▁honey	-11.3859
▁1840	-11.3859
▁mold	-11.3861
▁Taiwan	-11.3861
▁111	-11.3864
▁Gill	-11.3865
▁fires	-11.3866
▁plaque	-11.3869
▁tracked	-11.387
▁geographical	-11.3871
▁weakening	-11.3872
▁Princeton	-11.3872
▁cri	-11.3873
▁patch	-11.3873
▁clergy	-11.3874
▁intact	-11.3874
▁dialect	-11.3877
▁compact	-11.3878
▁disabled	-11.3879
▁AA	-11.388
æ	-11.388
▁reduces	-11.3881
post	-11.3885
▁emphasize	-11.3885
▁Pole	-11.3887
ui	-11.3888
▁Strong	-11.389
state	-11.3893
▁conjunction	-11.3895
fold	-11.3896
▁respiratory	-11.3897
▁deployment	-11.3902
▁quest	-11.3902
▁learns	-11.3903
▁Leaf	-11.3904
▁determining	-11.3905
count	-11.3907
▁Yellow	-11.3907
clo	-11.3908
▁locate	-11.3908
▁gal	-11.3908
▁Continental	-11.3908
▁quantum	-11.391
▁vent	-11.391
▁integration	-11.391
▁frontier	-11.3912
▁Whether	-11.3912
▁twentieth	-11.3912
▁rings	-11.3915
▁axis	-11.3917
▁Round	-11.3917
oke	-11.3919
▁Put	-11.392
▁offshore	-11.392
▁revision	-11.3921
▁insufficient	-11.3923
▁speeds	-11.3924
▁symbolic	-11.3924
imi	-11.3925
▁Beth	-11.3925
▁tasked	-11.3927
bet	-11.3931
▁neo	-11.3931
▁Remember	-11.3931
▁Weather	-11.3933
▁edges	-11.3935
▁ghost	-11.3936
▁ri	-11.3937
▁cubic	-11.3938
▁Genesis	-11.3942
▁mg	-11.3943
▁Mile	-11.3944
att	-11.3944
▁450	-11.3944
▁Stage	-11.3946
▁Rhodes	-11.3947
▁coordinate	-11.3947
▁addiction	-11.395
CD	-11.3952
▁dissolved	-11.3952
▁Fear	-11.3954
▁Tip	-11.3956
▁witnessed	-11.3956
▁encouraging	-11.3956
▁trends	-11.3959
▁reflects	-11.3959
▁Style	-11.3959
▁Commissioner	-11.3963
▁Fre	-11.3965
▁Similar	-11.3966
▁advantages	-11.3967
CE	-11.3968
dle	-11.397
ulating	-11.3972
▁machinery	-11.3973
bha	-11.3975
▁mechanics	-11.3976
▁behaviors	-11.3978
▁Researchers	-11.398
▁Bab	-11.3981
▁attachment	-11.3982
▁essays	-11.3988
kha	-11.3989
▁Miles	-11.3989
▁Bour	-11.3989
▁archive	-11.3989
▁guests	-11.3991
▁HD	-11.3992
amine	-11.3992
▁ambassador	-11.3998
▁Boeing	-11.3998
▁particle	-11.3999
▁sings	-11.3999
▁manufacture	-11.4
▁Stalin	-11.4001
▁IP	-11.4002
▁PS	-11.4004
brook	-11.4006
▁Rogers	-11.4008
▁upward	-11.4009
▁Got	-11.4014
▁coral	-11.4015
▁connects	-11.4017
▁Lea	-11.4018
▁propose	-11.4018
▁admission	-11.4019
▁commenting	-11.4023
▁1863	-11.4023
▁Pol	-11.4024
о	-11.4024
▁multiplayer	-11.4024
▁preceding	-11.4024
uki	-11.4026
▁Hel	-11.4026
▁Dennis	-11.4027
▁helicopter	-11.4029
▁cement	-11.4029
▁Chester	-11.403
▁Nou	-11.403
▁Oct	-11.403
▁writings	-11.403
▁(2)	-11.4031
▁Hat	-11.4032
▁Living	-11.4035
stock	-11.4036
▁parliamentary	-11.4036
eli	-11.4037
▁u	-11.4039
▁Besides	-11.404
▁opens	-11.404
▁successive	-11.4041
@	-11.4042
▁Intelligence	-11.4042
▁Culture	-11.4043
▁Nobel	-11.4045
aur	-11.4047
▁controller	-11.4047
▁occurrence	-11.4047
▁Herbert	-11.4048
▁Java	-11.4049
▁crashed	-11.405
▁Kur	-11.405
▁triangle	-11.405
▁blues	-11.405
▁Emma	-11.4051
▁investigated	-11.4052
▁Things	-11.4058
▁Malcolm	-11.4058
▁livestock	-11.4059
▁Zoo	-11.4067
▁painful	-11.4068
▁Eddie	-11.4069
▁Solomon	-11.4071
▁continental	-11.4072
▁Barnes	-11.4074
▁Constantinople	-11.4074
gun	-11.4076
▁Andrea	-11.4077
▁suited	-11.4082
▁Caesar	-11.4084
▁isolation	-11.4084
▁variant	-11.4085
▁airing	-11.4086
rine	-11.4089
vir	-11.4089
▁Bha	-11.4089
▁Pac	-11.409
▁choir	-11.4091
▁rider	-11.4093
▁convicted	-11.4096
▁Arkansas	-11.4097
▁Drake	-11.4099
▁remind	-11.41
▁conductor	-11.41
▁Edmund	-11.41
esis	-11.4104
boy	-11.4108
▁Cavalry	-11.4108
▁Travel	-11.411
▁courage	-11.411
▁Circle	-11.4111
▁Rom	-11.4113
space	-11.4114
▁comparable	-11.4116
▁excited	-11.4116
▁rounded	-11.4116
lier	-11.4116
▁forth	-11.4117
▁Sep	-11.4117
▁blockade	-11.4118
eman	-11.4122
▁Kyle	-11.4123
▁Brooklyn	-11.4124
▁depicting	-11.4124
▁witnesses	-11.4125
▁preservation	-11.4129
▁ashore	-11.413
▁Formation	-11.4135
▁speakers	-11.4135
▁administrator	-11.4137
▁contrary	-11.4138
▁Holland	-11.4139
▁Store	-11.414
▁licensed	-11.4144
▁slower	-11.4144
▁romance	-11.4145
▁nationalist	-11.4145
▁merit	-11.4146
▁Sonic	-11.4146
▁1:	-11.4146
Mar	-11.4146
▁tickets	-11.4147
idi	-11.415
▁chapters	-11.4151
▁profound	-11.4151
▁sinking	-11.4151
cel	-11.4152
▁plug	-11.4152
▁peer	-11.4152
▁belong	-11.4157
▁positioned	-11.4157
▁lecture	-11.416
▁insist	-11.4161
▁lava	-11.4164
▁apple	-11.4166
dict	-11.4167
▁incidents	-11.4169
▁buying	-11.4174
▁knock	-11.4174
▁Volume	-11.4174
shed	-11.4177
page	-11.4177
▁analyze	-11.4178
mba	-11.4178
▁defect	-11.4181
▁Reed	-11.4181
▁Mai	-11.4181
▁heavier	-11.4182
▁ethical	-11.4182
▁Coll	-11.4182
gua	-11.4184
▁propaganda	-11.4184
▁Florence	-11.4185
▁tourists	-11.4187
▁pas	-11.4188
▁VIII	-11.4188
▁imported	-11.4189
▁interference	-11.419
▁Ted	-11.419
▁logic	-11.4191
▁~	-11.4193
▁Northwest	-11.4193
▁politician	-11.4196
▁literacy	-11.4198
▁monastery	-11.42
▁norm	-11.4201
▁sink	-11.4202
SP	-11.4202
birds	-11.4202
▁Symphony	-11.4203
▁Kenneth	-11.4203
▁www	-11.4203
▁Days	-11.4203
▁Critical	-11.4207
▁Chile	-11.4211
▁Publishing	-11.4211
▁Working	-11.4214
dication	-11.4216
▁pioneer	-11.4217
▁MacArthur	-11.4219
▁Territory	-11.4219
▁seemingly	-11.4219
uel	-11.4219
▁naming	-11.422
▁till	-11.422
▁rains	-11.4221
▁screenplay	-11.4223
▁gla	-11.4223
▁₹	-11.4224
▁Face	-11.4225
▁editing	-11.4225
▁warships	-11.4227
▁Thames	-11.4227
alis	-11.4227
▁optical	-11.4231
▁Mini	-11.4232
rp	-11.4234
▁Ful	-11.4236
▁Pack	-11.4236
wel	-11.4237
▁COVID	-11.4238
▁progressed	-11.4238
▁demonstration	-11.424
▁Oil	-11.4244
▁hum	-11.425
▁AL	-11.4252
▁tourism	-11.4254
▁playoff	-11.4254
▁Cloud	-11.4254
▁dramatically	-11.4255
▁achievements	-11.4256
-20	-11.4256
▁McG	-11.4259
α	-11.4259
▁twist	-11.426
▁Shadow	-11.4264
▁colon	-11.4267
▁condemned	-11.4268
lite	-11.4271
pla	-11.4271
yard	-11.4275
▁fake	-11.4275
▁Clara	-11.4275
▁overlap	-11.428
▁transmitted	-11.4284
▁authentic	-11.4286
▁Isle	-11.4287
▁Wildlife	-11.4288
lyn	-11.4293
▁charted	-11.4295
▁wisdom	-11.4296
▁wise	-11.4297
▁tends	-11.4298
ographer	-11.43
▁Historian	-11.4301
▁deliberately	-11.4303
▁listing	-11.4305
▁holy	-11.4306
DI	-11.4308
▁Rush	-11.4311
▁assassination	-11.4312
▁deputy	-11.4312
ocyt	-11.4313
▁Claire	-11.4313
▁wishes	-11.4313
▁reinforce	-11.4314
▁reporter	-11.4315
▁Orchestra	-11.4315
▁mess	-11.4315
osphere	-11.4316
known	-11.4318
▁rat	-11.4318
▁Curtis	-11.4319
▁220	-11.4319
▁Brand	-11.432
▁phenomena	-11.432
▁Various	-11.4321
llo	-11.4323
hun	-11.4323
▁swept	-11.4323
▁stern	-11.4323
▁Evil	-11.4324
▁seasonal	-11.4325
aro	-11.4325
pal	-11.4327
udi	-11.4328
▁accurately	-11.4328
▁treasure	-11.433
▁Zu	-11.4331
▁determination	-11.4335
▁Renaissance	-11.4337
▁Sleep	-11.4337
▁differently	-11.4337
ienne	-11.4337
▁102	-11.4343
▁defenders	-11.4343
▁Venus	-11.4344
such	-11.4344
If	-11.4344
▁horn	-11.4345
▁Canyon	-11.4349
▁regulate	-11.4349
wind	-11.4349
▁extraordinary	-11.435
script	-11.435
▁cemetery	-11.4353
▁pyramid	-11.4353
▁floating	-11.4353
▁tornado	-11.4354
▁abundance	-11.4355
▁psychology	-11.4356
lick	-11.4356
▁hang	-11.4356
▁relay	-11.4357
▁underwater	-11.4359
▁Self	-11.436
▁Lòt	-11.4364
▁chantè	-11.4365
▁indicator	-11.4366
▁avoiding	-11.4371
▁descendants	-11.4372
uan	-11.4372
▁sleeping	-11.4375
▁coastline	-11.4375
saw	-11.4376
▁acceptable	-11.4378
▁resemble	-11.4379
▁Wagner	-11.438
St	-11.438
▁weakness	-11.4382
▁compensation	-11.4385
▁routing	-11.4385
▁Hood	-11.4386
▁combine	-11.4388
▁darker	-11.439
▁1830	-11.4391
▁plea	-11.4391
▁variables	-11.4391
▁Gran	-11.4392
▁Gr	-11.4393
▁asserted	-11.4393
▁antye	-11.4394
▁Santo	-11.4395
▁ambition	-11.4396
▁encounters	-11.4398
▁woodland	-11.4399
▁Brook	-11.4399
▁Airlines	-11.4403
▁neutron	-11.4404
▁proceed	-11.4407
▁balanced	-11.4407
▁ascend	-11.4407
▁Pel	-11.4409
▁automatic	-11.4409
▁Tribune	-11.441
ress	-11.4415
▁guess	-11.4418
weight	-11.4419
▁Denis	-11.4419
5,000	-11.4421
▁Archbishop	-11.4423
▁ferry	-11.4426
▁deficit	-11.4426
▁rivals	-11.4426
▁rushing	-11.4427
▁flexible	-11.4429
▁darkness	-11.4429
▁sunlight	-11.443
▁Eagle	-11.4432
▁pushing	-11.4432
▁marched	-11.4434
▁SP	-11.4434
▁fitting	-11.4434
▁rent	-11.4435
For	-11.4436
▁metre	-11.444
▁cyclones	-11.4441
cover	-11.4441
▁Ky	-11.4442
got	-11.4442
▁sentences	-11.4443
EL	-11.4445
real	-11.4445
▁revealing	-11.4446
▁Ask	-11.4447
▁simulation	-11.4448
▁bowler	-11.445
▁mixing	-11.4452
▁favored	-11.4452
▁Political	-11.4453
Be	-11.4453
▁ceremonies	-11.4456
▁juice	-11.4457
pil	-11.4459
▁conspiracy	-11.4461
▁nephew	-11.4461
▁informal	-11.4462
▁rope	-11.4462
▁pronounced	-11.4462
▁possessed	-11.4463
You	-11.4463
▁Marshal	-11.4465
maker	-11.4467
▁aft	-11.4469
▁keeps	-11.4469
▁globe	-11.4469
oci	-11.4471
▁secular	-11.4472
▁compositions	-11.4473
▁operator	-11.4477
responsibilities	-11.4478
▁Bran	-11.4478
▁Crystal	-11.448
kins	-11.4485
▁immigration	-11.4486
▁decoration	-11.4486
anti	-11.4486
tig	-11.4487
.9	-11.4489
▁Morning	-11.449
▁curved	-11.4491
▁Fran	-11.4491
▁relieved	-11.4491
▁Bradley	-11.4493
▁announce	-11.4495
▁abnormal	-11.4496
▁Consequently	-11.4497
▁Gibraltar	-11.4497
▁Friedrich	-11.4497
▁Devon	-11.4498
▁Than	-11.4499
fici	-11.45
gio	-11.4502
▁belonged	-11.4504
▁Holocaust	-11.4505
▁Syn	-11.4509
ounce	-11.451
▁cliff	-11.4511
▁Grave	-11.4511
▁----	-11.4511
▁digit	-11.4513
▁fatigue	-11.4513
▁Adrian	-11.4515
▁airborne	-11.4515
▁Sau	-11.4515
▁Draft	-11.4516
▁motif	-11.4516
▁ERA	-11.4517
▁DJ	-11.4518
▁IN	-11.4521
▁Miguel	-11.4521
▁monkey	-11.4522
▁Panzer	-11.4522
▁Photo	-11.4523
▁mentions	-11.4524
▁Ronald	-11.4524
its	-11.4526
▁tre	-11.4526
▁disability	-11.4528
▁defendant	-11.4528
▁separately	-11.4529
▁Milan	-11.4531
1,	-11.4531
▁Rear	-11.4532
▁comprising	-11.4532
▁projected	-11.4532
-18	-11.4537
▁confined	-11.4539
▁contacted	-11.4548
▁proximity	-11.4549
▁Liber	-11.4549
▁Diet	-11.4553
▁poisoning	-11.4554
▁Apart	-11.4554
èk	-11.4556
gui	-11.4557
▁Revolutionary	-11.4558
▁headache	-11.456
▁mac	-11.4561
▁Cad	-11.4562
▁applying	-11.4563
-6	-11.4563
Ar	-11.4564
▁pu	-11.4564
▁Watson	-11.4566
▁internationally	-11.4568
▁bout	-11.457
▁blamed	-11.4571
▁accounting	-11.4571
▁accordance	-11.4571
▁grants	-11.4575
▁introducing	-11.4576
▁freely	-11.4578
▁Palestinian	-11.4579
▁finest	-11.458
▁martial	-11.4582
▁namely	-11.4584
AA	-11.4586
▁battlefield	-11.4588
▁accommodation	-11.459
▁Color	-11.4591
▁dealt	-11.4594
▁Gospel	-11.4596
gov	-11.46
▁Boulevard	-11.4601
▁layout	-11.4604
▁Desert	-11.4605
▁electrons	-11.4606
http	-11.4606
uka	-11.4607
300	-11.4608
▁preliminary	-11.4609
▁Heaven	-11.461
▁disappointed	-11.4612
▁Found	-11.4614
▁worried	-11.4618
▁Chamberlain	-11.4621
▁Olivia	-11.4623
▁Task	-11.4624
▁qualification	-11.4626
▁logical	-11.4626
hawk	-11.4627
oso	-11.4627
▁minimize	-11.4629
▁Blake	-11.4629
▁equality	-11.4634
▁Blanc	-11.4635
▁relied	-11.4637
▁Block	-11.4637
▁fears	-11.4637
dell	-11.464
▁planting	-11.4643
eva	-11.4646
▁duck	-11.4646
▁temples	-11.4653
▁insulin	-11.4654
▁Ltd	-11.4655
▁teammate	-11.4655
throp	-11.4656
▁demanding	-11.4657
hin	-11.4657
▁highlights	-11.4658
▁Et	-11.4663
▁headline	-11.4666
▁tribal	-11.4666
▁fragment	-11.4667
▁dump	-11.4667
200	-11.4668
▁Eva	-11.467
▁Actress	-11.4674
▁squadrons	-11.4676
ota	-11.4678
▁punch	-11.4678
▁Æthel	-11.4682
▁Meyer	-11.4682
▁CS	-11.4682
▁Caroline	-11.4684
▁obesity	-11.4687
▁fierce	-11.4687
▁proclaimed	-11.4689
▁slope	-11.4689
▁Berkeley	-11.469
▁metaphor	-11.469
▁wages	-11.4691
▁bomber	-11.4691
TM	-11.4692
sezon	-11.4695
▁Which	-11.4696
▁Train	-11.4696
orn	-11.4696
▁coalition	-11.4699
lk	-11.4701
▁val	-11.4709
▁Titan	-11.4711
▁Guild	-11.4711
▁Almost	-11.4712
▁Kaiser	-11.4713
▁escorted	-11.4714
level	-11.4714
▁arrow	-11.4715
▁Santiago	-11.4718
▁washed	-11.4719
▁Agriculture	-11.4721
▁Serbia	-11.4723
▁concentrate	-11.4723
▁Spi	-11.4723
-12	-11.4724
▁functioning	-11.4728
▁OS	-11.4729
▁babies	-11.4729
▁attributes	-11.4731
▁Beijing	-11.4735
▁FIFA	-11.4735
▁Hey	-11.4735
▁Systems	-11.4738
▁spark	-11.474
▁lend	-11.474
▁Butler	-11.474
▁bike	-11.474
▁accent	-11.474
▁manufacturer	-11.4741
▁continuously	-11.4742
▁gains	-11.4744
▁1886	-11.4747
▁clause	-11.4749
▁Foster	-11.4751
rug	-11.4751
▁golf	-11.4755
▁Vic	-11.4756
ao	-11.4758
▁walks	-11.476
word	-11.4761
▁Mou	-11.4761
▁Fanm	-11.4762
What	-11.4764
▁Otto	-11.4766
▁Member	-11.4767
▁regain	-11.4767
aut	-11.4768
▁Kid	-11.4768
▁turbines	-11.4769
▁tv	-11.477
▁Eli	-11.4771
bell	-11.4773
▁productive	-11.4774
▁Fifth	-11.4774
▁hormone	-11.4781
had	-11.4783
▁Westminster	-11.4783
▁Stanford	-11.4783
fect	-11.4784
cop	-11.4784
▁rugby	-11.4785
▁Theodore	-11.4787
iter	-11.4787
glo	-11.4788
▁Newcastle	-11.4788
▁genera	-11.4789
▁1887	-11.4789
eno	-11.4792
IG	-11.4792
foot	-11.4794
▁Sox	-11.4794
▁persistent	-11.4794
▁dans	-11.4796
▁Path	-11.4797
▁filling	-11.4799
dog	-11.48
▁Tr	-11.4801
▁ji	-11.4801
▁Bin	-11.4802
▁Gothic	-11.4805
▁Scientific	-11.4808
▁⁄	-11.4808
▁Bass	-11.481
▁placement	-11.481
▁contributor	-11.4811
▁threaten	-11.4811
lets	-11.4811
▁mansion	-11.4812
▁Mobile	-11.4813
tech	-11.4813
▁Him	-11.4815
▁utilize	-11.4816
▁oswa	-11.4816
▁instances	-11.4817
▁Gui	-11.4819
▁Jen	-11.4821
▁enrolled	-11.4821
▁Money	-11.4821
▁exploring	-11.4822
▁scales	-11.4824
▁equation	-11.4825
pul	-11.4828
▁Sci	-11.483
▁Wang	-11.4831
▁bills	-11.4831
Do	-11.4832
▁intensive	-11.4833
▁panic	-11.4833
rance	-11.4834
▁prohibited	-11.4835
his	-11.4837
color	-11.4838
▁collaborated	-11.4838
▁spreading	-11.4838
▁volcano	-11.4839
▁Analysis	-11.4842
▁Comedy	-11.4843
▁laps	-11.4844
oun	-11.4845
▁CH	-11.4845
iko	-11.4846
▁bench	-11.4846
▁Corn	-11.4847
▁trunk	-11.4849
▁Allah	-11.485
▁stunt	-11.485
▁Mail	-11.4851
▁rulers	-11.4852
ific	-11.4854
ulator	-11.4855
hart	-11.4855
▁Marines	-11.4856
▁sufficiently	-11.4857
▁uprising	-11.4859
▁illustrations	-11.4861
▁hy	-11.4869
▁lamp	-11.4869
▁utilized	-11.4871
▁elementary	-11.4873
opa	-11.4873
▁NC	-11.4874
▁mortar	-11.4874
▁monster	-11.4875
▁shipped	-11.4878
ddle	-11.4878
▁vin	-11.4879
▁timing	-11.4879
▁Clear	-11.4881
▁Ottawa	-11.4881
chron	-11.4885
▁Bengal	-11.4886
▁Mercedes	-11.4887
▁implant	-11.4887
AF	-11.489
▁Venice	-11.4891
mand	-11.4891
▁Chang	-11.4893
▁enzyme	-11.4894
▁showcase	-11.4895
▁Leader	-11.49
▁barely	-11.4902
▁angel	-11.4905
flu	-11.4906
▁drives	-11.4906
▁mimic	-11.4907
▁ye	-11.4907
▁drift	-11.4909
▁Stop	-11.4911
▁onset	-11.4912
▁keen	-11.4912
▁statute	-11.4913
▁complaints	-11.4913
▁homeless	-11.4915
EM	-11.4915
▁Individual	-11.4916
▁latitude	-11.4916
▁inspection	-11.4916
▁Panama	-11.4917
▁loyalty	-11.4917
▁Rag	-11.4917
▁Denver	-11.492
▁resignation	-11.4924
▁exhibited	-11.4926
▁autism	-11.4927
▁1876	-11.4929
▁wounds	-11.4929
▁bold	-11.4931
ente	-11.4933
▁reproduction	-11.4934
▁sponsor	-11.4934
▁reproductive	-11.4936
rina	-11.4938
▁disadvantage	-11.4938
▁bacterial	-11.4939
▁emotion	-11.4939
▁Steam	-11.494
▁Cincinnati	-11.4941
won	-11.4944
▁epidemic	-11.4946
eff	-11.4949
▁Burn	-11.4949
▁advocate	-11.4949
▁$1	-11.4951
▁Anton	-11.4951
▁Scientists	-11.4957
▁pandemic	-11.4958
▁undergraduate	-11.4958
▁tro	-11.4961
TE	-11.4964
makers	-11.4964
▁Metal	-11.4967
▁broader	-11.4967
▁sodium	-11.4968
▁marginal	-11.4969
▁pulse	-11.497
▁substantially	-11.4971
▁drill	-11.4973
▁Romney	-11.4973
Brien	-11.4977
▁surgeon	-11.4978
▁hate	-11.4982
▁unexpected	-11.4982
▁Yugoslavia	-11.4983
▁interactive	-11.4985
▁politically	-11.4985
▁agrees	-11.4987
▁boyfriend	-11.4987
▁diagram	-11.4987
▁probe	-11.4988
▁meals	-11.499
▁Jin	-11.4993
▁invitation	-11.4993
▁Sav	-11.4998
▁Vegas	-11.4999
▁sailors	-11.5002
▁researcher	-11.5004
▁trips	-11.5004
note	-11.5004
▁sophisticated	-11.5004
▁peers	-11.5007
lag	-11.5008
▁urine	-11.5018
▁ambitious	-11.5019
▁Hence	-11.5019
▁rub	-11.5023
▁relate	-11.5025
buck	-11.5028
▁Mul	-11.5029
▁processed	-11.5029
▁Trinity	-11.503
▁Romanian	-11.5032
uro	-11.5034
▁referee	-11.5035
▁fusion	-11.5035
▁Ghost	-11.5039
▁Sierra	-11.5039
▁incomplete	-11.5043
▁sensitivity	-11.5047
▁Banks	-11.5047
▁Marx	-11.5048
ingham	-11.5048
case	-11.5048
▁flown	-11.505
IR	-11.5051
▁rubber	-11.5051
▁Colin	-11.5052
▁Challenge	-11.5053
▁Cab	-11.5054
▁rape	-11.5055
▁mentor	-11.5055
PO	-11.5058
iform	-11.5059
fre	-11.5059
version	-11.506
▁clients	-11.506
▁LP	-11.506
▁Bloom	-11.5062
PD	-11.5063
▁Springfield	-11.5064
▁Crow	-11.5064
▁Pay	-11.5067
▁Esp	-11.5068
▁Louise	-11.507
▁Comb	-11.5071
▁facial	-11.5071
▁deals	-11.5075
▁investors	-11.5076
▁cameras	-11.5077
exp	-11.5078
▁Martha	-11.5078
▁revenge	-11.5079
▁Brain	-11.508
▁Members	-11.5084
▁Rh	-11.5084
▁accidents	-11.5085
▁swallow	-11.5085
▁halt	-11.509
▁Ellen	-11.5092
▁1884	-11.5094
grade	-11.5096
cot	-11.5096
therapy	-11.5096
▁terrorist	-11.5096
tie	-11.5097
pass	-11.5097
▁galaxy	-11.51
▁cheese	-11.51
▁tired	-11.5101
▁chant	-11.5101
▁sustain	-11.5102
aux	-11.5102
▁float	-11.5103
▁wartime	-11.5103
▁termed	-11.5105
▁competitions	-11.5106
▁tire	-11.5107
issa	-11.5107
▁batted	-11.5111
▁Animal	-11.5111
▁Leicester	-11.5111
agon	-11.5112
tell	-11.5114
▁Columbus	-11.5114
TH	-11.5115
▁tables	-11.5115
▁resistant	-11.5116
nut	-11.5117
moto	-11.5119
▁Glass	-11.5122
▁dé	-11.5122
▁assert	-11.5126
▁dawn	-11.5126
▁Jake	-11.5127
▁gates	-11.513
dian	-11.5135
▁pond	-11.514
▁journalists	-11.5141
CL	-11.5143
▁attitudes	-11.5144
▁profits	-11.5145
▁RE	-11.5145
▁Comment	-11.5147
▁genuine	-11.5147
▁Lion	-11.5147
▁Adventure	-11.5153
▁inaugural	-11.5155
▁Southeast	-11.5155
▁Pick	-11.5158
▁Clan	-11.5159
▁Nam	-11.5159
▁switched	-11.5159
▁guided	-11.5159
▁strengthening	-11.5162
▁Drug	-11.5167
▁genres	-11.5167
▁suggestions	-11.5168
▁whenever	-11.5168
▁Student	-11.5172
linger	-11.5172
▁missile	-11.5173
tour	-11.5174
turn	-11.5176
ott	-11.5177
oka	-11.5178
bird	-11.5178
▁bars	-11.5178
▁remake	-11.5181
▁tolerance	-11.5182
lusion	-11.5182
▁veterans	-11.5183
cate	-11.5185
▁boxes	-11.5186
▁basically	-11.5187
▁aviation	-11.5187
▁Generation	-11.5188
▁trio	-11.5188
para	-11.5189
▁hind	-11.5189
▁feminist	-11.519
▁allied	-11.5191
▁awake	-11.5193
▁nearest	-11.5196
▁cabin	-11.5196
▁thrust	-11.5196
▁publicity	-11.5196
▁Vin	-11.5198
и	-11.5199
▁Monument	-11.5199
▁northeastern	-11.5201
▁Vienna	-11.5202
Ba	-11.5202
▁capability	-11.5204
ality	-11.5204
▁SH	-11.5206
▁Swan	-11.5206
▁Single	-11.5207
▁delegates	-11.5207
▁Sue	-11.5208
▁Tommy	-11.521
▁Ferdinand	-11.5211
▁philosophical	-11.5211
break	-11.5213
▁potassium	-11.5214
▁strings	-11.5214
cott	-11.5216
bur	-11.5217
▁united	-11.5226
core	-11.5226
▁une	-11.5227
▁drops	-11.5227
▁attain	-11.5228
▁heal	-11.5229
▁fitness	-11.523
▁fond	-11.5231
▁tours	-11.5236
fight	-11.5236
▁scratch	-11.5237
▁unity	-11.5238
olog	-11.5239
▁Duncan	-11.5241
▁Hawaiian	-11.5243
▁Hispanic	-11.5243
▁Malta	-11.5244
tum	-11.5249
▁lengthy	-11.5249
▁Beyond	-11.5249
▁ash	-11.525
OD	-11.525
▁median	-11.5252
▁counsel	-11.5252
▁populated	-11.5253
▁canon	-11.5254
mount	-11.5257
▁injection	-11.5258
▁organisations	-11.5259
▁Glee	-11.526
▁Alt	-11.5263
▁zinc	-11.5267
▁robust	-11.5267
▁Laurent	-11.5267
▁captive	-11.5267
▁Select	-11.5267
bl	-11.5269
▁Hearts	-11.5269
▁Hir	-11.5269
▁bro	-11.527
▁retreated	-11.527
▁develops	-11.5271
▁Clement	-11.5273
▁Julie	-11.5273
▁Richardson	-11.5273
▁delegation	-11.5276
▁dish	-11.5277
hoe	-11.5279
▁Give	-11.528
▁grape	-11.5282
▁suppress	-11.5283
uld	-11.5284
inal	-11.5284
▁bleeding	-11.5284
▁unaware	-11.5285
▁provider	-11.5285
▁emphasized	-11.5287
▁mounts	-11.5287
text	-11.5288
▁pill	-11.5294
LO	-11.5297
▁Sco	-11.5298
▁pray	-11.5298
▁nursing	-11.5299
▁1875	-11.5301
▁stuck	-11.5302
")	-11.5303
▁au	-11.5303
▁appoint	-11.5303
▁chromosome	-11.5305
▁probability	-11.5308
▁hanging	-11.5311
▁lifted	-11.5312
cla	-11.5314
▁Austro	-11.5315
achi	-11.5316
cephal	-11.5317
▁Josh	-11.5317
▁Often	-11.5319
▁cholesterol	-11.532
▁imaging	-11.5321
zzi	-11.5322
▁shrub	-11.5323
▁Universe	-11.5324
ł	-11.5324
oxy	-11.5325
▁motivated	-11.5325
▁Nothing	-11.5327
dos	-11.5327
▁Poll	-11.5327
ury	-11.5327
▁medals	-11.533
▁Leeds	-11.533
▁nucleus	-11.533
▁Malay	-11.5331
EF	-11.5333
▁Principal	-11.5333
ggle	-11.5335
▁possibilities	-11.5335
trans	-11.5335
▁owing	-11.5337
pay	-11.5338
▁Aaron	-11.5338
zel	-11.5338
▁smallest	-11.5339
▁Bangladesh	-11.5341
▁atop	-11.5342
▁prone	-11.5345
▁bas	-11.5345
▁prompting	-11.5346
▁Hopkins	-11.5347
▁directing	-11.5347
▁aided	-11.5348
▁Hip	-11.5349
2)	-11.535
▁balls	-11.535
▁Hull	-11.5352
▁summary	-11.5353
▁Easter	-11.5353
▁productivity	-11.5354
ML	-11.5355
▁southwestern	-11.5356
▁onwards	-11.5357
▁pride	-11.5358
▁Merc	-11.536
▁Cox	-11.5361
▁1881	-11.5361
▁installment	-11.5361
▁Glasgow	-11.5362
▁ram	-11.5362
▁posed	-11.5363
▁Normandy	-11.5363
▁pounder	-11.5364
▁vocalist	-11.5364
▁Kre	-11.5365
▁reluctant	-11.5366
▁gallery	-11.5368
▁antagonist	-11.5371
▁trademark	-11.5372
▁thank	-11.5377
▁Jennifer	-11.5377
NI	-11.5377
▁editions	-11.5381
▁developer	-11.5385
▁ensemble	-11.5386
▁Map	-11.5386
ished	-11.5387
▁restaurants	-11.5389
smith	-11.5389
▁coupled	-11.539
▁Delhi	-11.5391
▁needle	-11.5394
rice	-11.5395
▁1871	-11.5395
▁lens	-11.5403
print	-11.5403
▁Edgar	-11.5403
asse	-11.5403
▁Choice	-11.5404
▁wool	-11.5405
▁editorial	-11.5406
evi	-11.5408
hab	-11.5409
▁Helm	-11.5409
▁coaches	-11.5409
▁contents	-11.5411
▁marble	-11.5413
▁larvae	-11.5416
▁distances	-11.5416
▁cope	-11.5418
▁René	-11.5419
lain	-11.5422
▁surgical	-11.5425
▁Gross	-11.5425
▁Cena	-11.5425
▁surprising	-11.5426
▁Theater	-11.5427
▁faction	-11.5427
▁eighteen	-11.5428
▁Sale	-11.5429
▁vocabulary	-11.5431
NG	-11.5433
pid	-11.5433
▁afraid	-11.5434
▁ruins	-11.5434
▁Albany	-11.5434
▁Twin	-11.5435
▁tide	-11.5435
▁cameo	-11.5435
▁canceled	-11.5435
▁crater	-11.5437
▁Millennium	-11.544
▁Truth	-11.5442
▁1877	-11.5443
lop	-11.5444
▁Mongol	-11.5445
▁Tea	-11.5445
▁Powell	-11.5446
bby	-11.5448
▁anthem	-11.5449
▁Bears	-11.5449
▁advocated	-11.5449
▁hiding	-11.545
▁infants	-11.5451
▁1869	-11.5454
▁Shield	-11.5455
▁Romans	-11.5455
▁mint	-11.5456
▁Cry	-11.5457
▁tier	-11.5458
▁Arena	-11.5459
▁Basin	-11.546
▁Henderson	-11.5461
▁ministers	-11.5461
▁mad	-11.5461
▁translate	-11.5462
▁Pitt	-11.5463
▁Physical	-11.5466
▁1883	-11.5466
▁Heat	-11.5467
▁armoured	-11.5469
gos	-11.5469
▁fence	-11.547
▁detachment	-11.5471
▁certificate	-11.5473
▁Screen	-11.5473
▁analyzed	-11.5474
vwa	-11.5475
▁stance	-11.5476
▁loading	-11.5477
▁sexually	-11.5479
▁projection	-11.5479
▁Poe	-11.548
umi	-11.5481
▁Material	-11.5482
▁instructed	-11.5482
▁eu	-11.5485
▁asthma	-11.5486
▁inning	-11.5489
▁atis	-11.5491
▁Hugo	-11.5492
▁anonymous	-11.5494
keeper	-11.5494
▁lè	-11.5496
▁Typhoon	-11.5497
▁skilled	-11.5497
▁Marsh	-11.5497
SL	-11.5499
shore	-11.55
▁Reform	-11.5501
usa	-11.5504
▁Thursday	-11.5506
▁breakdown	-11.5514
▁enabling	-11.5515
▁Heath	-11.5515
▁talked	-11.5517
▁Barcelona	-11.5518
▁glucose	-11.5518
emi	-11.552
▁Stories	-11.5521
ended	-11.5523
▁comet	-11.5524
▁cre	-11.5525
▁uncertainty	-11.5526
ckle	-11.5528
called	-11.5529
▁pier	-11.5535
▁aktris	-11.5535
▁planes	-11.5537
▁fortifications	-11.5537
▁Angelou	-11.5538
▁explicitly	-11.5539
▁spike	-11.5543
▁runner	-11.5543
▁bubble	-11.5545
connect	-11.5546
▁noun	-11.5549
nard	-11.5551
▁1867	-11.5552
mbi	-11.5558
▁konesans	-11.556
ike	-11.5561
▁Former	-11.5562
main	-11.5563
▁rapper	-11.5564
▁Shan	-11.5566
rod	-11.5567
▁Crusade	-11.557
▁enables	-11.5574
elia	-11.5577
▁230	-11.5577
strat	-11.5577
▁designers	-11.5577
▁install	-11.5577
▁Castro	-11.5579
▁Practice	-11.5579
▁malaria	-11.5579
▁menu	-11.5582
▁refuses	-11.5583
beat	-11.5584
▁shoes	-11.5584
▁dye	-11.5587
▁photographer	-11.5588
▁Advance	-11.5588
▁mega	-11.5591
▁testimony	-11.5591
▁ambush	-11.5591
▁Foot	-11.5592
▁Circuit	-11.5594
▁forever	-11.5596
▁wreck	-11.5596
PP	-11.5598
▁roller	-11.5599
▁Full	-11.56
range	-11.56
▁Method	-11.5601
▁Spec	-11.5601
ür	-11.5601
▁mouri	-11.5604
▁Prison	-11.5604
▁activated	-11.5605
▁Springs	-11.5606
▁Alman	-11.5607
▁Examples	-11.5609
▁dreadnought	-11.5609
▁Monroe	-11.5609
▁shrine	-11.5612
▁balloon	-11.5614
▁Stars	-11.5616
▁Heavy	-11.5618
vision	-11.5621
▁assign	-11.5621
▁Senior	-11.5622
▁Cuban	-11.5625
▁Twenty	-11.5628
▁allocated	-11.5628
▁Complete	-11.5628
▁1866	-11.5629
ão	-11.5629
▁Lil	-11.5629
▁obscure	-11.5635
▁Torres	-11.5635
▁Damage	-11.5636
rra	-11.5636
▁lungs	-11.5637
lem	-11.5638
▁Petr	-11.5638
▁shout	-11.564
American	-11.5642
▁vest	-11.5642
▁Kee	-11.5642
direct	-11.5642
▁Bosnia	-11.5643
▁Dictionary	-11.5646
▁utility	-11.5646
cke	-11.5647
▁parade	-11.5649
▁maneuver	-11.5651
▁submerged	-11.5652
▁Serb	-11.5654
▁Holmes	-11.5656
▁Ny	-11.5658
▁managers	-11.5658
▁Bruno	-11.566
▁consequently	-11.5662
OP	-11.5663
▁Bed	-11.5664
▁shops	-11.5665
mbo	-11.5667
▁gifts	-11.5667
temp	-11.567
▁laying	-11.5673
▁barriers	-11.5674
▁statistical	-11.5674
▁integrity	-11.5677
▁presidency	-11.5677
▁inflation	-11.5677
▁stiff	-11.5677
▁fails	-11.568
eta	-11.5682
lene	-11.5682
▁Start	-11.5682
▁magical	-11.5683
▁pH	-11.5684
▁tumor	-11.5685
▁jumping	-11.5685
▁disputed	-11.5686
▁Kepler	-11.5686
▁Cultural	-11.5686
▁ja	-11.5687
å	-11.5689
▁Olivier	-11.569
flo	-11.5691
▁ekri	-11.5693
▁dentist	-11.5694
▁dimensional	-11.5694
▁submarines	-11.5695
▁Appeal	-11.5695
▁Palm	-11.5695
dio	-11.5696
▁ce	-11.5698
▁prescribed	-11.5698
▁certification	-11.5698
▁Heavyweight	-11.5698
▁Close	-11.5701
▁Moses	-11.5701
▁Vel	-11.5706
▁transplant	-11.5708
▁Marcus	-11.5712
▁Hour	-11.5713
▁Institution	-11.5714
▁neighboring	-11.5714
▁calories	-11.5714
▁primitive	-11.5714
▁1882	-11.5715
▁tended	-11.5715
RD	-11.5716
▁750	-11.5716
▁comics	-11.5717
▁Beck	-11.5719
▁preparations	-11.572
▁Dry	-11.572
▁Tax	-11.5722
▁Tintin	-11.5725
▁bud	-11.5725
▁governing	-11.5726
▁physicist	-11.5729
▁deciding	-11.5729
▁Prevention	-11.573
▁wh	-11.5731
▁Hil	-11.5732
▁subordinate	-11.5733
▁rolling	-11.5733
gation	-11.5735
▁grace	-11.5735
▁integral	-11.5735
▁stack	-11.5735
ried	-11.5736
TI	-11.5739
▁grades	-11.5744
▁XI	-11.5744
▁commerce	-11.5745
▁Essay	-11.5745
▁limestone	-11.5745
▁Đ	-11.5745
▁acclaimed	-11.5747
▁Acc	-11.5748
▁disabilities	-11.5748
▁enzymes	-11.575
▁Origin	-11.575
▁rid	-11.575
▁inadequate	-11.5751
There	-11.5752
allIn	-11.5752
▁decree	-11.5754
▁piblikasyon	-11.5754
▁inquiry	-11.5754
▁electoral	-11.5757
ucci	-11.5759
▁ecosystems	-11.576
▁Hubbard	-11.576
▁weighed	-11.5761
GA	-11.5762
lab	-11.5762
eux	-11.5766
▁Citizen	-11.5766
▁momentum	-11.5771
▁respected	-11.5772
▁1873	-11.5773
▁McCarthy	-11.5773
▁torpedoes	-11.5774
▁NE	-11.5776
▁Volt	-11.5777
▁floods	-11.5777
▁presenting	-11.5778
▁chains	-11.5779
▁sperm	-11.5781
▁systematic	-11.5781
▁swim	-11.5784
▁flies	-11.5787
▁135	-11.5788
▁Primary	-11.5788
▁registration	-11.5788
▁fees	-11.5789
▁naked	-11.5792
▁dietary	-11.5792
▁MI	-11.5794
sim	-11.5794
▁NA	-11.5795
▁127	-11.5796
▁Starr	-11.5796
ught	-11.5798
psi	-11.5799
lou	-11.5799
lio	-11.5803
wyn	-11.5803
▁alloy	-11.5804
▁inducted	-11.5804
▁portray	-11.5808
▁plasma	-11.5812
▁Mit	-11.5812
▁parameters	-11.5815
▁kou	-11.5816
▁flaw	-11.5816
▁reversed	-11.5816
▁terrible	-11.5816
hop	-11.5817
▁aging	-11.5819
▁Search	-11.5821
▁addresses	-11.5822
▁Mull	-11.5822
à	-11.5823
worm	-11.5823
▁Sharp	-11.5825
▁influenza	-11.5826
▁cyber	-11.5826
▁Madrid	-11.5827
▁Manager	-11.5827
е	-11.5829
▁spare	-11.583
▁expertise	-11.583
▁warn	-11.5832
lessness	-11.5834
00,000	-11.5834
-10	-11.5835
▁lan	-11.5838
▁1878	-11.5838
ichi	-11.5839
▁robot	-11.5841
▁leather	-11.5841
▁Sus	-11.5841
▁mushroom	-11.5842
▁container	-11.5842
▁disbanded	-11.5844
▁Tests	-11.5846
▁lease	-11.5848
▁Starting	-11.5848
mul	-11.5848
▁roster	-11.5849
rad	-11.5853
▁grammar	-11.5854
agi	-11.5854
▁recommendation	-11.5856
▁subtropical	-11.5857
▁Nov	-11.5858
▁interviewed	-11.5858
▁Bak	-11.5859
▁Nash	-11.5859
▁pal	-11.5859
▁Percy	-11.586
CH	-11.586
that	-11.5861
game	-11.5864
▁spores	-11.5864
▁Process	-11.5867
▁gaming	-11.5867
▁holder	-11.5869
▁induced	-11.587
igo	-11.5871
▁beds	-11.5871
▁everywhere	-11.5874
▁comprises	-11.5875
bir	-11.5875
▁invite	-11.5875
specific	-11.5876
▁Neo	-11.5876
▁screens	-11.5877
▁Spencer	-11.5879
▁tremendous	-11.5879
▁severity	-11.5879
rell	-11.5879
▁Telegraph	-11.588
▁Wool	-11.5881
▁Concert	-11.5882
▁bark	-11.5882
▁expenses	-11.5883
▁Cruz	-11.5884
Me	-11.5885
▁mistakes	-11.5888
▁Double	-11.5892
▁fraud	-11.5892
▁Smart	-11.5892
▁Beau	-11.5893
isse	-11.5896
▁Sword	-11.5897
▁incentive	-11.5898
rium	-11.5899
tner	-11.5902
jun	-11.5903
style	-11.5903
night	-11.5904
▁inHg	-11.5905
▁refuge	-11.5905
▁openly	-11.5907
▁rib	-11.5908
▁descriptions	-11.5908
▁Ara	-11.5909
▁precisely	-11.591
▁commissioner	-11.591
▁satisfied	-11.591
▁predator	-11.5911
▁departments	-11.5912
▁Peru	-11.5916
▁Sil	-11.5916
▁enforce	-11.5917
▁Yugoslav	-11.5918
▁Lance	-11.592
name	-11.592
▁tactical	-11.5921
▁phases	-11.5921
▁190	-11.5922
▁Leigh	-11.5922
▁Julia	-11.5923
▁restrict	-11.5923
▁Multi	-11.5924
yu	-11.5926
▁Tigers	-11.5926
▁Phillips	-11.5928
oz	-11.5929
▁manages	-11.5929
▁guards	-11.5929
▁rushed	-11.593
▁Issue	-11.5933
▁coaching	-11.5934
▁asteroid	-11.5936
lov	-11.5939
cil	-11.5939
▁citizenship	-11.594
plant	-11.594
▁é	-11.5941
▁Pul	-11.5942
▁lesbian	-11.5942
▁behave	-11.5942
▁fantastic	-11.5948
▁Mean	-11.5948
▁olive	-11.5948
ifier	-11.5949
▁NL	-11.5951
▁curves	-11.5951
gia	-11.5951
▁await	-11.5952
▁orbital	-11.5953
▁kid	-11.5954
▁winners	-11.5956
▁beta	-11.5958
▁descended	-11.5958
▁Ultimately	-11.5959
▁faithful	-11.5965
▁surveys	-11.5965
rot	-11.5967
▁Nigeria	-11.5968
dock	-11.5968
▁Singh	-11.597
▁customs	-11.597
▁legally	-11.5971
▁sixty	-11.5971
É	-11.5972
▁matrix	-11.5974
▁Chuck	-11.5974
▁Lex	-11.5974
▁Imp	-11.5975
▁Viet	-11.5975
▁emission	-11.5976
▁stopping	-11.5978
▁modifications	-11.5979
▁prohibit	-11.5981
▁edit	-11.5981
▁Hold	-11.5982
▁draws	-11.5983
▁woods	-11.5983
▁Veronica	-11.5983
▁pointing	-11.5984
▁CT	-11.5984
icus	-11.5984
▁analyses	-11.5986
▁Fischer	-11.5986
flow	-11.5989
▁Gibson	-11.5989
▁Flood	-11.599
▁resign	-11.5991
▁swamp	-11.5992
▁tensions	-11.5994
Po	-11.5996
▁auction	-11.5996
radi	-11.5997
▁1868	-11.5998
▁Truman	-11.5999
▁McKinley	-11.6002
$	-11.6003
▁reasoning	-11.6003
tip	-11.6003
▁modes	-11.6004
▁Andre	-11.6006
▁deficiency	-11.6008
▁pipeline	-11.6008
▁fingers	-11.6009
▁averaged	-11.6009
▁touchdowns	-11.601
▁Greeks	-11.601
▁Kara	-11.601
▁McDonald	-11.6012
▁Wednesday	-11.6012
▁1872	-11.6012
▁Wellington	-11.6012
▁Spa	-11.6015
ometer	-11.6015
▁dried	-11.6017
▁sizes	-11.6018
▁confrontation	-11.6018
▁altogether	-11.6021
▁(1)	-11.6021
▁concludes	-11.6024
▁autobiography	-11.6024
▁backup	-11.6025
▁pigment	-11.6026
▁shirt	-11.603
▁Blair	-11.603
▁mobility	-11.6031
▁aquatic	-11.6031
▁bind	-11.6032
▁chocolate	-11.6034
▁borrow	-11.6039
▁Nik	-11.6039
▁borough	-11.6042
▁Print	-11.6045
▁hardly	-11.6046
▁Isles	-11.6046
▁Ski	-11.6047
under	-11.6048
▁thesis	-11.6049
▁computing	-11.605
▁Palmer	-11.6052
▁frozen	-11.6053
rc	-11.6055
▁lac	-11.6056
▁substrate	-11.606
▁deer	-11.6061
▁Fol	-11.6061
▁update	-11.6062
▁purple	-11.6063
▁Tiger	-11.6063
▁climbing	-11.6063
▁generating	-11.6067
▁rad	-11.6069
▁Schumacher	-11.6069
▁Edwin	-11.607
mie	-11.6073
▁thoroughly	-11.6075
▁Cecil	-11.6075
Ca	-11.6076
yle	-11.6076
▁drawings	-11.6078
▁shake	-11.6081
▁undertook	-11.6082
plane	-11.6083
▁Very	-11.6084
▁Norse	-11.6086
▁TO	-11.6086
▁Lev	-11.6086
gam	-11.6087
▁Esc	-11.6088
▁terrestrial	-11.6088
▁Tab	-11.6088
omb	-11.6089
▁pressed	-11.609
▁spinal	-11.6093
▁servants	-11.6096
▁disrupt	-11.6097
▁Orton	-11.6097
html	-11.6097
▁Deb	-11.6098
▁hamlet	-11.6101
▁fatalities	-11.6102
web	-11.6105
TR	-11.6105
▁corrupt	-11.6106
▁Hai	-11.6107
meter	-11.6109
▁inhabit	-11.6109
assi	-11.611
▁coloured	-11.611
▁reflecting	-11.6112
▁providers	-11.6114
▁repaired	-11.6115
▁castles	-11.6116
▁batter	-11.6116
rier	-11.6118
metry	-11.6121
▁sprint	-11.6125
▁dispatched	-11.6126
lik	-11.6126
▁venues	-11.6126
▁bees	-11.6128
▁nail	-11.6128
fla	-11.6128
▁priests	-11.6128
▁Tha	-11.6133
▁maturity	-11.6133
▁MLB	-11.6133
▁rabbit	-11.6135
MO	-11.6135
▁Clay	-11.6136
▁attach	-11.6136
formation	-11.6137
▁flowing	-11.6138
▁snake	-11.6141
▁nano	-11.6141
▁dinosaurs	-11.6142
▁locomotives	-11.6145
▁Tucker	-11.6148
power	-11.615
▁Neuro	-11.6151
▁proceeds	-11.6152
▁1)	-11.6152
▁Certain	-11.6153
IL	-11.6155
▁staged	-11.6155
▁underneath	-11.6156
▁Iceland	-11.6156
▁cry	-11.6156
▁inhabited	-11.6157
CT	-11.6158
▁recreational	-11.6159
▁happiness	-11.6162
▁Lanka	-11.6164
▁Tournament	-11.6165
▁meditation	-11.6165
▁Neu	-11.6167
▁Comics	-11.6167
odor	-11.6167
▁Rey	-11.617
▁organism	-11.6173
▁websites	-11.6173
▁grip	-11.6175
òm	-11.6175
▁Rapid	-11.6177
phil	-11.618
▁contracted	-11.618
▁spelling	-11.618
▁sweat	-11.6182
borough	-11.6183
▁Species	-11.6183
MD	-11.6188
▁Ré	-11.6191
▁disputes	-11.6192
comp	-11.6196
▁ignore	-11.6199
▁unveiled	-11.6201
illon	-11.6202
roid	-11.6203
▁eldest	-11.6204
▁ci	-11.6207
▁investigating	-11.6208
▁defining	-11.6208
▁quo	-11.6209
▁solving	-11.621
human	-11.6212
▁appreciated	-11.6212
▁monks	-11.6214
▁Telenovela	-11.6214
▁triggered	-11.6215
▁cart	-11.6215
▁algorithm	-11.6217
▁Problem	-11.6217
▁labeled	-11.6218
▁automobile	-11.6224
▁Deputy	-11.6227
▁performers	-11.6231
ifi	-11.6231
▁prophet	-11.6234
▁activists	-11.6234
▁riot	-11.6237
▁nests	-11.6237
ility	-11.6239
▁infinite	-11.624
▁merchants	-11.624
iber	-11.6242
▁offspring	-11.6243
▁operators	-11.6244
▁absorption	-11.6247
▁forgotten	-11.6247
▁FM	-11.6247
▁Better	-11.6249
▁Newman	-11.6249
▁synthetic	-11.6249
▁Vis	-11.6251
▁investigations	-11.6253
▁immense	-11.6253
▁renovation	-11.6253
▁prose	-11.6254
Pro	-11.6255
▁answered	-11.6256
▁dairy	-11.6256
▁rally	-11.6256
aker	-11.6257
▁somewhere	-11.6259
ashi	-11.6259
▁Syrian	-11.6261
imo	-11.6261
IM	-11.6263
vari	-11.6263
▁Derby	-11.6265
example	-11.6265
▁agenda	-11.6266
▁drinks	-11.6268
▁accomplish	-11.6268
▁entity	-11.627
▁Kel	-11.627
▁IS	-11.6271
▁incorporating	-11.6273
▁JNA	-11.6273
▁pile	-11.6273
▁struggles	-11.6274
▁maintains	-11.6276
lton	-11.6276
▁delays	-11.6277
▁Turks	-11.6278
▁Emily	-11.6278
▁payments	-11.628
▁Calvin	-11.628
▁Une	-11.6282
▁contend	-11.6282
▁Phillies	-11.6283
▁explorer	-11.6284
▁revived	-11.6284
▁Ras	-11.6284
▁heroes	-11.6285
borne	-11.6288
▁Cabinet	-11.6289
▁González	-11.6289
virus	-11.6291
▁ensuing	-11.6292
▁exert	-11.6294
▁radioactive	-11.6294
▁persuade	-11.6294
▁1848	-11.6295
date	-11.6296
▁©	-11.6297
▁inhibit	-11.6298
▁Antoine	-11.6298
▁qualify	-11.6298
ush	-11.6299
▁Making	-11.63
▁kont	-11.6301
▁Linda	-11.6301
▁wanting	-11.6302
▁Crawford	-11.6302
▁moist	-11.6303
▁observing	-11.6306
▁Michelle	-11.6306
▁subjected	-11.6308
▁106	-11.6309
▁stereotype	-11.6309
xton	-11.6313
▁regiments	-11.6313
▁speculated	-11.6313
▁fatty	-11.6314
▁thrive	-11.6315
▁Flanders	-11.6319
▁épisode	-11.6319
tica	-11.6319
▁cage	-11.6321
▁Fla	-11.6323
▁requests	-11.6323
found	-11.6324
▁Guatemala	-11.6325
▁unnecessary	-11.6325
than	-11.6326
being	-11.6329
▁haven	-11.6331
▁meaningful	-11.6332
▁trim	-11.6332
otic	-11.6333
▁athlete	-11.6334
amour	-11.6334
lysis	-11.6335
▁verbal	-11.6335
▁monuments	-11.6339
▁Headquarters	-11.6342
▁dug	-11.6343
rock	-11.6344
▁Alzheimer	-11.6345
▁essence	-11.6345
▁prosecution	-11.6348
▁paved	-11.6351
▁DO	-11.6351
▁2)	-11.6352
▁colleges	-11.6354
▁Mak	-11.6357
▁Nathan	-11.6357
▁EPA	-11.636
▁surpassed	-11.6361
▁rats	-11.6361
▁archaeologist	-11.6361
▁(3	-11.6363
SM	-11.6363
▁cigarette	-11.6363
▁theaters	-11.6365
hurst	-11.6365
▁altar	-11.6365
▁Fil	-11.6366
CP	-11.6366
Ex	-11.6366
▁Should	-11.6368
▁Nicolas	-11.6369
▁commemorate	-11.637
eus	-11.637
▁sporting	-11.637
guard	-11.637
aged	-11.637
ogram	-11.6371
▁prolonged	-11.6371
▁Annual	-11.6372
▁spatial	-11.6374
▁gospel	-11.6375
▁conquered	-11.6375
▁Maxim	-11.6376
▁Basketball	-11.6378
▁Gli	-11.6378
▁hub	-11.6379
▁Cyclone	-11.6381
▁interrupted	-11.6385
▁breakthrough	-11.6385
mouth	-11.6385
▁hire	-11.6386
▁UB	-11.6387
▁lobby	-11.6391
▁feat	-11.6392
▁Erik	-11.6393
▁unusually	-11.6395
blo	-11.6396
▁disagreement	-11.6396
▁appealed	-11.6396
rail	-11.6397
▁Haiti	-11.6398
▁gusts	-11.64
▁Gru	-11.6401
▁Lancashire	-11.6401
▁custody	-11.6401
▁devastating	-11.6401
▁replica	-11.6403
lig	-11.6403
UN	-11.6405
▁Bul	-11.6407
▁retro	-11.6407
▁shortage	-11.6407
▁speeches	-11.6409
▁Hag	-11.6411
▁Logan	-11.6411
▁valued	-11.6412
moor	-11.6413
▁Cambodia	-11.6414
▁applies	-11.6415
aceae	-11.6415
òl	-11.6415
▁chess	-11.6417
▁diary	-11.6418
▁Romania	-11.6419
rava	-11.6419
▁Visual	-11.6421
▁Bod	-11.6422
▁rows	-11.6423
▁dreams	-11.6426
sè	-11.6427
▁1879	-11.6427
▁loans	-11.6427
▁opined	-11.6427
▁reminiscent	-11.6427
▁privacy	-11.6427
▁everybody	-11.6429
▁minds	-11.6429
▁designing	-11.643
▁haul	-11.643
▁password	-11.6432
▁addressing	-11.6432
▁Chase	-11.6432
▁Colt	-11.6434
▁workplace	-11.6435
ril	-11.6435
ution	-11.6436
▁consultant	-11.6439
▁weaken	-11.6439
tia	-11.6439
▁Operations	-11.6439
▁captivity	-11.6441
▁jersey	-11.6441
▁detective	-11.6448
▁eager	-11.6449
▁Antarctic	-11.6451
▁Cause	-11.6451
▁Jeremy	-11.6457
▁conform	-11.6458
oria	-11.6459
▁Chemical	-11.6459
▁grandson	-11.646
▁Expedition	-11.6461
ppy	-11.6461
▁strictly	-11.6463
▁securing	-11.6464
▁Annie	-11.6465
▁Baldwin	-11.6467
▁genius	-11.6468
▁sovereignty	-11.6468
pli	-11.647
▁Walk	-11.647
stat	-11.6471
ido	-11.6471
▁rod	-11.6474
▁dismiss	-11.6474
ept	-11.6474
▁yd	-11.6475
▁metropolitan	-11.6477
▁Cas	-11.6479
▁Ark	-11.6481
shaw	-11.6481
▁Adelaide	-11.6484
▁incidence	-11.6487
▁default	-11.6488
▁propeller	-11.6488
▁leap	-11.6489
iser	-11.649
care	-11.649
▁firms	-11.649
▁maternal	-11.6491
▁compensate	-11.6491
gard	-11.6491
▁Myst	-11.6491
school	-11.6493
▁concession	-11.6494
▁spiral	-11.6494
▁Dawn	-11.6495
▁unsuccessfully	-11.6496
▁Krishna	-11.6497
▁innocent	-11.6497
▁governed	-11.6498
▁variants	-11.6499
ν	-11.6504
▁puzzle	-11.6504
▁intimate	-11.6505
▁Meta	-11.6506
▁farmer	-11.6506
▁frigate	-11.6508
▁fixture	-11.6508
ional	-11.6509
▁Mills	-11.6509
▁proceedings	-11.6509
▁Arabian	-11.651
▁unemployment	-11.6511
▁Floyd	-11.6511
▁instrumentation	-11.6513
▁displacement	-11.6514
▁Tasmania	-11.6514
immer	-11.6516
▁germ	-11.6516
▁Personal	-11.6517
▁Combat	-11.6517
▁unlock	-11.6518
▁Harper	-11.6518
▁Boo	-11.6518
▁deadly	-11.652
▁inscription	-11.652
▁violin	-11.6521
▁surveillance	-11.6524
▁costumes	-11.6524
iac	-11.6527
▁locked	-11.6527
PL	-11.6528
DOT	-11.6528
iga	-11.6529
▁108	-11.653
▁clusters	-11.653
▁revelation	-11.6531
▁Lead	-11.6535
▁Quest	-11.6535
▁synth	-11.6536
▁Private	-11.6537
grass	-11.6538
▁competitors	-11.6538
▁formations	-11.6539
▁Professional	-11.6541
▁convincing	-11.6541
▁Aviation	-11.6541
▁salmon	-11.6541
▁Tal	-11.6542
▁Exp	-11.6543
▁neighbouring	-11.6544
▁Leave	-11.6545
▁113	-11.6545
▁Legion	-11.6547
▁Marty	-11.6547
▁incorporates	-11.6551
▁Doug	-11.6551
▁Scar	-11.6552
▁cellular	-11.6553
▁introduces	-11.6554
▁cop	-11.6555
▁Epi	-11.6555
▁helmet	-11.6556
▁advisor	-11.6556
▁donor	-11.6556
▁punt	-11.6557
▁excluded	-11.6557
▁112	-11.656
▁entries	-11.6561
▁brake	-11.6562
▁Gustav	-11.6564
▁modify	-11.6565
▁lunar	-11.6565
▁bedroom	-11.6565
▁sortie	-11.6565
hur	-11.6566
▁privately	-11.6566
▁complimented	-11.6567
▁expressing	-11.6567
▁exceeded	-11.6568
▁purely	-11.657
▁Tuesday	-11.6574
▁arrange	-11.6575
▁enacted	-11.6577
▁Core	-11.658
▁brass	-11.658
▁103	-11.658
▁embedded	-11.6581
Qu	-11.6585
ugg	-11.659
inated	-11.6593
▁Mala	-11.6594
▁rises	-11.6596
WA	-11.6596
▁devotion	-11.6601
▁rehearsal	-11.6601
▁liberty	-11.6601
▁nickel	-11.6601
▁Woods	-11.6602
kle	-11.6603
▁Gerald	-11.6604
▁Cardinals	-11.6604
▁toilet	-11.6604
▁occupy	-11.6605
▁alike	-11.6605
▁Prof	-11.6606
▁Lay	-11.6606
▁rebounds	-11.6607
▁Syans	-11.661
▁Shelley	-11.6612
▁Lithuanian	-11.6615
tun	-11.6618
▁grains	-11.6618
▁paragraph	-11.6619
dine	-11.6619
▁Lor	-11.662
▁practiced	-11.6622
wè	-11.6622
▁Made	-11.6623
▁Chairman	-11.6625
▁pirate	-11.6625
▁Griffin	-11.6625
▁horsepower	-11.6626
lob	-11.6626
▁limiting	-11.6629
▁Fernando	-11.6629
tique	-11.6631
▁Rhode	-11.6631
▁clerk	-11.6632
▁Saudi	-11.6633
▁honorary	-11.6634
▁calculate	-11.6634
ige	-11.6634
▁fungi	-11.6635
▁erect	-11.6637
nock	-11.6637
▁disposal	-11.6639
▁Capitol	-11.6639
▁Job	-11.6639
▁Johann	-11.6639
PE	-11.664
▁runway	-11.6643
▁cooler	-11.6644
▁Geoffrey	-11.6649
▁orchestral	-11.665
izer	-11.665
▁mall	-11.6651
HO	-11.6652
▁Raven	-11.6652
▁purchasing	-11.6652
▁declaring	-11.6652
▁Sul	-11.6654
▁pulp	-11.6654
▁Tel	-11.6654
▁165	-11.6655
ime	-11.6658
▁derivative	-11.6659
▁tennis	-11.6659
▁Rocky	-11.6662
▁championships	-11.6664
ñ	-11.6665
▁Text	-11.6665
▁Declaration	-11.6666
▁composers	-11.6666
▁bare	-11.6668
▁Pier	-11.6669
▁supporter	-11.6669
▁foundations	-11.667
pac	-11.667
▁Pont	-11.6671
▁soils	-11.6673
▁temp	-11.6676
▁embryo	-11.6676
▁Barrett	-11.6676
▁Ill	-11.6676
▁Different	-11.6676
trop	-11.6677
▁inferior	-11.6679
▁Essex	-11.6679
▁basement	-11.668
▁Maj	-11.6683
▁discusses	-11.6684
▁Calgary	-11.669
▁SmackDown	-11.669
▁centres	-11.6694
▁heated	-11.6695
▁Cong	-11.6696
mil	-11.6696
shin	-11.6697
▁inability	-11.6699
ester	-11.6699
fusion	-11.6702
▁Squ	-11.6703
▁Pic	-11.6704
▁wagon	-11.6704
▁dominate	-11.6705
▁developmental	-11.6706
▁contested	-11.6706
gno	-11.6706
▁torture	-11.6706
▁ironclad	-11.6707
▁Spot	-11.6707
anga	-11.6708
▁dig	-11.671
SR	-11.6712
▁mosque	-11.6713
▁merger	-11.6714
▁playable	-11.6717
▁mob	-11.6718
▁teenage	-11.6719
▁combining	-11.672
▁Ost	-11.6722
▁Colombia	-11.6724
▁Dominican	-11.6725
▁baron	-11.6725
▁memorable	-11.6727
▁lengths	-11.6727
▁halted	-11.6727
▁Dé	-11.6728
▁Plymouth	-11.673
kra	-11.6731
PM	-11.6731
▁Cinema	-11.6731
▁foul	-11.6734
▁RBI	-11.6737
▁ranged	-11.6737
lash	-11.6738
▁Ble	-11.6741
▁susceptible	-11.6741
AB	-11.6742
▁worthy	-11.6745
lian	-11.6745
▁generic	-11.6747
▁obviously	-11.6747
▁Clean	-11.675
▁depot	-11.6751
uba	-11.6751
▁optimal	-11.6751
▁Musical	-11.6752
▁Southwest	-11.6752
▁stressed	-11.6754
▁spectators	-11.6755
▁Parkway	-11.6756
▁exhaust	-11.6757
▁Motion	-11.6759
▁chip	-11.676
▁declining	-11.6761
▁counted	-11.6762
▁stems	-11.6767
▁correspondence	-11.6769
▁invest	-11.677
1)	-11.6771
▁intercept	-11.6772
▁Grande	-11.6775
▁socialist	-11.6775
▁Bermuda	-11.6775
▁Dudley	-11.6775
▁jou	-11.6784
▁unprecedented	-11.6785
▁Faith	-11.6785
▁lodge	-11.6786
▁associations	-11.6787
▁appreciate	-11.6788
▁Pap	-11.6789
▁Berry	-11.679
▁insult	-11.6791
▁Sugar	-11.6792
▁pat	-11.6793
▁arcade	-11.6793
▁Newport	-11.6795
▁mari	-11.6795
▁Karen	-11.6801
▁sensors	-11.6801
▁Princip	-11.6801
▁rob	-11.6802
▁gesture	-11.6803
▁Joshua	-11.6803
▁tech	-11.6805
▁allegations	-11.6806
▁premye	-11.6806
▁Ari	-11.6808
ffin	-11.6808
▁northwestern	-11.681
▁gro	-11.6812
▁tiger	-11.6813
▁abortion	-11.6813
▁prevalent	-11.6814
▁mbar	-11.6814
▁Lone	-11.6815
abi	-11.6816
▁Vir	-11.6817
▁Sala	-11.6818
HS	-11.6818
▁diving	-11.6821
▁iTunes	-11.683
▁Chandler	-11.683
▁sensation	-11.6831
hang	-11.6831
▁vault	-11.6832
▁behavioral	-11.6833
▁Canucks	-11.6834
gat	-11.6834
▁enthusiastic	-11.6835
activity	-11.6835
▁exceptional	-11.684
▁Lancaster	-11.6841
▁Hau	-11.6842
▁Fig	-11.6842
▁bowled	-11.6845
▁speaks	-11.6847
esque	-11.6849
▁Enix	-11.685
pack	-11.6851
▁Wikipedia	-11.6851
▁nationally	-11.6852
▁Pokémon	-11.6854
▁antibiotics	-11.6855
▁Shore	-11.6856
▁Maxwell	-11.6856
ddy	-11.6859
▁infectious	-11.6862
▁bicycle	-11.6862
▁jwe	-11.6862
last	-11.6863
▁Engineers	-11.6866
arrow	-11.6868
ider	-11.6873
Di	-11.6875
▁slopes	-11.6876
▁viable	-11.6876
▁southward	-11.6877
▁neurons	-11.6877
▁torn	-11.6877
▁2:	-11.6878
▁sectors	-11.6878
▁Chancellor	-11.6879
▁furniture	-11.6879
▁flexibility	-11.6879
▁Cohen	-11.6882
round	-11.6885
▁packed	-11.6886
▁stepped	-11.6886
▁caliber	-11.6886
sip	-11.6886
▁Tales	-11.6888
lib	-11.689
▁vaccination	-11.6893
▁alphabet	-11.6893
▁encompass	-11.6893
▁honored	-11.6893
pression	-11.6894
▁gall	-11.6895
▁static	-11.6895
▁Pou	-11.6896
▁Jose	-11.6898
▁Rice	-11.6899
▁activist	-11.6899
▁Nonetheless	-11.6899
▁puppet	-11.6899
▁clever	-11.69
bbing	-11.6902
▁Sister	-11.6902
▁precursor	-11.6903
▁117	-11.6904
▁Kap	-11.6904
▁platoon	-11.6907
▁savings	-11.6907
boat	-11.6908
▁commentators	-11.6909
HC	-11.6912
▁ditch	-11.6912
▁empower	-11.6914
▁exhibits	-11.6914
▁submission	-11.6915
wash	-11.6915
▁estates	-11.6917
▁motive	-11.6917
▁Petit	-11.6918
▁monarchy	-11.6918
UP	-11.6919
▁1874	-11.6919
▁Theory	-11.692
▁intra	-11.6921
▁regulatory	-11.6922
▁regards	-11.6923
▁Fast	-11.6926
▁Riley	-11.6927
▁Newfoundland	-11.6927
▁Tunnel	-11.6927
▁suburb	-11.6928
▁Tara	-11.6928
▁Lucy	-11.6928
▁Janet	-11.6933
dou	-11.6935
LI	-11.6935
▁dys	-11.6936
▁Course	-11.6937
▁Busch	-11.6939
zh	-11.6939
▁CC	-11.694
▁accepting	-11.6941
▁conclude	-11.6941
▁Contemporary	-11.6941
inter	-11.6941
▁negotiate	-11.6944
τ	-11.6945
-7	-11.6945
▁antibodies	-11.6949
▁nicknamed	-11.6949
▁270	-11.6951
▁sustainability	-11.6952
▁nationwide	-11.6952
▁Stoke	-11.6953
▁Hum	-11.6954
using	-11.6954
ops	-11.6955
▁Cow	-11.6958
▁accelerated	-11.6962
▁Advanced	-11.6962
▁Lynch	-11.6962
▁suspicion	-11.6962
▁esp	-11.6963
▁intend	-11.6964
▁Looking	-11.6966
▁WWF	-11.6967
▁Shar	-11.6968
▁chronicle	-11.6968
▁premier	-11.6972
▁Wake	-11.6972
▁molecule	-11.6972
▁gig	-11.6972
▁scenarios	-11.6973
▁Rosen	-11.6975
▁Editor	-11.6978
▁Gy	-11.6978
▁Rare	-11.6978
▁flip	-11.6978
▁resembles	-11.698
▁indirect	-11.698
▁reservation	-11.6983
▁shower	-11.6986
nat	-11.6987
▁Augustus	-11.6987
▁nutrient	-11.6988
▁linking	-11.6988
flower	-11.6989
▁Mani	-11.699
▁passive	-11.6992
▁sensor	-11.6996
▁Left	-11.6997
▁Irving	-11.6998
▁Vermont	-11.6999
▁libraries	-11.7001
lau	-11.7002
▁garage	-11.7004
▁creativity	-11.7004
▁groove	-11.7005
▁midnight	-11.7006
▁executives	-11.7009
▁screw	-11.7012
▁dorsal	-11.7012
[...]
