{
  "version": "1.0",
  "truncation": null,
  "padding": null,
  "added_tokens": [
    {
      "id": 0,
      "content": "<unk>",
      "single_word": false,
      "lstrip": false,
      "rstrip": false,
      "normalized": false,
      "special": true
    },
    {
      "id": 1,
      "content": "<s>",
      "single_word": false,
      "lstrip": false,
      "rstrip": false,
      "normalized": false,
      "special": true
    },
    {
      "id": 2,
      "content": "</s>",
      "single_word": false,
      "lstrip": false,
      "rstrip": false,
      "normalized": false,
      "special": true
    },
    {
      "id": 3,
      "content": "<pad>",
      "single_word": false,
      "lstrip": false,
      "rstrip": false,
      "normalized": false,
      "special": true
    },
    {
      "id": 4,
      "content": "<user>",
      "single_word": false,
      "lstrip": false,
      "rstrip": false,
      "normalized": false,
      "special": true
    },
    {
      "id": 5,
      "content": "<assistant>",
      "single_word": false,
      "lstrip": false,
      "rstrip": false,
      "normalized": false,
      "special": true
    },
    {
      "id": 6,
      "content": "<system>",
      "single_word": false,
      "lstrip": false,
      "rstrip": false,
      "normalized": false,
      "special": true
    }
  ],
  "normalizer": {
    "type": "Sequence",
    "normalizers": [
      {
        "type": "Replace",
        "pattern": {
          "String": " "
        },
        "content": "▁"
      }
    ]
  },
  "pre_tokenizer": null,
  "post_processor": {
    "type": "TemplateProcessing",
    "single": [
      {
        "SpecialToken": {
          "id": "<s>",
          "type_id": 0
        }
      },
      {
        "Sequence": {
          "id": "A",
          "type_id": 0
        }
      }
    ],
    "pair": [
      {
        "SpecialToken": {
          "id": "<s>",
          "type_id": 0
        }
      },
      {
        "Sequence": {
          "id": "A",
          "type_id": 0
        }
      },
      {
        "SpecialToken": {
          "id": "<s>",
          "type_id": 1
        }
      },
      {
        "Sequence": {
          "id": "B",
          "type_id": 1
        }
      }
    ],
    "special_tokens": {
      "<s>": {
        "id": "<s>",
        "ids": [
          1
        ],
        "tokens": [
          "<s>"
        ]
      }
    }
  },
  "decoder": {
    "type": "Sequence",
    "decoders": [
      {
        "type": "Replace",
        "pattern": {
          "String": "▁"
        },
        "content": " "
      },
      {
        "type": "ByteFallback"
      },
      {
        "type": "Fuse"
      }
    ]
  },
  "model": {
    "type": "Unigram",
    "unk_id": 0,
    "vocab": [
      [
        "<unk>",
        0.0
      ],
      [
        "<s>",
        0.0
      ],
      [
        "</s>",
        0.0
      ],
      [
        "<pad>",
        0.0
      ],
      [
        "<user>",
        0.0
      ],
      [
        "<assistant>",
        0.0
      ],
      [
        "<system>",
        0.0
      ],
      [
        "▁the",
        -3.0963141918182373
      ],
      [
        "▁,",
        -3.5177109241485596
      ],
      [
        "s",
        -3.7199947834014893
      ],
      [
        "▁of",
        -3.7482521533966064
      ],
      [
        "▁.",
        -3.8255867958068848
      ],
      [
        "▁and",
        -3.857097625732422
      ],
      [
        "▁to",
        -4.037322521209717
      ],
      [
        "▁in",
        -4.150589466094971
      ],
      [
        "▁a",
        -4.180783748626709
      ],
      [
        ".",
        -4.327014923095703
      ],
      [
        ",",
        -4.396007061004639
      ],
      [
        "▁\"",
        -4.7831315994262695
      ],
      [
        "▁was",
        -4.906564235687256
      ],
      [
        "▁The",
        -5.00486946105957
      ],
      [
        "▁that",
        -5.0797038078308105
      ],
      [
        "▁@",
        -5.08933162689209
      ],
      [
        "▁for",
        -5.117947101593018
      ],
      [
        "▁is",
        -5.138973236083984
      ],
      [
        "▁'",
        -5.1663970947265625
      ],
      [
        "▁on",
        -5.2099833488464355
      ],
      [
        "▁",
        -5.234116554260254
      ],
      [
        "-@",
        -5.2564167976379395
      ],
      [
        "▁with",
        -5.261872291564941
      ],
      [
        "▁as",
        -5.275145053863525
      ],
      [
        "▁(",
        -5.318174362182617
      ],
      [
        "▁by",
        -5.363787651062012
      ],
      [
        "▁from",
        -5.637099266052246
      ],
      [
        "▁)",
        -5.694399833679199
      ],
      [
        "▁at",
        -5.723997116088867
      ],
      [
        "▁it",
        -5.751924991607666
      ],
      [
        "▁his",
        -5.812265396118164
      ],
      [
        "▁an",
        -5.875687599182129
      ],
      [
        "▁be",
        -5.904623031616211
      ],
      [
        "▁are",
        -5.91483211517334
      ],
      [
        "▁were",
        -5.954893589019775
      ],
      [
        "ing",
        -6.043276309967041
      ],
      [
        "▁In",
        -6.049866676330566
      ],
      [
        "▁he",
        -6.08270788192749
      ],
      [
        "-",
        -6.083621978759766
      ],
      [
        "▁:",
        -6.095727443695068
      ],
      [
        "▁which",
        -6.100211143493652
      ],
      [
        "▁or",
        -6.121440410614014
      ],
      [
        "ed",
        -6.178064823150635
      ],
      [
        "▁had",
        -6.192895412445068
      ],
      [
        "▁not",
        -6.254127502441406
      ],
      [
        "▁have",
        -6.313887596130371
      ],
      [
        "▁their",
        -6.346838474273682
      ],
      [
        "▁but",
        -6.391287803649902
      ],
      [
        "▁A",
        -6.395340919494629
      ],
      [
        "▁this",
        -6.416470527648926
      ],
      [
        "▁also",
        -6.487361431121826
      ],
      [
        "e",
        -6.4945292472839355
      ],
      [
        "d",
        -6.515419960021973
      ],
      [
        "t",
        -6.52058744430542
      ],
      [
        "▁one",
        -6.530267238616943
      ],
      [
        "▁has",
        -6.5459160804748535
      ],
      [
        "▁I",
        -6.5664472579956055
      ],
      [
        "▁first",
        -6.589102745056152
      ],
      [
        "▁they",
        -6.611099720001221
      ],
      [
        "▁its",
        -6.6529130935668945
      ],
      [
        "▁who",
        -6.666913986206055
      ],
      [
        "▁can",
        -6.685737133026123
      ],
      [
        "▁her",
        -6.692861557006836
      ],
      [
        "▁been",
        -6.696290493011475
      ],
      [
        "’",
        -6.696981430053711
      ],
      [
        "▁–",
        -6.7052412033081055
      ],
      [
        "▁more",
        -6.725776195526123
      ],
      [
        "▁two",
        -6.753191947937012
      ],
      [
        "▁;",
        -6.768827438354492
      ],
      [
        "▁It",
        -6.782229423522949
      ],
      [
        ":",
        -6.801292419433594
      ],
      [
        "▁He",
        -6.8069963455200195
      ],
      [
        "▁other",
        -6.813621997833252
      ],
      [
        "▁time",
        -6.815725803375244
      ],
      [
        "ly",
        -6.834264755249023
      ],
      [
        "er",
        -6.842207908630371
      ],
      [
        "▁into",
        -6.860194683074951
      ],
      [
        "▁you",
        -6.867708683013916
      ],
      [
        "y",
        -6.868719100952148
      ],
      [
        "▁-",
        -6.870560169219971
      ],
      [
        "▁all",
        -6.883388519287109
      ],
      [
        "▁would",
        -6.883445739746094
      ],
      [
        ")",
        -6.884462833404541
      ],
      [
        "th",
        -6.918856143951416
      ],
      [
        "▁after",
        -6.959493637084961
      ],
      [
        ".@",
        -6.968372821807861
      ],
      [
        "▁1",
        -6.9773406982421875
      ],
      [
        "▁about",
        -6.9791340827941895
      ],
      [
        "▁when",
        -6.979729652404785
      ],
      [
        "▁de",
        -6.982791423797607
      ],
      [
        "▁2",
        -6.98375129699707
      ],
      [
        "▁over",
        -7.001608848571777
      ],
      [
        "a",
        -7.0246992111206055
      ],
      [
        "'",
        -7.0259480476379395
      ],
      [
        "▁@,@",
        -7.027068138122559
      ],
      [
        "▁than",
        -7.048036575317383
      ],
      [
        "▁out",
        -7.058576583862305
      ],
      [
        "▁nan",
        -7.0676188468933105
      ],
      [
        "▁up",
        -7.074822425842285
      ],
      [
        "n",
        -7.077160358428955
      ],
      [
        "▁This",
        -7.103982925415039
      ],
      [
        "▁only",
        -7.127894401550293
      ],
      [
        "▁3",
        -7.144087791442871
      ],
      [
        "▁most",
        -7.1617560386657715
      ],
      [
        "▁will",
        -7.170936584472656
      ],
      [
        "▁new",
        -7.222643852233887
      ],
      [
        "▁between",
        -7.231074333190918
      ],
      [
        "▁during",
        -7.234288692474365
      ],
      [
        "▁such",
        -7.238264083862305
      ],
      [
        "▁she",
        -7.243902206420898
      ],
      [
        "▁some",
        -7.263447284698486
      ],
      [
        "▁them",
        -7.269722938537598
      ],
      [
        "▁him",
        -7.281497001647949
      ],
      [
        "o",
        -7.305480003356934
      ],
      [
        "▁used",
        -7.3153181076049805
      ],
      [
        "▁so",
        -7.34984827041626
      ],
      [
        "▁there",
        -7.361907005310059
      ],
      [
        "▁three",
        -7.362116813659668
      ],
      [
        "▁5",
        -7.366309642791748
      ],
      [
        "es",
        -7.376835823059082
      ],
      [
        "▁where",
        -7.377987384796143
      ],
      [
        "▁while",
        -7.380110740661621
      ],
      [
        "▁we",
        -7.384244441986084
      ],
      [
        "i",
        -7.388733386993408
      ],
      [
        "▁your",
        -7.40526819229126
      ],
      [
        "al",
        -7.407100677490234
      ],
      [
        "▁years",
        -7.408265590667725
      ],
      [
        "▁made",
        -7.411795616149902
      ],
      [
        "▁through",
        -7.419212818145752
      ],
      [
        "▁no",
        -7.42366886138916
      ],
      [
        "▁may",
        -7.4253339767456055
      ],
      [
        "▁4",
        -7.437719821929932
      ],
      [
        "▁people",
        -7.443482398986816
      ],
      [
        "▁later",
        -7.446866989135742
      ],
      [
        "m",
        -7.449120998382568
      ],
      [
        "▁these",
        -7.450174808502197
      ],
      [
        "▁game",
        -7.4568257331848145
      ],
      [
        "▁well",
        -7.457237720489502
      ],
      [
        "▁many",
        -7.458804607391357
      ],
      [
        "▁year",
        -7.459667682647705
      ],
      [
        "▁before",
        -7.4663214683532715
      ],
      [
        "▁“",
        -7.470767974853516
      ],
      [
        "▁being",
        -7.472424030303955
      ],
      [
        "▁On",
        -7.477887153625488
      ],
      [
        "▁New",
        -7.483413219451904
      ],
      [
        "re",
        -7.5230712890625
      ],
      [
        "▁then",
        -7.537471771240234
      ],
      [
        "▁use",
        -7.53809118270874
      ],
      [
        "▁part",
        -7.5586981773376465
      ],
      [
        "▁work",
        -7.562034606933594
      ],
      [
        "in",
        -7.569721698760986
      ],
      [
        "r",
        -7.570559024810791
      ],
      [
        "▁could",
        -7.575523853302002
      ],
      [
        "▁number",
        -7.57947301864624
      ],
      [
        "▁both",
        -7.590356349945068
      ],
      [
        "▁S",
        -7.597361087799072
      ],
      [
        "▁6",
        -7.6024909019470215
      ],
      [
        "▁like",
        -7.61265754699707
      ],
      [
        "S",
        -7.6138482093811035
      ],
      [
        "▁said",
        -7.620792388916016
      ],
      [
        "▁film",
        -7.621272087097168
      ],
      [
        "▁B",
        -7.625270843505859
      ],
      [
        "▁under",
        -7.633088111877441
      ],
      [
        "▁including",
        -7.637454509735107
      ],
      [
        "▁against",
        -7.6486029624938965
      ],
      [
        "▁second",
        -7.655612945556641
      ],
      [
        "▁As",
        -7.656886100769043
      ],
      [
        "▁if",
        -7.658139228820801
      ],
      [
        "▁season",
        -7.658463478088379
      ],
      [
        "▁do",
        -7.658629417419434
      ],
      [
        "▁C",
        -7.677752494812012
      ],
      [
        "▁/",
        -7.681495666503906
      ],
      [
        "▁000",
        -7.686344623565674
      ],
      [
        "▁what",
        -7.688157558441162
      ],
      [
        "▁—",
        -7.6982645988464355
      ],
      [
        "▁re",
        -7.702381134033203
      ],
      [
        "▁any",
        -7.709089756011963
      ],
      [
        "▁10",
        -7.7174072265625
      ],
      [
        "▁United",
        -7.7194366455078125
      ],
      [
        ";",
        -7.722726345062256
      ],
      [
        "▁because",
        -7.736915588378906
      ],
      [
        "▁became",
        -7.741734027862549
      ],
      [
        "▁American",
        -7.752935886383057
      ],
      [
        "▁7",
        -7.763317108154297
      ],
      [
        "▁After",
        -7.763458728790283
      ],
      [
        "▁known",
        -7.7651262283325195
      ],
      [
        "▁day",
        -7.767336368560791
      ],
      [
        "▁se",
        -7.774628639221191
      ],
      [
        "▁U",
        -7.775085926055908
      ],
      [
        "▁=",
        -7.792417049407959
      ],
      [
        "man",
        -7.792989730834961
      ],
      [
        "▁found",
        -7.795180797576904
      ],
      [
        "▁E",
        -7.796197414398193
      ],
      [
        "▁four",
        -7.80266809463501
      ],
      [
        "▁did",
        -7.802783489227295
      ],
      [
        "▁several",
        -7.808664798736572
      ],
      [
        "▁same",
        -7.81341028213501
      ],
      [
        "▁8",
        -7.816794395446777
      ],
      [
        "▁called",
        -7.821077346801758
      ],
      [
        "?",
        -7.82643985748291
      ],
      [
        "▁team",
        -7.826609134674072
      ],
      [
        "▁song",
        -7.8302001953125
      ],
      [
        "▁series",
        -7.832441806793213
      ],
      [
        "▁each",
        -7.842405796051025
      ],
      [
        "▁album",
        -7.8430352210998535
      ],
      [
        "▁end",
        -7.856488227844238
      ],
      [
        "▁long",
        -7.85706090927124
      ],
      [
        "▁early",
        -7.860406875610352
      ],
      [
        "en",
        -7.8609490394592285
      ],
      [
        "▁They",
        -7.866662502288818
      ],
      [
        "▁high",
        -7.868906021118164
      ],
      [
        "▁M",
        -7.869483947753906
      ],
      [
        "▁water",
        -7.871495246887207
      ],
      [
        "▁make",
        -7.87555456161499
      ],
      [
        "g",
        -7.884650230407715
      ],
      [
        "▁D",
        -7.884975433349609
      ],
      [
        "▁back",
        -7.885859966278076
      ],
      [
        "▁9",
        -7.886317253112793
      ],
      [
        "/",
        -7.888847351074219
      ],
      [
        "▁around",
        -7.8896965980529785
      ],
      [
        "▁how",
        -7.8953857421875
      ],
      [
        "▁sa",
        -7.90102481842041
      ],
      [
        "▁system",
        -7.908875942230225
      ],
      [
        "▁F",
        -7.912213325500488
      ],
      [
        "▁until",
        -7.914092063903809
      ],
      [
        "▁At",
        -7.9155354499816895
      ],
      [
        "k",
        -7.9176154136657715
      ],
      [
        "▁She",
        -7.926065921783447
      ],
      [
        "▁began",
        -7.939911365509033
      ],
      [
        "▁much",
        -7.949128150939941
      ],
      [
        "▁life",
        -7.949610233306885
      ],
      [
        "▁very",
        -7.950265407562256
      ],
      [
        "ers",
        -7.950963973999023
      ],
      [
        "l",
        -7.9545111656188965
      ],
      [
        "▁million",
        -7.955960273742676
      ],
      [
        "▁episode",
        -7.957150459289551
      ],
      [
        "▁However",
        -7.9605302810668945
      ],
      [
        "▁world",
        -7.963468074798584
      ],
      [
        "▁state",
        -7.965076446533203
      ],
      [
        "▁those",
        -7.973834037780762
      ],
      [
        "▁way",
        -7.975255012512207
      ],
      [
        "▁15",
        -7.978650093078613
      ],
      [
        "▁just",
        -7.981820106506348
      ],
      [
        "▁P",
        -7.987051963806152
      ],
      [
        "▁our",
        -7.9904656410217285
      ],
      [
        "▁For",
        -7.993392467498779
      ],
      [
        "▁20",
        -7.997886657714844
      ],
      [
        "▁area",
        -8.006641387939453
      ],
      [
        "▁12",
        -8.007852554321289
      ],
      [
        "▁down",
        -8.010319709777832
      ],
      [
        "▁L",
        -8.01096248626709
      ],
      [
        "▁off",
        -8.013337135314941
      ],
      [
        "▁States",
        -8.01392936706543
      ],
      [
        "▁16",
        -8.020013809204102
      ],
      [
        "▁yo",
        -8.020325660705566
      ],
      [
        "▁even",
        -8.020537376403809
      ],
      [
        "an",
        -8.024465560913086
      ],
      [
        ").",
        -8.031784057617188
      ],
      [
        "▁following",
        -8.032275199890137
      ],
      [
        "▁British",
        -8.035344123840332
      ],
      [
        "▁$",
        -8.041666030883789
      ],
      [
        "▁[",
        -8.0476713180542
      ],
      [
        "▁released",
        -8.053400039672852
      ],
      [
        "▁G",
        -8.053829193115234
      ],
      [
        "▁R",
        -8.054398536682129
      ],
      [
        "▁When",
        -8.055447578430176
      ],
      [
        "▁own",
        -8.062457084655762
      ],
      [
        "▁0",
        -8.063884735107422
      ],
      [
        "us",
        -8.070945739746094
      ],
      [
        "▁large",
        -8.07623291015625
      ],
      [
        "▁T",
        -8.076992988586426
      ],
      [
        "▁li",
        -8.07746696472168
      ],
      [
        "▁place",
        -8.078168869018555
      ],
      [
        "▁should",
        -8.07880687713623
      ],
      [
        "▁17",
        -8.087390899658203
      ],
      [
        "▁different",
        -8.088006019592285
      ],
      [
        "st",
        -8.089387893676758
      ],
      [
        "▁War",
        -8.091035842895508
      ],
      [
        "▁O",
        -8.09246826171875
      ],
      [
        "▁yon",
        -8.092743873596191
      ],
      [
        "▁along",
        -8.09311294555664
      ],
      [
        "▁May",
        -8.093390464782715
      ],
      [
        "▁since",
        -8.094493865966797
      ],
      [
        "▁now",
        -8.094828605651855
      ],
      [
        "▁World",
        -8.098379135131836
      ],
      [
        "▁John",
        -8.099329948425293
      ],
      [
        "▁m",
        -8.101500511169434
      ],
      [
        "on",
        -8.103433609008789
      ],
      [
        "▁set",
        -8.1064453125
      ],
      [
        "or",
        -8.111505508422852
      ],
      [
        "▁There",
        -8.112645149230957
      ],
      [
        "▁music",
        -8.11454963684082
      ],
      [
        "▁group",
        -8.1162109375
      ],
      [
        "▁century",
        -8.121024131774902
      ],
      [
        "▁took",
        -8.12513256072998
      ],
      [
        "▁another",
        -8.125389099121094
      ],
      [
        "▁September",
        -8.128702163696289
      ],
      [
        "▁home",
        -8.130473136901855
      ],
      [
        "c",
        -8.130910873413086
      ],
      [
        "▁show",
        -8.136252403259277
      ],
      [
        "▁km",
        -8.146515846252441
      ],
      [
        "b",
        -8.147724151611328
      ],
      [
        "▁often",
        -8.1505708694458
      ],
      [
        "▁five",
        -8.15545654296875
      ],
      [
        "▁government",
        -8.157105445861816
      ],
      [
        "▁war",
        -8.160797119140625
      ],
      [
        "▁city",
        -8.161460876464844
      ],
      [
        "ic",
        -8.165765762329102
      ],
      [
        "▁August",
        -8.166065216064453
      ],
      [
        "▁men",
        -8.168486595153809
      ],
      [
        "▁single",
        -8.16939926147461
      ],
      [
        "▁still",
        -8.171603202819824
      ],
      [
        "▁take",
        -8.179988861083984
      ],
      [
        "▁name",
        -8.183194160461426
      ],
      [
        "▁due",
        -8.184221267700195
      ],
      [
        "▁small",
        -8.184597969055176
      ],
      [
        "▁11",
        -8.187207221984863
      ],
      [
        "▁US",
        -8.190345764160156
      ],
      [
        "▁based",
        -8.190908432006836
      ],
      [
        "▁York",
        -8.19442081451416
      ],
      [
        "2",
        -8.197123527526855
      ],
      [
        "▁received",
        -8.19954776763916
      ],
      [
        "▁help",
        -8.20143985748291
      ],
      [
        "▁To",
        -8.202230453491211
      ],
      [
        "▁K",
        -8.209858894348145
      ],
      [
        "▁left",
        -8.211421012878418
      ],
      [
        "▁children",
        -8.212621688842773
      ],
      [
        "▁family",
        -8.214717864990234
      ],
      [
        "▁within",
        -8.216018676757812
      ],
      [
        "▁October",
        -8.216703414916992
      ],
      [
        "▁best",
        -8.219026565551758
      ],
      [
        "A",
        -8.220833778381348
      ],
      [
        "▁We",
        -8.22541618347168
      ],
      [
        "▁school",
        -8.227285385131836
      ],
      [
        "▁La",
        -8.230130195617676
      ],
      [
        "▁using",
        -8.248188018798828
      ],
      [
        "▁June",
        -8.248437881469727
      ],
      [
        "▁ak",
        -8.248819351196289
      ],
      [
        "p",
        -8.250738143920898
      ],
      [
        "▁line",
        -8.260305404663086
      ],
      [
        "u",
        -8.261188507080078
      ],
      [
        "▁By",
        -8.262226104736328
      ],
      [
        "▁last",
        -8.26363468170166
      ],
      [
        "▁power",
        -8.265172004699707
      ],
      [
        "▁species",
        -8.26770305633545
      ],
      [
        "▁per",
        -8.26951789855957
      ],
      [
        "▁July",
        -8.274768829345703
      ],
      [
        "▁March",
        -8.277816772460938
      ],
      [
        "▁North",
        -8.279566764831543
      ],
      [
        "▁s",
        -8.283197402954102
      ],
      [
        "▁If",
        -8.290355682373047
      ],
      [
        "▁public",
        -8.292217254638672
      ],
      [
        "▁13",
        -8.292546272277832
      ],
      [
        "▁30",
        -8.296173095703125
      ],
      [
        "le",
        -8.296248435974121
      ],
      [
        "▁April",
        -8.29631519317627
      ],
      [
        "▁un",
        -8.296456336975098
      ],
      [
        "▁November",
        -8.2991304397583
      ],
      [
        "▁form",
        -8.304203987121582
      ],
      [
        "▁...",
        -8.305054664611816
      ],
      [
        "▁South",
        -8.305380821228027
      ],
      [
        "▁H",
        -8.306562423706055
      ],
      [
        "▁good",
        -8.309945106506348
      ],
      [
        "▁During",
        -8.312925338745117
      ],
      [
        "▁&",
        -8.313361167907715
      ],
      [
        "▁without",
        -8.313432693481445
      ],
      [
        "▁These",
        -8.31351089477539
      ],
      [
        "▁final",
        -8.313756942749023
      ],
      [
        "▁National",
        -8.314781188964844
      ],
      [
        "▁14",
        -8.316494941711426
      ],
      [
        "▁No",
        -8.317334175109863
      ],
      [
        "▁important",
        -8.320172309875488
      ],
      [
        "able",
        -8.323800086975098
      ],
      [
        "▁N",
        -8.325602531433105
      ],
      [
        "),",
        -8.326894760131836
      ],
      [
        "▁J",
        -8.328372955322266
      ],
      [
        "▁third",
        -8.332365036010742
      ],
      [
        "▁get",
        -8.332609176635742
      ],
      [
        "▁St",
        -8.332937240600586
      ],
      [
        "▁character",
        -8.333191871643066
      ],
      [
        "▁become",
        -8.334864616394043
      ],
      [
        "▁main",
        -8.335359573364258
      ],
      [
        "▁next",
        -8.335808753967285
      ],
      [
        "▁included",
        -8.335816383361816
      ],
      [
        "▁few",
        -8.338334083557129
      ],
      [
        "▁near",
        -8.3399658203125
      ],
      [
        "▁major",
        -8.340849876403809
      ],
      [
        "▁]",
        -8.34125804901123
      ],
      [
        "▁18",
        -8.343823432922363
      ],
      [
        "▁%",
        -8.35384464263916
      ],
      [
        "ity",
        -8.358309745788574
      ],
      [
        "▁support",
        -8.358555793762207
      ],
      [
        "▁University",
        -8.361857414245605
      ],
      [
        "▁local",
        -8.365582466125488
      ],
      [
        "▁One",
        -8.368326187133789
      ],
      [
        "▁An",
        -8.369771003723145
      ],
      [
        "▁December",
        -8.371402740478516
      ],
      [
        "C",
        -8.373796463012695
      ],
      [
        "▁led",
        -8.375227928161621
      ],
      [
        "▁side",
        -8.375873565673828
      ],
      [
        "▁January",
        -8.376399040222168
      ],
      [
        "▁role",
        -8.379100799560547
      ],
      [
        "▁death",
        -8.380826950073242
      ],
      [
        "▁right",
        -8.382159233093262
      ],
      [
        "▁book",
        -8.382540702819824
      ],
      [
        "▁play",
        -8.38367748260498
      ],
      [
        "▁wrote",
        -8.387740135192871
      ],
      [
        "h",
        -8.389538764953613
      ],
      [
        "ar",
        -8.391392707824707
      ],
      [
        "▁include",
        -8.394761085510254
      ],
      [
        "▁won",
        -8.394889831542969
      ],
      [
        "te",
        -8.398698806762695
      ],
      [
        "”",
        -8.399046897888184
      ],
      [
        "▁see",
        -8.400689125061035
      ],
      [
        "▁however",
        -8.402403831481934
      ],
      [
        "▁His",
        -8.404035568237305
      ],
      [
        "▁six",
        -8.405468940734863
      ],
      [
        "▁days",
        -8.406828880310059
      ],
      [
        "ve",
        -8.406898498535156
      ],
      [
        "▁point",
        -8.407026290893555
      ],
      [
        "▁order",
        -8.407083511352539
      ],
      [
        "▁need",
        -8.410411834716797
      ],
      [
        "▁described",
        -8.412202835083008
      ],
      [
        "▁development",
        -8.41229248046875
      ],
      [
        "B",
        -8.412787437438965
      ],
      [
        "▁played",
        -8.413628578186035
      ],
      [
        "▁body",
        -8.4143648147583
      ],
      [
        "▁2010",
        -8.430092811584473
      ],
      [
        "z",
        -8.43061351776123
      ],
      [
        "▁again",
        -8.434196472167969
      ],
      [
        "▁vil",
        -8.437369346618652
      ],
      [
        "▁production",
        -8.437668800354004
      ],
      [
        "▁among",
        -8.438467025756836
      ],
      [
        "▁band",
        -8.439732551574707
      ],
      [
        "▁record",
        -8.439823150634766
      ],
      [
        "▁You",
        -8.440115928649902
      ],
      [
        "▁original",
        -8.440984725952148
      ],
      [
        "▁built",
        -8.442694664001465
      ],
      [
        "f",
        -8.443134307861328
      ],
      [
        "▁All",
        -8.44490909576416
      ],
      [
        "▁late",
        -8.44542407989502
      ],
      [
        "▁named",
        -8.445459365844727
      ],
      [
        "▁kòm",
        -8.445826530456543
      ],
      [
        "▁my",
        -8.446393013000488
      ],
      [
        "▁W",
        -8.449385643005371
      ],
      [
        "▁te",
        -8.45003604888916
      ],
      [
        "▁man",
        -8.450613021850586
      ],
      [
        "▁less",
        -8.450836181640625
      ],
      [
        "to",
        -8.45495319366455
      ],
      [
        "▁further",
        -8.457988739013672
      ],
      [
        "▁Le",
        -8.458165168762207
      ],
      [
        "▁non",
        -8.4585542678833
      ],
      [
        "ist",
        -8.463863372802734
      ],
      [
        "▁19",
        -8.46413516998291
      ],
      [
        "▁Li",
        -8.467838287353516
      ],
      [
        "D",
        -8.467894554138184
      ],
      [
        "▁me",
        -8.468297958374023
      ],
      [
        "ia",
        -8.468493461608887
      ],
      [
        "▁top",
        -8.47082233428955
      ],
      [
        "▁German",
        -8.471200942993164
      ],
      [
        "ation",
        -8.471418380737305
      ],
      [
        "▁period",
        -8.472166061401367
      ],
      [
        "▁having",
        -8.48073959350586
      ],
      [
        "▁French",
        -8.482558250427246
      ],
      [
        "▁came",
        -8.48305892944336
      ],
      [
        "▁2011",
        -8.483928680419922
      ],
      [
        "▁given",
        -8.484538078308105
      ],
      [
        "▁history",
        -8.486230850219727
      ],
      [
        "▁north",
        -8.489493370056152
      ],
      [
        "▁ship",
        -8.489567756652832
      ],
      [
        "▁100",
        -8.489813804626465
      ],
      [
        "▁held",
        -8.490019798278809
      ],
      [
        "▁although",
        -8.49184513092041
      ],
      [
        "▁control",
        -8.492237091064453
      ],
      [
        "▁Istwa",
        -8.492271423339844
      ],
      [
        "\"",
        -8.493589401245117
      ],
      [
        "▁2009",
        -8.494331359863281
      ],
      [
        "ta",
        -8.497556686401367
      ],
      [
        "▁De",
        -8.497564315795898
      ],
      [
        "▁25",
        -8.498204231262207
      ],
      [
        "▁English",
        -8.499369621276855
      ],
      [
        "ton",
        -8.50088119506836
      ],
      [
        "▁students",
        -8.501654624938965
      ],
      [
        "▁2008",
        -8.503750801086426
      ],
      [
        "▁considered",
        -8.503974914550781
      ],
      [
        "▁example",
        -8.506197929382324
      ],
      [
        "▁But",
        -8.506571769714355
      ],
      [
        "▁story",
        -8.507411003112793
      ],
      [
        "▁February",
        -8.511137008666992
      ],
      [
        "▁great",
        -8.512182235717773
      ],
      [
        "▁country",
        -8.515327453613281
      ],
      [
        "▁video",
        -8.515754699707031
      ],
      [
        "▁members",
        -8.518027305603027
      ],
      [
        "ian",
        -8.518790245056152
      ],
      [
        "▁lead",
        -8.519920349121094
      ],
      [
        "▁result",
        -8.526230812072754
      ],
      [
        "ism",
        -8.526642799377441
      ],
      [
        "▁short",
        -8.527851104736328
      ],
      [
        "▁While",
        -8.52853775024414
      ],
      [
        "▁study",
        -8.531514167785645
      ],
      [
        "▁making",
        -8.536809921264648
      ],
      [
        "▁does",
        -8.538324356079102
      ],
      [
        "▁common",
        -8.540984153747559
      ],
      [
        "▁old",
        -8.54390811920166
      ],
      [
        "▁V",
        -8.545694351196289
      ],
      [
        "▁la",
        -8.547616958618164
      ],
      [
        "▁2012",
        -8.5554838180542
      ],
      [
        "▁must",
        -8.555797576904297
      ],
      [
        "▁Although",
        -8.55811882019043
      ],
      [
        "ne",
        -8.559123039245605
      ],
      [
        "▁women",
        -8.559767723083496
      ],
      [
        "▁health",
        -8.559864044189453
      ],
      [
        "▁release",
        -8.561421394348145
      ],
      [
        "▁human",
        -8.561573028564453
      ],
      [
        "▁though",
        -8.561888694763184
      ],
      [
        "▁information",
        -8.562461853027344
      ],
      [
        "▁2007",
        -8.562707901000977
      ],
      [
        "na",
        -8.563397407531738
      ],
      [
        "▁go",
        -8.564200401306152
      ],
      [
        "▁half",
        -8.569066047668457
      ],
      [
        "▁level",
        -8.571845054626465
      ],
      [
        "3",
        -8.578411102294922
      ],
      [
        "▁research",
        -8.581050872802734
      ],
      [
        "▁land",
        -8.582128524780273
      ],
      [
        "▁south",
        -8.583242416381836
      ],
      [
        "▁air",
        -8.586023330688477
      ],
      [
        "▁games",
        -8.587565422058105
      ],
      [
        "▁West",
        -8.587865829467773
      ],
      [
        "▁continued",
        -8.58851432800293
      ],
      [
        "is",
        -8.590639114379883
      ],
      [
        "▁never",
        -8.594026565551758
      ],
      [
        "▁low",
        -8.594829559326172
      ],
      [
        "▁able",
        -8.595995903015137
      ],
      [
        "▁every",
        -8.596566200256348
      ],
      [
        "▁England",
        -8.599077224731445
      ],
      [
        "▁similar",
        -8.600940704345703
      ],
      [
        "▁Re",
        -8.600951194763184
      ],
      [
        "ness",
        -8.605340003967285
      ],
      [
        "▁d",
        -8.606537818908691
      ],
      [
        "▁building",
        -8.606703758239746
      ],
      [
        "▁too",
        -8.608634948730469
      ],
      [
        "F",
        -8.609699249267578
      ],
      [
        "▁process",
        -8.610487937927246
      ],
      [
        "▁position",
        -8.610713958740234
      ],
      [
        "▁published",
        -8.614144325256348
      ],
      [
        "▁total",
        -8.620122909545898
      ],
      [
        "▁written",
        -8.621914863586426
      ],
      [
        "▁areas",
        -8.62390422821045
      ],
      [
        "▁change",
        -8.625699043273926
      ],
      [
        "▁match",
        -8.626484870910645
      ],
      [
        "▁head",
        -8.626991271972656
      ],
      [
        "il",
        -8.627887725830078
      ],
      [
        "▁company",
        -8.62833309173584
      ],
      [
        "ll",
        -8.631930351257324
      ],
      [
        "▁light",
        -8.632013320922852
      ],
      [
        "▁across",
        -8.635784149169922
      ],
      [
        "▁21",
        -8.638781547546387
      ],
      [
        "▁City",
        -8.643861770629883
      ],
      [
        "▁class",
        -8.644411087036133
      ],
      [
        "▁age",
        -8.646536827087402
      ],
      [
        "▁former",
        -8.648262023925781
      ],
      [
        "ry",
        -8.648589134216309
      ],
      [
        "▁River",
        -8.649869918823242
      ],
      [
        "▁food",
        -8.650580406188965
      ],
      [
        "▁24",
        -8.650736808776855
      ],
      [
        "▁little",
        -8.651407241821289
      ],
      [
        "▁case",
        -8.652438163757324
      ],
      [
        "▁data",
        -8.65924072265625
      ],
      [
        "▁away",
        -8.659383773803711
      ],
      [
        "▁service",
        -8.660796165466309
      ],
      [
        "▁various",
        -8.662039756774902
      ],
      [
        "▁us",
        -8.66210651397705
      ],
      [
        "▁According",
        -8.662199974060059
      ],
      [
        "▁version",
        -8.663032531738281
      ],
      [
        "▁II",
        -8.663604736328125
      ],
      [
        "▁Some",
        -8.664375305175781
      ],
      [
        "▁King",
        -8.664800643920898
      ],
      [
        "▁co",
        -8.665834426879883
      ],
      [
        "▁find",
        -8.66631031036377
      ],
      [
        "▁storm",
        -8.666731834411621
      ],
      [
        "1",
        -8.667479515075684
      ],
      [
        "ch",
        -8.670389175415039
      ],
      [
        "▁developed",
        -8.673707962036133
      ],
      [
        "▁e",
        -8.674308776855469
      ],
      [
        "▁moved",
        -8.674309730529785
      ],
      [
        "▁times",
        -8.677531242370605
      ],
      [
        "▁America",
        -8.678370475769043
      ],
      [
        "▁produced",
        -8.680608749389648
      ],
      [
        "▁2013",
        -8.680749893188477
      ],
      [
        "▁State",
        -8.681106567382812
      ],
      [
        "▁London",
        -8.684793472290039
      ],
      [
        "▁2006",
        -8.686568260192871
      ],
      [
        "▁With",
        -8.69104290008545
      ],
      [
        "▁general",
        -8.691582679748535
      ],
      [
        "▁present",
        -8.69202709197998
      ],
      [
        "▁design",
        -8.695947647094727
      ],
      [
        "▁fire",
        -8.696135520935059
      ],
      [
        "▁run",
        -8.69653606414795
      ],
      [
        "▁full",
        -8.697705268859863
      ],
      [
        "▁attack",
        -8.699125289916992
      ],
      [
        "ment",
        -8.700132369995117
      ],
      [
        "▁know",
        -8.706216812133789
      ],
      [
        "▁went",
        -8.706769943237305
      ],
      [
        "la",
        -8.708565711975098
      ],
      [
        "ma",
        -8.708925247192383
      ],
      [
        "el",
        -8.712668418884277
      ],
      [
        "▁week",
        -8.716736793518066
      ],
      [
        "▁might",
        -8.71814250946045
      ],
      [
        "▁gave",
        -8.718690872192383
      ],
      [
        "▁lost",
        -8.719208717346191
      ],
      [
        "▁seen",
        -8.721723556518555
      ],
      [
        "▁Ayiti",
        -8.727683067321777
      ],
      [
        "▁And",
        -8.727710723876953
      ],
      [
        "▁created",
        -8.731775283813477
      ],
      [
        "▁What",
        -8.73243522644043
      ],
      [
        "son",
        -8.733518600463867
      ],
      [
        "▁months",
        -8.733558654785156
      ],
      [
        "▁epi",
        -8.73386287689209
      ],
      [
        "▁population",
        -8.734928131103516
      ],
      [
        "▁player",
        -8.736675262451172
      ],
      [
        "E",
        -8.737171173095703
      ],
      [
        "▁possible",
        -8.739758491516113
      ],
      [
        "▁better",
        -8.744274139404297
      ],
      [
        "▁white",
        -8.74520206451416
      ],
      [
        "▁together",
        -8.745471954345703
      ],
      [
        "nd",
        -8.745502471923828
      ],
      [
        "x",
        -8.74698257446289
      ],
      [
        "▁So",
        -8.749785423278809
      ],
      [
        "▁military",
        -8.75070571899414
      ],
      [
        "▁range",
        -8.752275466918945
      ],
      [
        "▁political",
        -8.752345085144043
      ],
      [
        "▁addition",
        -8.752355575561523
      ],
      [
        "▁town",
        -8.754060745239258
      ],
      [
        "▁house",
        -8.757044792175293
      ],
      [
        "ie",
        -8.758333206176758
      ],
      [
        "▁force",
        -8.758818626403809
      ],
      [
        "age",
        -8.759298324584961
      ],
      [
        "▁put",
        -8.76082706451416
      ],
      [
        "▁performance",
        -8.761235237121582
      ],
      [
        "id",
        -8.761275291442871
      ],
      [
        "▁black",
        -8.765524864196777
      ],
      [
        "▁50",
        -8.765915870666504
      ],
      [
        "▁law",
        -8.766796112060547
      ],
      [
        "▁p",
        -8.767457008361816
      ],
      [
        "H",
        -8.76810359954834
      ],
      [
        "▁person",
        -8.76904296875
      ],
      [
        "co",
        -8.775232315063477
      ],
      [
        "▁thought",
        -8.775762557983398
      ],
      [
        "▁father",
        -8.777753829956055
      ],
      [
        "▁east",
        -8.778131484985352
      ],
      [
        "▁22",
        -8.778341293334961
      ],
      [
        "▁taken",
        -8.778487205505371
      ],
      [
        "▁l",
        -8.779555320739746
      ],
      [
        "▁national",
        -8.782111167907715
      ],
      [
        "▁himself",
        -8.782941818237305
      ],
      [
        "N",
        -8.78343391418457
      ],
      [
        "▁returned",
        -8.784215927124023
      ],
      [
        "▁project",
        -8.784278869628906
      ],
      [
        "▁forces",
        -8.78499698638916
      ],
      [
        "▁Sa",
        -8.785311698913574
      ],
      [
        "▁child",
        -8.785988807678223
      ],
      [
        "▁social",
        -8.78656005859375
      ],
      [
        "it",
        -8.786840438842773
      ],
      [
        "▁available",
        -8.788962364196777
      ],
      [
        "▁career",
        -8.78939437866211
      ],
      [
        "▁Kiba",
        -8.790255546569824
      ],
      [
        "▁writing",
        -8.791828155517578
      ],
      [
        "▁live",
        -8.793044090270996
      ],
      [
        "▁reported",
        -8.794482231140137
      ],
      [
        "P",
        -8.797301292419434
      ],
      [
        "▁ki",
        -8.797340393066406
      ],
      [
        "▁west",
        -8.80128288269043
      ],
      [
        "▁2014",
        -8.801495552062988
      ],
      [
        "V",
        -8.801889419555664
      ],
      [
        "de",
        -8.801987648010254
      ],
      [
        ".”",
        -8.803852081298828
      ],
      [
        "▁field",
        -8.805397033691406
      ],
      [
        "▁throughout",
        -8.805421829223633
      ],
      [
        "▁Man",
        -8.807116508483887
      ],
      [
        "ra",
        -8.808180809020996
      ],
      [
        "w",
        -8.809467315673828
      ],
      [
        "▁General",
        -8.811010360717773
      ],
      [
        "I",
        -8.811166763305664
      ],
      [
        "▁William",
        -8.811531066894531
      ],
      [
        "▁pre",
        -8.811945915222168
      ],
      [
        "▁Australia",
        -8.813298225402832
      ],
      [
        "M",
        -8.814143180847168
      ],
      [
        "▁once",
        -8.814837455749512
      ],
      [
        "▁free",
        -8.816421508789062
      ],
      [
        "▁site",
        -8.81653881072998
      ],
      [
        "▁working",
        -8.817282676696777
      ],
      [
        "▁2005",
        -8.818503379821777
      ],
      [
        "▁come",
        -8.81881046295166
      ],
      [
        "▁James",
        -8.819011688232422
      ],
      [
        "▁Al",
        -8.819916725158691
      ],
      [
        "G",
        -8.82004165649414
      ],
      [
        "▁stated",
        -8.820446014404297
      ],
      [
        "▁recorded",
        -8.820450782775879
      ],
      [
        "da",
        -8.820655822753906
      ],
      [
        "▁least",
        -8.822643280029297
      ],
      [
        "um",
        -8.823298454284668
      ],
      [
        "▁died",
        -8.826970100402832
      ],
      [
        "▁God",
        -8.827284812927246
      ],
      [
        "▁provide",
        -8.829296112060547
      ],
      [
        "▁son",
        -8.82936954498291
      ],
      [
        "▁rather",
        -8.82997989654541
      ],
      [
        "▁hand",
        -8.831761360168457
      ],
      [
        "▁young",
        -8.832405090332031
      ],
      [
        "▁23",
        -8.836512565612793
      ],
      [
        "▁return",
        -8.840069770812988
      ],
      [
        "▁c",
        -8.841167449951172
      ],
      [
        "▁start",
        -8.844009399414062
      ],
      [
        "▁energy",
        -8.846270561218262
      ],
      [
        "▁ten",
        -8.846423149108887
      ],
      [
        "▁track",
        -8.846465110778809
      ],
      [
        "▁night",
        -8.846689224243164
      ],
      [
        "▁others",
        -8.847089767456055
      ],
      [
        "▁al",
        -8.84854793548584
      ],
      [
        "▁previous",
        -8.849648475646973
      ],
      [
        "▁George",
        -8.851580619812012
      ],
      [
        "▁caused",
        -8.853200912475586
      ],
      [
        "ine",
        -8.853549003601074
      ],
      [
        "T",
        -8.855121612548828
      ],
      [
        "ive",
        -8.855509757995605
      ],
      [
        "▁Park",
        -8.856675148010254
      ],
      [
        "▁cause",
        -8.859116554260254
      ],
      [
        "▁sent",
        -8.860260009765625
      ],
      [
        "▁action",
        -8.860544204711914
      ],
      [
        "▁far",
        -8.861639022827148
      ],
      [
        "▁modern",
        -8.86375904083252
      ],
      [
        "ley",
        -8.869646072387695
      ],
      [
        "▁aircraft",
        -8.87370777130127
      ],
      [
        "▁40",
        -8.874449729919434
      ],
      [
        "▁upon",
        -8.879311561584473
      ],
      [
        "▁close",
        -8.881208419799805
      ],
      [
        "▁damage",
        -8.881579399108887
      ],
      [
        "▁sea",
        -8.881786346435547
      ],
      [
        "▁title",
        -8.881903648376465
      ],
      [
        "com",
        -8.882417678833008
      ],
      [
        "et",
        -8.883065223693848
      ],
      [
        "▁open",
        -8.883852005004883
      ],
      [
        "▁either",
        -8.885875701904297
      ],
      [
        "▁ayisyen",
        -8.88623332977295
      ],
      [
        "▁type",
        -8.887731552124023
      ],
      [
        "ling",
        -8.888279914855957
      ],
      [
        "▁2000",
        -8.88851261138916
      ],
      [
        "▁ships",
        -8.888591766357422
      ],
      [
        "land",
        -8.88892650604248
      ],
      [
        "▁remained",
        -8.89123821258545
      ],
      [
        "▁established",
        -8.892075538635254
      ],
      [
        "▁followed",
        -8.89603328704834
      ],
      [
        "▁Army",
        -8.897530555725098
      ],
      [
        "men",
        -8.90272045135498
      ],
      [
        "▁started",
        -8.902961730957031
      ],
      [
        "▁style",
        -8.905789375305176
      ],
      [
        "▁feet",
        -8.906840324401855
      ],
      [
        "▁ground",
        -8.907022476196289
      ],
      [
        "▁almost",
        -8.90791130065918
      ],
      [
        "me",
        -8.909189224243164
      ],
      [
        "ro",
        -8.911001205444336
      ],
      [
        "▁2015",
        -8.911901473999023
      ],
      [
        "▁Japanese",
        -8.914278984069824
      ],
      [
        "▁County",
        -8.914803504943848
      ],
      [
        "▁strong",
        -8.915379524230957
      ],
      [
        "▁San",
        -8.916988372802734
      ],
      [
        "▁give",
        -8.9194917678833
      ],
      [
        "▁post",
        -8.920807838439941
      ],
      [
        "▁club",
        -8.922772407531738
      ],
      [
        "▁X",
        -8.925257682800293
      ],
      [
        "▁popular",
        -8.926543235778809
      ],
      [
        "▁added",
        -8.926852226257324
      ],
      [
        "▁think",
        -8.92685317993164
      ],
      [
        "▁reached",
        -8.92761516571045
      ],
      [
        "▁average",
        -8.927742958068848
      ],
      [
        "▁felt",
        -8.930257797241211
      ],
      [
        "▁region",
        -8.930338859558105
      ],
      [
        "▁Co",
        -8.931601524353027
      ],
      [
        "▁ant",
        -8.932089805603027
      ],
      [
        "▁road",
        -8.932336807250977
      ],
      [
        "▁instead",
        -8.934306144714355
      ],
      [
        "W",
        -8.934833526611328
      ],
      [
        "▁28",
        -8.935111045837402
      ],
      [
        "at",
        -8.93518352508545
      ],
      [
        "▁h",
        -8.935906410217285
      ],
      [
        "▁above",
        -8.936129570007324
      ],
      [
        "▁School",
        -8.937418937683105
      ],
      [
        "▁Dr",
        -8.93773078918457
      ],
      [
        "▁fact",
        -8.93830680847168
      ],
      [
        "▁eight",
        -8.938666343688965
      ],
      [
        "▁El",
        -8.938946723937988
      ],
      [
        "▁Division",
        -8.939260482788086
      ],
      [
        "▁performed",
        -8.940844535827637
      ],
      [
        "▁2004",
        -8.941320419311523
      ],
      [
        "▁seven",
        -8.941705703735352
      ],
      [
        "ion",
        -8.941807746887207
      ],
      [
        "▁27",
        -8.942179679870605
      ],
      [
        "▁success",
        -8.942412376403809
      ],
      [
        "!",
        -8.944188117980957
      ],
      [
        "ate",
        -8.945016860961914
      ],
      [
        "▁noted",
        -8.945195198059082
      ],
      [
        "▁member",
        -8.945229530334473
      ],
      [
        "▁points",
        -8.947553634643555
      ],
      [
        "▁miles",
        -8.947626113891602
      ],
      [
        "▁Street",
        -8.94786548614502
      ],
      [
        "▁enough",
        -8.948344230651855
      ],
      [
        "▁rest",
        -8.950422286987305
      ],
      [
        "▁front",
        -8.95065689086914
      ],
      [
        "▁usually",
        -8.951651573181152
      ],
      [
        "▁provided",
        -8.9520263671875
      ],
      [
        "▁win",
        -8.952519416809082
      ],
      [
        "▁ever",
        -8.952994346618652
      ],
      [
        "▁26",
        -8.954183578491211
      ],
      [
        "▁features",
        -8.95447063446045
      ],
      [
        "▁percent",
        -8.954778671264648
      ],
      [
        "▁program",
        -8.956277847290039
      ],
      [
        "▁future",
        -8.956626892089844
      ],
      [
        "ary",
        -8.95844554901123
      ],
      [
        "▁served",
        -8.958769798278809
      ],
      [
        "▁blood",
        -8.95885181427002
      ],
      [
        "▁significant",
        -8.960092544555664
      ],
      [
        "▁characters",
        -8.9606351852417
      ],
      [
        "ur",
        -8.96214485168457
      ],
      [
        "▁car",
        -8.96362590789795
      ],
      [
        "é",
        -8.963678359985352
      ],
      [
        "▁That",
        -8.965222358703613
      ],
      [
        "▁killed",
        -8.96523666381836
      ],
      [
        "▁community",
        -8.965341567993164
      ],
      [
        "▁race",
        -8.965672492980957
      ],
      [
        "▁going",
        -8.966168403625488
      ],
      [
        "am",
        -8.966316223144531
      ],
      [
        "▁located",
        -8.967161178588867
      ],
      [
        "▁risk",
        -8.969780921936035
      ],
      [
        "▁David",
        -8.969900131225586
      ],
      [
        "▁East",
        -8.973584175109863
      ],
      [
        "▁lower",
        -8.974717140197754
      ],
      [
        "be",
        -8.975470542907715
      ],
      [
        "▁en",
        -8.975733757019043
      ],
      [
        "▁France",
        -8.978063583374023
      ],
      [
        "▁disease",
        -8.978632926940918
      ],
      [
        "ir",
        -8.978909492492676
      ],
      [
        "▁ft",
        -8.979573249816895
      ],
      [
        "▁means",
        -8.979920387268066
      ],
      [
        "▁behind",
        -8.980645179748535
      ],
      [
        "▁stage",
        -8.981340408325195
      ],
      [
        "K",
        -8.982404708862305
      ],
      [
        "▁announced",
        -8.9824857711792
      ],
      [
        "ized",
        -8.982566833496094
      ],
      [
        "▁battle",
        -8.982954978942871
      ],
      [
        "ous",
        -8.983251571655273
      ],
      [
        "the",
        -8.983306884765625
      ],
      [
        "▁Me",
        -8.983983993530273
      ],
      [
        "O",
        -8.984603881835938
      ],
      [
        "▁works",
        -8.989598274230957
      ],
      [
        "▁mi",
        -8.991161346435547
      ],
      [
        "▁love",
        -8.992618560791016
      ],
      [
        "▁songs",
        -8.994232177734375
      ],
      [
        "▁television",
        -8.994519233703613
      ],
      [
        "▁course",
        -8.994599342346191
      ],
      [
        "▁special",
        -8.995083808898926
      ],
      [
        "▁space",
        -8.995159149169922
      ],
      [
        "▁event",
        -8.999236106872559
      ],
      [
        "▁increased",
        -9.00050163269043
      ],
      [
        "▁don",
        -9.001279830932617
      ],
      [
        "▁saw",
        -9.001546859741211
      ],
      [
        "▁formed",
        -9.002649307250977
      ],
      [
        "▁League",
        -9.005143165588379
      ],
      [
        "▁Road",
        -9.005674362182617
      ],
      [
        "▁create",
        -9.007343292236328
      ],
      [
        "▁eventually",
        -9.007574081420898
      ],
      [
        "▁past",
        -9.007948875427246
      ],
      [
        "j",
        -9.008393287658691
      ],
      [
        "▁born",
        -9.009387016296387
      ],
      [
        "▁increase",
        -9.00967025756836
      ],
      [
        "▁mother",
        -9.009773254394531
      ],
      [
        "▁language",
        -9.010339736938477
      ],
      [
        "ty",
        -9.011030197143555
      ],
      [
        "▁Australian",
        -9.011933326721191
      ],
      [
        "▁pressure",
        -9.012626647949219
      ],
      [
        "▁especially",
        -9.013028144836426
      ],
      [
        "ca",
        -9.013854026794434
      ],
      [
        "▁House",
        -9.01441478729248
      ],
      [
        "▁European",
        -9.014467239379883
      ],
      [
        "▁real",
        -9.01533031463623
      ],
      [
        "▁campaign",
        -9.015555381774902
      ],
      [
        "▁natural",
        -9.016040802001953
      ],
      [
        "▁Vil",
        -9.016362190246582
      ],
      [
        "▁Ko",
        -9.018184661865234
      ],
      [
        "▁Be",
        -9.018446922302246
      ],
      [
        "as",
        -9.018533706665039
      ],
      [
        "▁leading",
        -9.018749237060547
      ],
      [
        "▁hours",
        -9.018977165222168
      ],
      [
        "▁evidence",
        -9.019119262695312
      ],
      [
        "▁want",
        -9.01933479309082
      ],
      [
        "▁|",
        -9.019750595092773
      ],
      [
        "▁Etazini",
        -9.019899368286133
      ],
      [
        "▁designed",
        -9.02052116394043
      ],
      [
        "▁material",
        -9.021334648132324
      ],
      [
        "▁decided",
        -9.022089958190918
      ],
      [
        "ge",
        -9.022782325744629
      ],
      [
        "▁experience",
        -9.024311065673828
      ],
      [
        "▁construction",
        -9.024768829345703
      ],
      [
        "less",
        -9.025151252746582
      ],
      [
        "▁Europe",
        -9.025569915771484
      ],
      [
        "▁generally",
        -9.027139663696289
      ],
      [
        "▁appeared",
        -9.028420448303223
      ],
      [
        "▁star",
        -9.028980255126953
      ],
      [
        "▁problems",
        -9.029740333557129
      ],
      [
        "▁likely",
        -9.029767036437988
      ],
      [
        "▁lane",
        -9.030591011047363
      ],
      [
        "▁mid",
        -9.033940315246582
      ],
      [
        "▁route",
        -9.034369468688965
      ],
      [
        "▁training",
        -9.03450870513916
      ],
      [
        "ter",
        -9.035004615783691
      ],
      [
        "▁Michael",
        -9.03615665435791
      ],
      [
        "▁involved",
        -9.036341667175293
      ],
      [
        "▁look",
        -9.037271499633789
      ],
      [
        "▁tropical",
        -9.038134574890137
      ],
      [
        "▁term",
        -9.041589736938477
      ],
      [
        "▁2003",
        -9.041854858398438
      ],
      [
        "▁Robert",
        -9.0427827835083
      ],
      [
        "rs",
        -9.043521881103516
      ],
      [
        "ner",
        -9.044270515441895
      ],
      [
        "▁towards",
        -9.045355796813965
      ],
      [
        "▁changes",
        -9.045798301696777
      ],
      [
        "▁From",
        -9.045961380004883
      ],
      [
        "▁events",
        -9.046435356140137
      ],
      [
        "▁brought",
        -9.046813011169434
      ],
      [
        "▁always",
        -9.047677040100098
      ],
      [
        "▁already",
        -9.049586296081543
      ],
      [
        "4",
        -9.04977798461914
      ],
      [
        "▁players",
        -9.049803733825684
      ],
      [
        "▁sold",
        -9.050869941711426
      ],
      [
        "▁current",
        -9.051636695861816
      ],
      [
        "▁surface",
        -9.052130699157715
      ],
      [
        "▁something",
        -9.053503036499023
      ],
      [
        "▁higher",
        -9.054361343383789
      ],
      [
        "os",
        -9.056346893310547
      ],
      [
        "no",
        -9.056680679321289
      ],
      [
        "▁required",
        -9.057713508605957
      ],
      [
        "▁here",
        -9.057920455932617
      ],
      [
        "▁Black",
        -9.058048248291016
      ],
      [
        "▁move",
        -9.058191299438477
      ],
      [
        "▁according",
        -9.059133529663086
      ],
      [
        "▁weeks",
        -9.060442924499512
      ],
      [
        "ad",
        -9.060674667358398
      ],
      [
        "▁keep",
        -9.060851097106934
      ],
      [
        "▁things",
        -9.0619478225708
      ],
      [
        "▁mm",
        -9.062033653259277
      ],
      [
        "▁heavy",
        -9.065289497375488
      ],
      [
        "▁effects",
        -9.065792083740234
      ],
      [
        "▁29",
        -9.067608833312988
      ],
      [
        "▁countries",
        -9.068554878234863
      ],
      [
        "▁taking",
        -9.069365501403809
      ],
      [
        "▁Her",
        -9.070279121398926
      ],
      [
        "▁completed",
        -9.072047233581543
      ],
      [
        "▁particularly",
        -9.073870658874512
      ],
      [
        "▁worked",
        -9.07413387298584
      ],
      [
        "ant",
        -9.075450897216797
      ],
      [
        "▁itself",
        -9.076067924499512
      ],
      [
        "▁Washington",
        -9.07707691192627
      ],
      [
        "▁Royal",
        -9.078067779541016
      ],
      [
        "▁idea",
        -9.07919979095459
      ],
      [
        "▁Air",
        -9.080550193786621
      ],
      [
        "▁list",
        -9.083280563354492
      ],
      [
        "do",
        -9.084383964538574
      ],
      [
        "▁command",
        -9.085193634033203
      ],
      [
        "▁soon",
        -9.08660888671875
      ],
      [
        "▁anti",
        -9.088531494140625
      ],
      [
        "▁allowed",
        -9.092187881469727
      ],
      [
        "▁business",
        -9.093208312988281
      ],
      [
        "▁et",
        -9.093457221984863
      ],
      [
        "5",
        -9.09355354309082
      ],
      [
        "▁effect",
        -9.093567848205566
      ],
      [
        "▁First",
        -9.093772888183594
      ],
      [
        "▁cost",
        -9.094169616699219
      ],
      [
        "▁plan",
        -9.096848487854004
      ],
      [
        "▁turn",
        -9.096930503845215
      ],
      [
        "▁groups",
        -9.09713363647461
      ],
      [
        "▁art",
        -9.09743881225586
      ],
      [
        "▁outside",
        -9.09807014465332
      ],
      [
        "▁playing",
        -9.098082542419434
      ],
      [
        "▁party",
        -9.09836196899414
      ],
      [
        "▁size",
        -9.098990440368652
      ],
      [
        "▁!",
        -9.101278305053711
      ],
      [
        "▁treatment",
        -9.101378440856934
      ],
      [
        "▁individual",
        -9.102008819580078
      ],
      [
        "▁eta",
        -9.102581024169922
      ],
      [
        "▁placed",
        -9.104361534118652
      ],
      [
        "▁loss",
        -9.104565620422363
      ],
      [
        "ting",
        -9.10498332977295
      ],
      [
        "▁2001",
        -9.105173110961914
      ],
      [
        "▁con",
        -9.106162071228027
      ],
      [
        "▁self",
        -9.108094215393066
      ],
      [
        "▁heart",
        -9.108153343200684
      ],
      [
        "—",
        -9.111313819885254
      ],
      [
        "di",
        -9.112116813659668
      ],
      [
        "▁Do",
        -9.112133026123047
      ],
      [
        "▁‘",
        -9.112330436706543
      ],
      [
        "▁states",
        -9.112506866455078
      ],
      [
        "▁station",
        -9.112601280212402
      ],
      [
        "▁’",
        -9.112815856933594
      ],
      [
        "▁India",
        -9.115272521972656
      ],
      [
        "▁whether",
        -9.115545272827148
      ],
      [
        "▁positive",
        -9.115689277648926
      ],
      [
        "▁conditions",
        -9.116525650024414
      ],
      [
        "▁interest",
        -9.117228507995605
      ],
      [
        "▁t",
        -9.117697715759277
      ],
      [
        "▁office",
        -9.121684074401855
      ],
      [
        "▁President",
        -9.122447967529297
      ],
      [
        "wa",
        -9.122901916503906
      ],
      [
        "▁red",
        -9.122932434082031
      ],
      [
        "▁says",
        -9.123269081115723
      ],
      [
        "▁goal",
        -9.126753807067871
      ],
      [
        "▁key",
        -9.127653121948242
      ],
      [
        "▁Most",
        -9.128232955932617
      ],
      [
        ",”",
        -9.128494262695312
      ],
      [
        "▁levels",
        -9.129243850708008
      ],
      [
        "▁opened",
        -9.129287719726562
      ],
      [
        "▁education",
        -9.129600524902344
      ],
      [
        "li",
        -9.13047981262207
      ],
      [
        "▁Paul",
        -9.130911827087402
      ],
      [
        "▁Other",
        -9.13259220123291
      ],
      [
        "▁wanted",
        -9.134232521057129
      ],
      [
        "▁pou",
        -9.134926795959473
      ],
      [
        "▁done",
        -9.135106086730957
      ],
      [
        "▁largest",
        -9.135557174682617
      ],
      [
        "▁Henry",
        -9.13617992401123
      ],
      [
        "▁care",
        -9.137739181518555
      ],
      [
        "▁money",
        -9.138545989990234
      ],
      [
        "den",
        -9.138689994812012
      ],
      [
        "ri",
        -9.139142036437988
      ],
      [
        "▁2002",
        -9.145283699035645
      ],
      [
        "est",
        -9.14548397064209
      ],
      [
        "▁really",
        -9.145694732666016
      ],
      [
        "▁minutes",
        -9.146224975585938
      ],
      [
        "L",
        -9.146413803100586
      ],
      [
        "ul",
        -9.147701263427734
      ],
      [
        "▁science",
        -9.148124694824219
      ],
      [
        "▁originally",
        -9.149252891540527
      ],
      [
        "▁Many",
        -9.149772644042969
      ],
      [
        "▁month",
        -9.149828910827637
      ],
      [
        "▁relationship",
        -9.14987850189209
      ],
      [
        "▁sound",
        -9.150296211242676
      ],
      [
        "▁issue",
        -9.15110969543457
      ],
      [
        "▁believed",
        -9.151850700378418
      ],
      [
        "▁successful",
        -9.152140617370605
      ],
      [
        "▁sou",
        -9.152617454528809
      ],
      [
        "se",
        -9.15469741821289
      ],
      [
        "▁central",
        -9.154911994934082
      ],
      [
        "▁rock",
        -9.159775733947754
      ],
      [
        "▁hit",
        -9.159789085388184
      ],
      [
        "▁200",
        -9.159862518310547
      ],
      [
        "ba",
        -9.160834312438965
      ],
      [
        "ent",
        -9.163311004638672
      ],
      [
        "ke",
        -9.163371086120605
      ],
      [
        "▁court",
        -9.16357421875
      ],
      [
        "▁report",
        -9.163799285888672
      ],
      [
        "▁plant",
        -9.164346694946289
      ],
      [
        "▁met",
        -9.165167808532715
      ],
      [
        "▁earlier",
        -9.167158126831055
      ],
      [
        "▁International",
        -9.16840934753418
      ],
      [
        "▁moun",
        -9.171248435974121
      ],
      [
        "▁scene",
        -9.1721773147583
      ],
      [
        "▁living",
        -9.173211097717285
      ],
      [
        "▁test",
        -9.17444896697998
      ],
      [
        "▁Canada",
        -9.175241470336914
      ],
      [
        "▁say",
        -9.175933837890625
      ],
      [
        "▁related",
        -9.176304817199707
      ],
      [
        "▁themselves",
        -9.176654815673828
      ],
      [
        "▁certain",
        -9.177547454833984
      ],
      [
        "▁beginning",
        -9.177989959716797
      ],
      [
        "||",
        -9.178450584411621
      ],
      [
        "▁Two",
        -9.180299758911133
      ],
      [
        "▁complete",
        -9.18043327331543
      ],
      [
        "▁view",
        -9.180889129638672
      ],
      [
        "ol",
        -9.181099891662598
      ],
      [
        "▁base",
        -9.18189525604248
      ],
      [
        "▁problem",
        -9.183448791503906
      ],
      [
        "▁island",
        -9.183581352233887
      ],
      [
        "▁international",
        -9.184242248535156
      ],
      [
        "▁Japan",
        -9.184296607971191
      ],
      [
        "▁director",
        -9.18510913848877
      ],
      [
        "▁California",
        -9.185312271118164
      ],
      [
        "▁wife",
        -9.186335563659668
      ],
      [
        "▁word",
        -9.18642807006836
      ],
      [
        "▁hard",
        -9.187973022460938
      ],
      [
        "▁structure",
        -9.188304901123047
      ],
      [
        "ha",
        -9.189798355102539
      ],
      [
        "▁Despite",
        -9.190268516540527
      ],
      [
        "▁army",
        -9.19180965423584
      ],
      [
        "▁parts",
        -9.19206428527832
      ],
      [
        "▁Thomas",
        -9.194079399108887
      ],
      [
        "ka",
        -9.19420051574707
      ],
      [
        "▁sometimes",
        -9.194892883300781
      ],
      [
        "▁tour",
        -9.195430755615234
      ],
      [
        "▁read",
        -9.196518898010254
      ],
      [
        "▁Charles",
        -9.196531295776367
      ],
      [
        "▁media",
        -9.196799278259277
      ],
      [
        "▁fourth",
        -9.197299003601074
      ],
      [
        "▁Sea",
        -9.19737720489502
      ],
      [
        "ted",
        -9.19888687133789
      ],
      [
        "▁lack",
        -9.199092864990234
      ],
      [
        "▁?",
        -9.199121475219727
      ],
      [
        "▁Red",
        -9.199884414672852
      ],
      [
        "▁lyen",
        -9.200225830078125
      ],
      [
        "▁response",
        -9.20025634765625
      ],
      [
        "lo",
        -9.201233863830566
      ],
      [
        "▁difficult",
        -9.202187538146973
      ],
      [
        "▁words",
        -9.203702926635742
      ],
      [
        "▁face",
        -9.204300880432129
      ],
      [
        "▁access",
        -9.204360961914062
      ],
      [
        "▁Act",
        -9.204606056213379
      ],
      [
        "▁guns",
        -9.204651832580566
      ],
      [
        "▁saying",
        -9.205729484558105
      ],
      [
        "▁Kèk",
        -9.206244468688965
      ],
      [
        "▁troops",
        -9.20811939239502
      ],
      [
        "▁referans",
        -9.208810806274414
      ],
      [
        "▁particular",
        -9.209074974060059
      ],
      [
        "▁highest",
        -9.209968566894531
      ],
      [
        "▁31",
        -9.210107803344727
      ],
      [
        "▁economic",
        -9.210344314575195
      ],
      [
        "▁rights",
        -9.210474967956543
      ],
      [
        "▁section",
        -9.211085319519043
      ],
      [
        "go",
        -9.212357521057129
      ],
      [
        "▁500",
        -9.212786674499512
      ],
      [
        "▁cut",
        -9.21318244934082
      ],
      [
        "▁told",
        -9.21418571472168
      ],
      [
        "rd",
        -9.214385032653809
      ],
      [
        "▁nature",
        -9.217373847961426
      ],
      [
        "▁whole",
        -9.217432022094727
      ],
      [
        "▁Con",
        -9.217456817626953
      ],
      [
        "▁Ayisyen",
        -9.218270301818848
      ],
      [
        "▁sub",
        -9.218573570251465
      ],
      [
        "▁today",
        -9.219786643981934
      ],
      [
        "▁elements",
        -9.221930503845215
      ],
      [
        "▁rate",
        -9.223674774169922
      ],
      [
        "▁opening",
        -9.22473430633545
      ],
      [
        "▁entire",
        -9.225005149841309
      ],
      [
        "▁associated",
        -9.22527027130127
      ],
      [
        "▁1996",
        -9.225358009338379
      ],
      [
        "▁passed",
        -9.226454734802246
      ],
      [
        "▁pa",
        -9.22768783569336
      ],
      [
        "▁My",
        -9.228169441223145
      ],
      [
        "▁personal",
        -9.228745460510254
      ],
      [
        "▁longer",
        -9.229957580566406
      ],
      [
        "▁Indian",
        -9.230237007141113
      ],
      [
        "▁quickly",
        -9.230391502380371
      ],
      [
        "▁cover",
        -9.230545997619629
      ],
      [
        "▁Court",
        -9.230795860290527
      ],
      [
        "▁whose",
        -9.230875968933105
      ],
      [
        "▁below",
        -9.231292724609375
      ],
      [
        "▁shows",
        -9.232405662536621
      ],
      [
        "▁church",
        -9.233036041259766
      ],
      [
        "▁additional",
        -9.233222961425781
      ],
      [
        "▁Best",
        -9.234614372253418
      ],
      [
        "mo",
        -9.235502243041992
      ],
      [
        "▁movement",
        -9.235700607299805
      ],
      [
        "▁wide",
        -9.236666679382324
      ],
      [
        "line",
        -9.238251686096191
      ],
      [
        "▁joined",
        -9.238875389099121
      ],
      [
        "▁Great",
        -9.240253448486328
      ],
      [
        "▁oil",
        -9.243314743041992
      ],
      [
        "▁specific",
        -9.243660926818848
      ],
      [
        "▁Church",
        -9.245780944824219
      ],
      [
        "▁needed",
        -9.249238967895508
      ],
      [
        "▁replaced",
        -9.25033187866211
      ],
      [
        "▁Battle",
        -9.250412940979004
      ],
      [
        "▁center",
        -9.250547409057617
      ],
      [
        "▁Jewografi",
        -9.251289367675781
      ],
      [
        "▁amount",
        -9.25136661529541
      ],
      [
        "▁turned",
        -9.251418113708496
      ],
      [
        "▁review",
        -9.25143051147461
      ],
      [
        "▁featured",
        -9.25204086303711
      ],
      [
        "v",
        -9.252067565917969
      ],
      [
        "ler",
        -9.252669334411621
      ],
      [
        "▁Referans",
        -9.252989768981934
      ],
      [
        "▁relasyon",
        -9.25508975982666
      ],
      [
        "▁Union",
        -9.256643295288086
      ],
      [
        "▁source",
        -9.257770538330078
      ],
      [
        "▁southern",
        -9.25794792175293
      ],
      [
        "▁model",
        -9.258195877075195
      ],
      [
        "▁speed",
        -9.258221626281738
      ],
      [
        "▁Mo",
        -9.258978843688965
      ],
      [
        "▁Earth",
        -9.259033203125
      ],
      [
        "▁decision",
        -9.260668754577637
      ],
      [
        "▁official",
        -9.261242866516113
      ],
      [
        "▁scored",
        -9.261892318725586
      ],
      [
        "▁forced",
        -9.263110160827637
      ],
      [
        "▁b",
        -9.263720512390137
      ],
      [
        "▁Relasyon",
        -9.264087677001953
      ],
      [
        "▁practice",
        -9.264799118041992
      ],
      [
        "▁larger",
        -9.267203330993652
      ],
      [
        "up",
        -9.2675142288208
      ],
      [
        "▁issues",
        -9.267562866210938
      ],
      [
        "▁Following",
        -9.269756317138672
      ],
      [
        "▁1990",
        -9.269864082336426
      ],
      [
        "un",
        -9.27068042755127
      ],
      [
        "The",
        -9.270862579345703
      ],
      [
        "▁White",
        -9.272369384765625
      ],
      [
        "▁quality",
        -9.27242374420166
      ],
      [
        "▁results",
        -9.274892807006836
      ],
      [
        "▁cases",
        -9.275114059448242
      ],
      [
        "▁asked",
        -9.275314331054688
      ],
      [
        "▁How",
        -9.275830268859863
      ],
      [
        "ally",
        -9.27664566040039
      ],
      [
        "▁prevent",
        -9.277029991149902
      ],
      [
        "▁allow",
        -9.277850151062012
      ],
      [
        "ce",
        -9.279095649719238
      ],
      [
        "ated",
        -9.279848098754883
      ],
      [
        "▁runs",
        -9.279858589172363
      ],
      [
        "▁Z",
        -9.28052806854248
      ],
      [
        "▁makes",
        -9.281837463378906
      ],
      [
        "▁units",
        -9.281848907470703
      ],
      [
        "and",
        -9.283812522888184
      ],
      [
        "▁gun",
        -9.284135818481445
      ],
      [
        "▁Island",
        -9.284904479980469
      ],
      [
        "▁appearance",
        -9.285707473754883
      ],
      [
        "▁learning",
        -9.286006927490234
      ],
      [
        "▁length",
        -9.286111831665039
      ],
      [
        "▁summer",
        -9.286581993103027
      ],
      [
        "▁systems",
        -9.287118911743164
      ],
      [
        "ak",
        -9.287378311157227
      ],
      [
        "▁Mar",
        -9.287883758544922
      ],
      [
        "ization",
        -9.287939071655273
      ],
      [
        "▁novel",
        -9.288294792175293
      ],
      [
        "▁critics",
        -9.288457870483398
      ],
      [
        "▁potential",
        -9.289752960205078
      ],
      [
        "▁attempt",
        -9.289956092834473
      ],
      [
        "▁clear",
        -9.289993286132812
      ],
      [
        "▁northern",
        -9.290764808654785
      ],
      [
        "▁impact",
        -9.291478157043457
      ],
      [
        "▁Germany",
        -9.291528701782227
      ],
      [
        "▁High",
        -9.29291820526123
      ],
      [
        "▁services",
        -9.294012069702148
      ],
      [
        "▁shot",
        -9.294695854187012
      ],
      [
        "▁produce",
        -9.296223640441895
      ],
      [
        "▁finished",
        -9.297085762023926
      ],
      [
        "▁Aktè",
        -9.297204971313477
      ],
      [
        "▁act",
        -9.297499656677246
      ],
      [
        "▁Hall",
        -9.297688484191895
      ],
      [
        "▁dis",
        -9.298436164855957
      ],
      [
        "▁studio",
        -9.299477577209473
      ],
      [
        "▁ability",
        -9.299631118774414
      ],
      [
        "▁victory",
        -9.300402641296387
      ],
      [
        "lin",
        -9.301013946533203
      ],
      [
        "▁yet",
        -9.301698684692383
      ],
      [
        "▁limited",
        -9.303290367126465
      ],
      [
        "ium",
        -9.305525779724121
      ],
      [
        "▁influence",
        -9.307056427001953
      ],
      [
        "▁crew",
        -9.308430671691895
      ],
      [
        "▁terms",
        -9.309468269348145
      ],
      [
        "▁Pro",
        -9.31057357788086
      ],
      [
        "▁Peter",
        -9.310977935791016
      ],
      [
        "R",
        -9.311904907226562
      ],
      [
        "ya",
        -9.313404083251953
      ],
      [
        "J",
        -9.314314842224121
      ],
      [
        "▁previously",
        -9.315590858459473
      ],
      [
        "▁Star",
        -9.315837860107422
      ],
      [
        "▁hurricane",
        -9.315886497497559
      ],
      [
        "▁Richard",
        -9.315991401672363
      ],
      [
        "▁thus",
        -9.3172025680542
      ],
      [
        "▁lines",
        -9.318114280700684
      ],
      [
        "by",
        -9.318862915039062
      ],
      [
        "▁studies",
        -9.319168090820312
      ],
      [
        "▁physical",
        -9.319323539733887
      ],
      [
        "▁compared",
        -9.31939697265625
      ],
      [
        "▁spent",
        -9.319828033447266
      ],
      [
        "tic",
        -9.319924354553223
      ],
      [
        "▁Roman",
        -9.320247650146484
      ],
      [
        "▁probably",
        -9.32039737701416
      ],
      [
        "▁room",
        -9.320704460144043
      ],
      [
        "▁Center",
        -9.321104049682617
      ],
      [
        "ite",
        -9.32143497467041
      ],
      [
        "–",
        -9.32154369354248
      ],
      [
        "▁Go",
        -9.322074890136719
      ],
      [
        "▁initially",
        -9.322189331054688
      ],
      [
        "▁lot",
        -9.323201179504395
      ],
      [
        "▁Bo",
        -9.323741912841797
      ],
      [
        "▁activity",
        -9.324209213256836
      ],
      [
        ".\"",
        -9.324230194091797
      ],
      [
        "▁China",
        -9.324841499328613
      ],
      [
        "▁learn",
        -9.3251953125
      ],
      [
        "ti",
        -9.32626724243164
      ],
      [
        "▁UK",
        -9.327288627624512
      ],
      [
        "▁College",
        -9.32843017578125
      ],
      [
        "▁date",
        -9.32932186126709
      ],
      [
        "▁industry",
        -9.329808235168457
      ],
      [
        "der",
        -9.33006477355957
      ],
      [
        "▁Edikasyon",
        -9.330465316772461
      ],
      [
        "▁Kingdom",
        -9.33067798614502
      ],
      [
        "▁Western",
        -9.331228256225586
      ],
      [
        "▁female",
        -9.331321716308594
      ],
      [
        "▁1999",
        -9.331385612487793
      ],
      [
        "▁Since",
        -9.33327579498291
      ],
      [
        "▁shown",
        -9.333529472351074
      ],
      [
        "ni",
        -9.33424186706543
      ],
      [
        "▁poor",
        -9.334733963012695
      ],
      [
        "io",
        -9.335161209106445
      ],
      [
        "ga",
        -9.337648391723633
      ],
      [
        "▁river",
        -9.337740898132324
      ],
      [
        "▁round",
        -9.338247299194336
      ],
      [
        "▁ended",
        -9.3388671875
      ],
      [
        "ard",
        -9.339487075805664
      ],
      [
        "▁why",
        -9.339827537536621
      ],
      [
        "▁Christian",
        -9.340150833129883
      ],
      [
        "▁Smith",
        -9.340738296508789
      ],
      [
        "▁cast",
        -9.341894149780273
      ],
      [
        "▁value",
        -9.342031478881836
      ],
      [
        "▁build",
        -9.342182159423828
      ],
      [
        "▁2016",
        -9.342484474182129
      ],
      [
        "▁includes",
        -9.34262466430664
      ],
      [
        "▁cells",
        -9.34349250793457
      ],
      [
        "▁mph",
        -9.344252586364746
      ],
      [
        "ham",
        -9.3443603515625
      ],
      [
        "▁nearly",
        -9.345158576965332
      ],
      [
        "▁Lo",
        -9.345494270324707
      ],
      [
        "▁appear",
        -9.346657752990723
      ],
      [
        "ies",
        -9.34758186340332
      ],
      [
        "▁60",
        -9.348414421081543
      ],
      [
        "▁introduced",
        -9.350569725036621
      ],
      [
        "ating",
        -9.350587844848633
      ],
      [
        "▁technology",
        -9.35090446472168
      ],
      [
        "ey",
        -9.35164737701416
      ],
      [
        "▁Company",
        -9.35279369354248
      ],
      [
        "▁Navy",
        -9.354120254516602
      ],
      [
        "▁Day",
        -9.356194496154785
      ],
      [
        "ber",
        -9.356708526611328
      ],
      [
        "▁develop",
        -9.357991218566895
      ],
      [
        "▁highway",
        -9.35813045501709
      ],
      [
        "▁actually",
        -9.359236717224121
      ],
      [
        "▁Music",
        -9.359763145446777
      ],
      [
        "▁despite",
        -9.360750198364258
      ],
      [
        "▁Lord",
        -9.361817359924316
      ],
      [
        "▁subject",
        -9.361856460571289
      ],
      [
        "▁coast",
        -9.362292289733887
      ],
      [
        "▁king",
        -9.36247730255127
      ],
      [
        "▁Brown",
        -9.36318588256836
      ],
      [
        "ina",
        -9.363378524780273
      ],
      [
        "▁whom",
        -9.363921165466309
      ],
      [
        "▁Bay",
        -9.364006042480469
      ],
      [
        "▁overall",
        -9.365195274353027
      ],
      [
        "▁chart",
        -9.365897178649902
      ],
      [
        "▁brain",
        -9.366799354553223
      ],
      [
        "▁carried",
        -9.367082595825195
      ],
      [
        "▁pro",
        -9.367131233215332
      ],
      [
        "▁regular",
        -9.368313789367676
      ],
      [
        "▁market",
        -9.371119499206543
      ],
      [
        "]",
        -9.371729850769043
      ],
      [
        "▁nine",
        -9.375336647033691
      ],
      [
        "▁ordered",
        -9.37569522857666
      ],
      [
        "▁1980",
        -9.376599311828613
      ],
      [
        "▁medical",
        -9.376729965209961
      ],
      [
        "▁paper",
        -9.377037048339844
      ],
      [
        "▁commercial",
        -9.377338409423828
      ],
      [
        "▁attention",
        -9.377946853637695
      ],
      [
        "▁sense",
        -9.378030776977539
      ],
      [
        "▁failed",
        -9.379014015197754
      ],
      [
        "▁radio",
        -9.379077911376953
      ],
      [
        "▁estimated",
        -9.379792213439941
      ],
      [
        "ful",
        -9.380051612854004
      ],
      [
        "▁approach",
        -9.380264282226562
      ],
      [
        "▁growth",
        -9.381044387817383
      ],
      [
        "▁°",
        -9.38131332397461
      ],
      [
        "▁Jean",
        -9.381617546081543
      ],
      [
        "▁plants",
        -9.382329940795898
      ],
      [
        "▁feel",
        -9.382743835449219
      ],
      [
        "▁signed",
        -9.38289737701416
      ],
      [
        "▁Se",
        -9.383792877197266
      ],
      [
        "ish",
        -9.384260177612305
      ],
      [
        "▁animals",
        -9.384855270385742
      ],
      [
        "▁1970",
        -9.38580322265625
      ],
      [
        "ier",
        -9.388397216796875
      ],
      [
        "▁activities",
        -9.3892240524292
      ],
      [
        "▁becoming",
        -9.389792442321777
      ],
      [
        "▁staff",
        -9.391106605529785
      ],
      [
        "▁Africa",
        -9.392354965209961
      ],
      [
        "▁woman",
        -9.393238067626953
      ],
      [
        "▁Chinese",
        -9.394290924072266
      ],
      [
        "▁professional",
        -9.394291877746582
      ],
      [
        "▁complex",
        -9.394861221313477
      ],
      [
        "▁Cup",
        -9.396142959594727
      ],
      [
        "▁cancer",
        -9.396295547485352
      ],
      [
        "▁1998",
        -9.396727561950684
      ],
      [
        "▁police",
        -9.39713191986084
      ],
      [
        "▁Association",
        -9.400118827819824
      ],
      [
        "▁standard",
        -9.400630950927734
      ],
      [
        "▁Lake",
        -9.401004791259766
      ],
      [
        "▁private",
        -9.401344299316406
      ],
      [
        "▁student",
        -9.402830123901367
      ],
      [
        "▁wind",
        -9.403894424438477
      ],
      [
        "▁Britain",
        -9.404716491699219
      ],
      [
        "▁remains",
        -9.406004905700684
      ],
      [
        "▁environment",
        -9.406745910644531
      ],
      [
        "▁Los",
        -9.40921688079834
      ],
      [
        "▁score",
        -9.410463333129883
      ],
      [
        "▁president",
        -9.411245346069336
      ],
      [
        "▁leave",
        -9.412240982055664
      ],
      [
        "▁Don",
        -9.413171768188477
      ],
      [
        "va",
        -9.414155006408691
      ],
      [
        "im",
        -9.414894104003906
      ],
      [
        "▁forward",
        -9.415055274963379
      ],
      [
        "▁network",
        -9.41673755645752
      ],
      [
        "▁via",
        -9.417052268981934
      ],
      [
        "▁western",
        -9.417388916015625
      ],
      [
        "▁Ar",
        -9.41761589050293
      ],
      [
        "▁running",
        -9.418475151062012
      ],
      [
        "ah",
        -9.419404029846191
      ],
      [
        "▁Hill",
        -9.420143127441406
      ],
      [
        "▁primary",
        -9.421177864074707
      ],
      [
        "▁brother",
        -9.421770095825195
      ],
      [
        "▁author",
        -9.422416687011719
      ],
      [
        "▁praised",
        -9.422880172729492
      ],
      [
        "▁trade",
        -9.423484802246094
      ],
      [
        "▁pay",
        -9.424286842346191
      ],
      [
        "▁Another",
        -9.425215721130371
      ],
      [
        "▁Or",
        -9.425281524658203
      ],
      [
        "▁location",
        -9.42603874206543
      ],
      [
        "▁call",
        -9.426177978515625
      ],
      [
        "▁mass",
        -9.426619529724121
      ],
      [
        "▁continue",
        -9.427403450012207
      ],
      [
        "▁traditional",
        -9.427643775939941
      ],
      [
        "▁Soviet",
        -9.428847312927246
      ],
      [
        "▁weight",
        -9.429716110229492
      ],
      [
        "▁article",
        -9.431571006774902
      ],
      [
        "▁Times",
        -9.431783676147461
      ],
      [
        "▁directed",
        -9.431906700134277
      ],
      [
        "▁di",
        -9.432692527770996
      ],
      [
        "▁Spanish",
        -9.433320999145508
      ],
      [
        "▁variety",
        -9.434263229370117
      ],
      [
        "▁Texas",
        -9.434309005737305
      ],
      [
        "▁changed",
        -9.434407234191895
      ],
      [
        "▁types",
        -9.434587478637695
      ],
      [
        "▁kind",
        -9.435044288635254
      ],
      [
        "▁African",
        -9.43609619140625
      ],
      [
        "▁winds",
        -9.436980247497559
      ],
      [
        "▁meaning",
        -9.43828010559082
      ],
      [
        "▁critical",
        -9.438855171203613
      ],
      [
        "▁active",
        -9.439962387084961
      ],
      [
        "▁league",
        -9.440808296203613
      ],
      [
        "▁parents",
        -9.441757202148438
      ],
      [
        "▁Council",
        -9.442901611328125
      ],
      [
        "ac",
        -9.44396686553955
      ],
      [
        "▁mind",
        -9.444512367248535
      ],
      [
        "▁fall",
        -9.44672966003418
      ],
      [
        "out",
        -9.447278022766113
      ],
      [
        "▁knowledge",
        -9.447568893432617
      ],
      [
        "▁arrived",
        -9.44798469543457
      ],
      [
        "▁Un",
        -9.448226928710938
      ],
      [
        "▁claimed",
        -9.448918342590332
      ],
      [
        "con",
        -9.449698448181152
      ],
      [
        "è",
        -9.451583862304688
      ],
      [
        "▁cannot",
        -9.452624320983887
      ],
      [
        "▁takes",
        -9.454056739807129
      ],
      [
        "▁society",
        -9.454214096069336
      ],
      [
        "▁ex",
        -9.454455375671387
      ],
      [
        "▁suggested",
        -9.456214904785156
      ],
      [
        "▁£",
        -9.456598281860352
      ],
      [
        "▁Na",
        -9.458150863647461
      ],
      [
        "▁direct",
        -9.458884239196777
      ],
      [
        "▁Award",
        -9.46005916595459
      ],
      [
        "▁greater",
        -9.46164321899414
      ],
      [
        "▁capital",
        -9.461665153503418
      ],
      [
        "▁cell",
        -9.461932182312012
      ],
      [
        "▁effective",
        -9.462530136108398
      ],
      [
        "▁recording",
        -9.462752342224121
      ],
      [
        "▁culture",
        -9.462818145751953
      ],
      [
        "▁NY",
        -9.462824821472168
      ],
      [
        "▁recent",
        -9.46423625946045
      ],
      [
        "▁fight",
        -9.464240074157715
      ],
      [
        "▁understand",
        -9.46472454071045
      ],
      [
        "▁90",
        -9.465836524963379
      ],
      [
        "▁Force",
        -9.465935707092285
      ],
      [
        "▁musical",
        -9.466447830200195
      ],
      [
        "▁1997",
        -9.46646785736084
      ],
      [
        "▁proposed",
        -9.46742057800293
      ],
      [
        "▁intended",
        -9.468216896057129
      ],
      [
        "▁election",
        -9.468267440795898
      ],
      [
        "▁Virginia",
        -9.468392372131348
      ],
      [
        "▁approximately",
        -9.468429565429688
      ],
      [
        "▁remaining",
        -9.468963623046875
      ],
      [
        "▁contains",
        -9.46899700164795
      ],
      [
        "▁bridge",
        -9.47012996673584
      ],
      [
        "▁Du",
        -9.471085548400879
      ],
      [
        "▁reason",
        -9.471936225891113
      ],
      [
        "▁35",
        -9.472362518310547
      ],
      [
        "▁matter",
        -9.472711563110352
      ],
      [
        "▁Love",
        -9.473543167114258
      ],
      [
        "▁helped",
        -9.474074363708496
      ],
      [
        "▁latter",
        -9.474956512451172
      ],
      [
        "▁Sun",
        -9.475419998168945
      ],
      [
        "▁ː",
        -9.475629806518555
      ],
      [
        "▁account",
        -9.475747108459473
      ],
      [
        "▁deep",
        -9.476951599121094
      ],
      [
        "▁feature",
        -9.478253364562988
      ],
      [
        "▁eastern",
        -9.478649139404297
      ],
      [
        "▁majority",
        -9.47929573059082
      ],
      [
        "sa",
        -9.479607582092285
      ],
      [
        "▁1960",
        -9.480234146118164
      ],
      [
        "▁gold",
        -9.480565071105957
      ],
      [
        "▁reach",
        -9.481401443481445
      ],
      [
        "per",
        -9.481447219848633
      ],
      [
        "▁unit",
        -9.482017517089844
      ],
      [
        "▁focus",
        -9.482498168945312
      ],
      [
        "6",
        -9.485053062438965
      ],
      [
        "▁got",
        -9.485081672668457
      ],
      [
        "▁supported",
        -9.486547470092773
      ],
      [
        "▁highly",
        -9.486747741699219
      ],
      [
        "▁leaving",
        -9.486827850341797
      ],
      [
        "▁status",
        -9.48692798614502
      ],
      [
        "▁directly",
        -9.487125396728516
      ],
      [
        "▁believe",
        -9.48740005493164
      ],
      [
        "▁true",
        -9.489462852478027
      ],
      [
        "▁inside",
        -9.490059852600098
      ],
      [
        "▁Russian",
        -9.491089820861816
      ],
      [
        "▁eye",
        -9.49152946472168
      ],
      [
        "▁discovered",
        -9.492526054382324
      ],
      [
        "▁immediately",
        -9.492572784423828
      ],
      [
        "▁share",
        -9.493622779846191
      ],
      [
        "sh",
        -9.494684219360352
      ],
      [
        "▁schools",
        -9.49717903137207
      ],
      [
        "▁content",
        -9.500725746154785
      ],
      [
        "▁follow",
        -9.500961303710938
      ],
      [
        "▁contact",
        -9.501423835754395
      ],
      [
        "▁mostly",
        -9.502145767211914
      ],
      [
        "▁comes",
        -9.503703117370605
      ],
      [
        "▁reviews",
        -9.503704071044922
      ],
      [
        "▁Grand",
        -9.504508972167969
      ],
      [
        "▁Mary",
        -9.504646301269531
      ],
      [
        "▁Department",
        -9.504655838012695
      ],
      [
        "▁Route",
        -9.50512981414795
      ],
      [
        "▁contract",
        -9.506796836853027
      ],
      [
        "▁skin",
        -9.507248878479004
      ],
      [
        "ot",
        -9.508076667785645
      ],
      [
        "▁smaller",
        -9.508079528808594
      ],
      [
        "▁Both",
        -9.508331298828125
      ],
      [
        "▁question",
        -9.509045600891113
      ],
      [
        "▁reduce",
        -9.509625434875488
      ],
      [
        "▁multiple",
        -9.510063171386719
      ],
      [
        "▁writer",
        -9.51116943359375
      ],
      [
        "▁magazine",
        -9.511556625366211
      ],
      [
        "▁voice",
        -9.511590957641602
      ],
      [
        "▁religious",
        -9.51237964630127
      ],
      [
        "▁expected",
        -9.512476921081543
      ],
      [
        "▁gas",
        -9.512520790100098
      ],
      [
        "field",
        -9.5136079788208
      ],
      [
        "▁books",
        -9.514070510864258
      ],
      [
        "▁entered",
        -9.515009880065918
      ],
      [
        "▁operations",
        -9.5150785446167
      ],
      [
        "▁80",
        -9.515382766723633
      ],
      [
        "▁daughter",
        -9.515844345092773
      ],
      [
        "ship",
        -9.516525268554688
      ],
      [
        "mi",
        -9.51753044128418
      ],
      [
        "bo",
        -9.517951011657715
      ],
      [
        "▁initial",
        -9.519034385681152
      ],
      [
        "ki",
        -9.519649505615234
      ],
      [
        "▁condition",
        -9.519768714904785
      ],
      [
        "▁pwovens",
        -9.51994514465332
      ],
      [
        "▁stop",
        -9.520537376403809
      ],
      [
        "▁destroyed",
        -9.520792961120605
      ],
      [
        "▁simple",
        -9.520956039428711
      ],
      [
        "ko",
        -9.52125072479248
      ],
      [
        "ize",
        -9.521668434143066
      ],
      [
        "▁moving",
        -9.521909713745117
      ],
      [
        "▁improve",
        -9.522601127624512
      ],
      [
        "ster",
        -9.523486137390137
      ],
      [
        "U",
        -9.524358749389648
      ],
      [
        "▁necessary",
        -9.52500057220459
      ],
      [
        "▁Mark",
        -9.525834083557129
      ],
      [
        "▁removed",
        -9.525883674621582
      ],
      [
        "▁needs",
        -9.525944709777832
      ],
      [
        "▁image",
        -9.527010917663574
      ],
      [
        "▁policy",
        -9.528038024902344
      ],
      [
        "ut",
        -9.528674125671387
      ],
      [
        "▁leader",
        -9.528993606567383
      ],
      [
        "▁prior",
        -9.529394149780273
      ],
      [
        "ana",
        -9.530060768127441
      ],
      [
        "▁football",
        -9.530572891235352
      ],
      [
        "▁debut",
        -9.530901908874512
      ],
      [
        "▁management",
        -9.5313081741333
      ],
      [
        "▁middle",
        -9.531562805175781
      ],
      [
        "▁depression",
        -9.532678604125977
      ],
      [
        "▁Canadian",
        -9.533416748046875
      ],
      [
        "▁Martin",
        -9.533584594726562
      ],
      [
        "▁method",
        -9.53376293182373
      ],
      [
        "ence",
        -9.534138679504395
      ],
      [
        "▁double",
        -9.535731315612793
      ],
      [
        "▁write",
        -9.537741661071777
      ],
      [
        "▁fleet",
        -9.537912368774414
      ],
      [
        "▁forms",
        -9.53964614868164
      ],
      [
        "▁appears",
        -9.539666175842285
      ],
      [
        "▁Game",
        -9.540021896362305
      ],
      [
        "▁legal",
        -9.540566444396973
      ],
      [
        "▁computer",
        -9.542011260986328
      ],
      [
        "▁appointed",
        -9.543017387390137
      ],
      [
        "▁friend",
        -9.543600082397461
      ],
      [
        "▁deal",
        -9.54407024383545
      ],
      [
        "▁companies",
        -9.54426097869873
      ],
      [
        "▁break",
        -9.544812202453613
      ],
      [
        "mer",
        -9.545512199401855
      ],
      [
        "▁Pacific",
        -9.545646667480469
      ],
      [
        "▁married",
        -9.546136856079102
      ],
      [
        "▁function",
        -9.547722816467285
      ],
      [
        "▁meeting",
        -9.548065185546875
      ],
      [
        "▁ways",
        -9.548065185546875
      ],
      [
        "▁Car",
        -9.548072814941406
      ],
      [
        "▁plans",
        -9.548340797424316
      ],
      [
        "▁situation",
        -9.551263809204102
      ],
      [
        "▁Chicago",
        -9.551405906677246
      ],
      [
        "▁numerous",
        -9.551907539367676
      ],
      [
        "▁products",
        -9.551993370056152
      ],
      [
        "▁pass",
        -9.552313804626465
      ],
      [
        "▁1995",
        -9.552504539489746
      ],
      [
        "▁agreed",
        -9.552766799926758
      ],
      [
        "▁peyi",
        -9.552885055541992
      ],
      [
        "...",
        -9.55305004119873
      ],
      [
        "▁effort",
        -9.55355167388916
      ],
      [
        "▁climate",
        -9.553682327270508
      ],
      [
        "▁individuals",
        -9.554619789123535
      ],
      [
        "ek",
        -9.556885719299316
      ],
      [
        "▁Party",
        -9.5575590133667
      ],
      [
        "▁du",
        -9.56010913848877
      ],
      [
        "ial",
        -9.561043739318848
      ],
      [
        "▁male",
        -9.561943054199219
      ],
      [
        "▁big",
        -9.561988830566406
      ],
      [
        "▁doing",
        -9.562491416931152
      ],
      [
        "▁Ben",
        -9.56290054321289
      ],
      [
        "▁avoid",
        -9.562934875488281
      ],
      [
        "▁Edward",
        -9.56305980682373
      ],
      [
        "ance",
        -9.563116073608398
      ],
      [
        "▁analysis",
        -9.5641508102417
      ],
      [
        "▁lived",
        -9.56430435180664
      ],
      [
        "▁sources",
        -9.56503677368164
      ],
      [
        "pe",
        -9.565220832824707
      ],
      [
        "▁defeated",
        -9.565454483032227
      ],
      [
        "▁v",
        -9.565792083740234
      ],
      [
        "▁ball",
        -9.566275596618652
      ],
      [
        "▁numbers",
        -9.566580772399902
      ],
      [
        "▁village",
        -9.566648483276367
      ],
      [
        "▁stars",
        -9.566725730895996
      ],
      [
        "▁le",
        -9.567380905151367
      ],
      [
        "▁separate",
        -9.56762981414795
      ],
      [
        "min",
        -9.56804084777832
      ],
      [
        "▁buildings",
        -9.56877613067627
      ],
      [
        "▁hour",
        -9.56932258605957
      ],
      [
        "ja",
        -9.569402694702148
      ],
      [
        "▁responsible",
        -9.570351600646973
      ],
      [
        "au",
        -9.570691108703613
      ],
      [
        "▁Green",
        -9.57151985168457
      ],
      [
        "▁board",
        -9.57205581665039
      ],
      [
        "▁Second",
        -9.57281494140625
      ],
      [
        "▁green",
        -9.573843002319336
      ],
      [
        "▁Ka",
        -9.574209213256836
      ],
      [
        "pa",
        -9.574838638305664
      ],
      [
        "▁giving",
        -9.5750732421875
      ],
      [
        "▁offered",
        -9.575774192810059
      ],
      [
        "▁Queen",
        -9.577031135559082
      ],
      [
        "▁soldiers",
        -9.577498435974121
      ],
      [
        "▁letter",
        -9.577583312988281
      ],
      [
        "▁goals",
        -9.577824592590332
      ],
      [
        "▁financial",
        -9.578085899353027
      ],
      [
        "▁hold",
        -9.578314781188965
      ],
      [
        "▁pain",
        -9.578583717346191
      ],
      [
        "▁Ne",
        -9.579320907592773
      ],
      [
        "▁text",
        -9.579702377319336
      ],
      [
        "▁Because",
        -9.579833984375
      ],
      [
        "▁referred",
        -9.58056926727295
      ],
      [
        "▁friends",
        -9.58147144317627
      ],
      [
        "▁captured",
        -9.582751274108887
      ],
      [
        "▁color",
        -9.582859992980957
      ],
      [
        "▁simply",
        -9.58325481414795
      ],
      [
        "vo",
        -9.583487510681152
      ],
      [
        "ran",
        -9.583525657653809
      ],
      [
        "▁Over",
        -9.583829879760742
      ],
      [
        "que",
        -9.584003448486328
      ],
      [
        "▁Di",
        -9.584037780761719
      ],
      [
        "▁foot",
        -9.58425521850586
      ],
      [
        "les",
        -9.58470344543457
      ],
      [
        "▁reduced",
        -9.584760665893555
      ],
      [
        "▁theory",
        -9.585138320922852
      ],
      [
        "▁winning",
        -9.587265968322754
      ],
      [
        "▁Kominote",
        -9.587705612182617
      ],
      [
        "▁Central",
        -9.588390350341797
      ],
      [
        "▁efforts",
        -9.590032577514648
      ],
      [
        "▁extended",
        -9.591085433959961
      ],
      [
        "▁fish",
        -9.59168815612793
      ],
      [
        "▁Florida",
        -9.591816902160645
      ],
      [
        "▁ran",
        -9.594401359558105
      ],
      [
        "▁scale",
        -9.594649314880371
      ],
      [
        "▁metal",
        -9.59465503692627
      ],
      [
        "ville",
        -9.595266342163086
      ],
      [
        "▁division",
        -9.595454216003418
      ],
      [
        "▁i",
        -9.595728874206543
      ],
      [
        "ten",
        -9.595962524414062
      ],
      [
        "▁job",
        -9.59669017791748
      ],
      [
        "▁Johnson",
        -9.596817970275879
      ],
      [
        "ised",
        -9.598310470581055
      ],
      [
        "▁normal",
        -9.598953247070312
      ],
      [
        "▁provides",
        -9.599034309387207
      ],
      [
        "▁planned",
        -9.599349975585938
      ],
      [
        "▁thing",
        -9.600502014160156
      ],
      [
        "0",
        -9.600556373596191
      ],
      [
        "▁symptoms",
        -9.600770950317383
      ],
      [
        "▁begin",
        -9.601436614990234
      ],
      [
        "▁raised",
        -9.6016206741333
      ],
      [
        "▁reading",
        -9.60235595703125
      ],
      [
        "▁occurred",
        -9.602693557739258
      ],
      [
        "▁45",
        -9.60370922088623
      ],
      [
        "▁park",
        -9.603732109069824
      ],
      [
        "▁Can",
        -9.603850364685059
      ],
      [
        "▁temperature",
        -9.603926658630371
      ],
      [
        "▁upper",
        -9.604659080505371
      ],
      [
        "▁More",
        -9.604850769042969
      ],
      [
        "▁g",
        -9.60653305053711
      ],
      [
        "way",
        -9.606661796569824
      ],
      [
        "▁lives",
        -9.60693645477295
      ],
      [
        "▁mixed",
        -9.607651710510254
      ],
      [
        "▁1994",
        -9.608107566833496
      ],
      [
        "Y",
        -9.608575820922852
      ],
      [
        "ists",
        -9.60892391204834
      ],
      [
        "▁300",
        -9.60942554473877
      ],
      [
        "▁property",
        -9.609940528869629
      ],
      [
        "he",
        -9.609978675842285
      ],
      [
        "▁covered",
        -9.610021591186523
      ],
      [
        "▁resources",
        -9.610025405883789
      ],
      [
        "▁federal",
        -9.610136985778809
      ],
      [
        "▁cm",
        -9.610893249511719
      ],
      [
        "▁Old",
        -9.611194610595703
      ],
      [
        "▁Jackson",
        -9.611539840698242
      ],
      [
        "▁70",
        -9.61163330078125
      ],
      [
        "▁patients",
        -9.612190246582031
      ],
      [
        "▁films",
        -9.612275123596191
      ],
      [
        "▁operation",
        -9.61264419555664
      ],
      [
        "▁Politik",
        -9.612748146057129
      ],
      [
        "ger",
        -9.613520622253418
      ],
      [
        "▁Ekonomi",
        -9.613924026489258
      ],
      [
        "ring",
        -9.613957405090332
      ],
      [
        "▁bring",
        -9.61440372467041
      ],
      [
        "▁cross",
        -9.616134643554688
      ],
      [
        "▁Y",
        -9.616182327270508
      ],
      [
        "▁protect",
        -9.617438316345215
      ],
      [
        "▁Jack",
        -9.617647171020508
      ],
      [
        "▁wall",
        -9.618069648742676
      ],
      [
        "▁Les",
        -9.6181001663208
      ],
      [
        "▁issued",
        -9.618334770202637
      ],
      [
        "▁direction",
        -9.618435859680176
      ],
      [
        "7",
        -9.61963939666748
      ],
      [
        "ver",
        -9.61978530883789
      ],
      [
        "za",
        -9.619876861572266
      ],
      [
        "▁flight",
        -9.619982719421387
      ],
      [
        "▁fell",
        -9.620393753051758
      ],
      [
        "▁remain",
        -9.620495796203613
      ],
      [
        "▁plot",
        -9.620739936828613
      ],
      [
        "▁Po",
        -9.62173080444336
      ],
      [
        "▁therefore",
        -9.623637199401855
      ],
      [
        ",\"",
        -9.624412536621094
      ],
      [
        "▁Atlantic",
        -9.624800682067871
      ],
      [
        "▁Their",
        -9.625272750854492
      ],
      [
        "▁Italian",
        -9.626482963562012
      ],
      [
        "▁winter",
        -9.626898765563965
      ],
      [
        "▁finally",
        -9.627175331115723
      ],
      [
        "ck",
        -9.62779712677002
      ],
      [
        "á",
        -9.62874984741211
      ],
      [
        "▁Ca",
        -9.629249572753906
      ],
      [
        "(",
        -9.629388809204102
      ],
      [
        "▁script",
        -9.629728317260742
      ],
      [
        "▁lang",
        -9.630392074584961
      ],
      [
        "▁Ma",
        -9.630452156066895
      ],
      [
        "▁rule",
        -9.630805969238281
      ],
      [
        "▁growing",
        -9.630966186523438
      ],
      [
        "▁presence",
        -9.631440162658691
      ],
      [
        "▁concept",
        -9.631473541259766
      ],
      [
        "▁awarded",
        -9.631611824035645
      ],
      [
        "▁Ra",
        -9.631848335266113
      ],
      [
        "▁animal",
        -9.632229804992676
      ],
      [
        "▁collection",
        -9.632411003112793
      ],
      [
        "▁showed",
        -9.632942199707031
      ],
      [
        "ron",
        -9.633082389831543
      ],
      [
        "▁let",
        -9.63332462310791
      ],
      [
        "▁Congress",
        -9.633383750915527
      ],
      [
        "▁revealed",
        -9.6343355178833
      ],
      [
        "▁suffered",
        -9.634815216064453
      ],
      [
        "▁Group",
        -9.635068893432617
      ],
      [
        "▁dark",
        -9.635931968688965
      ],
      [
        "▁strength",
        -9.636469841003418
      ],
      [
        "▁meet",
        -9.637059211730957
      ],
      [
        "▁largely",
        -9.637828826904297
      ],
      [
        "wood",
        -9.638978958129883
      ],
      [
        "▁presented",
        -9.63949203491211
      ],
      [
        "▁fifth",
        -9.639951705932617
      ],
      [
        "▁scenes",
        -9.640006065368652
      ],
      [
        "▁figure",
        -9.640080451965332
      ],
      [
        "▁manager",
        -9.640608787536621
      ],
      [
        "▁Championship",
        -9.641231536865234
      ],
      [
        "▁uses",
        -9.642172813415527
      ],
      [
        "▁Later",
        -9.643427848815918
      ],
      [
        "▁distance",
        -9.644074440002441
      ],
      [
        "▁fuel",
        -9.644659042358398
      ],
      [
        "▁Club",
        -9.645550727844238
      ],
      [
        "ny",
        -9.648223876953125
      ],
      [
        "em",
        -9.65007209777832
      ],
      [
        "▁minute",
        -9.650347709655762
      ],
      [
        "▁Greek",
        -9.650481224060059
      ],
      [
        "10",
        -9.651187896728516
      ],
      [
        "▁Institute",
        -9.652022361755371
      ],
      [
        "▁try",
        -9.6524658203125
      ],
      [
        "▁Big",
        -9.652509689331055
      ],
      [
        "▁visit",
        -9.65304183959961
      ],
      [
        "▁supply",
        -9.65310287475586
      ],
      [
        "▁defeat",
        -9.653861999511719
      ],
      [
        "▁dead",
        -9.654582977294922
      ],
      [
        "▁Of",
        -9.654642105102539
      ],
      [
        "▁global",
        -9.654808044433594
      ],
      [
        "▁damaged",
        -9.655906677246094
      ],
      [
        "▁TV",
        -9.656475067138672
      ],
      [
        "▁piece",
        -9.656665802001953
      ],
      [
        "mar",
        -9.656760215759277
      ],
      [
        "▁selected",
        -9.657073020935059
      ],
      [
        "▁tree",
        -9.657393455505371
      ],
      [
        "▁annual",
        -9.659048080444336
      ],
      [
        "▁ice",
        -9.659147262573242
      ],
      [
        "▁skills",
        -9.660562515258789
      ],
      [
        "▁Pe",
        -9.660713195800781
      ],
      [
        "ci",
        -9.661185264587402
      ],
      [
        "ford",
        -9.661308288574219
      ],
      [
        "▁spread",
        -9.661750793457031
      ],
      [
        "▁Society",
        -9.66213321685791
      ],
      [
        "▁attacks",
        -9.662156105041504
      ],
      [
        "▁Saint",
        -9.662470817565918
      ],
      [
        "X",
        -9.662736892700195
      ],
      [
        "▁college",
        -9.662961959838867
      ],
      [
        "ho",
        -9.663047790527344
      ],
      [
        "▁1992",
        -9.663972854614258
      ],
      [
        "▁Tom",
        -9.664674758911133
      ],
      [
        "▁heat",
        -9.665840148925781
      ],
      [
        "ze",
        -9.666336059570312
      ],
      [
        "▁audience",
        -9.666364669799805
      ],
      [
        "▁powerful",
        -9.667800903320312
      ],
      [
        "▁Rock",
        -9.668736457824707
      ],
      [
        "▁press",
        -9.66976261138916
      ],
      [
        "▁Am",
        -9.669880867004395
      ],
      [
        "lan",
        -9.670035362243652
      ],
      [
        "▁Empire",
        -9.670268058776855
      ],
      [
        "▁Sir",
        -9.671201705932617
      ],
      [
        "▁questions",
        -9.671887397766113
      ],
      [
        "ise",
        -9.671979904174805
      ],
      [
        "▁completely",
        -9.672161102294922
      ],
      [
        "▁stories",
        -9.672542572021484
      ],
      [
        "▁unique",
        -9.67282485961914
      ],
      [
        "▁interview",
        -9.672852516174316
      ],
      [
        "one",
        -9.673449516296387
      ],
      [
        "▁pop",
        -9.673999786376953
      ],
      [
        "▁copies",
        -9.674304008483887
      ],
      [
        "▁offer",
        -9.674489974975586
      ],
      [
        "▁officers",
        -9.674931526184082
      ],
      [
        "▁teams",
        -9.676015853881836
      ],
      [
        "▁launched",
        -9.676024436950684
      ],
      [
        "ye",
        -9.676297187805176
      ],
      [
        "▁Ro",
        -9.677376747131348
      ],
      [
        "▁trees",
        -9.67763900756836
      ],
      [
        "▁composed",
        -9.678023338317871
      ],
      [
        "▁relatively",
        -9.678197860717773
      ],
      [
        "▁tons",
        -9.678468704223633
      ],
      [
        "▁becomes",
        -9.67846965789795
      ],
      [
        "▁severe",
        -9.67875862121582
      ],
      [
        "▁conducted",
        -9.679279327392578
      ],
      [
        "led",
        -9.680118560791016
      ],
      [
        "▁square",
        -9.680192947387695
      ],
      [
        "▁1950",
        -9.680198669433594
      ],
      [
        "▁resulting",
        -9.68189525604248
      ],
      [
        "▁Research",
        -9.682567596435547
      ],
      [
        "▁Frank",
        -9.683422088623047
      ],
      [
        "▁bar",
        -9.683733940124512
      ],
      [
        "▁purpose",
        -9.684528350830078
      ],
      [
        "▁Here",
        -9.685038566589355
      ],
      [
        "▁Mexico",
        -9.685379028320312
      ],
      [
        "▁minor",
        -9.685649871826172
      ],
      [
        "▁respectively",
        -9.685741424560547
      ],
      [
        "▁Cor",
        -9.686727523803711
      ],
      [
        "▁Ba",
        -9.686882019042969
      ],
      [
        "▁weather",
        -9.687073707580566
      ],
      [
        "|",
        -9.68750286102295
      ],
      [
        "▁port",
        -9.687798500061035
      ],
      [
        "▁III",
        -9.687844276428223
      ],
      [
        "▁genyen",
        -9.689108848571777
      ],
      [
        "▁observed",
        -9.689671516418457
      ],
      [
        "▁serious",
        -9.690059661865234
      ],
      [
        "▁birth",
        -9.690258026123047
      ],
      [
        "▁organization",
        -9.690864562988281
      ],
      [
        "▁occur",
        -9.691190719604492
      ],
      [
        "▁fans",
        -9.691558837890625
      ],
      [
        "ative",
        -9.69166088104248
      ],
      [
        "▁gen",
        -9.69190502166748
      ],
      [
        "▁peak",
        -9.691967010498047
      ],
      [
        "▁f",
        -9.692407608032227
      ],
      [
        "▁listed",
        -9.692420959472656
      ],
      [
        "▁closed",
        -9.695403099060059
      ],
      [
        "▁Time",
        -9.696107864379883
      ],
      [
        "▁bit",
        -9.696540832519531
      ],
      [
        "▁1993",
        -9.697182655334473
      ],
      [
        "hi",
        -9.69762897491455
      ],
      [
        "▁singer",
        -9.697667121887207
      ],
      [
        "▁1991",
        -9.698309898376465
      ],
      [
        "▁Lu",
        -9.699697494506836
      ],
      [
        "▁contrast",
        -9.70002555847168
      ],
      [
        "▁Anviwònman",
        -9.700485229492188
      ],
      [
        "▁Per",
        -9.700579643249512
      ],
      [
        "▁subsequently",
        -9.7007417678833
      ],
      [
        "▁ideas",
        -9.701212882995605
      ],
      [
        "▁looking",
        -9.701260566711426
      ],
      [
        "▁Health",
        -9.701537132263184
      ],
      [
        "▁Even",
        -9.702605247497559
      ],
      [
        "▁resulted",
        -9.703635215759277
      ],
      [
        "▁product",
        -9.70379638671875
      ],
      [
        "▁Devlòpman",
        -9.704201698303223
      ],
      [
        "▁website",
        -9.705902099609375
      ],
      [
        "▁morning",
        -9.706502914428711
      ],
      [
        "▁older",
        -9.706587791442871
      ],
      [
        "▁sure",
        -9.7076416015625
      ],
      [
        "▁online",
        -9.707887649536133
      ],
      [
        "▁Mr",
        -9.708064079284668
      ],
      [
        "▁unable",
        -9.708168029785156
      ],
      [
        "▁inspired",
        -9.708178520202637
      ],
      [
        "▁developing",
        -9.70821475982666
      ],
      [
        "▁32",
        -9.709609985351562
      ],
      [
        "▁marriage",
        -9.7096586227417
      ],
      [
        "▁Film",
        -9.709799766540527
      ],
      [
        "▁understanding",
        -9.710994720458984
      ],
      [
        "▁sign",
        -9.712071418762207
      ],
      [
        "▁native",
        -9.712514877319336
      ],
      [
        "▁Pre",
        -9.712831497192383
      ],
      [
        "sen",
        -9.71432876586914
      ],
      [
        "▁basic",
        -9.715775489807129
      ],
      [
        "▁blue",
        -9.717355728149414
      ],
      [
        "ru",
        -9.717921257019043
      ],
      [
        "▁coming",
        -9.71834945678711
      ],
      [
        "▁Paris",
        -9.718694686889648
      ],
      [
        "▁mission",
        -9.7188081741333
      ],
      [
        "ker",
        -9.719944953918457
      ],
      [
        "▁perform",
        -9.720040321350098
      ],
      [
        "▁kept",
        -9.720396995544434
      ],
      [
        "ow",
        -9.720952033996582
      ],
      [
        "▁inter",
        -9.721090316772461
      ],
      [
        "▁billion",
        -9.721385955810547
      ],
      [
        "▁affected",
        -9.721651077270508
      ],
      [
        "▁materials",
        -9.722208976745605
      ],
      [
        "▁Year",
        -9.722318649291992
      ],
      [
        "▁producer",
        -9.722496032714844
      ],
      [
        "▁starting",
        -9.72268295288086
      ],
      [
        "▁workers",
        -9.723057746887207
      ],
      [
        "▁Science",
        -9.723206520080566
      ],
      [
        "▁artist",
        -9.724332809448242
      ],
      [
        "▁Da",
        -9.725465774536133
      ],
      [
        "▁broadcast",
        -9.726022720336914
      ],
      [
        "▁alone",
        -9.726298332214355
      ],
      [
        "▁typically",
        -9.726717948913574
      ],
      [
        "▁increasing",
        -9.726896286010742
      ],
      [
        "8",
        -9.7279691696167
      ],
      [
        "▁negative",
        -9.728063583374023
      ],
      [
        "▁equipment",
        -9.729107856750488
      ],
      [
        "▁deyò",
        -9.729146003723145
      ],
      [
        "▁fighting",
        -9.729874610900879
      ],
      [
        "▁conflict",
        -9.729957580566406
      ],
      [
        "▁hands",
        -9.729995727539062
      ],
      [
        "chi",
        -9.73011589050293
      ],
      [
        "▁Your",
        -9.730212211608887
      ],
      [
        "▁centre",
        -9.730339050292969
      ],
      [
        "▁Billboard",
        -9.731184005737305
      ],
      [
        "▁quite",
        -9.731271743774414
      ],
      [
        "▁grow",
        -9.731534004211426
      ],
      [
        "▁notes",
        -9.732072830200195
      ],
      [
        "▁era",
        -9.73212718963623
      ],
      [
        "▁identified",
        -9.732527732849121
      ],
      [
        "▁hair",
        -9.73277473449707
      ],
      [
        "▁competition",
        -9.733110427856445
      ],
      [
        "▁records",
        -9.733342170715332
      ],
      [
        "▁Lyen",
        -9.733905792236328
      ],
      [
        "▁sales",
        -9.734457015991211
      ],
      [
        "▁combat",
        -9.735541343688965
      ],
      [
        "▁elected",
        -9.735638618469238
      ],
      [
        "▁Minister",
        -9.73643684387207
      ],
      [
        "▁soil",
        -9.736486434936523
      ],
      [
        "▁Angeles",
        -9.736488342285156
      ],
      [
        "▁tried",
        -9.736886024475098
      ],
      [
        "▁Pa",
        -9.737159729003906
      ],
      [
        "▁Latin",
        -9.737468719482422
      ],
      [
        "▁assigned",
        -9.738030433654785
      ],
      [
        "▁independent",
        -9.738142967224121
      ],
      [
        "▁nation",
        -9.73861312866211
      ],
      [
        "20",
        -9.738999366760254
      ],
      [
        "▁factors",
        -9.739399909973145
      ],
      [
        "▁Joseph",
        -9.739541053771973
      ],
      [
        "▁names",
        -9.739676475524902
      ],
      [
        "▁security",
        -9.740252494812012
      ],
      [
        "▁toward",
        -9.740360260009766
      ],
      [
        "▁degree",
        -9.740707397460938
      ],
      [
        "▁Men",
        -9.741033554077148
      ],
      [
        "ai",
        -9.74141788482666
      ],
      [
        "▁+",
        -9.742402076721191
      ],
      [
        "ov",
        -9.743391036987305
      ],
      [
        "▁serve",
        -9.74364948272705
      ],
      [
        "▁tracks",
        -9.74377155303955
      ],
      [
        "▁depi",
        -9.744453430175781
      ],
      [
        "▁k",
        -9.74538803100586
      ],
      [
        "▁Highway",
        -9.745988845825195
      ],
      [
        "▁n",
        -9.746908187866211
      ],
      [
        "▁Awards",
        -9.74735164642334
      ],
      [
        "▁basis",
        -9.747517585754395
      ],
      [
        "ius",
        -9.747666358947754
      ],
      [
        "▁Law",
        -9.748157501220703
      ],
      [
        "▁episodes",
        -9.749037742614746
      ],
      [
        "▁Also",
        -9.750299453735352
      ],
      [
        "▁begins",
        -9.750560760498047
      ],
      [
        "▁step",
        -9.751506805419922
      ],
      [
        "▁getting",
        -9.751940727233887
      ],
      [
        "▁dance",
        -9.751943588256836
      ],
      [
        "▁Like",
        -9.75197696685791
      ],
      [
        "▁families",
        -9.752218246459961
      ],
      [
        "▁machine",
        -9.752554893493652
      ],
      [
        "▁jewografi",
        -9.752660751342773
      ],
      [
        "▁allowing",
        -9.753159523010254
      ],
      [
        "▁actions",
        -9.753259658813477
      ],
      [
        "▁attempted",
        -9.753436088562012
      ],
      [
        "▁am",
        -9.753751754760742
      ],
      [
        "▁accepted",
        -9.754013061523438
      ],
      [
        "▁ensure",
        -9.75440502166748
      ],
      [
        "▁foreign",
        -9.754603385925293
      ],
      [
        "▁declared",
        -9.754639625549316
      ],
      [
        "▁mean",
        -9.754816055297852
      ],
      [
        "bi",
        -9.754975318908691
      ],
      [
        "ino",
        -9.755361557006836
      ],
      [
        "▁Squadron",
        -9.75623893737793
      ],
      [
        "▁75",
        -9.756264686584473
      ],
      [
        "▁Each",
        -9.757469177246094
      ],
      [
        "▁ha",
        -9.757875442504883
      ],
      [
        "▁safety",
        -9.759049415588379
      ],
      [
        "▁causes",
        -9.759225845336914
      ],
      [
        "▁ancient",
        -9.759268760681152
      ],
      [
        "▁protection",
        -9.759293556213379
      ],
      [
        "▁trying",
        -9.7600736618042
      ],
      [
        "ex",
        -9.76074504852295
      ],
      [
        "▁officer",
        -9.761218070983887
      ],
      [
        "▁stay",
        -9.76128101348877
      ],
      [
        "tro",
        -9.76137924194336
      ],
      [
        "▁meant",
        -9.761568069458008
      ],
      [
        "▁daily",
        -9.76269817352295
      ],
      [
        "▁attacked",
        -9.762735366821289
      ],
      [
        "▁Bi",
        -9.763137817382812
      ],
      [
        "▁travel",
        -9.763509750366211
      ],
      [
        "▁nothing",
        -9.764404296875
      ],
      [
        "▁continues",
        -9.764924049377441
      ],
      [
        "▁leaves",
        -9.765193939208984
      ],
      [
        "▁creating",
        -9.765240669250488
      ],
      [
        "▁Ha",
        -9.765316009521484
      ],
      [
        "▁Several",
        -9.766494750976562
      ],
      [
        "▁couple",
        -9.767254829406738
      ],
      [
        "▁Bill",
        -9.767534255981445
      ],
      [
        "ning",
        -9.76876449584961
      ],
      [
        "▁widely",
        -9.768829345703125
      ],
      [
        "▁engine",
        -9.76884937286377
      ],
      [
        "▁visual",
        -9.769341468811035
      ],
      [
        "▁cities",
        -9.769533157348633
      ],
      [
        "▁Louis",
        -9.770224571228027
      ],
      [
        "▁dry",
        -9.772629737854004
      ],
      [
        "▁easily",
        -9.773427963256836
      ],
      [
        "▁1940",
        -9.773433685302734
      ],
      [
        "▁guitar",
        -9.773778915405273
      ],
      [
        "▁lyrics",
        -9.773871421813965
      ],
      [
        "▁nearby",
        -9.774266242980957
      ],
      [
        "house",
        -9.774320602416992
      ],
      [
        "▁pair",
        -9.774347305297852
      ],
      [
        "▁receive",
        -9.774629592895508
      ],
      [
        "▁constructed",
        -9.77513599395752
      ],
      [
        "▁slow",
        -9.775590896606445
      ],
      [
        "▁Life",
        -9.775739669799805
      ],
      [
        "▁portion",
        -9.776162147521973
      ],
      [
        "▁path",
        -9.7767333984375
      ],
      [
        "▁researchers",
        -9.77728271484375
      ],
      [
        "▁traffic",
        -9.777992248535156
      ],
      [
        "▁spring",
        -9.77804183959961
      ],
      [
        "▁primarily",
        -9.7785062789917
      ],
      [
        "▁o",
        -9.778630256652832
      ],
      [
        "▁Not",
        -9.77872371673584
      ],
      [
        "▁failure",
        -9.779704093933105
      ],
      [
        "▁Zealand",
        -9.779998779296875
      ],
      [
        "▁ranked",
        -9.780414581298828
      ],
      [
        "▁sister",
        -9.781116485595703
      ],
      [
        "mp",
        -9.781956672668457
      ],
      [
        "▁camp",
        -9.782326698303223
      ],
      [
        "▁causing",
        -9.782842636108398
      ],
      [
        "▁Sam",
        -9.783520698547363
      ],
      [
        "▁inches",
        -9.783676147460938
      ],
      [
        "▁En",
        -9.784637451171875
      ],
      [
        "▁Before",
        -9.785539627075195
      ],
      [
        "▁surrounding",
        -9.785710334777832
      ],
      [
        "▁charge",
        -9.786198616027832
      ],
      [
        "▁twenty",
        -9.786405563354492
      ],
      [
        "▁beyond",
        -9.78650951385498
      ],
      [
        "▁border",
        -9.786666870117188
      ],
      [
        "▁Michigan",
        -9.787288665771484
      ],
      [
        "▁People",
        -9.787324905395508
      ],
      [
        "▁managed",
        -9.787775993347168
      ],
      [
        "▁cold",
        -9.7880859375
      ],
      [
        "▁environmental",
        -9.788191795349121
      ],
      [
        "▁refused",
        -9.788233757019043
      ],
      [
        "▁Corps",
        -9.78863525390625
      ],
      [
        "▁page",
        -9.78897762298584
      ],
      [
        "▁Fort",
        -9.789104461669922
      ],
      [
        "▁stone",
        -9.789319038391113
      ],
      [
        "ang",
        -9.789433479309082
      ],
      [
        "▁Super",
        -9.790999412536621
      ],
      [
        "▁Stone",
        -9.791574478149414
      ],
      [
        "▁programs",
        -9.792068481445312
      ],
      [
        "▁Ho",
        -9.792529106140137
      ],
      [
        "▁Art",
        -9.792819023132324
      ],
      [
        "▁determine",
        -9.793038368225098
      ],
      [
        "▁Museum",
        -9.793740272521973
      ],
      [
        "ding",
        -9.793797492980957
      ],
      [
        "▁Lee",
        -9.793861389160156
      ],
      [
        "▁Wales",
        -9.794313430786133
      ],
      [
        "▁birds",
        -9.794322967529297
      ],
      [
        "ure",
        -9.795711517333984
      ],
      [
        "▁fast",
        -9.795802116394043
      ],
      [
        "om",
        -9.796066284179688
      ],
      [
        "▁Final",
        -9.797127723693848
      ],
      [
        "▁fully",
        -9.797780990600586
      ],
      [
        "ile",
        -9.797877311706543
      ],
      [
        "▁earned",
        -9.798202514648438
      ],
      [
        "▁Moun",
        -9.798321723937988
      ],
      [
        "▁Scott",
        -9.79891300201416
      ],
      [
        "ji",
        -9.799542427062988
      ],
      [
        "▁Tu",
        -9.799551010131836
      ],
      [
        "ig",
        -9.801430702209473
      ],
      [
        "▁Port",
        -9.801468849182129
      ],
      [
        "▁methods",
        -9.80292797088623
      ],
      [
        "▁edition",
        -9.802985191345215
      ],
      [
        "▁mainly",
        -9.803152084350586
      ],
      [
        "▁advance",
        -9.803351402282715
      ],
      [
        "▁Van",
        -9.803672790527344
      ],
      [
        "▁box",
        -9.804733276367188
      ],
      [
        "▁chief",
        -9.805258750915527
      ],
      [
        "che",
        -9.805340766906738
      ],
      [
        "▁trial",
        -9.805500030517578
      ],
      [
        "▁train",
        -9.805648803710938
      ],
      [
        "▁combined",
        -9.805952072143555
      ],
      [
        "▁marked",
        -9.807463645935059
      ],
      [
        "ping",
        -9.807902336120605
      ],
      [
        "▁Su",
        -9.80790901184082
      ],
      [
        "▁Service",
        -9.809500694274902
      ],
      [
        "▁onto",
        -9.809696197509766
      ],
      [
        "▁(19",
        -9.811570167541504
      ],
      [
        "▁ago",
        -9.81158447265625
      ],
      [
        "▁famous",
        -9.811704635620117
      ],
      [
        "▁allows",
        -9.812108039855957
      ],
      [
        "_",
        -9.812867164611816
      ],
      [
        "▁scientific",
        -9.813315391540527
      ],
      [
        "tu",
        -9.81455135345459
      ],
      [
        "dy",
        -9.814935684204102
      ],
      [
        "tor",
        -9.815587043762207
      ],
      [
        "▁alternative",
        -9.815593719482422
      ],
      [
        "▁Three",
        -9.815655708312988
      ],
      [
        "▁commander",
        -9.816061019897461
      ],
      [
        "▁extra",
        -9.816207885742188
      ],
      [
        "▁Bridge",
        -9.816349983215332
      ],
      [
        "▁1930",
        -9.817441940307617
      ],
      [
        "▁slightly",
        -9.817720413208008
      ],
      [
        "▁recently",
        -9.81776237487793
      ],
      [
        "▁yards",
        -9.818133354187012
      ],
      [
        "▁bad",
        -9.819093704223633
      ],
      [
        "▁Kiben",
        -9.819129943847656
      ],
      [
        "▁background",
        -9.819319725036621
      ],
      [
        "▁fevry",
        -9.819442749023438
      ],
      [
        "▁capacity",
        -9.82046127319336
      ],
      [
        "▁Test",
        -9.820969581604004
      ],
      [
        "▁stand",
        -9.820992469787598
      ],
      [
        "▁someone",
        -9.821220397949219
      ],
      [
        "▁historical",
        -9.821304321289062
      ],
      [
        "▁screen",
        -9.821388244628906
      ],
      [
        "▁divided",
        -9.821391105651855
      ],
      [
        "▁paid",
        -9.821430206298828
      ],
      [
        "▁maximum",
        -9.821447372436523
      ],
      [
        "op",
        -9.821539878845215
      ],
      [
        "ung",
        -9.821566581726074
      ],
      [
        "▁Americans",
        -9.821575164794922
      ],
      [
        "vi",
        -9.821751594543457
      ],
      [
        "▁reference",
        -9.822092056274414
      ],
      [
        "▁Q",
        -9.822527885437012
      ],
      [
        "▁movie",
        -9.822904586791992
      ],
      [
        "▁Mac",
        -9.822948455810547
      ],
      [
        "▁speech",
        -9.823342323303223
      ],
      [
        "▁Committee",
        -9.825838088989258
      ],
      [
        "fe",
        -9.826250076293945
      ],
      [
        "▁save",
        -9.826769828796387
      ],
      [
        "po",
        -9.82679557800293
      ],
      [
        "▁Si",
        -9.826930046081543
      ],
      [
        "▁cultural",
        -9.827649116516113
      ],
      [
        "gi",
        -9.828453063964844
      ],
      [
        "izing",
        -9.82882308959961
      ],
      [
        "▁setting",
        -9.829136848449707
      ],
      [
        "▁easy",
        -9.82967472076416
      ],
      [
        "ap",
        -9.830421447753906
      ],
      [
        "▁diet",
        -9.83402156829834
      ],
      [
        "ik",
        -9.83409595489502
      ],
      [
        "jo",
        -9.834380149841309
      ],
      [
        "▁search",
        -9.836241722106934
      ],
      [
        "time",
        -9.836277961730957
      ],
      [
        "▁injury",
        -9.8373384475708
      ],
      [
        "▁choice",
        -9.838851928710938
      ],
      [
        "▁civil",
        -9.839518547058105
      ],
      [
        "▁Tour",
        -9.83991813659668
      ],
      [
        "▁equal",
        -9.840398788452148
      ],
      [
        "▁Chris",
        -9.840714454650879
      ],
      [
        "we",
        -9.84255599975586
      ],
      [
        "▁Southern",
        -9.842782020568848
      ],
      [
        "gen",
        -9.844426155090332
      ],
      [
        "ward",
        -9.845069885253906
      ],
      [
        "▁ending",
        -9.84558391571045
      ],
      [
        "▁Under",
        -9.846036911010742
      ],
      [
        "▁leaders",
        -9.846809387207031
      ],
      [
        "▁commonly",
        -9.84681224822998
      ],
      [
        "▁Once",
        -9.847854614257812
      ],
      [
        "▁greatest",
        -9.848381042480469
      ],
      [
        "lic",
        -9.848705291748047
      ],
      [
        "▁commented",
        -9.849627494812012
      ],
      [
        "▁Government",
        -9.850178718566895
      ],
      [
        "▁400",
        -9.851032257080078
      ],
      [
        "▁iron",
        -9.85319995880127
      ],
      [
        "tin",
        -9.853245735168457
      ],
      [
        "▁Te",
        -9.853607177734375
      ],
      [
        "▁enemy",
        -9.854607582092285
      ],
      [
        "▁tell",
        -9.854806900024414
      ],
      [
        "▁Home",
        -9.856071472167969
      ],
      [
        "tre",
        -9.85614013671875
      ],
      [
        "▁1989",
        -9.856200218200684
      ],
      [
        "▁carbon",
        -9.856287956237793
      ],
      [
        "▁Ver",
        -9.857582092285156
      ],
      [
        "all",
        -9.857789993286133
      ],
      [
        "▁Long",
        -9.858738899230957
      ],
      [
        "▁shape",
        -9.85888385772705
      ],
      [
        "▁rise",
        -9.859166145324707
      ],
      [
        "▁agreement",
        -9.860450744628906
      ],
      [
        "▁Post",
        -9.8612642288208
      ],
      [
        "▁founded",
        -9.861405372619629
      ],
      [
        "oc",
        -9.861989974975586
      ],
      [
        "▁transport",
        -9.86223030090332
      ],
      [
        "▁Team",
        -9.862824440002441
      ],
      [
        "▁Sch",
        -9.862832069396973
      ],
      [
        "://",
        -9.8629732131958
      ],
      [
        "▁frequently",
        -9.86332893371582
      ],
      [
        "▁33",
        -9.863509178161621
      ],
      [
        "▁gives",
        -9.863682746887207
      ],
      [
        "▁00",
        -9.863943099975586
      ],
      [
        "▁Press",
        -9.864192962646484
      ],
      [
        "▁houses",
        -9.864555358886719
      ],
      [
        "▁floor",
        -9.865972518920898
      ],
      [
        "▁Hot",
        -9.866090774536133
      ],
      [
        "ft",
        -9.867197036743164
      ],
      [
        "▁teaching",
        -9.867271423339844
      ],
      [
        "▁anything",
        -9.867697715759277
      ],
      [
        "ities",
        -9.868117332458496
      ],
      [
        "▁Oxford",
        -9.868136405944824
      ],
      [
        "▁Scotland",
        -9.868239402770996
      ],
      [
        "▁Jones",
        -9.868309020996094
      ],
      [
        "▁attended",
        -9.868321418762207
      ],
      [
        "▁opportunity",
        -9.868351936340332
      ],
      [
        "▁require",
        -9.868682861328125
      ],
      [
        "▁r",
        -9.86904525756836
      ],
      [
        "▁Line",
        -9.869412422180176
      ],
      [
        "▁Bar",
        -9.87054443359375
      ],
      [
        "▁explained",
        -9.870816230773926
      ],
      [
        "▁hospital",
        -9.871163368225098
      ],
      [
        "▁ultimately",
        -9.871224403381348
      ],
      [
        "▁concert",
        -9.871319770812988
      ],
      [
        "▁currently",
        -9.871631622314453
      ],
      [
        "▁Jewish",
        -9.872566223144531
      ],
      [
        "▁seems",
        -9.873457908630371
      ],
      [
        "▁Creek",
        -9.874314308166504
      ],
      [
        "▁drive",
        -9.874418258666992
      ],
      [
        "▁positions",
        -9.874796867370605
      ],
      [
        "▁capture",
        -9.875482559204102
      ],
      [
        "▁contain",
        -9.875664710998535
      ],
      [
        "▁providing",
        -9.875805854797363
      ],
      [
        "▁didn",
        -9.876031875610352
      ],
      [
        "▁flow",
        -9.87631893157959
      ],
      [
        "▁fruit",
        -9.877164840698242
      ],
      [
        "▁reports",
        -9.877490043640137
      ],
      [
        "▁DVD",
        -9.877564430236816
      ],
      [
        "port",
        -9.878158569335938
      ],
      [
        "▁formation",
        -9.878710746765137
      ],
      [
        "▁claim",
        -9.88010025024414
      ],
      [
        "▁Ireland",
        -9.880694389343262
      ],
      [
        "▁scientists",
        -9.88106918334961
      ],
      [
        "red",
        -9.881951332092285
      ],
      [
        "▁Fox",
        -9.881993293762207
      ],
      [
        "▁wing",
        -9.883928298950195
      ],
      [
        "▁Har",
        -9.884871482849121
      ],
      [
        "▁wood",
        -9.885676383972168
      ],
      [
        "je",
        -9.886009216308594
      ],
      [
        "▁planet",
        -9.886398315429688
      ],
      [
        "▁digital",
        -9.88747787475586
      ],
      [
        "ric",
        -9.887523651123047
      ],
      [
        "▁dropped",
        -9.889079093933105
      ],
      [
        "▁consider",
        -9.889424324035645
      ],
      [
        "▁earth",
        -9.889939308166504
      ],
      [
        "▁Nan",
        -9.890140533447266
      ],
      [
        "▁matches",
        -9.890366554260254
      ],
      [
        "▁leg",
        -9.890817642211914
      ],
      [
        "▁sides",
        -9.891083717346191
      ],
      [
        "▁escape",
        -9.891785621643066
      ],
      [
        "▁officials",
        -9.891788482666016
      ],
      [
        "▁Ni",
        -9.892145156860352
      ],
      [
        "ab",
        -9.89242935180664
      ],
      [
        "ped",
        -9.892712593078613
      ],
      [
        "▁residents",
        -9.892945289611816
      ],
      [
        "▁communities",
        -9.892955780029297
      ],
      [
        "▁mouth",
        -9.893656730651855
      ],
      [
        "▁economy",
        -9.895380020141602
      ],
      [
        "▁eyes",
        -9.89557933807373
      ],
      [
        "9",
        -9.896122932434082
      ],
      [
        "▁theme",
        -9.896425247192383
      ],
      [
        "tan",
        -9.896864891052246
      ],
      [
        "▁yard",
        -9.896864891052246
      ],
      [
        "ors",
        -9.896976470947266
      ],
      [
        "▁peace",
        -9.898211479187012
      ],
      [
        "▁Academy",
        -9.898506164550781
      ],
      [
        "berg",
        -9.898713111877441
      ],
      [
        "▁Now",
        -9.899177551269531
      ],
      [
        "▁price",
        -9.899206161499023
      ],
      [
        "king",
        -9.89969253540039
      ],
      [
        "▁bodies",
        -9.899768829345703
      ],
      [
        "▁join",
        -9.900144577026367
      ],
      [
        "▁concluded",
        -9.900202751159668
      ],
      [
        "▁captain",
        -9.900343894958496
      ],
      [
        "▁thick",
        -9.90070915222168
      ],
      [
        "of",
        -9.903777122497559
      ],
      [
        "▁expressed",
        -9.903951644897461
      ],
      [
        "▁Italy",
        -9.903959274291992
      ],
      [
        "▁award",
        -9.904032707214355
      ],
      [
        "▁Prince",
        -9.904332160949707
      ],
      [
        "▁Cross",
        -9.905298233032227
      ],
      [
        "▁difference",
        -9.90575885772705
      ],
      [
        "▁importance",
        -9.906270027160645
      ],
      [
        "▁sex",
        -9.906350135803223
      ],
      [
        "▁existing",
        -9.90650463104248
      ],
      [
        "▁Hu",
        -9.906614303588867
      ],
      [
        "▁Water",
        -9.906615257263184
      ],
      [
        "▁aid",
        -9.907452583312988
      ],
      [
        "well",
        -9.907487869262695
      ],
      [
        "▁combination",
        -9.90788745880127
      ],
      [
        "▁Little",
        -9.908177375793457
      ],
      [
        "ology",
        -9.909200668334961
      ],
      [
        "▁humans",
        -9.909374237060547
      ],
      [
        "30",
        -9.910355567932129
      ],
      [
        "▁forest",
        -9.910564422607422
      ],
      [
        "ries",
        -9.91108226776123
      ],
      [
        "▁advanced",
        -9.911696434020996
      ],
      [
        "ari",
        -9.912548065185547
      ],
      [
        "▁authority",
        -9.913430213928223
      ],
      [
        "▁Is",
        -9.914270401000977
      ],
      [
        "▁suggests",
        -9.915144920349121
      ],
      [
        "kin",
        -9.915328979492188
      ],
      [
        "▁horse",
        -9.915908813476562
      ],
      [
        "▁reasons",
        -9.918176651000977
      ],
      [
        "▁36",
        -9.918267250061035
      ],
      [
        "▁stating",
        -9.918587684631348
      ],
      [
        "ita",
        -9.918879508972168
      ],
      [
        "▁creation",
        -9.918889999389648
      ],
      [
        "ong",
        -9.918974876403809
      ],
      [
        "▁Daniel",
        -9.9198637008667
      ],
      [
        "▁Sha",
        -9.920230865478516
      ],
      [
        "▁Carolina",
        -9.920927047729492
      ],
      [
        "▁except",
        -9.921110153198242
      ],
      [
        "▁heard",
        -9.922090530395508
      ],
      [
        "▁quarter",
        -9.922869682312012
      ],
      [
        "▁district",
        -9.922929763793945
      ],
      [
        "▁tax",
        -9.923274993896484
      ],
      [
        "▁master",
        -9.923792839050293
      ],
      [
        "▁Boston",
        -9.923922538757324
      ],
      [
        "▁behavior",
        -9.92401123046875
      ],
      [
        "▁1942",
        -9.924159049987793
      ],
      [
        "▁Jesus",
        -9.924174308776855
      ],
      [
        "▁pieces",
        -9.924333572387695
      ],
      [
        "▁goes",
        -9.924838066101074
      ],
      [
        "ud",
        -9.924896240234375
      ],
      [
        "▁adult",
        -9.92561149597168
      ],
      [
        "▁pilot",
        -9.926403045654297
      ],
      [
        "▁Republic",
        -9.926504135131836
      ],
      [
        "▁doesn",
        -9.926986694335938
      ],
      [
        "▁transferred",
        -9.927074432373047
      ],
      [
        "▁sought",
        -9.927796363830566
      ],
      [
        "▁healthy",
        -9.927820205688477
      ],
      [
        "▁code",
        -9.928317070007324
      ],
      [
        "▁influenced",
        -9.928523063659668
      ],
      [
        "ib",
        -9.928878784179688
      ],
      [
        "lon",
        -9.929030418395996
      ],
      [
        "▁Civil",
        -9.929545402526855
      ],
      [
        "▁multi",
        -9.930055618286133
      ],
      [
        "▁Cha",
        -9.930140495300293
      ],
      [
        "▁drug",
        -9.930339813232422
      ],
      [
        "▁Jo",
        -9.930875778198242
      ],
      [
        "▁writers",
        -9.931384086608887
      ],
      [
        "▁owned",
        -9.931632041931152
      ],
      [
        "ez",
        -9.932726860046387
      ],
      [
        "▁places",
        -9.933005332946777
      ],
      [
        "▁gain",
        -9.933140754699707
      ],
      [
        "▁Young",
        -9.93315601348877
      ],
      [
        "▁bill",
        -9.933533668518066
      ],
      [
        "▁History",
        -9.93384838104248
      ],
      [
        "▁chance",
        -9.934296607971191
      ],
      [
        "▁attempts",
        -9.93447208404541
      ],
      [
        "▁metres",
        -9.934761047363281
      ],
      [
        "▁Catholic",
        -9.93515682220459
      ],
      [
        "▁table",
        -9.935431480407715
      ],
      [
        "▁sites",
        -9.935786247253418
      ],
      [
        "▁Northern",
        -9.936297416687012
      ],
      [
        "▁secret",
        -9.936577796936035
      ],
      [
        "▁husband",
        -9.936981201171875
      ],
      [
        "▁Though",
        -9.937209129333496
      ],
      [
        "▁Stephen",
        -9.93765640258789
      ],
      [
        "▁rules",
        -9.938307762145996
      ],
      [
        "tra",
        -9.93881607055664
      ],
      [
        "tz",
        -9.939115524291992
      ],
      [
        "▁rich",
        -9.939787864685059
      ],
      [
        "▁defense",
        -9.941545486450195
      ],
      [
        "▁Major",
        -9.942960739135742
      ],
      [
        "▁Asia",
        -9.942968368530273
      ],
      [
        "zi",
        -9.943272590637207
      ],
      [
        "▁Ocean",
        -9.943571090698242
      ],
      [
        "lu",
        -9.943633079528809
      ],
      [
        "▁religion",
        -9.945209503173828
      ],
      [
        "ven",
        -9.945383071899414
      ],
      [
        "▁maintain",
        -9.94554615020752
      ],
      [
        "▁represented",
        -9.945977210998535
      ],
      [
        "istic",
        -9.946562767028809
      ],
      [
        "▁1988",
        -9.947072982788086
      ],
      [
        "ell",
        -9.948230743408203
      ],
      [
        "▁System",
        -9.948732376098633
      ],
      [
        "▁everything",
        -9.949908256530762
      ],
      [
        "▁acid",
        -9.949975967407227
      ],
      [
        "▁county",
        -9.950151443481445
      ],
      [
        "▁Chief",
        -9.951515197753906
      ],
      [
        "▁Ten",
        -9.951706886291504
      ],
      [
        "side",
        -9.951813697814941
      ],
      [
        "▁defined",
        -9.952132225036621
      ],
      [
        "▁Wood",
        -9.952659606933594
      ],
      [
        "▁37",
        -9.952674865722656
      ],
      [
        "▁confirmed",
        -9.953099250793457
      ],
      [
        "od",
        -9.954130172729492
      ],
      [
        "▁perhaps",
        -9.954181671142578
      ],
      [
        "▁ring",
        -9.954224586486816
      ],
      [
        "▁advantage",
        -9.954612731933594
      ],
      [
        "▁Ta",
        -9.955379486083984
      ],
      [
        "▁target",
        -9.955398559570312
      ],
      [
        "▁Valley",
        -9.955418586730957
      ],
      [
        "▁invasion",
        -9.955592155456543
      ],
      [
        "▁Jim",
        -9.956100463867188
      ],
      [
        "don",
        -9.95612621307373
      ],
      [
        "▁acting",
        -9.956578254699707
      ],
      [
        "▁sequence",
        -9.957026481628418
      ],
      [
        "▁1987",
        -9.957144737243652
      ],
      [
        "▁coach",
        -9.957258224487305
      ],
      [
        "▁Infantry",
        -9.95732593536377
      ],
      [
        "▁projects",
        -9.957837104797363
      ],
      [
        "▁proved",
        -9.957916259765625
      ],
      [
        "▁gained",
        -9.95825481414795
      ],
      [
        "▁essential",
        -9.959131240844727
      ],
      [
        "tter",
        -9.959495544433594
      ],
      [
        "▁subsequent",
        -9.960119247436523
      ],
      [
        "ach",
        -9.96043872833252
      ],
      [
        "▁moment",
        -9.961050987243652
      ],
      [
        "▁Part",
        -9.961137771606445
      ],
      [
        "▁bank",
        -9.961186408996582
      ],
      [
        "▁improved",
        -9.96120834350586
      ],
      [
        "▁worldwide",
        -9.961370468139648
      ],
      [
        "▁mentioned",
        -9.961400032043457
      ],
      [
        "▁sleep",
        -9.961424827575684
      ],
      [
        "▁determined",
        -9.961682319641113
      ],
      [
        "▁threat",
        -9.961703300476074
      ],
      [
        "pp",
        -9.961859703063965
      ],
      [
        "▁calling",
        -9.961872100830078
      ],
      [
        "ou",
        -9.961883544921875
      ],
      [
        "qui",
        -9.962198257446289
      ],
      [
        "▁images",
        -9.96250057220459
      ],
      [
        "▁tells",
        -9.962738990783691
      ],
      [
        "▁height",
        -9.963369369506836
      ],
      [
        "han",
        -9.963619232177734
      ],
      [
        "▁passing",
        -9.963970184326172
      ],
      [
        "▁senior",
        -9.964346885681152
      ],
      [
        "▁fine",
        -9.965052604675293
      ],
      [
        "mon",
        -9.965229988098145
      ],
      [
        "50",
        -9.9656343460083
      ],
      [
        "▁motion",
        -9.965813636779785
      ],
      [
        "▁measure",
        -9.966102600097656
      ],
      [
        "▁rare",
        -9.966564178466797
      ],
      [
        "▁benefits",
        -9.966695785522461
      ],
      [
        "▁artists",
        -9.967829704284668
      ],
      [
        "▁governor",
        -9.968648910522461
      ],
      [
        "▁eat",
        -9.968689918518066
      ],
      [
        "▁nuclear",
        -9.968713760375977
      ],
      [
        "▁royal",
        -9.968854904174805
      ],
      [
        "▁cyclone",
        -9.9689302444458
      ],
      [
        "bu",
        -9.970041275024414
      ],
      [
        "▁1920",
        -9.971874237060547
      ],
      [
        "▁Tri",
        -9.972825050354004
      ],
      [
        "▁castle",
        -9.973184585571289
      ],
      [
        "▁sun",
        -9.97338581085205
      ],
      [
        "▁ahead",
        -9.973867416381836
      ],
      [
        "ini",
        -9.974011421203613
      ],
      [
        "▁claims",
        -9.974020004272461
      ],
      [
        "use",
        -9.974184036254883
      ],
      [
        "▁significantly",
        -9.974324226379395
      ],
      [
        "▁Captain",
        -9.975072860717773
      ],
      [
        "▁plays",
        -9.975310325622559
      ],
      [
        "▁selling",
        -9.975400924682617
      ],
      [
        "▁applied",
        -9.975555419921875
      ],
      [
        "▁broke",
        -9.975682258605957
      ],
      [
        "▁fan",
        -9.975933074951172
      ],
      [
        "▁reaching",
        -9.976425170898438
      ],
      [
        "▁core",
        -9.976683616638184
      ],
      [
        "▁Chi",
        -9.976747512817383
      ],
      [
        "▁check",
        -9.977714538574219
      ],
      [
        "▁stress",
        -9.977745056152344
      ],
      [
        "▁mental",
        -9.977785110473633
      ],
      [
        "▁Our",
        -9.977917671203613
      ],
      [
        "▁add",
        -9.978150367736816
      ],
      [
        "▁safe",
        -9.978211402893066
      ],
      [
        "▁carry",
        -9.978581428527832
      ],
      [
        "▁resistance",
        -9.978714942932129
      ],
      [
        "▁1944",
        -9.9788179397583
      ],
      [
        "▁figures",
        -9.978828430175781
      ],
      [
        "▁Middle",
        -9.978877067565918
      ],
      [
        "gan",
        -9.97935676574707
      ],
      [
        "▁designated",
        -9.979592323303223
      ],
      [
        "▁1986",
        -9.979826927185059
      ],
      [
        "▁sexual",
        -9.980224609375
      ],
      [
        "▁pale",
        -9.980486869812012
      ],
      [
        "head",
        -9.980902671813965
      ],
      [
        "▁draw",
        -9.981253623962402
      ],
      [
        "▁150",
        -9.981406211853027
      ],
      [
        "▁industrial",
        -9.98167610168457
      ],
      [
        "▁Battalion",
        -9.981711387634277
      ],
      [
        "▁respect",
        -9.982098579406738
      ],
      [
        "ney",
        -9.982194900512695
      ],
      [
        "▁urban",
        -9.982645034790039
      ],
      [
        "▁follows",
        -9.982892990112305
      ],
      [
        "▁models",
        -9.98290729522705
      ],
      [
        "▁38",
        -9.982930183410645
      ],
      [
        "▁Ex",
        -9.983098983764648
      ],
      [
        "yl",
        -9.984296798706055
      ],
      [
        "▁twice",
        -9.985182762145996
      ],
      [
        "ng",
        -9.985825538635254
      ],
      [
        "fa",
        -9.986364364624023
      ],
      [
        "▁walls",
        -9.986801147460938
      ],
      [
        "▁Madonna",
        -9.988666534423828
      ],
      [
        "▁exist",
        -9.989385604858398
      ],
      [
        "▁dog",
        -9.989541053771973
      ],
      [
        "ea",
        -9.989652633666992
      ],
      [
        "▁planning",
        -9.989827156066895
      ],
      [
        "▁1945",
        -9.989961624145508
      ],
      [
        "▁struck",
        -9.990011215209961
      ],
      [
        "▁promote",
        -9.99106216430664
      ],
      [
        "▁enter",
        -9.991291046142578
      ],
      [
        "▁Fim",
        -9.991832733154297
      ],
      [
        "▁chemical",
        -9.993358612060547
      ],
      [
        "▁bi",
        -9.994009971618652
      ],
      [
        "▁Records",
        -9.994418144226074
      ],
      [
        "▁34",
        -9.995232582092285
      ],
      [
        "12",
        -9.99535846710205
      ],
      [
        "▁contemporary",
        -9.995414733886719
      ],
      [
        "▁volume",
        -9.995756149291992
      ],
      [
        "▁Williams",
        -9.996472358703613
      ],
      [
        "▁territory",
        -9.996501922607422
      ],
      [
        "▁university",
        -9.996821403503418
      ],
      [
        "25",
        -9.997315406799316
      ],
      [
        "▁1941",
        -9.99790096282959
      ],
      [
        "▁counter",
        -9.997980117797852
      ],
      [
        "▁heavily",
        -9.998230934143066
      ],
      [
        "▁Dutch",
        -9.99853229522705
      ],
      [
        "▁alongside",
        -9.999393463134766
      ],
      [
        "▁ca",
        -9.999818801879883
      ],
      [
        "▁unknown",
        -10.000984191894531
      ],
      [
        "▁prominent",
        -10.001007080078125
      ],
      [
        "fer",
        -10.00118637084961
      ],
      [
        "▁kat",
        -10.00268840789795
      ],
      [
        "▁rating",
        -10.002951622009277
      ],
      [
        "▁costs",
        -10.003417015075684
      ],
      [
        "▁element",
        -10.004067420959473
      ],
      [
        "▁weapons",
        -10.004976272583008
      ],
      [
        "van",
        -10.006354331970215
      ],
      [
        "▁chosen",
        -10.006412506103516
      ],
      [
        "▁answer",
        -10.006664276123047
      ],
      [
        "▁titled",
        -10.007195472717285
      ],
      [
        "▁#",
        -10.00735855102539
      ],
      [
        "▁adopted",
        -10.009265899658203
      ],
      [
        "▁Dis",
        -10.00943660736084
      ],
      [
        "ren",
        -10.010475158691406
      ],
      [
        "▁Parliament",
        -10.010540962219238
      ],
      [
        "▁laws",
        -10.010758399963379
      ],
      [
        "▁Brigade",
        -10.011064529418945
      ],
      [
        "▁host",
        -10.011282920837402
      ],
      [
        "▁memory",
        -10.011384010314941
      ],
      [
        "▁District",
        -10.01236343383789
      ],
      [
        "▁objects",
        -10.013131141662598
      ],
      [
        "▁Ke",
        -10.014877319335938
      ],
      [
        "▁news",
        -10.015342712402344
      ],
      [
        "▁Gold",
        -10.015369415283203
      ],
      [
        "▁draft",
        -10.016189575195312
      ],
      [
        "▁regions",
        -10.016216278076172
      ],
      [
        "▁Light",
        -10.016242980957031
      ],
      [
        "▁experienced",
        -10.016528129577637
      ],
      [
        "▁Good",
        -10.016546249389648
      ],
      [
        "▁viewers",
        -10.016556739807129
      ],
      [
        "▁Victoria",
        -10.016629219055176
      ],
      [
        "▁demand",
        -10.016786575317383
      ],
      [
        "▁vote",
        -10.017030715942383
      ],
      [
        "11",
        -10.017855644226074
      ],
      [
        "▁note",
        -10.017986297607422
      ],
      [
        "▁structures",
        -10.019170761108398
      ],
      [
        "▁BBC",
        -10.0200777053833
      ],
      [
        "▁grew",
        -10.020209312438965
      ],
      [
        "▁Show",
        -10.020475387573242
      ],
      [
        "▁featuring",
        -10.020844459533691
      ],
      [
        "▁object",
        -10.020975112915039
      ],
      [
        "uk",
        -10.021344184875488
      ],
      [
        "▁maintained",
        -10.021883010864258
      ],
      [
        "▁Christ",
        -10.02213191986084
      ],
      [
        "▁contained",
        -10.022175788879395
      ],
      [
        "▁Gu",
        -10.022295951843262
      ],
      [
        "▁occurs",
        -10.02248764038086
      ],
      [
        "▁inch",
        -10.024062156677246
      ],
      [
        "15",
        -10.024412155151367
      ],
      [
        "▁laid",
        -10.02481746673584
      ],
      [
        "▁murder",
        -10.025020599365234
      ],
      [
        "net",
        -10.025225639343262
      ],
      [
        "▁connected",
        -10.025581359863281
      ],
      [
        "▁selection",
        -10.025978088378906
      ],
      [
        "▁literature",
        -10.026031494140625
      ],
      [
        "▁actor",
        -10.026232719421387
      ],
      [
        "▁teeth",
        -10.0266752243042
      ],
      [
        "off",
        -10.027134895324707
      ],
      [
        "▁Regiment",
        -10.027480125427246
      ],
      [
        "▁arms",
        -10.027759552001953
      ],
      [
        "▁Its",
        -10.027862548828125
      ],
      [
        "▁challenge",
        -10.028037071228027
      ],
      [
        "▁possibly",
        -10.028271675109863
      ],
      [
        "▁administration",
        -10.028338432312012
      ],
      [
        "▁Will",
        -10.028365135192871
      ],
      [
        "▁mis",
        -10.02840518951416
      ],
      [
        "ther",
        -10.028939247131348
      ],
      [
        "▁progress",
        -10.029219627380371
      ],
      [
        "▁wave",
        -10.029669761657715
      ],
      [
        "▁killing",
        -10.031232833862305
      ],
      [
        "▁standing",
        -10.031523704528809
      ],
      [
        "▁controlled",
        -10.031556129455566
      ],
      [
        "ible",
        -10.03215503692627
      ],
      [
        "▁executive",
        -10.03248405456543
      ],
      [
        "▁protein",
        -10.032543182373047
      ],
      [
        "▁News",
        -10.032574653625488
      ],
      [
        "▁Commission",
        -10.032669067382812
      ],
      [
        "▁Live",
        -10.033413887023926
      ],
      [
        "▁prepared",
        -10.033527374267578
      ],
      [
        "▁Christmas",
        -10.033534049987793
      ],
      [
        "▁Par",
        -10.033952713012695
      ],
      [
        "▁Blue",
        -10.034811019897461
      ],
      [
        "ane",
        -10.034844398498535
      ],
      [
        "▁scoring",
        -10.034895896911621
      ],
      [
        "▁peaked",
        -10.035209655761719
      ],
      [
        "▁tradition",
        -10.03592300415039
      ],
      [
        "▁reaction",
        -10.036005973815918
      ],
      [
        "▁BC",
        -10.036478042602539
      ],
      [
        "▁learned",
        -10.037425994873047
      ],
      [
        "▁picture",
        -10.0377197265625
      ],
      [
        "▁distribution",
        -10.03775691986084
      ],
      [
        "▁phase",
        -10.037881851196289
      ],
      [
        "▁techniques",
        -10.037932395935059
      ],
      [
        "ide",
        -10.03935718536377
      ],
      [
        "▁Harrison",
        -10.039570808410645
      ],
      [
        "▁wild",
        -10.03972053527832
      ],
      [
        "du",
        -10.039782524108887
      ],
      [
        "▁achieved",
        -10.03979778289795
      ],
      [
        "▁nor",
        -10.04016399383545
      ],
      [
        "▁argued",
        -10.040231704711914
      ],
      [
        "▁sports",
        -10.04060173034668
      ],
      [
        "▁Series",
        -10.040705680847168
      ],
      [
        "▁income",
        -10.040858268737793
      ],
      [
        "▁etc",
        -10.04086971282959
      ],
      [
        "▁budget",
        -10.040898323059082
      ],
      [
        "work",
        -10.041104316711426
      ],
      [
        "▁naval",
        -10.041178703308105
      ],
      [
        "▁committee",
        -10.041295051574707
      ],
      [
        "tal",
        -10.041407585144043
      ],
      [
        "▁brief",
        -10.041497230529785
      ],
      [
        "▁See",
        -10.042230606079102
      ],
      [
        "▁address",
        -10.04224681854248
      ],
      [
        "▁fun",
        -10.042285919189453
      ],
      [
        "▁Ohio",
        -10.042597770690918
      ],
      [
        "▁Spain",
        -10.042669296264648
      ],
      [
        "▁serving",
        -10.043288230895996
      ],
      [
        "▁Early",
        -10.04348087310791
      ],
      [
        "▁leadership",
        -10.043694496154785
      ],
      [
        "▁Russia",
        -10.044742584228516
      ],
      [
        "▁Manchester",
        -10.0449800491333
      ],
      [
        "▁statement",
        -10.045293807983398
      ],
      [
        "▁1943",
        -10.045371055603027
      ],
      [
        "▁adults",
        -10.045559883117676
      ],
      [
        "▁talk",
        -10.045662879943848
      ],
      [
        "ator",
        -10.045955657958984
      ],
      [
        "▁promoted",
        -10.04761791229248
      ],
      [
        "▁genetic",
        -10.047982215881348
      ],
      [
        "▁49",
        -10.0482759475708
      ],
      [
        "▁exchange",
        -10.048491477966309
      ],
      [
        "▁Public",
        -10.04874038696289
      ],
      [
        "▁split",
        -10.049251556396484
      ],
      [
        "▁extensive",
        -10.049628257751465
      ],
      [
        "▁Eastern",
        -10.050153732299805
      ],
      [
        "▁expansion",
        -10.050566673278809
      ],
      [
        "▁silver",
        -10.050769805908203
      ],
      [
        "▁Today",
        -10.050965309143066
      ],
      [
        "▁visited",
        -10.051203727722168
      ],
      [
        "▁hot",
        -10.051993370056152
      ],
      [
        "hu",
        -10.052285194396973
      ],
      [
        "▁About",
        -10.05233097076416
      ],
      [
        "▁centuries",
        -10.052391052246094
      ],
      [
        "▁extremely",
        -10.05337142944336
      ],
      [
        "▁edge",
        -10.0537748336792
      ],
      [
        "ns",
        -10.054051399230957
      ],
      [
        "▁benefit",
        -10.054338455200195
      ],
      [
        "▁performances",
        -10.054705619812012
      ],
      [
        "▁describes",
        -10.054832458496094
      ],
      [
        "town",
        -10.055635452270508
      ],
      [
        "▁super",
        -10.055682182312012
      ],
      [
        "▁Avenue",
        -10.055846214294434
      ],
      [
        "▁containing",
        -10.05655288696289
      ],
      [
        "▁faced",
        -10.0570650100708
      ],
      [
        "▁affect",
        -10.057458877563477
      ],
      [
        "▁items",
        -10.057579040527344
      ],
      [
        "uff",
        -10.057940483093262
      ],
      [
        "gu",
        -10.057973861694336
      ],
      [
        "▁kill",
        -10.058209419250488
      ],
      [
        "▁boat",
        -10.058754920959473
      ],
      [
        "▁properties",
        -10.059061050415039
      ],
      [
        "nt",
        -10.060598373413086
      ],
      [
        "▁rele",
        -10.060779571533203
      ],
      [
        "▁Who",
        -10.060888290405273
      ],
      [
        "▁focused",
        -10.061373710632324
      ],
      [
        "▁academic",
        -10.062176704406738
      ],
      [
        "▁Irish",
        -10.062592506408691
      ],
      [
        "▁Just",
        -10.062670707702637
      ],
      [
        "▁Gar",
        -10.062749862670898
      ],
      [
        "▁Che",
        -10.062972068786621
      ],
      [
        "▁patient",
        -10.063013076782227
      ],
      [
        "▁opposed",
        -10.063613891601562
      ],
      [
        "▁violence",
        -10.06384563446045
      ],
      [
        "▁railway",
        -10.064153671264648
      ],
      [
        "▁tournament",
        -10.064364433288574
      ],
      [
        "▁del",
        -10.064591407775879
      ],
      [
        "▁rain",
        -10.064932823181152
      ],
      [
        "ub",
        -10.06545352935791
      ],
      [
        "▁transfer",
        -10.065858840942383
      ],
      [
        "▁Field",
        -10.066014289855957
      ],
      [
        "▁block",
        -10.066206932067871
      ],
      [
        "ee",
        -10.066417694091797
      ],
      [
        "▁shortly",
        -10.066550254821777
      ],
      [
        "▁successfully",
        -10.068471908569336
      ],
      [
        "▁details",
        -10.069046974182129
      ],
      [
        "▁exercise",
        -10.06989860534668
      ],
      [
        "▁existence",
        -10.070001602172852
      ],
      [
        "▁Journal",
        -10.070733070373535
      ],
      [
        "▁1985",
        -10.071715354919434
      ],
      [
        "her",
        -10.071920394897461
      ],
      [
        "▁Among",
        -10.07317066192627
      ],
      [
        "▁sixth",
        -10.073240280151367
      ],
      [
        "▁regarding",
        -10.073265075683594
      ],
      [
        "▁Hurricane",
        -10.073508262634277
      ],
      [
        "▁officially",
        -10.073991775512695
      ],
      [
        "▁broken",
        -10.074100494384766
      ],
      [
        "▁display",
        -10.074310302734375
      ],
      [
        "▁kg",
        -10.074886322021484
      ],
      [
        "▁suggest",
        -10.074905395507812
      ],
      [
        "▁brown",
        -10.075296401977539
      ],
      [
        "▁Dan",
        -10.075740814208984
      ],
      [
        "▁1984",
        -10.075766563415527
      ],
      [
        "▁doctor",
        -10.076416969299316
      ],
      [
        "▁Games",
        -10.076545715332031
      ],
      [
        "▁finding",
        -10.077155113220215
      ],
      [
        "\".",
        -10.077290534973145
      ],
      [
        "▁offers",
        -10.077407836914062
      ],
      [
        "▁feed",
        -10.077808380126953
      ],
      [
        "ability",
        -10.078083992004395
      ],
      [
        "▁generation",
        -10.078171730041504
      ],
      [
        "▁Elizabeth",
        -10.078286170959473
      ],
      [
        "▁Col",
        -10.078733444213867
      ],
      [
        "▁seem",
        -10.079033851623535
      ],
      [
        "▁Due",
        -10.079038619995117
      ],
      [
        "▁Board",
        -10.079304695129395
      ],
      [
        "▁bottom",
        -10.07974624633789
      ],
      [
        "▁Power",
        -10.080193519592285
      ],
      [
        "▁task",
        -10.080342292785645
      ],
      [
        "▁Office",
        -10.080381393432617
      ],
      [
        "▁Governor",
        -10.080439567565918
      ],
      [
        "▁parallel",
        -10.081274032592773
      ],
      [
        "▁entirely",
        -10.081575393676758
      ],
      [
        "if",
        -10.08204174041748
      ],
      [
        "▁fit",
        -10.08261489868164
      ],
      [
        "19",
        -10.082731246948242
      ],
      [
        "▁solar",
        -10.08288860321045
      ],
      [
        "▁differences",
        -10.083274841308594
      ],
      [
        "ff",
        -10.083426475524902
      ],
      [
        "▁flag",
        -10.083841323852539
      ],
      [
        "▁electric",
        -10.084139823913574
      ],
      [
        "▁choose",
        -10.08456802368164
      ],
      [
        "▁vehicles",
        -10.084843635559082
      ],
      [
        "ct",
        -10.084935188293457
      ],
      [
        "▁teacher",
        -10.084981918334961
      ],
      [
        "▁shared",
        -10.085143089294434
      ],
      [
        "▁testing",
        -10.085271835327148
      ],
      [
        "▁facilities",
        -10.085389137268066
      ],
      [
        "▁everyone",
        -10.08566951751709
      ],
      [
        "cher",
        -10.085753440856934
      ],
      [
        "▁Ti",
        -10.085980415344238
      ],
      [
        "▁holding",
        -10.086029052734375
      ],
      [
        "▁organized",
        -10.08639907836914
      ],
      [
        "▁Let",
        -10.087784767150879
      ],
      [
        "▁authorities",
        -10.087799072265625
      ],
      [
        "▁rainfall",
        -10.08813762664795
      ],
      [
        "▁drama",
        -10.088449478149414
      ],
      [
        "▁yellow",
        -10.088460922241211
      ],
      [
        "▁Alexander",
        -10.089179992675781
      ],
      [
        "▁actual",
        -10.089290618896484
      ],
      [
        "▁flat",
        -10.089507102966309
      ],
      [
        "▁pattern",
        -10.089845657348633
      ],
      [
        "ken",
        -10.08986759185791
      ],
      [
        "bar",
        -10.089972496032715
      ],
      [
        "▁rapidly",
        -10.09005355834961
      ],
      [
        "▁message",
        -10.090204238891602
      ],
      [
        "▁values",
        -10.090204238891602
      ],
      [
        "▁protected",
        -10.090373039245605
      ],
      [
        "▁launch",
        -10.090389251708984
      ],
      [
        "▁newly",
        -10.090536117553711
      ],
      [
        "▁perfect",
        -10.090728759765625
      ],
      [
        "▁Far",
        -10.091351509094238
      ],
      [
        "vin",
        -10.091426849365234
      ],
      [
        "▁device",
        -10.09156608581543
      ],
      [
        "▁Ge",
        -10.091720581054688
      ],
      [
        "▁Fa",
        -10.091803550720215
      ],
      [
        "▁newspaper",
        -10.091805458068848
      ],
      [
        "▁horses",
        -10.092238426208496
      ],
      [
        "▁homes",
        -10.092879295349121
      ],
      [
        "▁Top",
        -10.093307495117188
      ],
      [
        "ix",
        -10.093341827392578
      ],
      [
        "▁Land",
        -10.093505859375
      ],
      [
        "▁solution",
        -10.093530654907227
      ],
      [
        "day",
        -10.093657493591309
      ],
      [
        "▁closely",
        -10.093685150146484
      ],
      [
        "▁Del",
        -10.093944549560547
      ],
      [
        "▁manner",
        -10.094030380249023
      ],
      [
        "▁returning",
        -10.094042778015137
      ],
      [
        "▁cent",
        -10.094121932983398
      ],
      [
        "▁sort",
        -10.094462394714355
      ],
      [
        "▁Tech",
        -10.094747543334961
      ],
      [
        "▁*",
        -10.094917297363281
      ],
      [
        "▁introduction",
        -10.094940185546875
      ],
      [
        "▁Ed",
        -10.095565795898438
      ],
      [
        "▁useful",
        -10.095587730407715
      ],
      [
        "In",
        -10.096343994140625
      ],
      [
        "▁rates",
        -10.096479415893555
      ],
      [
        "▁vocals",
        -10.097245216369629
      ],
      [
        "▁appropriate",
        -10.097945213317871
      ],
      [
        "▁application",
        -10.098368644714355
      ],
      [
        "▁Andrew",
        -10.098909378051758
      ],
      [
        "80",
        -10.09910774230957
      ],
      [
        "16",
        -10.099235534667969
      ],
      [
        "cha",
        -10.099461555480957
      ],
      [
        "▁franse",
        -10.09953784942627
      ],
      [
        "▁Ad",
        -10.099733352661133
      ],
      [
        "▁recognized",
        -10.099885940551758
      ],
      [
        "ble",
        -10.100164413452148
      ],
      [
        "▁watch",
        -10.100532531738281
      ],
      [
        "ev",
        -10.100847244262695
      ],
      [
        "▁artillery",
        -10.100885391235352
      ],
      [
        "▁steel",
        -10.100958824157715
      ],
      [
        "▁consists",
        -10.10105037689209
      ],
      [
        "▁waste",
        -10.101164817810059
      ],
      [
        "▁Out",
        -10.10135269165039
      ],
      [
        "▁measures",
        -10.101856231689453
      ],
      [
        "▁fellow",
        -10.10218620300293
      ],
      [
        "▁represent",
        -10.102601051330566
      ],
      [
        "▁innings",
        -10.102996826171875
      ],
      [
        "▁stock",
        -10.102997779846191
      ],
      [
        "▁sp",
        -10.103087425231934
      ],
      [
        "▁decades",
        -10.103192329406738
      ],
      [
        "▁consisted",
        -10.103410720825195
      ],
      [
        "▁Pi",
        -10.103537559509277
      ],
      [
        "ata",
        -10.103720664978027
      ],
      [
        "▁vision",
        -10.104293823242188
      ],
      [
        "▁chose",
        -10.104897499084473
      ],
      [
        "▁clean",
        -10.105167388916016
      ],
      [
        "▁seat",
        -10.10533618927002
      ],
      [
        "40",
        -10.1054048538208
      ],
      [
        "▁Pennsylvania",
        -10.105439186096191
      ],
      [
        "▁thousands",
        -10.10559368133545
      ],
      [
        "based",
        -10.105874061584473
      ],
      [
        "▁thinking",
        -10.106736183166504
      ],
      [
        "shi",
        -10.106855392456055
      ],
      [
        "wi",
        -10.107160568237305
      ],
      [
        "▁IMDb",
        -10.107295036315918
      ],
      [
        "▁Wilson",
        -10.107721328735352
      ],
      [
        "▁street",
        -10.107865333557129
      ],
      [
        "▁straight",
        -10.108080863952637
      ],
      [
        "org",
        -10.108122825622559
      ],
      [
        "ging",
        -10.108673095703125
      ],
      [
        "▁recommended",
        -10.109070777893066
      ],
      [
        "▁store",
        -10.109112739562988
      ],
      [
        "▁historian",
        -10.109315872192383
      ],
      [
        "▁domestic",
        -10.109421730041504
      ],
      [
        "▁opposition",
        -10.1098051071167
      ],
      [
        "ose",
        -10.110245704650879
      ],
      [
        "▁Upon",
        -10.110430717468262
      ],
      [
        "▁buy",
        -10.110898971557617
      ],
      [
        "▁communication",
        -10.111215591430664
      ],
      [
        "▁Duke",
        -10.111363410949707
      ],
      [
        "▁achieve",
        -10.112071990966797
      ],
      [
        "▁nominated",
        -10.112095832824707
      ],
      [
        "▁Pan",
        -10.112748146057129
      ],
      [
        "▁Columbia",
        -10.112882614135742
      ],
      [
        "mann",
        -10.11375904083252
      ],
      [
        "▁Four",
        -10.113940238952637
      ],
      [
        "ani",
        -10.114306449890137
      ],
      [
        "▁Book",
        -10.114567756652832
      ],
      [
        "▁conference",
        -10.114616394042969
      ],
      [
        "▁65",
        -10.114773750305176
      ],
      [
        "▁48",
        -10.114938735961914
      ],
      [
        "cy",
        -10.114964485168457
      ],
      [
        "▁context",
        -10.115066528320312
      ],
      [
        "▁Ab",
        -10.115959167480469
      ],
      [
        "▁collected",
        -10.116868019104004
      ],
      [
        "▁losing",
        -10.117112159729004
      ],
      [
        "▁hope",
        -10.117987632751465
      ],
      [
        "▁Fleet",
        -10.118212699890137
      ],
      [
        "▁Thus",
        -10.118520736694336
      ],
      [
        "▁raise",
        -10.120226860046387
      ],
      [
        "▁Up",
        -10.120786666870117
      ],
      [
        "▁internal",
        -10.121167182922363
      ],
      [
        "▁Ga",
        -10.12139892578125
      ],
      [
        "▁roof",
        -10.12154483795166
      ],
      [
        "▁dedicated",
        -10.122061729431152
      ],
      [
        "▁ka",
        -10.1221342086792
      ],
      [
        "▁600",
        -10.122428894042969
      ],
      [
        "▁freedom",
        -10.122586250305176
      ],
      [
        "▁regarded",
        -10.122647285461426
      ],
      [
        "▁fired",
        -10.12281608581543
      ],
      [
        "▁1968",
        -10.123412132263184
      ],
      [
        "▁Entertainment",
        -10.124299049377441
      ],
      [
        "▁herself",
        -10.124698638916016
      ],
      [
        "▁Ku",
        -10.124829292297363
      ],
      [
        "▁Taylor",
        -10.125271797180176
      ],
      [
        "▁55",
        -10.12653636932373
      ],
      [
        "▁Bond",
        -10.127034187316895
      ],
      [
        "▁cap",
        -10.127777099609375
      ],
      [
        "▁link",
        -10.127996444702148
      ],
      [
        "▁connection",
        -10.128122329711914
      ],
      [
        "▁Jersey",
        -10.128162384033203
      ],
      [
        "▁Only",
        -10.128181457519531
      ],
      [
        "▁exposure",
        -10.128595352172852
      ],
      [
        "-19",
        -10.12906551361084
      ],
      [
        "▁incident",
        -10.129888534545898
      ],
      [
        "▁operating",
        -10.130362510681152
      ],
      [
        "▁knew",
        -10.13037109375
      ],
      [
        "▁stations",
        -10.130392074584961
      ],
      [
        "▁Polish",
        -10.130403518676758
      ],
      [
        "▁passes",
        -10.130518913269043
      ],
      [
        "▁operated",
        -10.130847930908203
      ],
      [
        "▁label",
        -10.130929946899414
      ],
      [
        "▁DNA",
        -10.13116455078125
      ],
      [
        "▁1983",
        -10.131264686584473
      ],
      [
        "▁micro",
        -10.132000923156738
      ],
      [
        "▁aspects",
        -10.13211727142334
      ],
      [
        "▁flying",
        -10.132634162902832
      ],
      [
        "22",
        -10.132731437683105
      ],
      [
        "▁trip",
        -10.132848739624023
      ],
      [
        "▁w",
        -10.133296966552734
      ],
      [
        "▁identify",
        -10.13355541229248
      ],
      [
        "▁Women",
        -10.134797096252441
      ],
      [
        "▁debate",
        -10.134968757629395
      ],
      [
        "▁showing",
        -10.135393142700195
      ],
      [
        "▁council",
        -10.135671615600586
      ],
      [
        "▁branch",
        -10.135710716247559
      ],
      [
        "▁remove",
        -10.135841369628906
      ],
      [
        "▁Zèv",
        -10.136007308959961
      ],
      [
        "▁fim",
        -10.136109352111816
      ],
      [
        "▁1982",
        -10.136149406433105
      ],
      [
        "▁girl",
        -10.136406898498535
      ],
      [
        "▁increasingly",
        -10.136434555053711
      ],
      [
        "▁bird",
        -10.136734008789062
      ],
      [
        "▁Song",
        -10.137031555175781
      ],
      [
        "▁Operation",
        -10.137211799621582
      ],
      [
        "▁younger",
        -10.137253761291504
      ],
      [
        "med",
        -10.137434005737305
      ],
      [
        "í",
        -10.13768196105957
      ],
      [
        "▁menm",
        -10.137781143188477
      ],
      [
        "▁x",
        -10.13851261138916
      ],
      [
        "▁tests",
        -10.13875961303711
      ],
      [
        "▁kids",
        -10.14046573638916
      ],
      [
        "▁1979",
        -10.14120101928711
      ],
      [
        "▁standards",
        -10.141213417053223
      ],
      [
        "▁factor",
        -10.141261100769043
      ],
      [
        "▁expedition",
        -10.141374588012695
      ],
      [
        "▁Mu",
        -10.141804695129395
      ],
      [
        "ery",
        -10.141948699951172
      ],
      [
        "ola",
        -10.14217758178711
      ],
      [
        "▁Bre",
        -10.142443656921387
      ],
      [
        "▁assault",
        -10.142983436584473
      ],
      [
        "▁secondary",
        -10.143000602722168
      ],
      [
        "▁offensive",
        -10.143150329589844
      ],
      [
        "▁hundred",
        -10.144390106201172
      ],
      [
        "▁turns",
        -10.144514083862305
      ],
      [
        "▁granted",
        -10.144913673400879
      ],
      [
        "▁feeling",
        -10.145319938659668
      ],
      [
        "▁Cambridge",
        -10.145459175109863
      ],
      [
        "▁Bank",
        -10.145513534545898
      ],
      [
        "▁accept",
        -10.145540237426758
      ],
      [
        "fi",
        -10.145620346069336
      ],
      [
        "▁tower",
        -10.145977973937988
      ],
      [
        "▁Wall",
        -10.146016120910645
      ],
      [
        "▁vi",
        -10.146315574645996
      ],
      [
        "▁infection",
        -10.146327018737793
      ],
      [
        "▁Senate",
        -10.147056579589844
      ],
      [
        "▁Ri",
        -10.147065162658691
      ],
      [
        "▁versions",
        -10.148022651672363
      ],
      [
        "▁rear",
        -10.148382186889648
      ],
      [
        "▁steam",
        -10.149514198303223
      ],
      [
        "▁Bu",
        -10.14954662322998
      ],
      [
        "iz",
        -10.149724960327148
      ],
      [
        "▁1967",
        -10.150067329406738
      ],
      [
        "▁Castle",
        -10.150208473205566
      ],
      [
        "▁semi",
        -10.15035629272461
      ],
      [
        "▁else",
        -10.150553703308105
      ],
      [
        "▁opinion",
        -10.151439666748047
      ],
      [
        "▁depth",
        -10.151450157165527
      ],
      [
        "▁Scottish",
        -10.15167236328125
      ],
      [
        "▁reality",
        -10.151803970336914
      ],
      [
        "▁ocean",
        -10.151817321777344
      ],
      [
        "▁abandoned",
        -10.152115821838379
      ],
      [
        "▁solid",
        -10.152165412902832
      ],
      [
        "▁Human",
        -10.152968406677246
      ],
      [
        "▁Mon",
        -10.15306568145752
      ],
      [
        "eg",
        -10.153350830078125
      ],
      [
        "ants",
        -10.153363227844238
      ],
      [
        "▁Doctor",
        -10.15361213684082
      ],
      [
        "▁Project",
        -10.153730392456055
      ],
      [
        "isation",
        -10.15393352508545
      ],
      [
        "▁guest",
        -10.154092788696289
      ],
      [
        "▁Ya",
        -10.154297828674316
      ],
      [
        "▁39",
        -10.154789924621582
      ],
      [
        "▁garden",
        -10.155322074890137
      ],
      [
        "▁Education",
        -10.15550708770752
      ],
      [
        "▁letters",
        -10.155658721923828
      ],
      [
        "car",
        -10.155920028686523
      ],
      [
        "▁MD",
        -10.156599998474121
      ],
      [
        "our",
        -10.157136917114258
      ],
      [
        "ett",
        -10.157318115234375
      ],
      [
        "▁wounded",
        -10.157976150512695
      ],
      [
        "▁supporting",
        -10.158045768737793
      ],
      [
        "▁helps",
        -10.158945083618164
      ],
      [
        "▁Space",
        -10.160006523132324
      ],
      [
        "▁coal",
        -10.160785675048828
      ],
      [
        "▁Georgia",
        -10.161375045776367
      ],
      [
        "▁crossing",
        -10.161462783813477
      ],
      [
        "▁purchase",
        -10.161715507507324
      ],
      [
        "▁Instead",
        -10.161805152893066
      ],
      [
        "ps",
        -10.161903381347656
      ],
      [
        "▁caught",
        -10.162601470947266
      ],
      [
        "▁soundtrack",
        -10.163132667541504
      ],
      [
        "▁journey",
        -10.163426399230957
      ],
      [
        "tion",
        -10.164467811584473
      ],
      [
        "▁interested",
        -10.164679527282715
      ],
      [
        "▁reign",
        -10.164793014526367
      ],
      [
        "▁Joe",
        -10.165176391601562
      ],
      [
        "▁adding",
        -10.165258407592773
      ],
      [
        "▁ready",
        -10.165322303771973
      ],
      [
        "▁warm",
        -10.16543960571289
      ],
      [
        "▁64",
        -10.165548324584961
      ],
      [
        "▁worth",
        -10.165986061096191
      ],
      [
        "▁atmosphere",
        -10.165995597839355
      ],
      [
        "ians",
        -10.166202545166016
      ],
      [
        "▁concerns",
        -10.166341781616211
      ],
      [
        "▁2017",
        -10.166444778442383
      ],
      [
        "▁software",
        -10.166690826416016
      ],
      [
        "Z",
        -10.16675090789795
      ],
      [
        "▁huge",
        -10.167487144470215
      ],
      [
        "▁disc",
        -10.16819953918457
      ],
      [
        "▁replace",
        -10.168608665466309
      ],
      [
        "▁fiction",
        -10.16861629486084
      ],
      [
        "▁classes",
        -10.16896915435791
      ],
      [
        "▁acquired",
        -10.169475555419922
      ],
      [
        "▁instance",
        -10.169842720031738
      ],
      [
        "▁van",
        -10.169960975646973
      ],
      [
        "ura",
        -10.170530319213867
      ],
      [
        "▁ta",
        -10.170641899108887
      ],
      [
        "▁armed",
        -10.171517372131348
      ],
      [
        "▁expanded",
        -10.171666145324707
      ],
      [
        "▁Ja",
        -10.172057151794434
      ],
      [
        "water",
        -10.172539710998535
      ],
      [
        "▁platform",
        -10.172575950622559
      ],
      [
        "▁decline",
        -10.172884941101074
      ],
      [
        "▁intensity",
        -10.172914505004883
      ],
      [
        "back",
        -10.172938346862793
      ],
      [
        "▁Point",
        -10.173783302307129
      ],
      [
        "▁calls",
        -10.173938751220703
      ],
      [
        "ep",
        -10.174217224121094
      ],
      [
        "▁1972",
        -10.174394607543945
      ],
      [
        "▁criticized",
        -10.174722671508789
      ],
      [
        "▁sugar",
        -10.174845695495605
      ],
      [
        "▁Han",
        -10.176162719726562
      ],
      [
        "▁transition",
        -10.176323890686035
      ],
      [
        "▁distinct",
        -10.176390647888184
      ],
      [
        "▁specifically",
        -10.176899909973145
      ],
      [
        "▁42",
        -10.177064895629883
      ],
      [
        "▁fought",
        -10.177972793579102
      ],
      [
        "▁Shi",
        -10.178122520446777
      ],
      [
        "▁locations",
        -10.178179740905762
      ],
      [
        "▁citizens",
        -10.178914070129395
      ],
      [
        "▁Mike",
        -10.178956985473633
      ],
      [
        "▁interchange",
        -10.179197311401367
      ],
      [
        "▁47",
        -10.180599212646484
      ],
      [
        "▁requires",
        -10.18090534210205
      ],
      [
        "▁narrow",
        -10.181048393249512
      ],
      [
        "▁Festival",
        -10.181185722351074
      ],
      [
        "▁vocal",
        -10.181320190429688
      ],
      [
        "▁participated",
        -10.181397438049316
      ],
      [
        "▁1969",
        -10.181546211242676
      ],
      [
        "val",
        -10.18160343170166
      ],
      [
        "▁Francisco",
        -10.181770324707031
      ],
      [
        "q",
        -10.181802749633789
      ],
      [
        "▁finish",
        -10.182218551635742
      ],
      [
        "▁Ju",
        -10.18253231048584
      ],
      [
        "▁41",
        -10.183259963989258
      ],
      [
        "pt",
        -10.183268547058105
      ],
      [
        "▁survey",
        -10.183738708496094
      ],
      [
        "▁studied",
        -10.185735702514648
      ],
      [
        "▁teachers",
        -10.186314582824707
      ],
      [
        "▁Mel",
        -10.186347007751465
      ],
      [
        "▁mile",
        -10.186542510986328
      ],
      [
        "▁receiving",
        -10.18658447265625
      ],
      [
        "▁Homer",
        -10.186676025390625
      ],
      [
        "▁Wa",
        -10.186731338500977
      ],
      [
        "▁criticism",
        -10.186773300170898
      ],
      [
        "▁session",
        -10.187478065490723
      ],
      [
        "▁Bob",
        -10.189263343811035
      ],
      [
        "▁balance",
        -10.190317153930664
      ],
      [
        "gar",
        -10.191427230834961
      ],
      [
        "▁fear",
        -10.19200325012207
      ],
      [
        "▁spot",
        -10.19216537475586
      ],
      [
        "▁Director",
        -10.19217300415039
      ],
      [
        "▁secure",
        -10.192557334899902
      ],
      [
        "▁producers",
        -10.192594528198242
      ],
      [
        "▁Meanwhile",
        -10.193181037902832
      ],
      [
        "▁farm",
        -10.19350528717041
      ],
      [
        "▁Harry",
        -10.193906784057617
      ],
      [
        "▁drawn",
        -10.193938255310059
      ],
      [
        "▁beat",
        -10.194199562072754
      ],
      [
        "▁shall",
        -10.194336891174316
      ],
      [
        "▁debuted",
        -10.1944580078125
      ],
      [
        "▁roads",
        -10.194613456726074
      ],
      [
        "▁decade",
        -10.194872856140137
      ],
      [
        "▁treated",
        -10.19500732421875
      ],
      [
        "▁1971",
        -10.195169448852539
      ],
      [
        "▁des",
        -10.195791244506836
      ],
      [
        "▁establish",
        -10.196331024169922
      ],
      [
        "▁museum",
        -10.196611404418945
      ],
      [
        "▁contributed",
        -10.196621894836426
      ],
      [
        "▁prison",
        -10.197084426879883
      ],
      [
        "▁die",
        -10.197236061096191
      ],
      [
        "▁fresh",
        -10.197254180908203
      ],
      [
        "▁1964",
        -10.197381973266602
      ],
      [
        "▁1975",
        -10.197395324707031
      ],
      [
        "▁cycle",
        -10.197694778442383
      ],
      [
        "▁grade",
        -10.19851016998291
      ],
      [
        "▁Cal",
        -10.199014663696289
      ],
      [
        "mate",
        -10.199227333068848
      ],
      [
        "▁consecutive",
        -10.199505805969238
      ],
      [
        "▁tools",
        -10.199837684631348
      ],
      [
        "▁format",
        -10.199894905090332
[...]
